<unk>	0
<s>	0
</s>	0
▁ب	-0
▁ا	-1
▁د	-2
▁ک	-3
ان	-4
▁م	-5
▁ن	-6
▁ر	-7
▁آ	-8
▁ز	-9
▁گ	-10
ست	-11
▁از	-12
▁ت	-13
▁و	-14
▁خ	-15
▁ش	-16
▁چ	-17
▁س	-18
ار	-19
ین	-20
▁که	-21
▁ه	-22
ند	-23
رد	-24
ید	-25
▁ج	-26
▁در	-27
▁پ	-28
▁ی	-29
فت	-30
ود	-31
▁تو	-32
▁با	-33
وی	-34
▁بر	-35
▁من	-36
ام	-37
ون	-38
ای	-39
▁به	-40
▁را	-41
یر	-42
▁آن	-43
اد	-44
▁ع	-45
▁ف	-46
▁دل	-47
اه	-48
▁هم	-49
شت	-50
گر	-51
▁است	-52
ال	-53
▁غ	-54
▁می	-55
▁ح	-56
را	-57
وز	-58
▁گر	-59
▁ای	-60
▁سر	-61
▁چو	-62
وش	-63
▁ق	-64
▁نه	-65
▁ص	-66
▁بی	-67
▁نی	-68
▁چون	-69
▁این	-70
▁تا	-71
▁گل	-72
خت	-73
ور	-74
▁شد	-75
▁ل	-76
▁ام	-77
شم	-78
▁گفت	-79
▁بود	-80
مان	-81
وان	-82
ذر	-83
▁هر	-84
▁چه	-85
▁کرد	-86
▁او	-87
▁روز	-88
▁دو	-89
▁پی	-90
از	-91
▁کن	-92
مد	-93
شان	-94
▁کس	-95
هر	-96
▁شب	-97
اری	-98
▁جان	-99
▁یک	-100
▁خو	-101
می	-102
ری	-103
لی	-104
▁آذر	-105
بان	-106
یده	-107
شک	-108
نگ	-109
رم	-110
اب	-111
▁بد	-112
اک	-113
▁ط	-114
▁بس	-115
یم	-116
▁خود	-117
▁شک	-118
ده	-119
▁فر	-120
▁پر	-121
▁بگ	-122
▁نیست	-123
سته	-124
هان	-125
▁آمد	-126
▁کش	-127
▁رفت	-128
▁ند	-129
ستان	-130
▁مرا	-131
▁نب	-132
▁چشم	-133
▁همه	-134
بر	-135
▁مح	-136
▁اف	-137
▁مر	-138
نج	-139
نه	-140
▁غم	-141
▁نگ	-142
اف	-143
▁ما	-144
وس	-145
▁خون	-146
شق	-147
من	-148
انی	-149
▁نش	-150
یز	-151
ارم	-152
ایی	-153
▁اگر	-154
▁بل	-155
▁بین	-156
▁کز	-157
▁دست	-158
▁روی	-159
اند	-160
نده	-161
▁غیر	-162
فا	-163
▁نا	-164
▁دید	-165
جا	-166
▁دگر	-167
▁گرد	-168
اده	-169
▁باد	-170
▁لب	-171
اشت	-172
▁آه	-173
▁ده	-174
▁یا	-175
▁باغ	-176
امی	-177
رده	-178
له	-179
که	-180
▁عشق	-181
▁بخ	-182
▁یار	-183
یش	-184
▁نام	-185
سر	-186
یان	-187
شته	-188
▁باز	-189
▁کار	-190
▁جهان	-191
کن	-192
▁دی	-193
اش	-194
▁کرده	-195
▁آب	-196
فس	-197
▁تر	-198
▁کو	-199
ارد	-200
▁ره	-201
▁یکی	-202
ینه	-203
▁رس	-204
رف	-205
اله	-206
▁آو	-207
▁درد	-208
▁کند	-209
تش	-210
نی	-211
▁کسی	-212
یدم	-213
▁بت	-214
انه	-215
▁آش	-216
▁بب	-217
▁بلب	-218
▁خاک	-219
▁مرغ	-220
فر	-221
ایت	-222
ستم	-223
▁خل	-224
▁شن	-225
▁راه	-226
قی	-227
اهی	-228
▁خوش	-229
▁داد	-230
▁گوی	-231
▁آر	-232
▁دم	-233
▁دام	-234
هل	-235
▁مرد	-236
لک	-237
▁صب	-238
▁اند	-239
▁برد	-240
▁نمی	-241
لم	-242
▁بن	-243
▁رو	-244
▁کنم	-245
ات	-246
دم	-247
▁بک	-248
بی	-249
دا	-250
▁کوی	-251
فته	-252
خته	-253
▁بز	-254
▁آتش	-255
▁ماند	-256
▁نو	-257
اج	-258
وه	-259
▁خواه	-260
▁گوش	-261
▁سا	-262
▁افت	-263
نان	-264
▁پا	-265
▁شاه	-266
گان	-267
▁جز	-268
▁رخ	-269
▁شه	-270
▁سرو	-271
▁مهر	-272
زار	-273
▁بج	-274
▁مشک	-275
▁کشت	-276
▁زبان	-277
چه	-278
▁شم	-279
▁پای	-280
▁کی	-281
▁باش	-282
▁دوست	-283
دی	-284
سم	-285
یغ	-286
▁نک	-287
▁گو	-288
▁مگر	-289
▁چرا	-290
▁خط	-291
▁مه	-292
▁سوی	-293
▁پیر	-294
اص	-295
سی	-296
▁دیده	-297
ها	-298
▁ال	-299
▁صید	-300
▁گذ	-301
▁ازین	-302
▁گفتم	-303
یه	-304
الم	-305
▁سپ	-306
▁دلم	-307
اخ	-308
اغ	-309
▁آید	-310
نم	-311
انم	-312
روز	-313
▁سو	-314
▁شود	-315
بت	-316
وت	-317
ویش	-318
شب	-319
شن	-320
▁کم	-321
▁وفا	-322
▁پیش	-323
▁داشت	-324
در	-325
▁مج	-326
▁شهر	-327
▁ناله	-328
گه	-329
▁آس	-330
▁نخ	-331
▁نظ	-332
▁یی	-333
▁قفس	-334
▁هست	-335
▁ولی	-336
▁گرفت	-337
یل	-338
ایه	-339
▁خر	-340
▁بست	-341
▁ماه	-342
▁بلبل	-343
▁نبود	-344
است	-345
▁زن	-346
▁ها	-347
توان	-348
▁دور	-349
مر	-350
▁ری	-351
▁عج	-352
▁حرف	-353
▁دشم	-354
▁نامه	-355
نت	-356
وم	-357
▁کا	-358
▁دارم	-359
▁بهر	-360
▁امشب	-361
قت	-362
غان	-363
نین	-364
یار	-365
▁کآ	-366
یند	-367
▁تیر	-368
▁نشان	-369
حر	-370
طر	-371
وق	-372
گی	-373
افل	-374
گاه	-375
▁آز	-376
▁تن	-377
▁وص	-378
▁گی	-379
▁آنکه	-380
▁دارد	-381
▁همان	-382
به	-383
اید	-384
▁ار	-385
▁فت	-386
▁پس	-387
ندان	-388
▁یاد	-389
▁آنجا	-390
▁سینه	-391
▁آستان	-392
مین	-393
ویم	-394
▁فرا	-395
▁دانی	-396
▁میان	-397
زد	-398
قه	-399
مت	-400
اره	-401
وست	-402
▁بپ	-403
▁غل	-404
▁وز	-405
▁وی	-406
▁تنگ	-407
▁شیر	-408
زه	-409
نش	-410
گند	-411
▁لی	-412
▁نر	-413
فرین	-414
▁برآ	-415
▁بیم	-416
▁جام	-417
▁زین	-418
جر	-419
دل	-420
مه	-421
ادی	-422
یرم	-423
▁زد	-424
▁سخ	-425
▁اهل	-426
▁سرا	-427
▁گشت	-428
▁آورد	-429
▁بسته	-430
▁جوان	-431
▁روان	-432
▁روزی	-433
▁ظ	-434
ارش	-435
▁اس	-436
▁مع	-437
▁نق	-438
▁نم	-439
▁ور	-440
▁اما	-441
▁بند	-442
▁تیغ	-443
▁فلک	-444
▁ناز	-445
▁آفرین	-446
▁امروز	-447
امت	-448
▁بم	-449
▁رب	-450
▁حال	-451
▁خرا	-452
▁صبح	-453
▁چمن	-454
▁کجا	-455
▁نباش	-456
▁آشیان	-457
یب	-458
▁جو	-459
▁سب	-460
▁کف	-461
▁برخ	-462
▁بیر	-463
▁رنج	-464
▁سایه	-465
▁مردم	-466
▁نتوان	-467
▁آفرینش	-468
شر	-469
کش	-470
یچ	-471
یدی	-472
▁آرز	-473
▁غافل	-474
▁نهان	-475
▁زر	-476
▁سود	-477
▁سوز	-478
▁شاخ	-479
▁مست	-480
▁دیگر	-481
▁کنون	-482
هی	-483
یزد	-484
یشه	-485
▁بال	-486
▁بزم	-487
▁بوی	-488
▁جای	-489
▁خدا	-490
▁دوش	-491
▁رشک	-492
▁ستم	-493
▁صبا	-494
▁هیچ	-495
▁باشد	-496
▁گفتی	-497
▁نباشد	-498
گار	-499
▁حس	-500
▁مس	-501
ماند	-502
▁بسر	-503
▁بمن	-504
▁خلق	-505
▁کام	-506
▁بیرون	-507
اس	-508
اق	-509
الی	-510
کان	-511
▁بو	-512
▁صد	-513
▁مد	-514
انده	-515
▁شده	-516
▁نگر	-517
▁نیک	-518
▁بینم	-519
▁هزار	-520
▁تم	-521
▁جا	-522
▁زل	-523
▁قص	-524
▁مب	-525
▁بگو	-526
▁جفا	-527
▁دهد	-528
▁شرم	-529
▁نظر	-530
▁هجر	-531
▁پرو	-532
▁کشد	-533
▁گاه	-534
▁زمان	-535
▁کشته	-536
▁گویم	-537
عت	-538
مل	-539
ردم	-540
▁آی	-541
▁جم	-542
▁سل	-543
▁افس	-544
▁بیا	-545
▁بید	-546
▁شکر	-547
▁عمر	-548
▁نفس	-549
▁وگر	-550
▁چند	-551
▁آنچه	-552
▁امید	-553
▁خوان	-554
▁زمین	-555
▁چنین	-556
▁آسمان	-557
خر	-558
زل	-559
چو	-560
ادم	-561
ورش	-562
▁اش	-563
▁ان	-564
▁قد	-565
▁ابر	-566
▁رود	-567
▁سحر	-568
▁فرد	-569
▁فرو	-570
لب	-571
کر	-572
وری	-573
▁رح	-574
▁بخت	-575
▁راز	-576
▁رقی	-577
▁زان	-578
▁زند	-579
▁پاک	-580
▁رفته	-581
▁شکوه	-582
▁فشان	-583
▁کردی	-584
▁نماند	-585
حت	-586
ندم	-587
کنم	-588
▁حی	-589
▁لط	-590
امان	-591
کنون	-592
▁سنگ	-593
▁شبی	-594
▁نشن	-595
▁پهل	-596
▁همچو	-597
▁اکنون	-598
▁مانده	-599
آن	-600
رس	-601
فی	-602
سرت	-603
فای	-604
▁سی	-605
یران	-606
▁بسی	-607
▁زیر	-608
▁وصل	-609
▁پند	-610
▁گله	-611
▁آواز	-612
▁باید	-613
▁ببین	-614
▁خنده	-615
▁دشمن	-616
▁فغان	-617
▁محمد	-618
▁مشکل	-619
▁گمان	-620
▁یاری	-621
▁خواهد	-622
▁شنیدم	-623
▁شیرین	-624
تر	-625
▁ذ	-626
یاد	-627
یری	-628
یست	-629
▁حل	-630
▁نس	-631
▁نغ	-632
▁اخت	-633
▁بار	-634
▁بام	-635
▁برگ	-636
▁بگذ	-637
▁خسر	-638
▁خوی	-639
▁روش	-640
▁ساز	-641
▁سخن	-642
▁شمع	-643
▁عجب	-644
▁قاص	-645
▁ملک	-646
▁بنده	-647
▁حسرت	-648
▁سپهر	-649
▁ندارد	-650
▁نشسته	-651
زون	-652
▁دع	-653
▁ازو	-654
▁جور	-655
▁خار	-656
▁دلت	-657
▁نیز	-658
▁همی	-659
▁کنی	-660
▁گنج	-661
▁اندر	-662
▁بینی	-663
▁زنده	-664
ره	-665
لت	-666
هد	-667
اشق	-668
ویی	-669
▁اب	-670
▁خم	-671
▁گش	-672
▁حرم	-673
▁خام	-674
▁دان	-675
▁منت	-676
▁مکن	-677
▁خانه	-678
▁داری	-679
▁دیدم	-680
▁مباد	-681
▁روزگار	-682
تو	-683
ضر	-684
وف	-685
شتر	-686
وشم	-687
▁بش	-688
▁سگ	-689
▁بیش	-690
▁دار	-691
▁رنگ	-692
▁زلف	-693
▁لیک	-694
▁ترسم	-695
▁خویش	-696
▁دامن	-697
▁دانم	-698
▁پرده	-699
▁گشته	-700
▁گوشه	-701
▁باغبان	-702
اع	-703
تم	-704
حی	-705
لس	-706
هم	-707
وده	-708
گفت	-709
▁بص	-710
▁تل	-711
▁گم	-712
▁آری	-713
▁بدل	-714
▁بیگ	-715
▁داغ	-716
▁ریز	-717
▁طرف	-718
▁میک	-719
▁وقت	-720
▁پاس	-721
▁بگرد	-722
▁خواج	-723
▁درخت	-724
▁گریه	-725
▁گیرد	-726
▁شکایت	-727
▁دوستان	-728
▁ض	-729
اتف	-730
ناه	-731
ندی	-732
واه	-733
▁بچ	-734
▁خد	-735
▁عق	-736
▁مگ	-737
▁هو	-738
▁آخر	-739
▁رخت	-740
▁سیم	-741
▁لطف	-742
▁موی	-743
▁میر	-744
▁کرم	-745
▁گلی	-746
▁آمده	-747
▁داده	-748
▁ریخت	-749
▁عاشق	-750
▁فردا	-751
▁هاتف	-752
▁چنان	-753
کی	-754
یزم	-755
▁بع	-756
▁ست	-757
▁مش	-758
دایی	-759
▁آشن	-760
▁اشک	-761
▁بنش	-762
▁تنه	-763
▁تهی	-764
▁خبر	-765
▁سال	-766
▁شوق	-767
▁شوی	-768
▁فری	-769
▁نگه	-770
▁پدر	-771
▁باشی	-772
▁بیند	-773
▁خراب	-774
▁دریغ	-775
▁درین	-776
▁عالم	-777
▁فراق	-778
▁کشتی	-779
▁گلشن	-780
▁گویی	-781
▁افتاد	-782
▁خواهم	-783
▁آرزوست	-784
ثر	-785
عل	-786
نب	-787
ستی	-788
عده	-789
یدن	-790
▁بح	-791
▁خج	-792
▁اول	-793
▁دیر	-794
▁نال	-795
▁نقش	-796
▁چین	-797
▁افتد	-798
▁بودم	-799
▁سیاه	-800
▁لاله	-801
▁منزل	-802
▁نشین	-803
▁نکند	-804
حب	-805
قص	-806
ایش	-807
بار	-808
طان	-809
▁بغ	-810
▁حر	-811
▁صف	-812
اخته	-813
▁جدا	-814
▁جود	-815
▁خضر	-816
▁دین	-817
▁زده	-818
▁زهر	-819
▁ظلم	-820
▁نوش	-821
▁نگذ	-822
▁برده	-823
▁تازه	-824
▁تنها	-825
▁رقیب	-826
▁روشن	-827
▁صیاد	-828
▁نغمه	-829
▁کویت	-830
▁آشفته	-831
▁خواجه	-832
تی	-833
عی	-834
ول	-835
تاب	-836
وار	-837
▁عن	-838
▁غر	-839
▁مص	-840
▁کل	-841
اریخ	-842
▁آرم	-843
▁آگه	-844
▁تلخ	-845
▁جگر	-846
▁خاص	-847
▁شاد	-848
▁میخ	-849
▁کنج	-850
▁گرم	-851
▁بدست	-852
▁بهار	-853
▁جویم	-854
▁خورد	-855
▁خورش	-856
▁ساقی	-857
▁فگند	-858
▁ماهی	-859
▁اینکه	-860
▁بنشین	-861
▁ندیدم	-862
▁یاران	-863
زن	-864
گز	-865
بری	-866
زان	-867
لیل	-868
گون	-869
▁آغ	-870
▁شی	-871
▁کب	-872
فتاب	-873
▁بآن	-874
▁دلش	-875
▁قدر	-876
▁پرس	-877
▁کاش	-878
▁باشم	-879
▁بهشت	-880
▁حلقه	-881
▁شکست	-882
▁قاصد	-883
▁وعده	-884
▁کاین	-885
▁کردم	-886
▁کشید	-887
▁گذشت	-888
▁گردد	-889
▁گوهر	-890
▁گوید	-891
▁گیرم	-892
▁درویش	-893
▁رسیده	-894
▁افتاده	-895
▁بوستان	-896
او	-897
خم	-898
رو	-899
وک	-900
ارت	-901
ویت	-902
▁آم	-903
▁اغ	-904
▁جل	-905
▁حج	-906
▁خا	-907
▁قم	-908
▁مغ	-909
▁نع	-910
▁بدگ	-911
▁بشک	-912
▁بوس	-913
▁جست	-914
▁دهی	-915
▁صبر	-916
▁طلب	-917
▁عدل	-918
▁فکر	-919
▁نیم	-920
▁هوس	-921
▁پوش	-922
▁گیر	-923
▁اختر	-924
▁بتان	-925
▁برون	-926
▁توان	-927
▁جامی	-928
▁خسرو	-929
▁عجبی	-930
▁چکنم	-931
▁چیست	-932
▁آفتاب	-933
▁اغیار	-934
▁تاریخ	-935
مش	-936
ادر	-937
وال	-938
کند	-939
کین	-940
▁اح	-941
▁اد	-942
▁شع	-943
▁صح	-944
▁مپ	-945
▁گز	-946
انند	-947
▁انج	-948
▁بخش	-949
▁تاب	-950
▁دری	-951
▁مرگ	-952
▁منع	-953
▁نور	-954
▁گذر	-955
▁آرند	-956
▁اوست	-957
▁باین	-958
▁بلند	-959
▁توام	-960
▁جنان	-961
▁خواب	-962
▁عیان	-963
▁محبت	-964
▁محمل	-965
▁نکرد	-966
▁نگاه	-967
▁کشتن	-968
▁افسوس	-969
▁بلبلی	-970
▁جانان	-971
▁برخیزم	-972
▁برداشت	-973
▁مهربان	-974
رخ	-975
ضا	-976
ضه	-977
وا	-978
کم	-979
سان	-980
نون	-981
وزه	-982
▁اص	-983
▁بف	-984
▁سف	-985
▁قت	-986
▁قی	-987
▁مخ	-988
▁نن	-989
ارند	-990
▁برم	-991
▁بره	-992
▁رسد	-993
▁روم	-994
▁زود	-995
▁صاف	-996
▁عهد	-997
▁مید	-998
▁کشم	-999
▁کشی	-1000
▁بجان	-1001
▁خلوت	-1002
▁رسید	-1003
▁غیرت	-1004
▁لیلی	-1005
▁مجلس	-1006
▁کاری	-1007
▁گردن	-1008
▁افروز	-1009
▁ایشان	-1010
▁بگذشت	-1011
▁خواست	-1012
▁مرغان	-1013
▁مشکین	-1014
▁پاسبان	-1015
▁کاروان	-1016
▁بگردانی	-1017
زم	-1018
فه	-1019
اخت	-1020
ادش	-1021
حان	-1022
ریم	-1023
ساز	-1024
عبه	-1025
▁ات	-1026
▁شو	-1027
▁غن	-1028
▁قر	-1029
▁لو	-1030
▁یع	-1031
گنده	-1032
▁انت	-1033
▁بخل	-1034
▁حیف	-1035
▁دود	-1036
▁زار	-1037
▁زاه	-1038
▁سخت	-1039
▁سیه	-1040
▁شان	-1041
▁عذر	-1042
▁لعل	-1043
▁نشد	-1044
▁های	-1045
▁گهر	-1046
▁آمدی	-1047
▁بادا	-1048
▁تماش	-1049
▁تیره	-1050
▁جانم	-1051
▁جفای	-1052
▁خاطر	-1053
▁دیدی	-1054
▁راست	-1055
▁رشته	-1056
▁سبزه	-1057
▁سوخت	-1058
▁شاید	-1059
▁فرست	-1060
▁محشر	-1061
▁ناید	-1062
▁نشست	-1063
▁ورنه	-1064
▁پهلو	-1065
▁چراغ	-1066
▁چشمه	-1067
▁کشان	-1068
▁گرچه	-1069
▁گفتن	-1070
▁خوشتر	-1071
▁سلطان	-1072
▁ندیده	-1073
▁خورشید	-1074
▁نگذاشت	-1075
صت	-1076
قب	-1077
وغ	-1078
ادت	-1079
ایق	-1080
راب	-1081
▁تب	-1082
▁تح	-1083
▁تش	-1084
▁حق	-1085
▁طب	-1086
▁مل	-1087
▁نز	-1088
▁پن	-1089
▁اثر	-1090
▁ادب	-1091
▁انگ	-1092
▁بزر	-1093
▁بیخ	-1094
▁تخت	-1095
▁حسن	-1096
▁خان	-1097
▁دشت	-1098
▁رام	-1099
▁رحم	-1100
▁زاغ	-1101
▁منش	-1102
▁مین	-1103
▁میگ	-1104
▁ناخ	-1105
▁گنه	-1106
▁آزاد	-1107
▁بباغ	-1108
▁برای	-1109
▁حرفی	-1110
▁دمید	-1111
▁شگفت	-1112
▁نگفت	-1113
▁هرگز	-1114
▁کعبه	-1115
▁کمان	-1116
▁کیست	-1117
▁گفتا	-1118
▁گناه	-1119
▁یافت	-1120
▁آورده	-1121
▁افزون	-1122
▁برآید	-1123
▁بستند	-1124
▁دامان	-1125
▁درمان	-1126
▁نبیند	-1127
▁نداشت	-1128
▁وگرنه	-1129
▁گردون	-1130
▁بدگمان	-1131
قر	-1132
قم	-1133
کس	-1134
یت	-1135
▁ث	-1136
احب	-1137
بیب	-1138
دان	-1139
دمت	-1140
راز	-1141
ردی	-1142
ریف	-1143
سند	-1144
مند	-1145
هاد	-1146
وسف	-1147
▁آد	-1148
▁آل	-1149
▁اج	-1150
▁بط	-1151
▁حک	-1152
▁خس	-1153
▁دا	-1154
▁سج	-1155
▁عر	-1156
▁قب	-1157
▁مژ	-1158
▁کج	-1159
وانه	-1160
▁بده	-1161
▁بشن	-1162
▁خرم	-1163
▁دعا	-1164
▁نهد	-1165
▁پری	-1166
▁پسر	-1167
▁پیغ	-1168
▁چار	-1169
▁چاک	-1170
▁کان	-1171
▁گلش	-1172
▁آشنا	-1173
▁ایزد	-1174
▁باده	-1175
▁بدام	-1176
▁بیتو	-1177
▁خالی	-1178
▁دانه	-1179
▁دیدن	-1180
▁زاده	-1181
▁زاری	-1182
▁ساخت	-1183
▁شهید	-1184
▁فروز	-1185
▁نبرد	-1186
▁نخست	-1187
▁نسیم	-1188
▁نهاد	-1189
▁نیمی	-1190
▁چشمم	-1191
▁گردم	-1192
▁گریم	-1193
▁گفتش	-1194
▁آیینه	-1195
▁افگند	-1196
▁جدایی	-1197
▁خواند	-1198
▁ریخته	-1199
▁فریاد	-1200
▁پهلوی	-1201
▁پیمان	-1202
▁کشیده	-1203
▁گلستان	-1204
جد	-1205
جی	-1206
سد	-1207
سل	-1208
الت	-1209
بین	-1210
سار	-1211
های	-1212
گری	-1213
▁آت	-1214
▁زم	-1215
▁شر	-1216
▁عی	-1217
▁مق	-1218
▁هن	-1219
▁گد	-1220
▁آرا	-1221
▁آوی	-1222
▁بتو	-1223
▁بنا	-1224
▁بگل	-1225
▁بیک	-1226
▁تار	-1227
▁خفت	-1228
▁خور	-1229
▁خیر	-1230
▁روح	-1231
▁زخم	-1232
▁زنی	-1233
▁سلی	-1234
▁غمت	-1235
▁لشک	-1236
▁نخل	-1237
▁هما	-1238
▁وای	-1239
▁پشت	-1240
▁چنگ	-1241
▁گری	-1242
▁آباد	-1243
▁آغاز	-1244
▁آموز	-1245
▁بخاک	-1246
▁بخود	-1247
▁بودش	-1248
▁بچشم	-1249
▁بگفت	-1250
▁تمام	-1251
▁خدای	-1252
▁خونم	-1253
▁خیزد	-1254
▁دیار	-1255
▁ساده	-1256
▁شنفت	-1257
▁صاحب	-1258
▁طبیب	-1259
▁فزون	-1260
▁مرغی	-1261
▁نالم	-1262
▁پوست	-1263
▁کنار	-1264
▁گیتی	-1265
▁انجمن	-1266
▁خندان	-1267
▁سراسر	-1268
▁صباحی	-1269
▁نخواه	-1270
▁ندانم	-1271
▁پنهان	-1272
▁پیکان	-1273
▁گفتمش	-1274
▁خواهیم	-1275
▁دیگران	-1276
▁غلامان	-1277
▁ناتوان	-1278
خش	-1279
شی	-1280
صر	-1281
ضی	-1282
عه	-1283
لا	-1284
گس	-1285
ایل	-1286
لهی	-1287
وشی	-1288
▁تأ	-1289
▁تک	-1290
▁حم	-1291
▁عب	-1292
▁آهی	-1293
▁بان	-1294
▁برو	-1295
▁بهم	-1296
▁بکف	-1297
▁ترک	-1298
▁حاص	-1299
▁حشر	-1300
▁خند	-1301
▁خیز	-1302
▁خیل	-1303
▁رخش	-1304
▁رسم	-1305
▁زیب	-1306
▁سرد	-1307
▁سفر	-1308
▁شیخ	-1309
▁عار	-1310
▁عید	-1311
▁فتد	-1312
▁فرخ	-1313
▁قصر	-1314
▁قلم	-1315
▁مطر	-1316
▁وین	-1317
▁پید	-1318
▁چرخ	-1319
▁کاو	-1320
▁کای	-1321
▁کین	-1322
▁گرت	-1323
▁گرگ	-1324
▁یاب	-1325
▁آرام	-1326
▁بروز	-1327
▁بوده	-1328
▁بیضه	-1329
▁جواب	-1330
▁خامه	-1331
▁خوشه	-1332
▁رفتم	-1333
▁رفتن	-1334
▁رفتی	-1335
▁سرای	-1336
▁شنید	-1337
▁عنبر	-1338
▁غنچه	-1339
▁فتاد	-1340
▁مجید	-1341
▁مپرس	-1342
▁ناوک	-1343
▁نیام	-1344
▁پرست	-1345
▁یوسف	-1346
▁بودند	-1347
▁دادند	-1348
▁دندان	-1349
▁فرهاد	-1350
▁مجنون	-1351
▁مسکین	-1352
▁پرواز	-1353
▁پرورد	-1354
▁کجایی	-1355
▁گرفته	-1356
▁اندیشه	-1357
▁سلیمان	-1358
▁پنداری	-1359
▁گریبان	-1360
رب	-1361
زی	-1362
سا	-1363
غر	-1364
فل	-1365
یی	-1366
اقت	-1367
انش	-1368
جاج	-1369
حاب	-1370
دار	-1371
ران	-1372
طره	-1373
فتر	-1374
قار	-1375
نگی	-1376
ورد	-1377
▁جر	-1378
▁جغ	-1379
▁رم	-1380
▁طع	-1381
▁طم	-1382
▁عذ	-1383
▁فص	-1384
▁مت	-1385
▁مو	-1386
▁وا	-1387
▁وف	-1388
▁کد	-1389
سیمی	-1390
نجیر	-1391
وران	-1392
گاهی	-1393
گونه	-1394
▁بفر	-1395
▁بکش	-1396
▁بگر	-1397
▁جرم	-1398
▁جنگ	-1399
▁حیر	-1400
▁خلد	-1401
▁خوا	-1402
▁درت	-1403
▁دزد	-1404
▁زمن	-1405
▁سرم	-1406
▁شدم	-1407
▁عام	-1408
▁غری	-1409
▁غمی	-1410
▁غوغ	-1411
▁فرز	-1412
▁قدم	-1413
▁محت	-1414
▁منم	-1415
▁ناک	-1416
▁نده	-1417
▁ننش	-1418
▁پیو	-1419
▁کاف	-1420
▁کوه	-1421
▁آزار	-1422
▁آمدش	-1423
▁انتظ	-1424
▁ایاز	-1425
▁اینک	-1426
▁برند	-1427
▁بسوی	-1428
▁جامه	-1429
▁حاصل	-1430
▁حسین	-1431
▁خدمت	-1432
▁خروش	-1433
▁خزان	-1434
▁خسته	-1435
▁خلقی	-1436
▁دردی	-1437
▁دلبر	-1438
▁دهند	-1439
▁راهی	-1440
▁رخنه	-1441
▁ریزد	-1442
▁سروی	-1443
▁شبان	-1444
▁غمین	-1445
▁قطره	-1446
▁لشکر	-1447
▁محرم	-1448
▁نرگس	-1449
▁چکند	-1450
▁کینه	-1451
▁گاهی	-1452
▁گذرد	-1453
▁گفته	-1454
▁یعنی	-1455
▁افسون	-1456
▁افشان	-1457
▁بگذرد	-1458
▁بیداد	-1459
▁جوانی	-1460
▁خونین	-1461
▁دیوار	-1462
▁رساند	-1463
▁زمانه	-1464
▁قیامت	-1465
▁نسیمی	-1466
▁نهانی	-1467
▁پیغام	-1468
▁گدایی	-1469
▁گویند	-1470
▁رقیبان	-1471
▁میکردم	-1472
حه	-1473
سه	-1474
وط	-1475
ایم	-1476
بیل	-1477
ریز	-1478
زای	-1479
زود	-1480
گین	-1481
▁بق	-1482
▁تغ	-1483
▁رض	-1484
▁رع	-1485
▁طل	-1486
▁عد	-1487
▁مط	-1488
▁نپ	-1489
▁گه	-1490
ایان	-1491
فشان	-1492
لمان	-1493
نبال	-1494
ورده	-1495
▁آدم	-1496
▁آرد	-1497
▁ارم	-1498
▁افگ	-1499
▁امت	-1500
▁بدی	-1501
▁برب	-1502
▁تاج	-1503
▁تست	-1504
▁حدی	-1505
▁خال	-1506
▁خجل	-1507
▁دلی	-1508
▁دهم	-1509
▁زاد	-1510
▁زدی	-1511
▁شوخ	-1512
▁عاق	-1513
▁عقل	-1514
▁عیب	-1515
▁غرض	-1516
▁فیر	-1517
▁قات	-1518
▁قتل	-1519
▁قوت	-1520
▁لبت	-1521
▁منی	-1522
▁مکش	-1523
▁ناف	-1524
▁نظم	-1525
▁نقد	-1526
▁کزو	-1527
▁کهن	-1528
▁گلب	-1529
▁آدمی	-1530
▁اسیر	-1531
▁افسر	-1532
▁الله	-1533
▁الهی	-1534
▁امین	-1535
▁ایام	-1536
▁بودی	-1537
▁حریف	-1538
▁حیله	-1539
▁خاکش	-1540
▁خرام	-1541
▁خفته	-1542
▁داند	-1543
▁دانش	-1544
▁دردا	-1545
▁دفتر	-1546
▁زاهد	-1547
▁ساحت	-1548
▁سراغ	-1549
▁سراف	-1550
▁سفید	-1551
▁شهره	-1552
▁شیشه	-1553
▁صحبت	-1554
▁فرام	-1555
▁فرود	-1556
▁فریب	-1557
▁مطرب	-1558
▁مغنی	-1559
▁میده	-1560
▁ناقه	-1561
▁ندان	-1562
▁نمید	-1563
▁پسند	-1564
▁پیدا	-1565
▁پیره	-1566
▁چهره	-1567
▁کارم	-1568
▁کتاب	-1569
▁کسان	-1570
▁کمند	-1571
▁کنند	-1572
▁گذار	-1573
▁آرزوی	-1574
▁آزاده	-1575
▁آسوده	-1576
▁آوردی	-1577
▁ایوان	-1578
▁بایدش	-1579
▁بسیار	-1580
▁داشتم	-1581
▁دوستی	-1582
▁زنجیر	-1583
▁شنیده	-1584
▁شکاری	-1585
▁شکسته	-1586
▁فرمان	-1587
▁ناگاه	-1588
▁ندانی	-1589
▁گریان	-1590
▁برخیزد	-1591
▁پروانه	-1592
شد	-1593
ضط	-1594
کب	-1595
افت	-1596
ختر	-1597
صاف	-1598
عان	-1599
قان	-1600
لیب	-1601
لیس	-1602
مود	-1603
مون	-1604
وفا	-1605
وید	-1606
چار	-1607
▁تع	-1608
▁دف	-1609
▁رک	-1610
▁سع	-1611
▁عل	-1612
▁مز	-1613
▁وح	-1614
زبان	-1615
ستمت	-1616
شکده	-1617
▁آبش	-1618
▁آشک	-1619
▁آمی	-1620
▁آیم	-1621
▁آیی	-1622
▁اجل	-1623
▁اسم	-1624
▁اعت	-1625
▁ببر	-1626
▁بجز	-1627
▁بدو	-1628
▁برق	-1629
▁بگش	-1630
▁بیت	-1631
▁تأث	-1632
▁تذر	-1633
▁جوش	-1634
▁ذوق	-1635
▁رها	-1636
▁ریا	-1637
▁زآن	-1638
▁سیر	-1639
▁شام	-1640
▁شدی	-1641
▁شمش	-1642
▁طبع	-1643
▁طمع	-1644
▁طوف	-1645
▁علی	-1646
▁عند	-1647
▁عود	-1648
▁قدح	-1649
▁قصه	-1650
▁قضا	-1651
▁لال	-1652
▁مال	-1653
▁مدح	-1654
▁مشت	-1655
▁مصر	-1656
▁مهد	-1657
▁نان	-1658
▁نشک	-1659
▁نغز	-1660
▁ننگ	-1661
▁نهم	-1662
▁هفت	-1663
▁همت	-1664
▁کوت	-1665
▁کیش	-1666
▁یکد	-1667
▁آسان	-1668
▁آوری	-1669
▁آگاه	-1670
▁امیر	-1671
▁اولی	-1672
▁بازی	-1673
▁باغی	-1674
▁باور	-1675
▁براف	-1676
▁بروی	-1677
▁بصبر	-1678
▁بندد	-1679
▁بپاس	-1680
▁بپای	-1681
▁جایی	-1682
▁جبین	-1683
▁حالم	-1684
▁دادی	-1685
▁دراز	-1686
▁درید	-1687
▁دسته	-1688
▁دهان	-1689
▁زیان	-1690
▁سجده	-1691
▁شادم	-1692
▁شاهی	-1693
▁شدند	-1694
▁شکفت	-1695
▁غبار	-1696
▁غلام	-1697
▁فرصت	-1698
▁قاتل	-1699
▁قامت	-1700
▁قمری	-1701
▁نوشت	-1702
▁نگار	-1703
▁هنوز	-1704
▁هوای	-1705
▁پادش	-1706
▁چاره	-1707
▁چشمش	-1708
▁چشمی	-1709
▁کآمد	-1710
▁کریم	-1711
▁کشند	-1712
▁کمین	-1713
▁کنان	-1714
▁گران	-1715
▁گردی	-1716
▁گفتگ	-1717
▁گویا	-1718
▁احوال	-1719
▁افغان	-1720
▁برآمد	-1721
▁بیخبر	-1722
▁بیدار	-1723
▁بیگنه	-1724
▁تنگدل	-1725
▁جهانی	-1726
▁خاموش	-1727
▁خواهی	-1728
▁دامنت	-1729
▁دربان	-1730
▁دشمنی	-1731
▁دگران	-1732
▁رنگین	-1733
▁ریزند	-1734
▁ساخته	-1735
▁سنگدل	-1736
▁سپارم	-1737
▁شاهان	-1738
▁شکفته	-1739
▁قصیده	-1740
▁مهمان	-1741
▁میگفت	-1742
▁ناساز	-1743
▁ندارم	-1744
▁نرویم	-1745
▁نشاند	-1746
▁نشنود	-1747
▁نکرده	-1748
▁پیشتر	-1749
▁چندان	-1750
▁گذارم	-1751
▁گفتند	-1752
▁یابند	-1753
▁اسیران	-1754
▁امتحان	-1755
▁بندگان	-1756
▁بنشینم	-1757
▁داستان	-1758
▁دشمنان	-1759
▁شهیدان	-1760
▁فراموش	-1761
▁مسلمان	-1762
▁نازنین	-1763
▁گرفتار	-1764
اط	-1765
حل	-1766
شه	-1767
وب	-1768
گذ	-1769
ابت	-1770
ابر	-1771
ازد	-1772
ازم	-1773
امه	-1774
ثوم	-1775
ذیر	-1776
لان	-1777
نجر	-1778
ندد	-1779
کشد	-1780
یور	-1781
▁اخ	-1782
▁خی	-1783
▁زب	-1784
▁زغ	-1785
▁سم	-1786
▁صل	-1787
▁صی	-1788
▁عم	-1789
▁غز	-1790
▁فق	-1791
▁قط	-1792
▁مک	-1793
▁وط	-1794
اختم	-1795
اریم	-1796
ازیم	-1797
افله	-1798
الید	-1799
اهان	-1800
خواه	-1801
روخت	-1802
شنام	-1803
یشان	-1804
▁آبی	-1805
▁اضط	-1806
▁بدخ	-1807
▁بعد	-1808
▁بمی	-1809
▁جرس	-1810
▁جغد	-1811
▁جوی	-1812
▁حاج	-1813
▁حور	-1814
▁خشم	-1815
▁درش	-1816
▁درم	-1817
▁دلا	-1818
▁دمی	-1819
▁دوا	-1820
▁رای	-1821
▁رست	-1822
▁رقص	-1823
▁رقم	-1824
▁ریش	-1825
▁زال	-1826
▁زنه	-1827
▁سبز	-1828
▁سرش	-1829
▁سست	-1830
▁سلس	-1831
▁سمن	-1832
▁سنب	-1833
▁شور	-1834
▁صفا	-1835
▁صنم	-1836
▁عین	-1837
▁غلط	-1838
▁فصل	-1839
▁قید	-1840
▁لبم	-1841
▁مشو	-1842
▁مگو	-1843
▁نار	-1844
▁نوی	-1845
▁هوا	-1846
▁هوش	-1847
▁پار	-1848
▁پشم	-1849
▁کآن	-1850
▁کود	-1851
▁گره	-1852
▁گلم	-1853
▁گیس	-1854
▁آغوش	-1855
▁آهوی	-1856
▁افرا	-1857
▁ببزم	-1858
▁بدری	-1859
▁براه	-1860
▁برین	-1861
▁بسکه	-1862
▁بکار	-1863
▁بکسی	-1864
▁بگوش	-1865
▁بیاد	-1866
▁تذرو	-1867
▁تشنه	-1868
▁تویی	-1869
▁جلوه	-1870
▁جمال	-1871
▁جورت	-1872
▁جوید	-1873
▁خاست	-1874
▁خداو	-1875
▁خنجر	-1876
▁دردم	-1877
▁دستش	-1878
▁دستی	-1879
▁دوری	-1880
▁رستم	-1881
▁رسته	-1882
▁رنجش	-1883
▁رویت	-1884
▁زهره	-1885
▁زیاد	-1886
▁ساعت	-1887
▁سویت	-1888
▁شکار	-1889
▁طاقت	-1890
▁عامل	-1891
▁غریب	-1892
▁فتنه	-1893
▁فراز	-1894
▁قتلم	-1895
▁مادر	-1896
▁مایل	-1897
▁مدار	-1898
▁میوه	-1899
▁نالد	-1900
▁ندید	-1901
▁نهال	-1902
▁همین	-1903
▁هوشم	-1904
▁وصال	-1905
▁وفای	-1906
▁پایی	-1907
▁پرتو	-1908
▁پرسی	-1909
▁پرور	-1910
▁پیری	-1911
▁کامی	-1912
▁کدام	-1913
▁کشور	-1914
▁کوثر	-1915
▁گشاد	-1916
▁آزرده	-1917
▁آشکار	-1918
▁ابلیس	-1919
▁انصاف	-1920
▁ایران	-1921
▁بیوفا	-1922
▁تغافل	-1923
▁تماشا	-1924
▁حکایت	-1925
▁خسروی	-1926
▁دریغا	-1927
▁دلبری	-1928
▁دهقان	-1929
▁ستاره	-1930
▁شاهین	-1931
▁غمگین	-1932
▁فاخته	-1933
▁فتاده	-1934
▁فشاند	-1935
▁فشانم	-1936
▁فگنده	-1937
▁قاصدی	-1938
▁منقار	-1939
▁نالان	-1940
▁نشانی	-1941
▁همانا	-1942
▁ویران	-1943
▁پیامی	-1944
▁کاشان	-1945
▁کلثوم	-1946
▁گرفتم	-1947
▁گریست	-1948
▁گلزار	-1949
▁آتشکده	-1950
▁آشنایی	-1951
▁آویخته	-1952
▁بیگانه	-1953
▁خواستم	-1954
▁پیمانه	-1955
بد	-1956
تا	-1957
جم	-1958
جو	-1959
ظر	-1960
عد	-1961
لف	-1962
ما	-1963
اتم	-1964
ارغ	-1965
اکب	-1966
بها	-1967
جرا	-1968
ردد	-1969
رما	-1970
شتی	-1971
قوت	-1972
لاک	-1973
میر	-1974
ناک	-1975
نجه	-1976
وسی	-1977
کار	-1978
یزی	-1979
▁اق	-1980
▁بآ	-1981
▁جی	-1982
▁خن	-1983
▁زخ	-1984
▁سه	-1985
▁عص	-1986
▁عف	-1987
▁غب	-1988
▁فس	-1989
▁فی	-1990
▁مظ	-1991
▁مف	-1992
▁نث	-1993
▁نص	-1994
▁نط	-1995
▁نف	-1996
▁نژ	-1997
▁کت	-1998
اریش	-1999
استه	-2000
قبال	-2001
گانی	-2002
گهان	-2003
یدند	-2004
▁آهن	-2005
▁آیا	-2006
▁اسل	-2007
▁اصف	-2008
▁باو	-2009
▁بتن	-2010
▁بجا	-2011
▁بحر	-2012
▁بدر	-2013
▁بری	-2014
▁بصد	-2015
▁جزا	-2016
▁خشک	-2017
▁خطه	-2018
▁دلب	-2019
▁دهن	-2020
▁دون	-2021
▁ذکر	-2022
▁رفی	-2023
▁رهش	-2024
▁روا	-2025
▁زرد	-2026
▁سبب	-2027
▁سرخ	-2028
▁سفت	-2029
▁سنج	-2030
▁سهل	-2031
▁شدش	-2032
▁شعر	-2033
▁شما	-2034
▁صدر	-2035
▁طره	-2036
▁عسل	-2037
▁علم	-2038
▁غمش	-2039
▁فاش	-2040
▁فقر	-2041
▁محر	-2042
▁معش	-2043
▁مور	-2044
▁میل	-2045
▁میم	-2046
▁ناد	-2047
▁نرس	-2048
▁نوم	-2049
▁نکه	-2050
▁نیر	-2051
▁نیش	-2052
▁نیل	-2053
▁هان	-2054
▁هند	-2055
▁هنگ	-2056
▁وام	-2057
▁ویر	-2058
▁کلک	-2059
▁گست	-2060
▁گون	-2061
وفایی	-2062
▁آمدم	-2063
▁آنان	-2064
▁آنها	-2065
▁آنگه	-2066
▁آگهی	-2067
▁آیدم	-2068
▁استخ	-2069
▁باخت	-2070
▁بازگ	-2071
▁بانگ	-2072
▁بخیل	-2073
▁بردی	-2074
▁برسد	-2075
▁برود	-2076
▁بستی	-2077
▁بوسه	-2078
▁بپرس	-2079
▁بکوی	-2080
▁بگذر	-2081
▁بیار	-2082
▁تربت	-2083
▁تکیه	-2084
▁تیشه	-2085
▁جسته	-2086
▁حجاج	-2087
▁حجله	-2088
▁حدیث	-2089
▁حساب	-2090
▁خوار	-2091
▁خوشم	-2092
▁دامی	-2093
▁دختر	-2094
▁درون	-2095
▁دلکش	-2096
▁دوان	-2097
▁دوشم	-2098
▁رحمی	-2099
▁رسند	-2100
▁رشکم	-2101
▁رعای	-2102
▁روزه	-2103
▁رکاب	-2104
▁زیبا	-2105
▁سازم	-2106
▁ساغر	-2107
▁سخنی	-2108
▁سرمه	-2109
▁سفله	-2110
▁سنبل	-2111
▁شادی	-2112
▁شمار	-2113
▁صیدی	-2114
▁ظالم	-2115
▁عنان	-2116
▁عیسی	-2117
▁غارت	-2118
▁غرور	-2119
▁فارغ	-2120
▁فزود	-2121
▁قفای	-2122
▁لوحی	-2123
▁مدام	-2124
▁مرنج	-2125
▁مسجد	-2126
▁مشام	-2127
▁مغان	-2128
▁منهم	-2129
▁مژده	-2130
▁نافه	-2131
▁نامد	-2132
▁نامی	-2133
▁ناگه	-2134
▁نزار	-2135
▁نعمت	-2136
▁نمود	-2137
▁نمیر	-2138
▁نواز	-2139
▁نوبت	-2140
▁نکنم	-2141
▁همدم	-2142
▁وفات	-2143
▁پایه	-2144
▁کزین	-2145
▁کوزه	-2146
▁کوکب	-2147
▁گردش	-2148
▁گلبن	-2149
▁گوشم	-2150
▁آمدند	-2151
▁اصحاب	-2152
▁انگشت	-2153
▁ایمان	-2154
▁اینجا	-2155
▁باران	-2156
▁بجایی	-2157
▁برادر	-2158
▁بلبلم	-2159
▁بپاسخ	-2160
▁بگرفت	-2161
▁بیاضی	-2162
▁بینند	-2163
▁تأثیر	-2164
▁خرابه	-2165
▁دشمنت	-2166
▁دشنام	-2167
▁دمساز	-2168
▁دنبال	-2169
▁رهایی	-2170
▁ستمگر	-2171
▁سوخته	-2172
▁طوفان	-2173
▁عاشقی	-2174
▁عاقبت	-2175
▁غلامی	-2176
▁فیروز	-2177
▁قافله	-2178
▁ماجرا	-2179
▁ناخوش	-2180
▁ناچار	-2181
▁نشینی	-2182
▁نظاره	-2183
▁نگاهی	-2184
▁نگرفت	-2185
▁نیستم	-2186
▁چارده	-2187
▁چگونه	-2188
▁کشیدم	-2189
▁کنعان	-2190
▁کواکب	-2191
▁گذشته	-2192
▁گشاده	-2193
▁گشاید	-2194
▁یاقوت	-2195
▁آراسته	-2196
▁آستانش	-2197
▁اختیار	-2198
▁بیگناه	-2199
▁حریفان	-2200
▁شهریار	-2201
▁عنبرین	-2202
▁عندلیب	-2203
▁فرخنده	-2204
▁فرستمت	-2205
▁میخانه	-2206
▁ناسازی	-2207
▁نخواهد	-2208
▁نشستند	-2209
▁نگذارد	-2210
▁پریشان	-2211
▁گدایان	-2212
▁آموزگار	-2213
▁انداختم	-2214
▁انداخته	-2215
▁برآورده	-2216
▁بیوفایی	-2217
▁زندگانی	-2218
▁مهربانی	-2219
▁ندانستم	-2220
بع	-2221
جز	-2222
حش	-2223
حم	-2224
دس	-2225
ظه	-2226
قش	-2227
کت	-2228
کو	-2229
▁-	-2230
آمد	-2231
اشا	-2232
ایک	-2233
باز	-2234
بخت	-2235
حون	-2236
خند	-2237
ردن	-2238
رسی	-2239
ستر	-2240
شرت	-2241
شید	-2242
عیف	-2243
فتد	-2244
قوب	-2245
لال	-2246
نای	-2247
واب	-2248
وخت	-2249
وزخ	-2250
گرم	-2251
گیر	-2252
ینم	-2253
▁خص	-2254
▁رط	-2255
▁صر	-2256
▁صن	-2257
▁ضح	-2258
▁طپ	-2259
▁قف	-2260
▁مأ	-2261
▁مض	-2262
▁نج	-2263
▁وس	-2264
▁وه	-2265
▁پل	-2266
▁چل	-2267
ایره	-2268
ترسم	-2269
جویی	-2270
داری	-2271
رمود	-2272
زانی	-2273
عیان	-2274
ناهی	-2275
ودان	-2276
وشان	-2277
چاره	-2278
کشان	-2279
گاری	-2280
▁آور	-2281
▁الا	-2282
▁الح	-2283
▁الم	-2284
▁بتک	-2285
▁بخر	-2286
▁بزن	-2287
▁بلا	-2288
▁بمح	-2289
▁بنه	-2290
▁بیه	-2291
▁تیز	-2292
▁جوع	-2293
▁حجر	-2294
▁حذر	-2295
▁خرس	-2296
▁خشن	-2297
▁دیو	-2298
▁روب	-2299
▁زدم	-2300
▁زغن	-2301
▁زنخ	-2302
▁زنگ	-2303
▁زور	-2304
▁سرت	-2305
▁سری	-2306
▁سعی	-2307
▁سهی	-2308
▁شهد	-2309
▁شوم	-2310
▁طاق	-2311
▁طای	-2312
▁طوط	-2313
▁عجز	-2314
▁عفو	-2315
▁عیش	-2316
▁غمم	-2317
▁قبا	-2318
▁قصد	-2319
▁مار	-2320
▁مرو	-2321
▁مول	-2322
▁مژه	-2323
▁میز	-2324
▁میچ	-2325
▁ناب	-2326
▁نرم	-2327
▁نفر	-2328
▁ننه	-2329
▁نکو	-2330
▁هده	-2331
▁واق	-2332
▁پرا	-2333
▁پرد	-2334
▁کمر	-2335
▁کوش	-2336
▁گام	-2337
▁گاو	-2338
▁گرش	-2339
وانده	-2340
ویشان	-2341
▁آتشی	-2342
▁آمدن	-2343
▁افتم	-2344
▁ایمن	-2345
▁بادت	-2346
▁باری	-2347
▁بازو	-2348
▁بجای	-2349
▁بخون	-2350
▁بخیر	-2351
▁برکه	-2352
▁بشکر	-2353
▁بلقی	-2354
▁بلکه	-2355
▁بهتر	-2356
▁بوسم	-2357
▁بکام	-2358
▁تبسم	-2359
▁تنگی	-2360
▁توبه	-2361
▁جانب	-2362
▁جرمی	-2363
▁جمله	-2364
▁جویی	-2365
▁خاصه	-2366
▁خاکی	-2367
▁خجلت	-2368
▁خدنگ	-2369
▁خرقه	-2370
▁خرمن	-2371
▁خیال	-2372
▁درست	-2373
▁دریا	-2374
▁دستت	-2375
▁دستم	-2376
▁دولت	-2377
▁راحت	-2378
▁رحمت	-2379
▁رخصت	-2380
▁روزم	-2381
▁روست	-2382
▁زنند	-2383
▁سازی	-2384
▁ساله	-2385
▁ستان	-2386
▁سرشک	-2387
▁سزای	-2388
▁سمند	-2389
▁شبها	-2390
▁شراب	-2391
▁شهان	-2392
▁ضعیف	-2393
▁طعنه	-2394
▁طلعت	-2395
▁عشقت	-2396
▁علاج	-2397
▁غوغا	-2398
▁مایه	-2399
▁محفل	-2400
▁مخزن	-2401
▁مرده	-2402
▁مستی	-2403
▁مگیر	-2404
▁نداد	-2405
▁ندهد	-2406
▁نفسی	-2407
▁نمان	-2408
▁نهفت	-2409
▁نکهت	-2410
▁نگون	-2411
▁نیار	-2412
▁نیاز	-2413
▁نیاو	-2414
▁نیکو	-2415
▁هرکه	-2416
▁وادی	-2417
▁پاسخ	-2418
▁پایت	-2419
▁پیام	-2420
▁پیشه	-2421
▁پیکر	-2422
▁پیکی	-2423
▁کآذر	-2424
▁کامد	-2425
▁کبوت	-2426
▁کهنه	-2427
▁یادم	-2428
▁یارب	-2429
▁آزادی	-2430
▁آلوده	-2431
▁آگاهی	-2432
▁ابروی	-2433
▁ابوال	-2434
▁اسلام	-2435
▁امیدو	-2436
▁امیدی	-2437
▁اندوه	-2438
▁بازوی	-2439
▁بالای	-2440
▁بالین	-2441
▁بجهان	-2442
▁برابر	-2443
▁برهمن	-2444
▁بسرای	-2445
▁بسینه	-2446
▁بشنوم	-2447
▁بشکند	-2448
▁بماند	-2449
▁بندگی	-2450
▁بکویش	-2451
▁بینوا	-2452
▁بیگان	-2453
▁تمامی	-2454
▁تواند	-2455
▁جوابی	-2456
▁خجسته	-2457
▁خطایی	-2458
▁خندید	-2459
▁خورده	-2460
▁دریده	-2461
▁دیاری	-2462
▁رضوان	-2463
▁زمانی	-2464
▁زنهار	-2465
▁سرایت	-2466
▁سلسله	-2467
▁سیمین	-2468
▁شمارم	-2469
▁شمشیر	-2470
▁عنایت	-2471
▁غلمان	-2472
▁فراقت	-2473
▁فرزند	-2474
▁فشانی	-2475
▁محمود	-2476
▁مردان	-2477
▁مستان	-2478
▁میکده	-2479
▁میکشد	-2480
▁نداند	-2481
▁ندیدی	-2482
▁نشینم	-2483
▁نهفته	-2484
▁نومید	-2485
▁نکردم	-2486
▁نگرید	-2487
▁نگفته	-2488
▁نگوید	-2489
▁نیامد	-2490
▁همیشه	-2491
▁هنگام	-2492
▁هیچکس	-2493
▁پیرهن	-2494
▁کردند	-2495
▁کشتنم	-2496
▁کوتاه	-2497
▁گرفتی	-2498
▁گستاخ	-2499
▁گفتار	-2500
▁گفتگو	-2501
▁یعقوب	-2502
▁یکدگر	-2503
▁آستانه	-2504
▁اضطراب	-2505
▁افتادم	-2506
▁افروزد	-2507
▁انتظار	-2508
▁بدامان	-2509
▁بیدلان	-2510
▁بیچاره	-2511
▁خداوند	-2512
▁خرامان	-2513
▁خونبها	-2514
▁شرمنده	-2515
▁فرستاد	-2516
▁فروزان	-2517
▁مرغزار	-2518
▁میترسم	-2519
▁میگویم	-2520
▁نخواهم	-2521
▁ننشیند	-2522
▁ویرانه	-2523
▁گرفتند	-2524
▁استخوان	-2525
▁اندازیم	-2526
▁دادخواه	-2527
▁درویشان	-2528
اپ	-2529
حا	-2530
زا	-2531
سن	-2532
صه	-2533
ضت	-2534
عا	-2535
کد	-2536
گش	-2537
اسد	-2538
الب	-2539
الد	-2540
الع	-2541
اهر	-2542
اوی	-2543
باب	-2544
بای	-2545
جیس	-2546
حنه	-2547
خور	-2548
خون	-2549
داد	-2550
داع	-2551
دال	-2552
راج	-2553
رنگ	-2554
ریس	-2555
زله	-2556
زین	-2557
سوز	-2558
سیس	-2559
شتن	-2560
ضرت	-2561
فاق	-2562
فلی	-2563
قاه	-2564
قدس	-2565
قصه	-2566
لاب	-2567
لوم	-2568
مدا	-2569
میل	-2570
نام	-2571
نجا	-2572
ندل	-2573
وای	-2574
ورت	-2575
وطه	-2576
وفه	-2577
ونق	-2578
چین	-2579
کنی	-2580
گهش	-2581
یرد	-2582
یهو	-2583
▁اط	-2584
▁حو	-2585
▁خض	-2586
▁دب	-2587
▁دش	-2588
▁سح	-2589
▁غف	-2590
▁فن	-2591
▁لح	-2592
▁لر	-2593
▁لع	-2594
▁مث	-2595
▁هش	-2596
▁وج	-2597
▁وش	-2598
▁ول	-2599
▁کر	-2600
▁گس	-2601
الان	-2602
اووس	-2603
بانی	-2604
جوان	-2605
حباب	-2606
خانه	-2607
ردان	-2608
زاری	-2609
ستند	-2610
ستین	-2611
فروز	-2612
مانی	-2613
نشین	-2614
نگان	-2615
نیاد	-2616
ویان	-2617
گیرد	-2618
یزان	-2619
یمان	-2620
▁آسی	-2621
▁آهم	-2622
▁آهو	-2623
▁ارغ	-2624
▁الع	-2625
▁باب	-2626
▁بخط	-2627
▁بسا	-2628
▁بشم	-2629
▁بغم	-2630
▁بکس	-2631
▁جسم	-2632
▁جنت	-2633
▁خاق	-2634
▁خرد	-2635
▁خطا	-2636
▁خنک	-2637
▁خوف	-2638
▁دلپ	-2639
▁دهش	-2640
▁راغ	-2641
▁رضا	-2642
▁رمه	-2643
▁رهم	-2644
▁روس	-2645
▁زنش	-2646
▁زنم	-2647
▁زهد	-2648
▁سار	-2649
▁سرف	-2650
▁سوک	-2651
▁سیب	-2652
▁شاع	-2653
▁شست	-2654
▁شهی	-2655
▁صاد	-2656
▁صفه	-2657
▁صلح	-2658
▁صوف	-2659
▁طری	-2660
▁طوق	-2661
▁عرش	-2662
▁غاف	-2663
▁قفا	-2664
▁قلت	-2665
▁قوی	-2666
▁لقب	-2667
▁لله	-2668
▁لوح	-2669
▁مجل	-2670
▁مزن	-2671
▁معن	-2672
▁مغز	-2673
▁مند	-2674
▁مهی	-2675
▁میط	-2676
▁نسر	-2677
▁نعش	-2678
▁نقط	-2679
▁نهی	-2680
▁نوخ	-2681
▁همر	-2682
▁هین	-2683
▁وار	-2684
▁وصف	-2685
▁وطن	-2686
▁پیچ	-2687
▁پیک	-2688
▁چاه	-2689
▁کاخ	-2690
▁کاه	-2691
▁کفت	-2692
▁کله	-2693
▁کمی	-2694
▁کور	-2695
▁گدا	-2696
▁یله	-2697
▁آتشم	-2698
▁آذری	-2699
▁آلود	-2700
▁آهنگ	-2701
▁آینه	-2702
▁ابری	-2703
▁احمد	-2704
▁ارقم	-2705
▁افگن	-2706
▁انجم	-2707
▁اوفت	-2708
▁بازش	-2709
▁بالا	-2710
▁بامد	-2711
▁بباد	-2712
▁بباز	-2713
▁بجوش	-2714
▁بدان	-2715
▁برفت	-2716
▁برید	-2717
▁بزرگ	-2718
▁بستر	-2719
▁بستم	-2720
▁بشنو	-2721
▁بشوق	-2722
▁بغیر	-2723
▁بفرد	-2724
▁بمنت	-2725
▁بنام	-2726
▁بندم	-2727
▁بهره	-2728
▁بچمن	-2729
▁بگوی	-2730
▁بگیر	-2731
▁تراز	-2732
▁تیغت	-2733
▁تیهو	-2734
▁جبری	-2735
▁جلال	-2736
▁جودش	-2737
▁حاتم	-2738
▁حاجی	-2739
▁حجاب	-2740
▁حجاز	-2741
▁حجره	-2742
▁حرام	-2743
▁حریم	-2744
▁حضرت	-2745
▁حکمت	-2746
▁حیرت	-2747
▁خاصم	-2748
▁خاکم	-2749
▁خراج	-2750
▁خلاف	-2751
▁دادش	-2752
▁دادم	-2753
▁دانا	-2754
▁داور	-2755
▁دایم	-2756
▁دروغ	-2757
▁دماغ	-2758
▁دهاد	-2759
▁دکان	-2760
▁دگری	-2761
▁رامش	-2762
▁راهم	-2763
▁رایت	-2764
▁رهان	-2765
▁رهنم	-2766
▁روضه	-2767
▁رونق	-2768
▁ریزی	-2769
▁زارم	-2770
▁زنار	-2771
▁زنان	-2772
▁سبیل	-2773
▁سجود	-2774
▁سرشت	-2775
▁سودم	-2776
▁سودی	-2777
▁سوزد	-2778
▁سوزی	-2779
▁سپاه	-2780
▁سگان	-2781
▁شاهد	-2782
▁شحنه	-2783
▁شمال	-2784
▁شهری	-2785
▁صافی	-2786
▁صحرا	-2787
▁ضمیر	-2788
▁طایر	-2789
▁ظاهر	-2790
▁عادت	-2791
▁عبیر	-2792
▁عدلش	-2793
▁عشقم	-2794
▁عمری	-2795
▁غوطه	-2796
▁غیور	-2797
▁قرار	-2798
▁قفسم	-2799
▁لطفت	-2800
▁ماتم	-2801
▁مجال	-2802
▁محنت	-2803
▁مخور	-2804
▁مدعی	-2805
▁مردن	-2806
▁مستج	-2807
▁مشکب	-2808
▁مطلب	-2809
▁مفلس	-2810
▁مهان	-2811
▁مکان	-2812
▁مکتو	-2813
▁مگوی	-2814
▁ناام	-2815
▁ناتم	-2816
▁نایی	-2817
▁نشود	-2818
▁نعیم	-2819
▁نوای	-2820
▁نوحه	-2821
▁نوید	-2822
▁نژاد	-2823
▁هدهد	-2824
▁هستی	-2825
▁وداع	-2826
▁وصلم	-2827
▁پاره	-2828
▁پایم	-2829
▁پیرم	-2830
▁چندی	-2831
▁کاند	-2832
▁کشدم	-2833
▁کمال	-2834
▁کنشت	-2835
▁کیان	-2836
▁گزند	-2837
▁گزین	-2838
▁گواه	-2839
▁گیری	-2840
▁یادش	-2841
▁یارم	-2842
▁یمین	-2843
▁آدینه	-2844
▁آزاری	-2845
▁آنگاه	-2846
▁آهنین	-2847
▁آوازه	-2848
▁احباب	-2849
▁استاد	-2850
▁اسیری	-2851
▁اقبال	-2852
▁القصه	-2853
▁امکان	-2854
▁باخته	-2855
▁بخرام	-2856
▁بخلوت	-2857
▁بردار	-2858
▁بردند	-2859
▁بریده	-2860
▁بغداد	-2861
▁بلبلش	-2862
▁بلقیس	-2863
▁بمنزل	-2864
▁بمیان	-2865
▁بنیاد	-2866
▁بهرام	-2867
▁بگفتش	-2868
▁بگمان	-2869
▁بگوشم	-2870
▁بیخود	-2871
▁بیمار	-2872
▁بیمهر	-2873
▁بینمت	-2874
▁توانم	-2875
▁جویند	-2876
▁خرابی	-2877
▁خواری	-2878
▁خوبان	-2879
▁دادگر	-2880
▁دارای	-2881
▁دایره	-2882
▁دریای	-2883
▁دشوار	-2884
▁دمادم	-2885
▁دیدار	-2886
▁دیوان	-2887
▁رخشان	-2888
▁رعایا	-2889
▁رفتند	-2890
▁رفتنم	-2891
▁روباه	-2892
▁روشنی	-2893
▁ریزان	-2894
▁زبانم	-2895
▁زبانی	-2896
▁زلزله	-2897
▁زندان	-2898
▁زندگی	-2899
▁سحرگه	-2900
▁سرایی	-2901
▁سودای	-2902
▁سوگند	-2903
▁شنویم	-2904
▁شنیدن	-2905
▁شکوفه	-2906
▁شیراز	-2907
▁صبحدم	-2908
▁صیادم	-2909
▁طاووس	-2910
▁عدالت	-2911
▁غوغای	-2912
▁فرشته	-2913
▁فروخت	-2914
▁فگندی	-2915
▁مبادا	-2916
▁محتاج	-2917
▁مضمون	-2918
▁معشوق	-2919
▁مپسند	-2920
▁میانه	-2921
▁میرود	-2922
▁میروی	-2923
▁میزند	-2924
▁نامهر	-2925
▁نداری	-2926
▁نرسید	-2927
▁نشاید	-2928
▁نهاده	-2929
▁نوشته	-2930
▁نگردد	-2931
▁نگویم	-2932
▁نیارم	-2933
▁نیاید	-2934
▁نیستش	-2935
▁نیستی	-2936
▁هجران	-2937
▁هستند	-2938
▁هشیار	-2939
▁وفایی	-2940
▁پرسند	-2941
▁پرورش	-2942
▁پروین	-2943
▁پستان	-2944
▁پیراه	-2945
▁پیوند	-2946
▁کبوتر	-2947
▁کنارم	-2948
▁گرامی	-2949
▁گردید	-2950
▁گفتنش	-2951
▁گلچین	-2952
▁گیسوی	-2953
▁یافته	-2954
▁یکبار	-2955
▁آسمانم	-2956
▁آمیخته	-2957
▁ارمغان	-2958
▁اصفهان	-2959
▁افگنان	-2960
▁افگنده	-2961
▁بازگشت	-2962
▁برخاست	-2963
▁برگشته	-2964
▁بزرگان	-2965
▁بنالید	-2966
▁تماشای	-2967
▁جاودان	-2968
▁خانقاه	-2969
▁خرابات	-2970
▁خروشید	-2971
▁درختان	-2972
▁دردمند	-2973
▁زاهدان	-2974
▁شکایتی	-2975
▁شکرانه	-2976
▁صفاهان	-2977
▁صوفیان	-2978
▁عاشقان	-2979
▁فتادند	-2980
▁میداند	-2981
▁میگیرد	-2982
▁نالیدن	-2983
▁ناگهان	-2984
▁نشنیده	-2985
▁نیارست	-2986
▁نیکبخت	-2987
▁همزبان	-2988
▁پیوسته	-2989
▁چنانکه	-2990
▁کامیاب	-2991
▁کدامین	-2992
▁کشیدند	-2993
▁کودکان	-2994
▁آزادگان	-2995
▁دلباخته	-2996
▁رساندند	-2997
▁فرستاده	-2998
▁برافروخت	-2999
▁سرافگنده	-3000
▁ناخوانده	-3001
تن	-3002
جب	-3003
جه	-3004
حق	-3005
خا	-3006
خل	-3007
خه	-3008
خو	-3009
رز	-3010
سس	-3011
سپ	-3012
صف	-3013
ضب	-3014
طا	-3015
عف	-3016
عم	-3017
فع	-3018
قف	-3019
وح	-3020
پس	-3021
کل	-3022
۱۱	-3023
ؤوس	-3024
ابد	-3025
ابل	-3026
ابی	-3027
احت	-3028
ارا	-3029
ازی	-3030
افق	-3031
افگ	-3032
اوت	-3033
اور	-3034
اوه	-3035
اکل	-3036
اکم	-3037
ایع	-3038
بدم	-3039
بیس	-3040
تان	-3041
تفا	-3042
جاد	-3043
حبا	-3044
حیر	-3045
دلی	-3046
دمی	-3047
دوز	-3048
دیل	-3049
دیو	-3050
دیک	-3051
ذار	-3052
رات	-3053
راس	-3054
راف	-3055
راق	-3056
رند	-3057
زدی	-3058
زنش	-3059
زیز	-3060
سای	-3061
شتم	-3062
شمه	-3063
شکی	-3064
عام	-3065
عفر	-3066
عود	-3067
غما	-3068
فتح	-3069
فتم	-3070
قدر	-3071
قوس	-3072
لاق	-3073
لحت	-3074
لمی	-3075
لیش	-3076
ملو	-3077
ملی	-3078
نجد	-3079
همه	-3080
ورم	-3081
ویس	-3082
کات	-3083
کام	-3084
گرف	-3085
گرگ	-3086
گهم	-3087
▁تت	-3088
▁تد	-3089
▁تس	-3090
▁ته	-3091
▁جن	-3092
▁زه	-3093
▁زو	-3094
▁سز	-3095
▁سط	-3096
▁شخ	-3097
▁فا	-3098
▁فد	-3099
▁فض	-3100
▁فل	-3101
▁لق	-3102
▁هج	-3103
▁وع	-3104
▁چر	-3105
اتمش	-3106
اخیز	-3107
اداش	-3108
ارمت	-3109
اریه	-3110
الیه	-3111
انیش	-3112
اهید	-3113
ایدم	-3114
ایون	-3115
باره	-3116
تابی	-3117
حرای	-3118
دانت	-3119
راست	-3120
رانی	-3121
رومی	-3122
ریان	-3123
ریفی	-3124
ساری	-3125
سیحا	-3126
شیده	-3127
ظهار	-3128
فعال	-3129
قصیر	-3130
قیقت	-3131
نیبت	-3132
هدار	-3133
هرمن	-3134
همان	-3135
وخته	-3136
وریا	-3137
ومند	-3138
ویند	-3139
چشمه	-3140
گارش	-3141
گذار	-3142
گران	-3143
گشته	-3144
یلان	-3145
▁آصف	-3146
▁آنم	-3147
▁احت	-3148
▁ازل	-3149
▁ایا	-3150
▁باط	-3151
▁بای	-3152
▁بتر	-3153
▁بتم	-3154
▁برت	-3155
▁برف	-3156
▁بشب	-3157
▁بغل	-3158
▁بقا	-3159
▁بلی	-3160
▁بمد	-3161
▁بمر	-3162
▁بمس	-3163
▁بپا	-3164
▁بچه	-3165
▁بکم	-3166
▁تاک	-3167
▁تخم	-3168
▁ترا	-3169
▁تمن	-3170
▁تند	-3171
▁تنم	-3172
▁تنی	-3173
▁جاد	-3174
▁جاه	-3175
▁جفت	-3176
▁حرص	-3177
▁حکم	-3178
▁ختن	-3179
▁خسک	-3180
▁خسی	-3181
▁خطت	-3182
▁خطش	-3183
▁دمد	-3184
▁رجا	-3185
▁رهت	-3186
▁رهی	-3187
▁زبر	-3188
▁زرا	-3189
▁زمز	-3190
▁ساق	-3191
▁ساک	-3192
▁سای	-3193
▁سبو	-3194
▁سرب	-3195
▁سگت	-3196
▁سگی	-3197
▁شبت	-3198
▁شبه	-3199
▁شنو	-3200
▁شهش	-3201
▁شکن	-3202
▁شکی	-3203
▁ضعف	-3204
▁طاس	-3205
▁طعن	-3206
▁طفل	-3207
▁طوس	-3208
▁عاج	-3209
▁عرض	-3210
▁عزل	-3211
▁عسس	-3212
▁عقد	-3213
▁عمل	-3214
▁عکس	-3215
▁غصه	-3216
▁غضب	-3217
▁فال	-3218
▁فام	-3219
▁فتح	-3220
▁فرس	-3221
▁فرص	-3222
▁قند	-3223
▁قوم	-3224
▁لات	-3225
▁لاف	-3226
▁لبی	-3227
▁ماک	-3228
▁محل	-3229
▁محک	-3230
▁مخت	-3231
▁معم	-3232
▁موس	-3233
▁میپ	-3234
▁ناو	-3235
▁ناپ	-3236
▁نبی	-3237
▁نجف	-3238
▁نرد	-3239
▁نزد	-3240
▁نمک	-3241
▁نوح	-3242
▁هار	-3243
▁همن	-3244
▁وال	-3245
▁پخت	-3246
▁پرش	-3247
▁پرم	-3248
▁پره	-3249
▁پست	-3250
▁پشی	-3251
▁پنج	-3252
▁چتر	-3253
▁چرد	-3254
▁چهر	-3255
▁کبر	-3256
▁کبک	-3257
▁کری	-3258
▁کفر	-3259
▁کفی	-3260
▁گبر	-3261
▁گرو	-3262
▁گلو	-3263
▁گمر	-3264
▁یال	-3265
▁یزد	-3266
▁یمن	-3267
اختند	-3268
انیان	-3269
رفشان	-3270
روخته	-3271
ستاده	-3272
مدیده	-3273
یروان	-3274
ینهار	-3275
▁آذرت	-3276
▁آرزو	-3277
▁آرمت	-3278
▁آسود	-3279
▁آشفت	-3280
▁آنکو	-3281
▁آوار	-3282
▁آیدت	-3283
▁آیدش	-3284
▁آیین	-3285
▁استغ	-3286
▁الام	-3287
▁الفت	-3288
▁امام	-3289
▁اگرت	-3290
▁بارش	-3291
▁ببخش	-3292
▁ببرد	-3293
▁ببوس	-3294
▁بتخت	-3295
▁بترس	-3296
▁بتیغ	-3297
▁بجام	-3298
▁بحکم	-3299
▁بختی	-3300
▁بخشی	-3301
▁بخند	-3302
▁بدرد	-3303
▁بدهش	-3304
▁بدوش	-3305
▁بدیع	-3306
▁بران	-3307
▁بردن	-3308
▁برقص	-3309
▁برگر	-3310
▁بریم	-3311
▁بزمت	-3312
▁بسمل	-3313
▁بشهر	-3314
▁بطرف	-3315
▁بلور	-3316
▁بناز	-3317
▁بنان	-3318
▁بناگ	-3319
▁بندی	-3320
▁بنگر	-3321
▁بویی	-3322
▁بچنگ	-3323
▁بگشا	-3324
▁بگلب	-3325
▁بگنج	-3326
▁بیمش	-3327
▁بیکی	-3328
▁تازی	-3329
▁تحفه	-3330
▁ترسا	-3331
▁ترکش	-3332
▁ترکی	-3333
▁تلخی	-3334
▁توشه	-3335
▁تگرگ	-3336
▁جانش	-3337
▁جانی	-3338
▁جلیل	-3339
▁حاشا	-3340
▁حالی	-3341
▁حامی	-3342
▁حاکم	-3343
▁حرمت	-3344
▁حریر	-3345
▁حلوا	-3346
▁حیات	-3347
▁خارا	-3348
▁خروس	-3349
▁خطبه	-3350
▁خلیل	-3351
▁خندد	-3352
▁دادن	-3353
▁دراج	-3354
▁دعای	-3355
▁دعوی	-3356
▁دلیل	-3357
▁دهدم	-3358
▁دوات	-3359
▁دورم	-3360
▁دوزخ	-3361
▁ذوال	-3362
▁رازی	-3363
▁راضی	-3364
▁راند	-3365
▁راهش	-3366
▁رسان	-3367
▁رضای	-3368
▁رفیع	-3369
▁رفیق	-3370
▁رنجد	-3371
▁رنجه	-3372
▁روزت	-3373
▁رویش	-3374
▁رویم	-3375
▁ریشه	-3376
▁زانی	-3377
▁زبرد	-3378
▁زیرک	-3379
▁سارش	-3380
▁ساعد	-3381
▁سالک	-3382
▁ستمت	-3383
▁ستمش	-3384
▁سحاب	-3385
▁سحری	-3386
▁سراب	-3387
▁سران	-3388
▁سرکه	-3389
▁سلام	-3390
▁سماع	-3391
▁سودا	-3392
▁سوزم	-3393
▁شاخش	-3394
▁شاها	-3395
▁شرمی	-3396
▁شعله	-3397
▁شمرد	-3398
▁شنود	-3399
▁شنوم	-3400
▁شوخی	-3401
▁شوید	-3402
▁شکنج	-3403
▁شکیب	-3404
▁شگرف	-3405
▁صادق	-3406
▁صندل	-3407
▁صورت	-3408
▁ضحاک	-3409
▁طفلی	-3410
▁طلبد	-3411
▁طلبی	-3412
▁طوطی	-3413
▁ظلمت	-3414
▁عباد	-3415
▁عذار	-3416
▁عذرا	-3417
▁عروس	-3418
▁عشرت	-3419
▁عقاب	-3420
▁عقرب	-3421
▁فراخ	-3422
▁فراغ	-3423
▁فروش	-3424
▁قبله	-3425
▁قدرت	-3426
▁قطعه	-3427
▁قفسی	-3428
▁قیصر	-3429
▁لازم	-3430
▁لبان	-3431
▁ماده	-3432
▁ماست	-3433
▁مباش	-3434
▁متاع	-3435
▁مجمر	-3436
▁محکم	-3437
▁مدان	-3438
▁مردی	-3439
▁مرهم	-3440
▁مریز	-3441
▁مصری	-3442
▁معجز	-3443
▁معطر	-3444
▁مقام	-3445
▁مقیم	-3446
▁مملو	-3447
▁منال	-3448
▁منظر	-3449
▁مویی	-3450
▁میشم	-3451
▁میطپ	-3452
▁میگذ	-3453
▁نامت	-3454
▁نامش	-3455
▁نخفت	-3456
▁ندهی	-3457
▁نرود	-3458
▁نزنم	-3459
▁نشوی	-3460
▁نصیب	-3461
▁نفاق	-3462
▁نفسم	-3463
▁نقاب	-3464
▁نقشی	-3465
▁نکنی	-3466
▁نکوه	-3467
▁نگشت	-3468
▁نگهی	-3469
▁نیمه	-3470
▁هراس	-3471
▁هرکس	-3472
▁هلال	-3473
▁هلاک	-3474
▁همسر	-3475
▁واقف	-3476
▁والی	-3477
▁وحشی	-3478
▁وفاد	-3479
▁وقتی	-3480
▁پاکد	-3481
▁پرید	-3482
▁پناه	-3483
▁پنجه	-3484
▁چشمت	-3485
▁چمنم	-3486
▁چمنی	-3487
▁چینی	-3488
▁کاست	-3489
▁کاسه	-3490
▁کاکل	-3491
▁کباب	-3492
▁کبود	-3493
▁کجات	-3494
▁کسری	-3495
▁کسوت	-3496
▁کفیل	-3497
▁کوته	-3498
▁کوشم	-3499
▁کویش	-3500
▁کیسه	-3501
▁گامی	-3502
▁گدای	-3503
▁گذری	-3504
▁گرنه	-3505
▁گروه	-3506
▁گشتم	-3507
▁گشتی	-3508
▁گشود	-3509
▁گونه	-3510
▁یارا	-3511
▁یسار	-3512
▁یغما	-3513
▁آراست	-3514
▁آرایش	-3515
▁آستین	-3516
▁آواره	-3517
▁آوردت	-3518
▁آوردم	-3519
▁اظهار	-3520
▁افتدش	-3521
▁افزود	-3522
▁افلاک	-3523
▁اقامت	-3524
▁القدس	-3525
▁امیری	-3526
▁اندیش	-3527
▁انکار	-3528
▁انگار	-3529
▁اهرمن	-3530
▁ایجاد	-3531
▁اینان	-3532
▁اینها	-3533
▁بازار	-3534
▁باشیم	-3535
▁باغها	-3536
▁بایدت	-3537
▁بایدم	-3538
▁ببامی	-3539
▁ببیند	-3540
▁ببینم	-3541
▁بتکده	-3542
▁بجنان	-3543
▁بخواب	-3544
▁بدامن	-3545
▁بدنام	-3546
▁بدیده	-3547
▁برآرم	-3548
▁بربست	-3549
▁برجیس	-3550
▁برخیز	-3551
▁برویت	-3552
▁بزبان	-3553
▁بزرگی	-3554
▁بستان	-3555
▁بشکنم	-3556
▁بعالم	-3557
▁بمحشر	-3558
▁بمیرم	-3559
▁بنشان	-3560
▁بهزار	-3561
▁بوریا	-3562
▁بوعده	-3563
▁بکویت	-3564
▁بگردن	-3565
▁بیهوش	-3566
▁تاراج	-3567
▁ترانه	-3568
▁تقصیر	-3569
▁تلبیس	-3570
▁توانا	-3571
▁جنیبت	-3572
▁جیحون	-3573
▁حرکات	-3574
▁حسرتم	-3575
▁حلاوت	-3576
▁حمایت	-3577
▁حیرتم	-3578
▁خشنود	-3579
▁خوردم	-3580
▁خوشخر	-3581
▁خوشدل	-3582
▁دارند	-3583
▁داشتی	-3584
▁درآمد	-3585
▁درگاه	-3586
▁درگهش	-3587
▁دلدوز	-3588
▁دلیری	-3589
▁دمبدم	-3590
▁دوریت	-3591
▁دوستر	-3592
▁دونان	-3593
▁دیبای	-3594
▁دیدند	-3595
▁دیگری	-3596
▁ربوده	-3597
▁رسیدی	-3598
▁رعایت	-3599
▁رقصان	-3600
▁رمیده	-3601
▁رندان	-3602
▁رواست	-3603
▁روزنه	-3604
▁روسبی	-3605
▁ریحان	-3606
▁ریختی	-3607
▁ستاده	-3608
▁ستانی	-3609
▁سرزنش	-3610
▁سزاست	-3611
▁سنگین	-3612
▁سپاری	-3613
▁شاهیش	-3614
▁شمشاد	-3615
▁شناسد	-3616
▁صیادی	-3617
▁طبیبم	-3618
▁طریقه	-3619
▁عمارت	-3620
▁عینکی	-3621
▁غباری	-3622
▁فرستی	-3623
▁قفایت	-3624
▁مادرت	-3625
▁ماندی	-3626
▁مانند	-3627
▁متحیر	-3628
▁محترم	-3629
▁محتشم	-3630
▁مرحبا	-3631
▁مردمش	-3632
▁مستور	-3633
▁مصلحت	-3634
▁مظلوم	-3635
▁مکتوب	-3636
▁میدان	-3637
▁میرسد	-3638
▁میرفت	-3639
▁میکنم	-3640
▁ناهید	-3641
▁ناکسی	-3642
▁نباشی	-3643
▁نباید	-3644
▁نبردم	-3645
▁نبسته	-3646
▁نبودش	-3647
▁نزدیک	-3648
▁نسرین	-3649
▁نشانم	-3650
▁نشانه	-3651
▁نشستم	-3652
▁نشستی	-3653
▁نشنوی	-3654
▁نشیند	-3655
▁نظامی	-3656
▁ننالد	-3657
▁ننوشم	-3658
▁نهادی	-3659
▁نهالی	-3660
▁نهانم	-3661
▁نوایی	-3662
▁نوروز	-3663
▁نویسم	-3664
▁نگریم	-3665
▁نگویی	-3666
▁نیافت	-3667
▁نیرنگ	-3668
▁نیفتد	-3669
▁هوایی	-3670
▁وفایت	-3671
▁ولایت	-3672
▁پادشه	-3673
▁پریده	-3674
▁پسندم	-3675
▁پیاده	-3676
▁پیران	-3677
▁پیرزن	-3678
▁چوگان	-3679
▁کآنجا	-3680
▁کارند	-3681
▁کافور	-3682
▁کاندر	-3683
▁کاووس	-3684
▁کتابی	-3685
▁کردیش	-3686
▁کشاند	-3687
▁کشیدن	-3688
▁گذارد	-3689
▁گرانی	-3690
▁گریزد	-3691
▁گسسته	-3692
▁گفتیم	-3693
▁گلرنگ	-3694
▁گمانش	-3695
▁گناهی	-3696
▁گیلان	-3697
▁آرمیده	-3698
▁آسمانی	-3699
▁ابروان	-3700
▁ارغوان	-3701
▁افسانه	-3702
▁انفعال	-3703
▁اولیتر	-3704
▁اینهمه	-3705
▁بامداد	-3706
▁بخشایش	-3707
▁بدریای	-3708
▁بدنبال	-3709
▁برآورد	-3710
▁برافرا	-3711
▁بفرمان	-3712
▁بفرمود	-3713
▁بناگاه	-3714
▁بیابان	-3715
▁بیماری	-3716
▁بیمهری	-3717
▁جبرییل	-3718
▁جوانان	-3719
▁خاکستر	-3720
▁خسروان	-3721
▁خواسته	-3722
▁خواستی	-3723
▁خوانده	-3724
▁دلبران	-3725
▁دلجویی	-3726
▁دلفروز	-3727
▁دیوانه	-3728
▁راستان	-3729
▁رنجیده	-3730
▁زنارها	-3731
▁زینهار	-3732
▁ساربان	-3733
▁ستمگری	-3734
▁سرفراز	-3735
▁سپهدار	-3736
▁شبانگه	-3737
▁شبستان	-3738
▁شرمسار	-3739
▁شگفتید	-3740
▁فیروزه	-3741
▁قلتبان	-3742
▁ماکیان	-3743
▁محرمان	-3744
▁محرومی	-3745
▁میخندد	-3746
▁میدهمش	-3747
▁میزبان	-3748
▁میهمان	-3749
▁نتواند	-3750
▁ندارند	-3751
▁ندانند	-3752
▁نشانده	-3753
▁نشکفته	-3754
▁نمیرود	-3755
▁نوجوان	-3756
▁نوشخند	-3757
▁نیامدی	-3758
▁همنشین	-3759
▁هوشمند	-3760
▁پرستان	-3761
▁پرورده	-3762
▁پوشیده	-3763
▁پیراهن	-3764
▁پیغامی	-3765
▁گذارند	-3766
▁گریزان	-3767
▁گفتگوی	-3768
▁گنجینه	-3769
▁افروخته	-3770
▁امیدوار	-3771
▁انتظارش	-3772
▁باغبانی	-3773
▁بدریوزه	-3774
▁برداشتی	-3775
▁تماشایی	-3776
▁خواجگان	-3777
▁خورشیدی	-3778
▁دربانان	-3779
▁دشمنانت	-3780
▁دوستانت	-3781
▁دوستدار	-3782
▁رهنمایی	-3783
▁ستمدیده	-3784
▁ناامیدی	-3785
▁ناتوانی	-3786
▁نمیدانم	-3787
▁نمیدانی	-3788
▁گرفتاری	-3789
▁ابوالفتح	-3790
▁امیدوارم	-3791
▁دوستداری	-3792
▁مسلمانان	-3793
▁نامهربان	-3794
..	-3795
آب	-3796
ؤل	-3797
اذ	-3798
با	-3799
بح	-3800
ثل	-3801
دت	-3802
دش	-3803
رت	-3804
رگ	-3805
زق	-3806
سب	-3807
سط	-3808
سو	-3809
صح	-3810
ضش	-3811
ضع	-3812
ظم	-3813
عث	-3814
غل	-3815
غی	-3816
فد	-3817
فش	-3818
قا	-3819
قن	-3820
مس	-3821
هت	-3822
وج	-3823
وع	-3824
پر	-3825
یط	-3826
آید	-3827
ابق	-3828
ابه	-3829
اتر	-3830
ازن	-3831
ازه	-3832
اطر	-3833
اعت	-3834
اغر	-3835
امع	-3836
اها	-3837
اپل	-3838
برد	-3839
بوی	-3840
بیح	-3841
بیر	-3842
جار	-3843
حرا	-3844
حسن	-3845
حله	-3846
حمت	-3847
حوس	-3848
حین	-3849
خاب	-3850
ختی	-3851
خیز	-3852
دره	-3853
دها	-3854
دید	-3855
دین	-3856
ذری	-3857
رعه	-3858
روح	-3859
رکه	-3860
زده	-3861
زوی	-3862
سال	-3863
سطو	-3864
سنه	-3865
شار	-3866
شدر	-3867
صوم	-3868
طبع	-3869
طون	-3870
ظیم	-3871
فشه	-3872
فیق	-3873
قام	-3874
قین	-3875
لاس	-3876
لدا	-3877
لله	-3878
لند	-3879
لیم	-3880
مرد	-3881
ملم	-3882
نار	-3883
نجی	-3884
ندش	-3885
نوس	-3886
وجی	-3887
ودت	-3888
ودی	-3889
وره	-3890
وزد	-3891
ولی	-3892
ونس	-3893
ونه	-3894
وها	-3895
ویه	-3896
ژدم	-3897
کرد	-3898
کشی	-3899
اجب	-3900
خاص	-3901
دیس	-3902
سیع	-3903
لوه	-3904
وتی	-3905
ویز	-3906
کسم	-3907
یبت	-3908
یبی	-3909
یفه	-3910
یلی	-3911
یمت	-3912
۱۱۹	-3913
▁اع	-3914
▁اژ	-3915
▁تج	-3916
▁تف	-3917
▁تق	-3918
▁جد	-3919
▁جف	-3920
▁دخ	-3921
▁زا	-3922
▁زع	-3923
▁صه	-3924
▁طر	-3925
▁طن	-3926
▁عش	-3927
▁فه	-3928
▁فک	-3929
▁فگ	-3930
▁نت	-3931
▁نل	-3932
▁هد	-3933
▁هق	-3934
▁ون	-3935
▁یه	-3936
اراج	-3937
اریت	-3938
ارید	-3939
اسند	-3940
اشتی	-3941
اطمه	-3942
افته	-3943
امها	-3944
امیس	-3945
اکان	-3946
اییم	-3947
بارش	-3948
برند	-3949
ختند	-3950
دگان	-3951
دیگر	-3952
رانه	-3953
ربلا	-3954
رزید	-3955
رمای	-3956
ریها	-3957
زیده	-3958
سانی	-3959
سایه	-3960
سایی	-3961
ستمش	-3962
ستگی	-3963
سرار	-3964
سمان	-3965
سمین	-3966
سپاس	-3967
سیاب	-3968
شتها	-3969
شیان	-3970
صحبت	-3971
عداد	-3972
فترا	-3973
فسون	-3974
فقار	-3975
فیعا	-3976
قایق	-3977
قرار	-3978
قلاب	-3979
لناک	-3980
لیبی	-3981
لیخا	-3982
نامه	-3983
ندند	-3984
هاست	-3985
هایت	-3986
همال	-3987
وابت	-3988
وازم	-3989
وانش	-3990
وانی	-3991
وایب	-3992
وختم	-3993
وسفی	-3994
چیده	-3995
کنند	-3996
گانش	-3997
گذشت	-3998
گردی	-3999
بهه	-4000
موم	-4001
یلش	-4002
▁حص	-4003
بتلا	-4004
ردند	-4005
شنوم	-4006
طاقت	-4007
غافل	-4008
لیفه	-4009
چنین	-4010
گندم	-4011
گویم	-4012
یانی	-4013
یخته	-4014
یدان	-4015
یدون	-4016
یزید	-4017
یمار	-4018
ینند	-4019
یهات	-4020
یهای	-4021
▁آبت	-4022
▁آنک	-4023
▁آوخ	-4024
▁ازم	-4025
▁اسب	-4026
▁افق	-4027
▁الص	-4028
▁الف	-4029
▁امل	-4030
▁اوج	-4031
▁باج	-4032
▁باک	-4033
▁بتس	-4034
▁بتل	-4035
▁بتی	-4036
▁بحی	-4037
▁بشت	-4038
▁بمج	-4039
▁بمش	-4040
▁تتق	-4041
▁ترس	-4042
▁ترش	-4043
▁ترم	-4044
▁تری	-4045
▁تفا	-4046
▁تقی	-4047
▁تنش	-4048
▁تیم	-4049
▁جاب	-4050
▁جار	-4051
▁جیب	-4052
▁حسد	-4053
▁حقه	-4054
▁حمد	-4055
▁خرش	-4056
▁خری	-4057
▁خشت	-4058
▁خصم	-4059
▁خفی	-4060
▁خلف	-4061
▁خلل	-4062
▁داج	-4063
▁داع	-4064
▁دخت	-4065
▁درج	-4066
▁درع	-4067
▁درو	-4068
▁رخم	-4069
▁رزم	-4070
▁رمد	-4071
▁رند	-4072
▁ریع	-4073
▁زدش	-4074
▁زدو	-4075
▁زغم	-4076
▁زهی	-4077
▁سام	-4078
▁سان	-4079
▁سبا	-4080
▁سبق	-4081
▁سخا	-4082
▁سرگ	-4083
▁سطر	-4084
▁سمر	-4085
▁سند	-4086
▁سور	-4087
▁سوس	-4088
▁سپر	-4089
▁سپه	-4090
▁سگش	-4091
▁سید	-4092
▁سیل	-4093
▁شاب	-4094
▁شبم	-4095
▁شتا	-4096
▁شدن	-4097
▁شرر	-4098
▁شرف	-4099
ؤلؤ	-4100
افر	-4101
رسد	-4102
طیل	-4103
▁لآ	-4104
▁مذ	-4105
اشته	-4106
خورش	-4107
شناس	-4108
قندم	-4109
واست	-4110
وندم	-4111
پیشه	-4112
کینی	-4113
گفته	-4114
▁جدل	-4115
▁جنب	-4116
▁حمل	-4117
▁ذات	-4118
▁زره	-4119
▁سبک	-4120
▁سلط	-4121
▁شری	-4122
▁شفا	-4123
▁صحن	-4124
▁صدف	-4125
▁صرف	-4126
▁صلا	-4127
▁صله	-4128
▁طپد	-4129
▁طین	-4130
▁ظرف	-4131
▁عجم	-4132
▁عدو	-4133
▁عرف	-4134
▁عصر	-4135
▁عطا	-4136
▁علا	-4137
▁عور	-4138
▁عیس	-4139
▁غبغ	-4140
▁غله	-4141
▁غنی	-4142
▁غیب	-4143
▁فخر	-4144
▁فرش	-4145
▁فرق	-4146
▁فصی	-4147
▁فلا	-4148
▁فهم	-4149
▁فیض	-4150
▁فین	-4151
▁قسم	-4152
▁قطب	-4153
▁قلب	-4154
▁قلی	-4155
▁قهر	-4156
▁لبش	-4157
▁لوث	-4158
▁لول	-4159
▁محب	-4160
▁محش	-4161
▁مدا	-4162
▁مده	-4163
▁مرت	-4164
▁مرس	-4165
▁مزد	-4166
▁معذ	-4167
▁مقص	-4168
▁ممت	-4169
▁منط	-4170
▁منه	-4171
▁میغ	-4172
▁ناش	-4173
▁ناص	-4174
▁ناچ	-4175
▁نای	-4176
▁نجد	-4177
▁نزه	-4178
▁نشم	-4179
▁نصی	-4180
▁نطع	-4181
▁نطق	-4182
▁نعل	-4183
▁ننم	-4184
▁نوا	-4185
▁هجو	-4186
▁هشت	-4187
▁هشی	-4188
▁همچ	-4189
▁وان	-4190
▁ورد	-4191
▁وزن	-4192
▁وضع	-4193
▁پاب	-4194
▁پاف	-4195
▁پشه	-4196
▁پیت	-4197
▁چها	-4198
▁چکد	-4199
صو	-4200
ابا	-4201
اعظ	-4202
عیت	-4203
▁ثم	-4204
▁مؤ	-4205
▁هی	-4206
▁بغر	-4207
▁بقص	-4208
▁حرز	-4209
▁زدن	-4210
▁عاف	-4211
▁قاع	-4212
▁متف	-4213
▁مطل	-4214
▁مگس	-4215
▁چید	-4216
▁کآب	-4217
▁کاج	-4218
▁کاس	-4219
▁کال	-4220
▁کحل	-4221
▁کرا	-4222
▁کفش	-4223
▁کفن	-4224
▁کوس	-4225
▁کید	-4226
▁گسل	-4227
▁گلت	-4228
▁گهی	-4229
▁گیا	-4230
اخواه	-4231
امیان	-4232
اندیش	-4233
اورزی	-4234
توانم	-4235
ردمند	-4236
ریفان	-4237
ساران	-4238
سایگی	-4239
ستانم	-4240
شاندی	-4241
طاقتی	-4242
عامند	-4243
فتاده	-4244
فشانی	-4245
قیمان	-4246
ناکان	-4247
وستان	-4248
ویانی	-4249
گزاری	-4250
گیخته	-4251
یزگان	-4252
▁آدمش	-4253
▁آسیب	-4254
▁آشام	-4255
▁آمیز	-4256
▁آمین	-4257
▁اسقف	-4258
▁اشتی	-4259
▁اشکم	-4260
▁اطلس	-4261
▁اندک	-4262
▁اگرم	-4263
▁بادش	-4264
▁بادی	-4265
▁باره	-4266
▁بازم	-4267
▁باعث	-4268
▁باغم	-4269
▁باقی	-4270
▁بانی	-4271
▁ببام	-4272
▁ببحر	-4273
▁بجرم	-4274
▁بجیب	-4275
▁بحشر	-4276
▁بخار	-4277
▁بختم	-4278
▁بداد	-4279
▁بدار	-4280
▁بداغ	-4281
▁بدهن	-4282
▁برتر	-4283
▁بردش	-4284
▁برقی	-4285
▁بریز	-4286
▁بزخم	-4287
▁بزلف	-4288
▁بزمش	-4289
▁بزیر	-4290
▁بزین	-4291
▁بستن	-4292
▁بسقر	-4293
▁بسوز	-4294
▁بشاخ	-4295
▁بشاه	-4296
▁بشکن	-4297
▁بصری	-4298
▁بقعه	-4299
گن	-4300
▁ثن	-4301
▁چک	-4302
اختی	-4303
ازند	-4304
مانش	-4305
کندر	-4306
▁برن	-4307
▁شدت	-4308
▁شعف	-4309
▁چهل	-4310
خشنده	-4311
▁برگش	-4312
▁بطلب	-4313
▁بمال	-4314
▁بمشک	-4315
▁بنای	-4316
▁بنظر	-4317
▁بهای	-4318
▁بهیچ	-4319
▁بودت	-4320
▁بوفا	-4321
▁بپاخ	-4322
▁بپرد	-4323
▁بپره	-4324
▁بپهل	-4325
▁بچرخ	-4326
▁بکاخ	-4327
▁بکنج	-4328
▁بگدا	-4329
▁بیان	-4330
▁بیسر	-4331
▁بینش	-4332
▁بینو	-4333
▁تحمل	-4334
▁تسلی	-4335
▁تیرش	-4336
▁تیری	-4337
▁تیغم	-4338
▁ثنای	-4339
▁جانت	-4340
▁جبهه	-4341
▁جرعه	-4342
▁جزیل	-4343
▁جستن	-4344
▁جعفر	-4345
▁جمیل	-4346
▁جنون	-4347
▁جودت	-4348
▁جورش	-4349
▁جیفه	-4350
▁حسنت	-4351
▁حمدا	-4352
▁حمله	-4353
▁حیوه	-4354
▁خاتم	-4355
▁خاری	-4356
▁خازن	-4357
▁خامی	-4358
▁خدیو	-4359
▁خران	-4360
▁خرده	-4361
▁خرید	-4362
▁خصمی	-4363
▁خضری	-4364
▁خطاب	-4365
▁خفتم	-4366
▁خفیف	-4367
▁خلاص	-4368
▁خلقت	-4369
▁خموش	-4370
▁خندی	-4371
▁خیره	-4372
▁داغم	-4373
▁دامت	-4374
▁دامش	-4375
▁دایه	-4376
▁دخیل	-4377
▁دردش	-4378
▁درده	-4379
▁درشت	-4380
▁درفش	-4381
▁درهم	-4382
▁درود	-4383
▁دعات	-4384
▁دعوت	-4385
▁دلشک	-4386
▁دواج	-4387
▁دوای	-4388
▁دودی	-4389
▁دیدش	-4390
▁دیری	-4391
▁ذلیل	-4392
▁راهب	-4393
▁رسول	-4394
▁رشید	-4395
▁رطبی	-4396
▁رهزن	-4397
▁رهند	-4398
▁روزش	-4399
آیی	-4400
عتی	-4401
واز	-4402
رمند	-4403
▁صدق	-4404
▁طرب	-4405
▁حمام	-4406
▁روند	-4407
▁ریزه	-4408
▁زارش	-4409
▁زاغی	-4410
▁زانو	-4411
▁زبور	-4412
▁زجاج	-4413
▁زخمم	-4414
▁زخمی	-4415
▁زرشک	-4416
▁زرکش	-4417
▁زلفت	-4418
▁زمام	-4419
▁زمزم	-4420
▁زیار	-4421
▁زیور	-4422
▁ساحل	-4423
▁سامی	-4424
▁ساوه	-4425
▁ساکن	-4426
▁سبحه	-4427
▁ستمی	-4428
▁سختی	-4429
▁سخنم	-4430
▁سدره	-4431
▁سراپ	-4432
▁سروت	-4433
▁سرکش	-4434
▁سعود	-4435
▁سعید	-4436
▁سفته	-4437
▁سفتی	-4438
▁سلوک	-4439
▁سهیل	-4440
▁سوار	-4441
▁سوده	-4442
▁سوزن	-4443
▁سویش	-4444
▁سپرد	-4445
▁سپند	-4446
▁شاخم	-4447
▁شاخی	-4448
▁شاعر	-4449
▁شاهش	-4450
▁شایق	-4451
▁شتاب	-4452
▁شرمم	-4453
▁شسته	-4454
▁شعاع	-4455
▁شنوی	-4456
▁شهوت	-4457
▁صبحت	-4458
▁صبری	-4459
▁صبوح	-4460
▁صرصر	-4461
▁صعود	-4462
▁صیدش	-4463
▁صیدم	-4464
▁ضایع	-4465
▁طاعت	-4466
▁طالع	-4467
▁طامع	-4468
▁طبعش	-4469
▁طبله	-4470
▁طبلک	-4471
▁طراز	-4472
▁طرفی	-4473
▁طلبم	-4474
▁ظلمی	-4475
▁عارف	-4476
▁عاقل	-4477
▁عامی	-4478
▁عتاب	-4479
▁عدیل	-4480
▁عذری	-4481
▁عراق	-4482
▁عزیز	-4483
▁عشاق	-4484
▁عشقی	-4485
▁عظیم	-4486
▁عقول	-4487
▁عمدا	-4488
▁عمرت	-4489
▁عیار	-4490
▁عینک	-4491
▁غرقه	-4492
▁غزال	-4493
▁غفلت	-4494
▁غفور	-4495
▁غلتم	-4496
▁غمزه	-4497
▁غیرم	-4498
▁غیری	-4499
▁فرار	-4500
▁فربه	-4501
▁فرقت	-4502
▁فرما	-4503
▁فکرت	-4504
▁فگار	-4505
▁فیضت	-4506
▁قابل	-4507
▁قباد	-4508
▁قدسی	-4509
▁قدمی	-4510
▁قرآن	-4511
▁قرین	-4512
▁قسیس	-4513
▁قصاب	-4514
▁لؤلؤ	-4515
▁لایق	-4516
▁لجاج	-4517
▁لحظه	-4518
▁لرزد	-4519
▁لطفش	-4520
▁لقای	-4521
▁مالم	-4522
▁مانم	-4523
▁مانی	-4524
▁ماهت	-4525
▁مبند	-4526
▁مثقب	-4527
▁مجاز	-4528
▁مجوس	-4529
▁محال	-4530
▁محیط	-4531
▁مدحت	-4532
▁مددی	-4533
▁مراد	-4534
▁مرغم	-4535
▁مرگش	-4536
▁مرگم	-4537
▁مریم	-4538
▁مزاج	-4539
▁مزار	-4540
▁مسلم	-4541
▁مسهل	-4542
▁مشکم	-4543
▁مظهر	-4544
▁معنی	-4545
▁ملوک	-4546
▁مهره	-4547
▁مهری	-4548
▁موزه	-4549
▁موسی	-4550
▁مویت	-4551
▁مگرد	-4552
▁میرم	-4553
▁میشد	-4554
▁مینا	-4555
▁مینو	-4556
▁میگر	-4557
▁ناخن	-4558
▁نازش	-4559
▁نازک	-4560
▁ناکس	-4561
▁نبخش	-4562
▁نبرم	-4563
▁ندهم	-4564
▁نزند	-4565
▁نسخه	-4566
▁نشوم	-4567
▁نشیب	-4568
▁نعشم	-4569
▁نفور	-4570
▁نقشب	-4571
▁نماز	-4572
▁ننهی	-4573
▁نهشت	-4574
▁نوشد	-4575
▁نوشم	-4576
▁نوشی	-4577
▁نژند	-4578
▁نکشت	-4579
▁نگرم	-4580
▁نگری	-4581
▁نگین	-4582
▁نیلی	-4583
▁نیوش	-4584
▁نیکن	-4585
▁نیکی	-4586
▁هادی	-4587
▁هاله	-4588
▁هجرم	-4589
▁همتش	-4590
▁همدا	-4591
▁همره	-4592
▁هیزم	-4593
▁واجب	-4594
▁واعظ	-4595
▁وامق	-4596
▁واپس	-4597
▁وجود	-4598
▁وحدت	-4599
▁وحید	-4600
▁وزان	-4601
▁وسعت	-4602
▁وسیع	-4603
▁وصلت	-4604
▁وطنم	-4605
▁پاکی	-4606
▁پذیر	-4607
▁پرسش	-4608
▁پندی	-4609
▁پوشد	-4610
▁پیرو	-4611
▁پیشت	-4612
▁چاپل	-4613
▁چندم	-4614
▁چهار	-4615
▁چکار	-4616
▁کآخر	-4617
▁کآرم	-4618
▁کآید	-4619
▁کابر	-4620
▁کارش	-4621
▁کافر	-4622
▁کاهی	-4623
▁کران	-4624
▁کرمت	-4625
▁کلام	-4626
▁کلاه	-4627
▁کلبه	-4628
▁کمتر	-4629
▁کندن	-4630
▁کندی	-4631
▁کنمت	-4632
▁کوفی	-4633
▁کوچه	-4634
▁کویی	-4635
▁کژدم	-4636
▁کیمی	-4637
▁گاوی	-4638
▁گزاف	-4639
▁گزان	-4640
▁گلاب	-4641
▁گنجی	-4642
▁گنده	-4643
▁گوسف	-4644
▁گوشش	-4645
▁گوشو	-4646
▁گیاه	-4647
▁یابم	-4648
▁یارش	-4649
▁یقین	-4650
▁یلدا	-4651
▁یکان	-4652
▁یکدل	-4653
▁یکسو	-4654
افگنان	-4655
امانان	-4656
فشانده	-4657
▁آبادی	-4658
▁آبنوس	-4659
▁آتشین	-4660
▁آرندم	-4661
▁آزمون	-4662
▁آسایش	-4663
▁آنقدر	-4664
▁آنگهی	-4665
▁آهوان	-4666
▁آوازش	-4667
▁آویخت	-4668
▁آویزه	-4669
▁آگاهم	-4670
▁ابدال	-4671
▁ابلهی	-4672
▁احسان	-4673
▁اخترم	-4674
▁اختری	-4675
▁اخلاق	-4676
▁اخوان	-4677
▁ادریس	-4678
▁ارباب	-4679
▁ارسطو	-4680
▁اسراف	-4681
▁اسیرم	-4682
▁اشجار	-4683
▁اضطرا	-4684
▁افسار	-4685
▁افشار	-4686
▁افلاس	-4687
▁التفا	-4688
▁اندوز	-4689
▁انسان	-4690
▁انوری	-4691
▁اولاد	-4692
▁اژدها	-4693
▁ایزدی	-4694
▁باختر	-4695
▁بالله	-4696
▁باورم	-4697
▁بایست	-4698
▁بباغی	-4699
▁ببستر	-4700
▁بجایش	-4701
▁بجلوه	-4702
▁بخاطر	-4703
▁بخدمت	-4704
▁بخیلی	-4705
▁بدخوی	-4706
▁بدستش	-4707
▁بدوزخ	-4708
▁بدوست	-4709
▁بدولت	-4710
▁برآرد	-4711
▁برزین	-4712
▁برویم	-4713
▁برگشت	-4714
▁بزاری	-4715
▁بسویت	-4716
▁بششدر	-4717
▁بشنوی	-4718
▁بشیرم	-4719
▁بشیشه	-4720
▁بصحرا	-4721
▁بعاشق	-4722
▁بعشرت	-4723
▁بفترا	-4724
▁بفرست	-4725
▁بفرما	-4726
▁بفسون	-4727
▁بفغان	-4728
▁بلندی	-4729
▁بمردم	-4730
▁بمستی	-4731
▁بمسجد	-4732
▁بناله	-4733
▁بندند	-4734
▁بنفشه	-4735
▁بهارم	-4736
▁بهانه	-4737
▁بهشتم	-4738
▁بوالع	-4739
▁بواله	-4740
▁بودیم	-4741
▁بوسند	-4742
▁بپذیر	-4743
▁بپوشم	-4744
▁بچشمش	-4745
▁بگشاد	-4746
▁بگفتا	-4747
▁بگلبن	-4748
▁بگلشن	-4749
▁بگویی	-4750
▁بیخته	-4751
▁بیرحم	-4752
▁بیشتر	-4753
▁بینید	-4754
▁بینیم	-4755
▁بیکسی	-4756
▁تحلیل	-4757
▁ترکان	-4758
▁تشریف	-4759
▁تشنگی	-4760
▁تشویش	-4761
▁تعمیر	-4762
▁تمنای	-4763
▁تمکین	-4764
▁توفیق	-4765
▁جفایت	-4766
▁جفایش	-4767
▁جلالت	-4768
▁جمشید	-4769
▁جنایت	-4770
▁جوشید	-4771
▁حاتمش	-4772
▁حدیثی	-4773
▁حرامی	-4774
▁حرفیش	-4775
▁حقیقت	-4776
▁حمامی	-4777
▁حوران	-4778
▁حیران	-4779
▁خارجی	-4780
▁خاسته	-4781
▁خاستی	-4782
▁خاصیت	-4783
▁خاقان	-4784
▁خانقه	-4785
▁خدنگی	-4786
▁خرابت	-4787
▁خطاست	-4788
▁خلایق	-4789
▁خوایق	-4790
▁خوردی	-4791
▁خونبه	-4792
▁خیزدم	-4793
▁دامنش	-4794
▁درختش	-4795
▁درختی	-4796
▁درخور	-4797
▁دروغی	-4798
▁دستان	-4799
▁دستور	-4800
▁دشمنش	-4801
▁دعایت	-4802
▁دلدار	-4803
▁دلشان	-4804
▁دوستت	-4805
▁دویدم	-4806
▁ذوایب	-4807
▁راستی	-4808
▁رانده	-4809
▁راهزن	-4810
▁رباید	-4811
▁رخسار	-4812
▁رسیدم	-4813
▁رفتنش	-4814
▁رفتیم	-4815
▁رنجید	-4816
▁روانه	-4817
▁روزان	-4818
▁روزها	-4819
▁ریختن	-4820
▁ریزدم	-4821
▁ریزمت	-4822
▁زانوی	-4823
▁زاهدی	-4824
▁زبانه	-4825
▁زرگری	-4826
▁زلالی	-4827
▁زلفین	-4828
▁زلیخا	-4829
▁زمزمه	-4830
▁زنبیل	-4831
▁زیشان	-4832
▁سامان	-4833
▁سرآمد	-4834
▁سراغت	-4835
▁سرشان	-4836
▁سرشته	-4837
▁سروها	-4838
▁سرکشد	-4839
▁سرکنم	-4840
▁سعادت	-4841
▁سندان	-4842
▁سوختن	-4843
▁سوختی	-4844
▁سوزان	-4845
▁سپردن	-4846
▁سپهری	-4847
▁سیاهش	-4848
▁سیاهی	-4849
▁شفیعا	-4850
▁شماری	-4851
▁شمایل	-4852
▁شنفتم	-4853
▁شهباز	-4854
▁شهیدی	-4855
▁شکارش	-4856
▁شکستن	-4857
▁شکنجه	-4858
▁شگفتت	-4859
▁شیطان	-4860
▁صباحت	-4861
▁صحرای	-4862
▁ظریفی	-4863
▁عاشقم	-4864
▁عافیت	-4865
▁عدویت	-4866
▁عذاری	-4867
▁عریان	-4868
▁عقربم	-4869
▁غافلم	-4870
▁غافلی	-4871
▁غالیه	-4872
▁غرامت	-4873
▁غریبم	-4874
▁غریبی	-4875
▁غزالی	-4876
▁غلطان	-4877
▁غلطید	-4878
▁غیرتم	-4879
▁فاطمه	-4880
▁فایده	-4881
▁فتادش	-4882
▁فتادی	-4883
▁فدایت	-4884
▁فرازی	-4885
▁فراقم	-4886
▁فردوس	-4887
▁فرمود	-4888
▁فروشد	-4889
▁فضایش	-4890
▁فغانش	-4891
▁فقیرم	-4892
▁فقیری	-4893
▁لبریز	-4894
▁لشکری	-4895
▁لولوی	-4896
▁مأموم	-4897
▁مأمون	-4898
▁ماندم	-4899
▁ماندن	-4900
▁مبتلا	-4901
▁مجروح	-4902
▁مجلست	-4903
▁محابا	-4904
▁محروم	-4905
▁محزون	-4906
▁محملش	-4907
▁محملم	-4908
▁مدامی	-4909
▁مرادش	-4910
▁مرادم	-4911
▁مرحله	-4912
▁مزارم	-4913
▁مزرعه	-4914
▁مستحق	-4915
▁مستند	-4916
▁مسیحا	-4917
▁مشامم	-4918
▁مشتری	-4919
▁مشحون	-4920
▁معراج	-4921
▁معصوم	-4922
▁معمور	-4923
▁مقامی	-4924
▁ملامت	-4925
▁ملایک	-4926
▁منافق	-4927
▁منزلت	-4928
▁منشین	-4929
▁مژگان	-4930
▁مگذار	-4931
▁میبرد	-4932
▁میبری	-4933
▁میخور	-4934
▁میدهد	-4935
▁میدهی	-4936
▁میدید	-4937
▁میروم	-4938
▁میزان	-4939
▁میچکد	-4940
▁میکرد	-4941
▁میکند	-4942
▁نادان	-4943
▁ناقوس	-4944
▁نامحر	-4945
▁نامدی	-4946
▁نایدت	-4947
▁نبوده	-4948
▁نبینم	-4949
▁نثارش	-4950
▁نثاری	-4951
▁نخستش	-4952
▁نخندد	-4953
▁نخورد	-4954
▁نرسته	-4955
▁نرفته	-4956
▁نرنجی	-4957
▁نسازد	-4958
▁نسفته	-4959
▁نسوزد	-4960
▁نشنوم	-4961
▁نصیحت	-4962
▁نفرست	-4963
▁نمانم	-4964
▁نمایی	-4965
▁نموده	-4966
▁نمیرم	-4967
▁ننالم	-4968
▁ننگرد	-4969
▁نوازش	-4970
▁نوشتن	-4971
▁نپسند	-4972
▁نکردی	-4973
▁نکوهش	-4974
▁نگاری	-4975
▁نگاهش	-4976
▁نگاهم	-4977
▁نگران	-4978
▁نگردی	-4979
▁نگشته	-4980
▁نگفتم	-4981
▁نگفتی	-4982
▁نگیرد	-4983
▁نگیرم	-4984
▁نیروی	-4985
▁هاروت	-4986
▁هزارت	-4987
▁هستیش	-4988
▁همنفس	-4989
▁هنوزش	-4990
▁هیهات	-4991
▁واقعه	-4992
▁پارسا	-4993
▁پاگاه	-4994
▁پایان	-4995
▁پختگی	-4996
▁پرسید	-4997
▁پرهیز	-4998
▁پروری	-4999
▁پوشید	-5000
▁پیامت	-5001
▁پیریم	-5002
▁چراغی	-5003
▁چنگال	-5004
▁کآدمی	-5005
▁کاریت	-5006
▁کبکان	-5007
▁کجاست	-5008
▁کدامت	-5009
▁کربلا	-5010
▁کردمی	-5011
▁کشتیش	-5012
▁کشوری	-5013
▁کشیدی	-5014
▁کنندم	-5015
▁کوهکن	-5016
▁کیوان	-5017
▁گاهیش	-5018
▁گذارش	-5019
▁گذاری	-5020
▁گذران	-5021
▁گذشتم	-5022
▁گرسنه	-5023
▁گرفتش	-5024
▁گرگان	-5025
▁گریزم	-5026
▁گزیدم	-5027
▁گشادی	-5028
▁گفتنم	-5029
▁گلبنی	-5030
▁گلشنت	-5031
▁گلگون	-5032
▁گمانت	-5033
▁گمانم	-5034
▁گمراه	-5035
▁گوارا	-5036
▁گواهی	-5037
▁گوهری	-5038
▁گویمت	-5039
▁گوییم	-5040
▁گیرند	-5041
▁یاریت	-5042
▁یافتی	-5043
▁یزدان	-5044
▁یوسفی	-5045
▁یکایک	-5046
اندازیم	-5047
▁آرزویت	-5048
▁آستانت	-5049
▁آستانی	-5050
▁آشفتگی	-5051
▁آشکارا	-5052
▁آشیانم	-5053
▁آمدستی	-5054
▁آوازان	-5055
▁آگاهیت	-5056
▁اختران	-5057
▁ارزانی	-5058
▁ازیشان	-5059
▁استغفر	-5060
▁اسکندر	-5061
▁اعتبار	-5062
▁اعتدال	-5063
▁افروخت	-5064
▁افزونی	-5065
▁افسرده	-5066
▁افسونت	-5067
▁افگندم	-5068
▁افگندی	-5069
▁الامین	-5070
▁انتخاب	-5071
▁اندرین	-5072
▁انقلاب	-5073
▁اوفتاد	-5074
▁باختند	-5075
▁بارنده	-5076
▁بارگاه	-5077
▁بایزید	-5078
▁بایشان	-5079
▁ببازار	-5080
▁ببوسید	-5081
▁ببینیم	-5082
▁بتاراج	-5083
▁بتاریخ	-5084
▁بتخانه	-5085
▁بتماشا	-5086
▁بخندید	-5087
▁بدخوست	-5088
▁بدگویی	-5089
▁بدیگری	-5090
▁برخیزی	-5091
▁برفتند	-5092
▁برومند	-5093
▁بریدند	-5094
▁بزمگاه	-5095
▁بسیاری	-5096
▁بلبلان	-5097
▁بمحراب	-5098
▁بناگوش	-5099
▁بپاداش	-5100
▁بگلزار	-5101
▁بیدادم	-5102
▁بیهمال	-5103
▁بیهوده	-5104
▁بیگنهم	-5105
▁تأثیری	-5106
▁ترازوی	-5107
▁تفاوتی	-5108
▁تنهایی	-5109
▁تنگنای	-5110
▁جادویی	-5111
▁جانسوز	-5112
▁جهانند	-5113
▁جویبار	-5114
▁حیرانم	-5115
▁خاقانی	-5116
▁خاکدان	-5117
▁خردمند	-5118
▁خرسندم	-5119
▁خرسندی	-5120
▁خندانت	-5121
▁خوانان	-5122
▁خواندم	-5123
▁خواندی	-5124
▁خواهند	-5125
▁خوشبوی	-5126
▁خونابه	-5127
▁خونریز	-5128
▁خویشتن	-5129
▁دامانش	-5130
▁دانستم	-5131
▁درمانم	-5132
▁دلتنگی	-5133
▁دلپذیر	-5134
▁دلپسند	-5135
▁دوستیت	-5136
▁دوششان	-5137
▁دیدگان	-5138
▁راعیان	-5139
▁رخشنده	-5140
▁رسانده	-5141
▁رسانید	-5142
▁رستخیز	-5143
▁رعایای	-5144
▁ریاحین	-5145
▁ریختند	-5146
▁ریشخند	-5147
▁زادگان	-5148
▁زبردست	-5149
▁زنخدان	-5150
▁سرچشمه	-5151
▁سرگذشت	-5152
▁سطرلاب	-5153
▁سلسبیل	-5154
▁سپارمت	-5155
▁شتابان	-5156
▁شوریده	-5157
▁ضعیفان	-5158
▁غارتگر	-5159
▁غزالان	-5160
▁فرداست	-5161
▁فرزندی	-5162
▁فلاطون	-5163
▁فهمیده	-5164
▁مرنجان	-5165
▁مستجاب	-5166
▁مفلسان	-5167
▁منتهای	-5168
▁مهوشان	-5169
▁میبرند	-5170
▁میخواه	-5171
▁میدیدم	-5172
▁میشنوم	-5173
▁میطپدم	-5174
▁مینالم	-5175
▁مینمود	-5176
▁میپرسی	-5177
▁میگذرد	-5178
▁نابسته	-5179
▁ناتمام	-5180
▁نادیدن	-5181
▁نادیده	-5182
▁ناسپاس	-5183
▁ناکرده	-5184
▁ناگفته	-5185
▁نتوانم	-5186
▁نتوانی	-5187
▁نداریم	-5188
▁نداشته	-5189
▁نرسیده	-5190
▁نستانم	-5191
▁نشنیدم	-5192
▁نشنیدی	-5193
▁نشینند	-5194
▁نقشهای	-5195
▁نمانده	-5196
▁نمیکند	-5197
▁نمیکنم	-5198
▁نوامیس	-5199
▁نویسند	-5200
▁نکویان	-5201
▁نگویند	-5202
▁نیامده	-5203
▁نیاورد	-5204
▁همایون	-5205
▁همراهی	-5206
▁همسایه	-5207
▁همصحبت	-5208
▁همیکرد	-5209
▁هولناک	-5210
▁هیچکسم	-5211
▁وفادار	-5212
▁پادشاه	-5213
▁پایمال	-5214
▁پریدند	-5215
▁پشیمان	-5216
▁پلنگان	-5217
▁پهلویت	-5218
▁پوستین	-5219
▁کافران	-5220
▁کامروز	-5221
▁کشاندی	-5222
▁کشتگان	-5223
▁گردیده	-5224
▁گستاخی	-5225
▁گلزاری	-5226
▁گمگشته	-5227
▁گوشمال	-5228
▁یاسمین	-5229
▁یکدیگر	-5230
▁آرامگاه	-5231
▁آوارگان	-5232
▁اختیارش	-5233
▁استعداد	-5234
▁اصفاهان	-5235
▁اضطرابش	-5236
▁افراخته	-5237
▁اندوخته	-5238
▁انگیخته	-5239
▁ایستاده	-5240
▁اینگونه	-5241
▁بباغبان	-5242
▁بحریفان	-5243
▁بداندیش	-5244
▁بدگمانی	-5245
▁بنشانند	-5246
▁بویرانه	-5247
▁بگلستان	-5248
▁بگنجینه	-5249
▁بیدلانت	-5250
▁بیطاقتی	-5251
▁بینهایت	-5252
▁بیگانگی	-5253
▁بیگناهی	-5254
▁جفاپیشه	-5255
▁جهانگیر	-5256
▁جهانیان	-5257
▁درخشنده	-5258
▁دلشدگان	-5259
▁دیوارها	-5260
▁ریختندی	-5261
▁سالهاست	-5262
▁ستمکشان	-5263
▁سخنوران	-5264
▁سرافراز	-5265
▁سرافگند	-5266
▁سلطانان	-5267
▁شرمساری	-5268
▁صبحگاهی	-5269
▁عندلیبی	-5270
▁فراموشش	-5271
▁فرستادم	-5272
▁فرستادن	-5273
▁مسلمانی	-5274
▁نامردان	-5275
▁نشناخته	-5276
▁نشناسند	-5277
▁نمیگویم	-5278
▁ننشینند	-5279
▁نوخاسته	-5280
▁نیاورده	-5281
▁هواخواه	-5282
▁پارسایی	-5283
▁پاسبانش	-5284
▁پاسبانی	-5285
▁پرستاری	-5286
▁پریشانی	-5287
▁پندارند	-5288
▁کاروانم	-5289
▁کاروانی	-5290
▁کامرانی	-5291
▁کاویانی	-5292
▁کشاورزی	-5293
▁گردنشان	-5294
▁گلستانی	-5295
▁افراسیاب	-5296
▁امیدواری	-5297
▁بدانگونه	-5298
▁برفشانده	-5299
▁بیگانگان	-5300
▁ذوالفقار	-5301
▁روحانیان	-5302
▁فیروزمند	-5303
▁میگساران	-5304
▁نوشیروان	-5305
▁همداستان	-5306
▁هندوستان	-5307
▁هوشمندان	-5308
▁برانگیخته	-5309
▁بیخبرانند	-5310
▁دادخواهان	-5311
▁ناسازگاری	-5312
▁پاکدامانان	-5313
اذق	-5314
اپو	-5315
خاء	-5316
صوص	-5317
نظر	-5318
وحش	-5319
کتب	-5320
۱۱۷	-5321
▁--	-5322
▁..	-5323
آباد	-5324
الحش	-5325
اویه	-5326
اگرم	-5327
تفاع	-5328
تیجه	-5329
جمهر	-5330
جمیل	-5331
جهتم	-5332
خلخه	-5333
درات	-5334
دراج	-5335
ذیرد	-5336
رؤوس	-5337
زاحم	-5338
زویج	-5339
سوزی	-5340
شرکت	-5341
طرتا	-5342
عرکه	-5343
فرما	-5344
قدیس	-5345
مدوح	-5346
وابی	-5347
ولیش	-5348
پرسم	-5349
پرور	-5350
پنجه	-5351
یربد	-5352
۱۱۷۱	-5353
▁---	-5354
▁...	-5355
▁آقا	-5356
▁بآی	-5357
▁تدب	-5358
▁تفح	-5359
▁جهت	-5360
▁حوص	-5361
▁ذقن	-5362
▁رجز	-5363
▁رجو	-5364
▁رزق	-5365
▁رطب	-5366
▁رطل	-5367
▁رگش	-5368
▁زآب	-5369
▁زخط	-5370
▁زقن	-5371
▁سطح	-5372
▁شغل	-5373
▁صما	-5374
▁صنع	-5375
▁طرح	-5376
▁طنز	-5377
▁فاض	-5378
▁فضل	-5379
▁فلز	-5380
▁فوج	-5381
▁لآل	-5382
▁مؤذ	-5383
▁مثل	-5384
▁یما	-5385
▁ینم	-5386
ابانی	-5387
ادیلش	-5388
افگنی	-5389
اکانت	-5390
اگردی	-5391
خواست	-5392
خواهی	-5393
رزیدت	-5394
رویان	-5395
ریدون	-5396
زولیش	-5397
شکیبی	-5398
شیانش	-5399
ادخل	-5400
صوبه	-5401
▁مکت	-5402
ضاعتی	-5403
عتابت	-5404
فرمند	-5405
لومات	-5406
مرحمت	-5407
نتابد	-5408
واویس	-5409
گشاده	-5410
گیریم	-5411
یردست	-5412
یمانه	-5413
۱۱۷۱ه	-5414
▁آخور	-5415
▁آذار	-5416
▁آشتی	-5417
▁آورم	-5418
▁احتم	-5419
▁احتی	-5420
▁ارجم	-5421
▁ازمح	-5422
▁اطرف	-5423
▁اعضا	-5424
▁اعمی	-5425
▁اقلی	-5426
▁الحق	-5427
▁اوجت	-5428
▁بابل	-5429
▁باطن	-5430
▁بترک	-5431
▁بحسب	-5432
▁بدخو	-5433
▁بدعا	-5434
▁بشمش	-5435
▁بصبح	-5436
▁بطبع	-5437
▁بعجب	-5438
▁بعجز	-5439
▁بغلط	-5440
▁بغمم	-5441
▁بقصر	-5442
▁بمثل	-5443
▁بمخل	-5444
▁بمدح	-5445
▁بمرگ	-5446
▁بنسب	-5447
▁بنهم	-5448
▁بوبد	-5449
▁بوعد	-5450
▁ترحم	-5451
▁تقدم	-5452
▁تقری	-5453
▁تنعم	-5454
▁توکل	-5455
▁تیمم	-5456
▁حاذق	-5457
▁حربا	-5458
▁حواد	-5459
▁خردس	-5460
▁خشمت	-5461
▁خصمت	-5462
▁خناز	-5463
▁خنوس	-5464
▁داعی	-5465
▁دبیر	-5466
▁دلگش	-5467
▁دوتا	-5468
▁ذرات	-5469
▁رجوع	-5470
▁رطبش	-5471
▁رعیت	-5472
▁روسی	-5473
▁رکوع	-5474
▁زبده	-5475
▁زخطا	-5476
▁زعفر	-5477
▁زعلی	-5478
▁زعمر	-5479
▁زورآ	-5480
▁زکام	-5481
▁سبزش	-5482
▁سحرم	-5483
▁سرتا	-5484
▁سرکو	-5485
▁سمور	-5486
▁سندر	-5487
▁سندس	-5488
▁سوسن	-5489
▁شبهه	-5490
▁شوره	-5491
▁شکفد	-5492
▁صدره	-5493
▁صریر	-5494
▁صلای	-5495
▁صلحی	-5496
▁صلوه	-5497
▁صنما	-5498
▁صنمش	-5499
اطم	-5500
اطه	-5501
اطین	-5502
نواز	-5503
گذارد	-5504
▁آیمت	-5505
▁اعتم	-5506
▁اعتک	-5507
▁ببرت	-5508
▁بجزع	-5509
▁برقع	-5510
▁جوشش	-5511
▁شامل	-5512
▁صنمی	-5513
▁صهبا	-5514
▁ضحوک	-5515
▁طالب	-5516
▁طیور	-5517
▁ظلال	-5518
▁عرصه	-5519
▁عزلش	-5520
▁عصای	-5521
▁عفوت	-5522
▁علمش	-5523
▁عنقا	-5524
▁غبغب	-5525
▁غضبش	-5526
▁غیبت	-5527
▁فاسد	-5528
▁فسحت	-5529
▁فسون	-5530
▁فصیح	-5531
▁فقرت	-5532
▁فلان	-5533
▁فلوس	-5534
▁فهمد	-5535
▁فهمی	-5536
▁فوجی	-5537
▁فکرم	-5538
▁فکلی	-5539
▁فگنی	-5540
▁قاعد	-5541
▁قطار	-5542
▁قعود	-5543
▁قفست	-5544
▁لابد	-5545
▁لاغر	-5546
▁لالا	-5547
▁لعلی	-5548
▁لوحش	-5549
▁مأمن	-5550
▁مؤمن	-5551
▁مثال	-5552
▁محجو	-5553
▁مداح	-5554
▁مذاق	-5555
▁مزید	-5556
▁مزین	-5557
▁مصرع	-5558
▁مضطر	-5559
▁معذب	-5560
▁معشو	-5561
▁ممتح	-5562
▁موبد	-5563
▁موجب	-5564
▁موسم	-5565
▁مولا	-5566
▁مکتب	-5567
▁مکدر	-5568
▁نارپ	-5569
▁نتاج	-5570
▁نحوس	-5571
▁نشاط	-5572
▁نطاق	-5573
▁نطقش	-5574
▁نعلش	-5575
▁نفتد	-5576
▁نفری	-5577
▁نفوس	-5578
▁نفیر	-5579
▁نقطه	-5580
▁نوحم	-5581
▁نویس	-5582
▁نیرو	-5583
▁هجوم	-5584
▁هفتم	-5585
▁همکل	-5586
▁هنرت	-5587
▁هوشش	-5588
▁هیضه	-5589
▁وجان	-5590
▁وسوس	-5591
▁وشوی	-5592
▁وطنی	-5593
▁ولاد	-5594
▁پافش	-5595
▁پدید	-5596
▁پراک	-5597
▁پشمی	-5598
▁پلاس	-5599
نحه	-5600
افتی	-5601
جملی	-5602
صافت	-5603
ظیفه	-5604
▁مطی	-5605
▁نپس	-5606
افتاد	-5607
تشکده	-5608
شدگان	-5609
فشانم	-5610
لمانی	-5611
نجبیل	-5612
▁بربط	-5613
▁بقای	-5614
▁بقضا	-5615
▁تغاف	-5616
▁خالق	-5617
▁رضات	-5618
▁صفحه	-5619
▁صلیب	-5620
▁عدوی	-5621
▁عیبم	-5622
▁فزای	-5623
▁قایم	-5624
▁قوتی	-5625
▁مرکب	-5626
▁مطوق	-5627
▁معاذ	-5628
▁مکشد	-5629
▁نافر	-5630
▁نپند	-5631
▁نکشد	-5632
▁پلید	-5633
▁پیاپ	-5634
▁چامه	-5635
▁چشید	-5636
▁چنار	-5637
▁چکاو	-5638
▁چکنی	-5639
▁کؤوس	-5640
▁کابل	-5641
▁کاهد	-5642
▁کاهل	-5643
▁کرسی	-5644
▁کرفس	-5645
▁کلکم	-5646
▁کلیب	-5647
▁کودک	-5648
▁کوکو	-5649
▁گامش	-5650
▁گسست	-5651
▁گیسو	-5652
▁یازی	-5653
▁یالش	-5654
▁یونس	-5655
آتشکده	-5656
ادخلوا	-5657
اسدانت	-5658
ایستگی	-5659
برویان	-5660
رداریش	-5661
رفشانم	-5662
زیگران	-5663
ساختند	-5664
شناسان	-5665
لبریها	-5666
نادیلش	-5667
هداریت	-5668
همایون	-5669
وتیمار	-5670
وزجمهر	-5671
وشیهای	-5672
ونتیجه	-5673
پیمانه	-5674
یمایدم	-5675
▁آسایم	-5676
▁آسیای	-5677
▁آوارگ	-5678
▁آورمش	-5679
▁آگندم	-5680
▁آگهان	-5681
▁اتفاق	-5682
▁اجنحه	-5683
▁اخیار	-5684
▁ارایک	-5685
▁ارزیز	-5686
▁ازمشر	-5687
▁اسبیش	-5688
▁اسرار	-5689
▁اسماع	-5690
▁اشخاص	-5691
▁اصنام	-5692
▁اطراف	-5693
▁اعیان	-5694
▁افسرش	-5695
▁اقلیم	-5696
▁الاسم	-5697
▁الحال	-5698
▁الحرم	-5699
جده	-5700
سرو	-5701
فیل	-5702
خسرو	-5703
ظامی	-5704
نگیس	-5705
▁جرأ	-5706
▁رمض	-5707
▁طعم	-5708
▁طمق	-5709
▁موج	-5710
▁واض	-5711
▁کدخ	-5712
ورانگ	-5713
▁بفرق	-5714
▁بکشد	-5715
▁بگرو	-5716
▁جرسم	-5717
▁جرسی	-5718
▁جغدم	-5719
▁رقصم	-5720
▁رمید	-5721
▁سرما	-5722
▁طفیل	-5723
▁طمعت	-5724
▁عذاب	-5725
▁فدای	-5726
▁قدمش	-5727
▁مواج	-5728
▁مولی	-5729
▁مومی	-5730
▁نهیم	-5731
▁هرمس	-5732
▁هیچش	-5733
▁واضح	-5734
▁کافس	-5735
▁یؤوس	-5736
الهنگی	-5737
▁آموخت	-5738
▁اجلال	-5739
▁الصبح	-5740
▁الصنم	-5741
▁الطبع	-5742
▁العدا	-5743
▁العهد	-5744
▁المثل	-5745
▁امسال	-5746
▁ایمنم	-5747
▁ایمنی	-5748
▁باربد	-5749
▁باطله	-5750
▁ببخشد	-5751
▁ببرید	-5752
▁ببندد	-5753
▁بتابد	-5754
▁بتلاف	-5755
▁بتکلم	-5756
▁بجورم	-5757
▁بحیله	-5758
▁براحت	-5759
▁برانگ	-5760
▁بربند	-5761
▁برقفا	-5762
▁بساحل	-5763
▁بسازد	-5764
▁بساغر	-5765
▁بسجده	-5766
▁بسخاء	-5767
▁بسزای	-5768
▁بسنجد	-5769
▁بسوخت	-5770
▁بسوزی	-5771
▁بشرکت	-5772
▁بشمار	-5773
▁بصورت	-5774
▁بطفلی	-5775
▁بطلان	-5776
▁بعداز	-5777
▁بفردا	-5778
▁بفروش	-5779
▁بلاها	-5780
▁بمانی	-5781
▁بمجلس	-5782
▁بمجمل	-5783
▁بمدحش	-5784
▁بمدعا	-5785
▁بمرغی	-5786
▁بمرگم	-5787
▁بمشاط	-5788
▁بنامه	-5789
▁بنمود	-5790
▁بنویس	-5791
▁بنگرم	-5792
▁بهلال	-5793
▁بهیچم	-5794
▁بپرسی	-5795
▁بکامم	-5796
▁بکشتی	-5797
▁بکشیم	-5798
▁بگریه	-5799
أه	-5800
أله	-5801
اسی	-5802
جاع	-5803
جله	-5804
ذله	-5805
سیل	-5806
فاس	-5807
ژرف	-5808
گهی	-5809
ازیش	-5810
لهای	-5811
نگری	-5812
وردی	-5813
وریش	-5814
ویله	-5815
گامی	-5816
▁تله	-5817
▁دهل	-5818
▁زجا	-5819
▁سیخ	-5820
▁صلی	-5821
▁نلغ	-5822
▁ژرف	-5823
انامی	-5824
اییان	-5825
رخامه	-5826
رمایی	-5827
گشایی	-5828
▁ازوف	-5829
▁باغت	-5830
▁باند	-5831
▁بخبر	-5832
▁بخرم	-5833
▁بخشم	-5834
▁بذله	-5835
▁بشور	-5836
▁تاری	-5837
▁خاند	-5838
▁دجله	-5839
▁شجاع	-5840
▁شددی	-5841
▁شودت	-5842
▁صلیح	-5843
▁عاید	-5844
▁فامی	-5845
▁قادر	-5846
▁نادر	-5847
▁ناوه	-5848
▁نشأه	-5849
▁پرفت	-5850
▁پیله	-5851
▁چاشت	-5852
▁چاکم	-5853
▁گسیل	-5854
بانیان	-5855
▁آمدیش	-5856
▁آوریت	-5857
▁انفاس	-5858
▁بادکه	-5859
▁بازگو	-5860
▁بخرده	-5861
▁بخرمن	-5862
▁بخنده	-5863
▁بخوان	-5864
▁بگناه	-5865
▁بیاضش	-5866
▁بینان	-5867
▁بینور	-5868
▁بیچار	-5869
▁تبدیل	-5870
▁تتارش	-5871
▁تجارت	-5872
▁تجملی	-5873
▁تحمیل	-5874
▁تدبیر	-5875
▁ترازو	-5876
▁تراشد	-5877
▁تراکم	-5878
▁تربتم	-5879
▁تزاحم	-5880
▁تزویج	-5881
▁تعالی	-5882
▁تعطیل	-5883
▁تعلیم	-5884
▁تقریب	-5885
▁تلاطم	-5886
▁تهلیل	-5887
▁تکبیر	-5888
▁تیماج	-5889
▁ثانیش	-5890
▁ثنایت	-5891
▁ثوابت	-5892
▁ثوابی	-5893
▁جابجا	-5894
▁جاروب	-5895
▁جاریه	-5896
▁جبریل	-5897
▁جرأتم	-5898
▁جغدان	-5899
رغ	-5900
ارق	-5901
اسن	-5902
افؤ	-5903
بره	-5904
بوس	-5905
سمن	-5906
مره	-5907
منن	-5908
هتز	-5909
▁حد	-5910
▁حش	-5911
اشتم	-5912
زارم	-5913
▁آبر	-5914
▁افغ	-5915
▁انه	-5916
▁بطن	-5917
▁حاف	-5918
▁ختم	-5919
▁خسم	-5920
▁سلک	-5921
▁شمن	-5922
▁شنج	-5923
▁قاف	-5924
▁نگش	-5925
اوانش	-5926
هتزاز	-5927
وسیده	-5928
▁الای	-5929
▁باضط	-5930
▁بتکب	-5931
▁براد	-5932
▁بسنگ	-5933
▁بلال	-5934
▁بهام	-5935
▁جغدی	-5936
▁جنبم	-5937
▁حافظ	-5938
▁حشرم	-5939
▁خونی	-5940
▁زمره	-5941
▁شیار	-5942
▁طارم	-5943
▁عاجز	-5944
▁غماز	-5945
▁فسوس	-5946
▁مخال	-5947
▁نگشا	-5948
▁وافؤ	-5949
▁وصفت	-5950
▁کشدش	-5951
▁گلبر	-5952
▁آبروی	-5953
▁آزارم	-5954
▁انهار	-5955
▁بپایه	-5956
▁توبره	-5957
▁جغدند	-5958
▁جفاجو	-5959
▁جمعیت	-5960
▁جمیلش	-5961
▁جنابی	-5962
▁جهانت	-5963
▁جوانم	-5964
▁جویدش	-5965
▁جوییش	-5966
▁جوییم	-5967
▁حجابت	-5968
▁حرامت	-5969
▁حریفی	-5970
▁حسابت	-5971
▁حصیری	-5972
▁حلولی	-5973
▁حمامه	-5974
▁حوادث	-5975
▁حوصله	-5976
▁حکمتا	-5977
▁حیرتی	-5978
▁خاتمش	-5979
▁خجلتی	-5980
▁خرمنت	-5981
▁خروسش	-5982
▁خروشش	-5983
▁خرگهم	-5984
▁خستگی	-5985
▁خضریم	-5986
▁خطیبی	-5987
▁خلاصه	-5988
▁خلافت	-5989
▁خلقته	-5990
▁خلیفه	-5991
▁خنجرت	-5992
▁درآیی	-5993
▁دردها	-5994
▁دروغم	-5995
▁دلخون	-5996
▁دلگشا	-5997
▁دهانم	-5998
▁دهندش	-5999
بذ	-6000
بذا	-6001
تاز	-6002
حرو	-6003
نجم	-6004
گهت	-6005
▁ظل	-6006
اسیس	-6007
اهیم	-6008
جهان	-6009
خسته	-6010
سرور	-6011
عانی	-6012
یزند	-6013
▁باس	-6014
▁بگی	-6015
▁رلف	-6016
▁ریو	-6017
▁مدی	-6018
▁ناآ	-6019
▁نبخ	-6020
▁نبد	-6021
▁ندا	-6022
▁وهم	-6023
حرومی	-6024
▁بارد	-6025
▁باسق	-6026
▁بجنت	-6027
▁برجا	-6028
▁بکفر	-6029
▁تنیم	-6030
▁حبذا	-6031
▁حسنی	-6032
▁خوشی	-6033
▁دستک	-6034
▁زوال	-6035
▁سیما	-6036
▁شوند	-6037
▁شیفت	-6038
▁صافش	-6039
▁عقده	-6040
▁فرید	-6041
▁مصور	-6042
▁معیل	-6043
▁منعش	-6044
▁نامر	-6045
▁نبری	-6046
▁ندای	-6047
▁ندیم	-6048
▁نساج	-6049
▁نگرد	-6050
▁کشیم	-6051
▁کفنش	-6052
▁کندم	-6053
▁باردت	-6054
▁بیدوا	-6055
▁داشتش	-6056
▁دعاست	-6057
▁دوایی	-6058
▁دورتر	-6059
▁دیلمی	-6060
▁راغها	-6061
▁راندی	-6062
▁رایتت	-6063
▁رستمش	-6064
▁رمضان	-6065
▁رمیدی	-6066
▁رهاند	-6067
▁روستا	-6068
▁رویان	-6069
▁رکعبه	-6070
▁زاویه	-6071
▁زدودی	-6072
▁زراعت	-6073
▁زمزمش	-6074
▁زنهاد	-6075
▁زودتر	-6076
▁زکامش	-6077
▁زیارت	-6078
▁زیانی	-6079
▁ساغرت	-6080
▁سامری	-6081
▁ساوجی	-6082
▁سجودت	-6083
▁سربسر	-6084
▁سردیش	-6085
▁سرشکم	-6086
▁سرودی	-6087
▁سرگرد	-6088
▁سرگرم	-6089
▁سریشم	-6090
▁سطورش	-6091
▁سفیدش	-6092
▁سمرشد	-6093
▁سمندر	-6094
▁سمندش	-6095
▁سنبلی	-6096
▁سوادی	-6097
▁سپهرش	-6098
▁سیاحت	-6099
ؤال	-6100
ابک	-6101
ارن	-6102
جلت	-6103
دلم	-6104
رمت	-6105
▁شأ	-6106
▁لن	-6107
ابین	-6108
استی	-6109
امیم	-6110
اینه	-6111
توحش	-6112
غرور	-6113
لشان	-6114
ندوق	-6115
پارد	-6116
▁بدن	-6117
▁بنگ	-6118
▁تبی	-6119
▁توح	-6120
▁ثقی	-6121
▁خنگ	-6122
▁شأن	-6123
▁طال	-6124
▁غنج	-6125
▁فعل	-6126
▁مرم	-6127
▁ناس	-6128
▁نحی	-6129
▁هنا	-6130
▁ورت	-6131
▁کجر	-6132
▁اشتر	-6133
▁بخشد	-6134
▁بدنه	-6135
▁برجم	-6136
▁بسان	-6137
▁بههم	-6138
▁بیشر	-6139
▁ترنم	-6140
▁ثقیل	-6141
▁جستج	-6142
▁حجال	-6143
▁خودن	-6144
▁سرنگ	-6145
▁شکور	-6146
▁فقیر	-6147
▁لنگر	-6148
▁مرمر	-6149
▁ملون	-6150
▁نحیف	-6151
▁نزهت	-6152
▁پویه	-6153
▁چابک	-6154
▁چارم	-6155
خواهیم	-6156
▁برآری	-6157
▁براهی	-6158
▁بسؤال	-6159
▁توحید	-6160
▁جوشان	-6161
▁خودنق	-6162
▁زخجلت	-6163
▁زنندش	-6164
▁سودها	-6165
▁سیمرغ	-6166
▁شاعری	-6167
▁شاهیت	-6168
▁شتابی	-6169
▁شدخاص	-6170
▁شریفه	-6171
▁شقایق	-6172
▁شمردن	-6173
▁شناسی	-6174
▁شنجرف	-6175
▁شهانت	-6176
▁شکنند	-6177
▁صادقی	-6178
▁صالحش	-6179
▁صندوق	-6180
▁صنعان	-6181
▁صنمان	-6182
▁صهبای	-6183
▁طاقتی	-6184
▁طالعت	-6185
▁طبیبا	-6186
▁طفلان	-6187
▁طلعتم	-6188
▁طمقاج	-6189
▁طوطیم	-6190
▁طویله	-6191
▁طپیدن	-6192
▁طپیده	-6193
▁طینتش	-6194
▁ظاهرت	-6195
▁عارضت	-6196
▁عاریه	-6197
▁عاقله	-6198
▁عالیه	-6199
صی	-6200
ثری	-6201
حلی	-6202
حمی	-6203
رای	-6204
ریت	-6205
زیم	-6206
صیع	-6207
طاع	-6208
لاص	-6209
چلی	-6210
▁تظ	-6211
▁رأ	-6212
▁ظه	-6213
▁چی	-6214
ابان	-6215
ادلی	-6216
اشان	-6217
المی	-6218
ستری	-6219
لیان	-6220
میان	-6221
میده	-6222
▁تلف	-6223
▁خوب	-6224
▁رأس	-6225
▁رحل	-6226
▁شمی	-6227
▁عری	-6228
▁عصم	-6229
▁مقب	-6230
▁کلی	-6231
اشانه	-6232
اییده	-6233
شمنان	-6234
▁اثری	-6235
▁افتی	-6236
▁ببست	-6237
▁بحال	-6238
▁بخلق	-6239
▁بنال	-6240
▁تظلم	-6241
▁خوبم	-6242
▁خودی	-6243
▁ظهور	-6244
▁فحلی	-6245
▁قصدش	-6246
▁قمار	-6247
▁مسند	-6248
▁نامح	-6249
▁نباز	-6250
▁هنگی	-6251
▁چیده	-6252
▁کچلی	-6253
▁یاوه	-6254
▁اخلاص	-6255
▁استغف	-6256
▁اقطاع	-6257
▁امرای	-6258
▁برونم	-6259
▁ترحمی	-6260
▁رمیان	-6261
▁شمیمش	-6262
▁شنفته	-6263
▁عادلی	-6264
▁عالمی	-6265
▁عرفان	-6266
▁عصاره	-6267
▁عصایش	-6268
▁عصمتش	-6269
▁عقربش	-6270
▁علامت	-6271
▁علایق	-6272
▁علیهم	-6273
▁عنانم	-6274
▁عیارش	-6275
▁عیسوی	-6276
▁غبغبی	-6277
▁غزنین	-6278
▁غمازی	-6279
▁غمیگن	-6280
▁غوانی	-6281
▁فراتر	-6282
▁فراخی	-6283
▁فراغم	-6284
▁فراقش	-6285
▁فرزین	-6286
▁فرصتش	-6287
▁فرصتی	-6288
▁فروغی	-6289
▁فریبش	-6290
▁فزودش	-6291
▁فزونی	-6292
▁فسارش	-6293
▁فصاحت	-6294
▁فطرتا	-6295
▁فلانی	-6296
▁فکلیت	-6297
▁قاعده	-6298
▁قافیه	-6299
بلب	-6300
دیه	-6301
رور	-6302
ازید	-6303
بلبل	-6304
زاده	-6305
ساره	-6306
لهان	-6307
وزند	-6308
وشید	-6309
یانش	-6310
▁اوث	-6311
▁بیع	-6312
▁جلد	-6313
▁خیش	-6314
▁دهر	-6315
▁دول	-6316
▁دیت	-6317
▁ویس	-6318
▁کاز	-6319
▁کسش	-6320
▁کنز	-6321
▁کنش	-6322
رورمت	-6323
مرهان	-6324
هروان	-6325
کیانش	-6326
▁الاع	-6327
▁برسا	-6328
▁بیمد	-6329
▁جرمم	-6330
▁جنبش	-6331
▁خویت	-6332
▁خیزم	-6333
▁سراج	-6334
▁سفتن	-6335
▁شکنی	-6336
▁علقه	-6337
▁فلکت	-6338
▁فگنم	-6339
▁لاوه	-6340
▁مهرش	-6341
▁هدیه	-6342
▁والا	-6343
▁پستی	-6344
▁چشان	-6345
▁کردت	-6346
▁کنیم	-6347
▁احادی	-6348
▁اوثان	-6349
▁اگرچه	-6350
▁بتیرم	-6351
▁بجامی	-6352
▁بدانش	-6353
▁خودپس	-6354
▁دادنش	-6355
▁دولتش	-6356
▁زیرکی	-6357
▁شادیم	-6358
▁فسانه	-6359
▁فسونه	-6360
▁قدرتت	-6361
▁قدریت	-6362
▁قمریش	-6363
▁قندیل	-6364
▁لآلیش	-6365
▁لاتقم	-6366
▁لاتنم	-6367
▁لبالب	-6368
▁لحیان	-6369
▁لرزان	-6370
▁لرزدت	-6371
▁لطیفه	-6372
▁لعلیش	-6373
▁لقمان	-6374
▁مأمنش	-6375
▁مادرش	-6376
▁ماران	-6377
▁ماریه	-6378
▁متفکر	-6379
▁متوحش	-6380
▁مثقبش	-6381
▁مجلسی	-6382
▁محرمش	-6383
▁محرمی	-6384
▁محشری	-6385
▁محشور	-6386
▁محفلش	-6387
▁محملی	-6388
▁محکوم	-6389
▁محیطی	-6390
▁مخالف	-6391
▁مختار	-6392
▁مختصر	-6393
▁مختلف	-6394
▁مخصوص	-6395
▁مراست	-6396
▁مرتضی	-6397
▁مرساد	-6398
▁مرسله	-6399
طب	-6400
اتح	-6401
ذرم	-6402
ساک	-6403
فور	-6404
یره	-6405
▁لا	-6406
بریز	-6407
طبلت	-6408
لگان	-6409
ورای	-6410
ورند	-6411
▁الک	-6412
▁امش	-6413
▁بصر	-6414
▁حشم	-6415
▁خرک	-6416
▁خصر	-6417
▁زاب	-6418
▁سوق	-6419
▁فدا	-6420
▁کفم	-6421
اسشان	-6422
▁استم	-6423
▁الکل	-6424
▁بمان	-6425
▁بودن	-6426
▁بودژ	-6427
▁حالت	-6428
▁حکمش	-6429
▁خاصی	-6430
▁دردت	-6431
▁دستگ	-6432
▁دلال	-6433
▁دمان	-6434
▁سابق	-6435
▁سبوس	-6436
▁سخای	-6437
▁سورا	-6438
▁طناز	-6439
▁عزای	-6440
▁عنبی	-6441
▁فاتح	-6442
▁قندی	-6443
▁ملال	-6444
▁ننهد	-6445
▁پروب	-6446
▁پسته	-6447
▁یمان	-6448
▁استبر	-6449
▁استمز	-6450
▁امساک	-6451
▁امشبی	-6452
▁باشدم	-6453
▁بایره	-6454
▁تبریز	-6455
▁دختری	-6456
▁دیروز	-6457
▁روانم	-6458
▁زابلی	-6459
▁سافله	-6460
▁سوراخ	-6461
▁شاهات	-6462
▁شکیبا	-6463
▁عصفور	-6464
▁قیصرت	-6465
▁مشاطه	-6466
▁مشامی	-6467
▁مشایع	-6468
▁مشتاق	-6469
▁مشکبو	-6470
▁مصرعی	-6471
▁مصیبت	-6472
▁مطابق	-6473
▁مطلبت	-6474
▁مطلقه	-6475
▁مطیعم	-6476
▁معالی	-6477
▁معذور	-6478
▁معرکه	-6479
▁معشری	-6480
▁مفرما	-6481
▁مقارن	-6482
▁مقبول	-6483
▁مقیمش	-6484
▁ممتحن	-6485
▁منحوس	-6486
▁مندرس	-6487
▁منزوی	-6488
▁منشان	-6489
▁منطفی	-6490
▁منمای	-6491
▁مهانت	-6492
▁موافق	-6493
▁موران	-6494
▁مولود	-6495
▁مپذیر	-6496
▁مکینی	-6497
▁میآید	-6498
▁میآیی	-6499
ادل	-6500
سنش	-6501
صاص	-6502
لزم	-6503
نگو	-6504
هنگ	-6505
▁صا	-6506
▁صو	-6507
اموز	-6508
اندت	-6509
بروز	-6510
جمند	-6511
وزون	-6512
▁افو	-6513
▁بیو	-6514
▁تاز	-6515
▁دوز	-6516
▁سرک	-6517
▁صوا	-6518
▁صیر	-6519
▁طشت	-6520
▁قار	-6521
▁قان	-6522
▁نهر	-6523
▁اسحق	-6524
▁ایشی	-6525
▁اینم	-6526
▁بجفا	-6527
▁بقفس	-6528
▁بلید	-6529
▁بیست	-6530
▁رامی	-6531
▁زمرد	-6532
▁شاهو	-6533
▁شهدن	-6534
▁صوفی	-6535
▁غوره	-6536
▁قلزم	-6537
▁مردک	-6538
▁نشاب	-6539
▁پیاز	-6540
▁گرید	-6541
▁آغازش	-6542
▁اعتلا	-6543
▁افواج	-6544
▁اندرز	-6545
▁ایشیخ	-6546
▁بآهنگ	-6547
▁باورت	-6548
▁بلعام	-6549
▁بناید	-6550
▁تازگی	-6551
▁تاشان	-6552
▁تحملی	-6553
▁تسبیح	-6554
▁توسنش	-6555
▁درگهم	-6556
▁دوزخش	-6557
▁رحیلش	-6558
▁زرینه	-6559
▁سخنگو	-6560
▁سرشار	-6561
▁سرمست	-6562
▁سروری	-6563
▁صافتر	-6564
▁صواحب	-6565
▁صیرفی	-6566
▁عنادل	-6567
▁قارون	-6568
▁قانون	-6569
▁قسمتم	-6570
▁ممدوح	-6571
▁موزون	-6572
▁میرزا	-6573
▁میزنی	-6574
▁میپرد	-6575
▁میچمد	-6576
▁میگرد	-6577
▁ناآشن	-6578
▁ناخلف	-6579
▁نارسا	-6580
▁نازکت	-6581
▁ناشده	-6582
▁نالیم	-6583
▁نامدت	-6584
▁ناورد	-6585
▁ناووس	-6586
▁ناوکی	-6587
▁ناچیز	-6588
▁نبخشد	-6589
▁نبرده	-6590
▁نبندد	-6591
▁نتازد	-6592
▁نجویم	-6593
▁ندادن	-6594
▁نرنجد	-6595
▁نزهتش	-6596
▁نسازم	-6597
▁نسوخت	-6598
▁نشکفت	-6599
ذت	-6600
انو	-6601
بده	-6602
ثال	-6603
سود	-6604
شام	-6605
ضرر	-6606
غال	-6607
▁حض	-6608
آشام	-6609
بیله	-6610
ختیم	-6611
رابه	-6612
شتند	-6613
فزای	-6614
وشند	-6615
▁اشت	-6616
▁ایل	-6617
▁ترف	-6618
▁تسی	-6619
▁تشت	-6620
▁دمت	-6621
▁دنی	-6622
▁زشت	-6623
▁شدز	-6624
▁شرع	-6625
▁ضرر	-6626
▁عبر	-6627
▁فرف	-6628
▁لذت	-6629
▁میت	-6630
▁میف	-6631
▁چال	-6632
ریبان	-6633
سودای	-6634
هشتند	-6635
وردار	-6636
▁بافس	-6637
▁بدلش	-6638
▁بشکل	-6639
▁تافت	-6640
▁تلخم	-6641
▁حصار	-6642
▁حضور	-6643
▁داود	-6644
▁دوال	-6645
▁دگرت	-6646
▁زهار	-6647
▁شدزر	-6648
▁عیدی	-6649
▁قدوم	-6650
▁میرد	-6651
▁میزن	-6652
▁پروا	-6653
▁کلیل	-6654
▁گردت	-6655
▁انباز	-6656
▁انداز	-6657
▁بجوید	-6658
▁بحالم	-6659
▁بخلاق	-6660
▁برنده	-6661
▁بزانو	-6662
▁بستمت	-6663
▁بفراز	-6664
▁بنوشم	-6665
▁بهاری	-6666
▁بگیری	-6667
▁تافتی	-6668
▁تدریس	-6669
▁تسیلم	-6670
▁تمثال	-6671
▁دوستش	-6672
▁روشنش	-6673
▁شعبده	-6674
▁عبرتی	-6675
▁فرادی	-6676
▁قبیله	-6677
▁میفگن	-6678
▁نشکفد	-6679
▁نشکند	-6680
▁نصیبم	-6681
▁نعمتی	-6682
▁نفرین	-6683
▁نقشکی	-6684
▁نمارق	-6685
▁نمودی	-6686
▁نمکین	-6687
▁ننشست	-6688
▁ننهند	-6689
▁ننگرم	-6690
▁ننگری	-6691
▁ننگست	-6692
▁نهفتن	-6693
▁نهفتی	-6694
▁نوازی	-6695
▁نوخیز	-6696
▁نوذری	-6697
▁نوشتم	-6698
▁نوشتی	-6699
ثار	-6700
ثغر	-6701
صیل	-6702
ماع	-6703
ژبر	-6704
کهف	-6705
▁دد	-6706
جاست	-6707
قیبی	-6708
لاهی	-6709
ونام	-6710
پایی	-6711
یدمت	-6712
▁بصع	-6713
▁سره	-6714
▁فرج	-6715
▁قاب	-6716
▁پیس	-6717
▁چهی	-6718
▁کیس	-6719
الیده	-6720
دمانش	-6721
ژبران	-6722
▁آثار	-6723
▁ابرآ	-6724
▁ازمن	-6725
▁الحر	-6726
▁ایما	-6727
▁بحسن	-6728
▁بخاش	-6729
▁بدلم	-6730
▁بغار	-6731
▁بنقش	-6732
▁بکرت	-6733
▁بکهف	-6734
▁تفحص	-6735
▁تیرم	-6736
▁خاره	-6737
▁شرکت	-6738
▁شکرخ	-6739
▁طپان	-6740
▁مجدر	-6741
▁مظلم	-6742
▁نایم	-6743
▁نخرد	-6744
▁نرست	-6745
▁نوبر	-6746
▁هوسم	-6747
▁چران	-6748
▁یکاد	-6749
▁اجماع	-6750
▁الثغر	-6751
▁بصعوه	-6752
▁بمکتب	-6753
▁بکسیت	-6754
▁بکینم	-6755
▁تحصیل	-6756
▁سپارد	-6757
▁سپردم	-6758
▁شمعها	-6759
▁شکافت	-6760
▁صاحبا	-6761
▁ظلمات	-6762
▁قابله	-6763
▁لیلیش	-6764
▁مظلمه	-6765
▁ناشاد	-6766
▁نقیبی	-6767
▁نپرسد	-6768
▁نچیده	-6769
▁نژادا	-6770
▁نکنند	-6771
▁نگارا	-6772
▁نگاشت	-6773
▁نگذرم	-6774
▁نگذری	-6775
▁نگنجد	-6776
▁نگیری	-6777
▁هدهدی	-6778
▁هزارم	-6779
▁هزاری	-6780
▁هفتاد	-6781
▁هماها	-6782
▁همراه	-6783
▁همرهم	-6784
▁همچون	-6785
▁هوشنگ	-6786
▁هیربد	-6787
▁واعظت	-6788
▁والای	-6789
▁والله	-6790
▁والیس	-6791
▁وبلبل	-6792
▁ورزیم	-6793
▁وسایل	-6794
▁وسوسه	-6795
▁وفایم	-6796
▁ونالم	-6797
▁ونهان	-6798
▁پابست	-6799
طت	-6800
ٰذ	-6801
اقش	-6802
طاف	-6803
فتن	-6804
نیت	-6805
▁اک	-6806
▁رز	-6807
▁قض	-6808
▁چگ	-6809
اخان	-6810
اخلف	-6811
اوود	-6812
ریقت	-6813
سوره	-6814
لیلی	-6815
نیفه	-6816
ٰذان	-6817
پرسد	-6818
▁خطی	-6819
▁داس	-6820
▁شخص	-6821
▁نثر	-6822
▁وقف	-6823
▁چگل	-6824
مدلله	-6825
ندگان	-6826
▁اکمل	-6827
▁بارم	-6828
▁بانت	-6829
▁بجنب	-6830
▁بحیر	-6831
▁تنفس	-6832
▁جزیه	-6833
▁خلطت	-6834
▁رحمن	-6835
▁سریر	-6836
▁صفای	-6837
▁عذرم	-6838
▁فرات	-6839
▁قضای	-6840
▁میزد	-6841
▁نارم	-6842
▁نرسد	-6843
▁هشته	-6844
▁وجای	-6845
▁وزید	-6846
▁پرنم	-6847
▁گوشی	-6848
مینالم	-6849
▁آمدیم	-6850
▁الطاف	-6851
▁امنیت	-6852
▁اکملت	-6853
▁بانتظ	-6854
▁بخورش	-6855
▁بشکاف	-6856
▁جوابت	-6857
▁حنیفه	-6858
▁خلیلی	-6859
▁خوشاب	-6860
▁داوود	-6861
▁رواقش	-6862
▁شدندش	-6863
▁شهادت	-6864
▁قسوره	-6865
▁لخلخه	-6866
▁مدیحت	-6867
▁منبری	-6868
▁منتظم	-6869
▁ناکام	-6870
▁نشمار	-6871
▁نفسند	-6872
▁همایی	-6873
▁هٰذان	-6874
▁پابند	-6875
▁پارسی	-6876
▁پاطیل	-6877
▁پردگی	-6878
▁پستیش	-6879
▁پسندت	-6880
▁پشتها	-6881
▁چالاک	-6882
▁چراست	-6883
▁چرنده	-6884
▁چریدی	-6885
▁چشمان	-6886
▁چشمها	-6887
▁چشیده	-6888
▁چهارم	-6889
▁چکیده	-6890
▁کآسان	-6891
▁کآنچه	-6892
▁کآواز	-6893
▁کآیمت	-6894
▁کابین	-6895
▁کاسیر	-6896
▁کاشکی	-6897
▁کافتد	-6898
▁کالان	-6899
حف	-6900
وض	-6901
ذشت	-6902
عای	-6903
هقه	-6904
وله	-6905
ییم	-6906
▁غش	-6907
ازمت	-6908
دارش	-6909
ریضت	-6910
فتری	-6911
هقهه	-6912
وسال	-6913
▁امن	-6914
▁رهد	-6915
▁شیء	-6916
▁صول	-6917
▁عوض	-6918
▁قصب	-6919
▁...ـ	-6920
▁اجتم	-6921
▁ایست	-6922
▁بسرا	-6923
▁بقهر	-6924
▁بماه	-6925
▁جاری	-6926
▁جهاد	-6927
▁خرما	-6928
▁درجم	-6929
▁دهنی	-6930
▁سروش	-6931
▁سستی	-6932
▁سواد	-6933
▁شمعم	-6934
▁غلای	-6935
▁غنیم	-6936
▁فنای	-6937
▁متاب	-6938
▁مخفی	-6939
▁مصحف	-6940
▁نهند	-6941
▁نورش	-6942
▁پاکو	-6943
▁پخته	-6944
▁کآرد	-6945
▁کبیر	-6946
▁کلان	-6947
افریها	-6948
▁بآنجا	-6949
▁برونت	-6950
▁برگرد	-6951
▁بشنفت	-6952
▁بگشای	-6953
▁بیتاب	-6954
▁خرامت	-6955
▁دقایق	-6956
▁رفتنی	-6957
▁روایت	-6958
▁روبیم	-6959
▁زجاجی	-6960
▁صولتش	-6961
▁طبیبش	-6962
▁غشاوه	-6963
▁قهقهه	-6964
▁متابع	-6965
▁مدعای	-6966
▁مریضت	-6967
▁مسافر	-6968
▁نخوان	-6969
▁نساید	-6970
▁کآییم	-6971
▁کالای	-6972
▁کالبد	-6973
▁کبابت	-6974
▁کجایت	-6975
▁کردار	-6976
▁کردمت	-6977
▁کریمت	-6978
▁کریمی	-6979
▁کسانم	-6980
▁کفران	-6981
▁کلیچه	-6982
▁کمندش	-6983
▁کناری	-6984
▁کنونم	-6985
▁کوثرش	-6986
▁کودکت	-6987
▁کودکی	-6988
▁کوفتن	-6989
▁کوهست	-6990
▁کیمیی	-6991
▁گدازد	-6992
▁گذشتن	-6993
▁گذشتی	-6994
▁گریزی	-6995
▁گشایم	-6996
▁گفتمی	-6997
▁گلبرگ	-6998
▁گلبنش	-6999
رض	-7000
ضد	-7001
قع	-7002
پد	-7003
ثلی	-7004
رشد	-7005
وبر	-7006
یشب	-7007
ییر	-7008
▁رج	-7009
بازی	-7010
ثلیث	-7011
کامی	-7012
▁بکن	-7013
▁طیل	-7014
▁عضد	-7015
▁لجه	-7016
▁مام	-7017
▁مله	-7018
▁ممن	-7019
▁کمش	-7020
اجورد	-7021
راگاه	-7022
▁آگهم	-7023
▁ارزد	-7024
▁بتلخ	-7025
▁بدنب	-7026
▁بطپد	-7027
▁بعرض	-7028
▁بیمن	-7029
▁بیکس	-7030
▁رجال	-7031
▁زیشب	-7032
▁سرخی	-7033
▁سنین	-7034
▁شادز	-7035
▁طامی	-7036
▁عامت	-7037
▁فایق	-7038
▁قالب	-7039
▁مبین	-7040
▁مرقع	-7041
▁ملهم	-7042
▁نجنب	-7043
▁نظمت	-7044
▁کشمت	-7045
▁گوشت	-7046
▁یکسر	-7047
▁آزادم	-7048
▁الرشد	-7049
▁بآیین	-7050
▁بازند	-7051
▁بتموز	-7052
▁برهنه	-7053
▁بستیم	-7054
▁بنالد	-7055
▁بکشتن	-7056
▁تغییر	-7057
▁توزین	-7058
▁خموشی	-7059
▁دادار	-7060
▁ریزدت	-7061
▁صنوبر	-7062
▁طریقت	-7063
▁فرخند	-7064
▁مدارش	-7065
▁مسأله	-7066
▁ممنون	-7067
▁نثارت	-7068
▁نپیند	-7069
▁کردیم	-7070
▁گشودم	-7071
▁گلشنم	-7072
▁گلنار	-7073
▁گنجور	-7074
▁گوهرت	-7075
▁گویست	-7076
▁گوییا	-7077
▁گیاهی	-7078
▁یافتم	-7079
▁یماقی	-7080
▁یمانش	-7081
▁یمانی	-7082
▁یکنظر	-7083
انداختی	-7084
جوانمرد	-7085
سمانهای	-7086
شنامشان	-7087
ورانگیز	-7088
وشیروان	-7089
▁آتشگهی	-7090
▁آراستی	-7091
▁آرایان	-7092
▁آسمانش	-7093
▁آسیایی	-7094
▁آشکارش	-7095
▁آشیانی	-7096
▁آلودگی	-7097
▁آموخته	-7098
▁آنانکه	-7099
تد	-7100
عج	-7101
تعج	-7102
جدی	-7103
زدش	-7104
هبت	-7105
پاک	-7106
گشت	-7107
▁سق	-7108
▁یم	-7109
▁اجر	-7110
▁بدم	-7111
▁رهز	-7112
▁زوی	-7113
▁سوء	-7114
▁شهل	-7115
▁مشم	-7116
▁نشت	-7117
اصیان	-7118
باشته	-7119
تعجیل	-7120
ربایی	-7121
ومندم	-7122
گذارم	-7123
▁ازنگ	-7124
▁بساز	-7125
▁بوجد	-7126
▁بچاک	-7127
▁جستم	-7128
▁خیری	-7129
▁زیبش	-7130
▁شهند	-7131
▁شودش	-7132
▁صفات	-7133
▁ظرفی	-7134
▁عذرت	-7135
▁علمت	-7136
▁غلتد	-7137
▁مشمر	-7138
▁نمیک	-7139
▁کاود	-7140
▁کنده	-7141
▁کیشت	-7142
گشتگان	-7143
▁بجانب	-7144
▁بسازم	-7145
▁بشتاب	-7146
▁بمیرد	-7147
▁بودنه	-7148
▁بیاور	-7149
▁تأملی	-7150
▁جانگز	-7151
▁جستمت	-7152
▁خیالی	-7153
▁داغها	-7154
▁دیدمت	-7155
▁رفتمی	-7156
▁سقایه	-7157
▁شهلای	-7158
▁شکارم	-7159
▁صافدل	-7160
▁مالام	-7161
▁مذهبت	-7162
▁مسجدی	-7163
▁میناف	-7164
▁ندزدش	-7165
▁نشترم	-7166
▁نیافر	-7167
▁گردیم	-7168
▁ابلهان	-7169
▁ابوالن	-7170
▁اجتماع	-7171
▁احادیث	-7172
▁احتمال	-7173
▁احتیاج	-7174
▁ارتفاع	-7175
▁ارغنون	-7176
▁اروندم	-7177
▁ازقندم	-7178
▁استاده	-7179
▁استبرق	-7180
▁اشتغال	-7181
▁اشتیاق	-7182
▁اصطبلت	-7183
▁اعتماد	-7184
▁افراخت	-7185
▁افراشت	-7186
▁افزودت	-7187
▁افغانم	-7188
▁افکنند	-7189
▁اقلیمی	-7190
▁الامیر	-7191
▁التفات	-7192
▁الجمیل	-7193
▁الحرام	-7194
▁السرور	-7195
▁العاشق	-7196
▁الوندم	-7197
▁انتقام	-7198
▁اندازه	-7199
اء	-7200
قد	-7201
وة	-7202
شنی	-7203
▁رش	-7204
▁رف	-7205
▁شف	-7206
▁پذ	-7207
انمت	-7208
روزه	-7209
زمان	-7210
ششان	-7211
یدهد	-7212
▁اصم	-7213
▁انس	-7214
▁بطر	-7215
▁درس	-7216
▁شمر	-7217
▁صحو	-7218
▁لنگ	-7219
▁مان	-7220
▁منز	-7221
▁پرخ	-7222
▁کاغ	-7223
داریت	-7224
▁بالی	-7225
▁برمل	-7226
▁بنقد	-7227
▁بیوز	-7228
▁حاجت	-7229
▁خارم	-7230
▁خونخ	-7231
▁درنگ	-7232
▁دشتی	-7233
▁دوام	-7234
▁رشحه	-7235
▁رفاه	-7236
▁سالت	-7237
▁شفاف	-7238
▁شودم	-7239
▁ضحکه	-7240
▁غموس	-7241
▁لبوس	-7242
▁ماهم	-7243
▁مروی	-7244
▁منور	-7245
▁میسپ	-7246
ستانان	-7247
▁ایازش	-7248
▁بحیاء	-7249
▁برملا	-7250
▁برکان	-7251
▁بزشتی	-7252
▁بطرزی	-7253
▁تناهی	-7254
▁رسیدش	-7255
▁شبانه	-7256
▁عذارش	-7257
▁عصیان	-7258
▁فتاوی	-7259
▁فرخنه	-7260
▁لالای	-7261
▁منزلم	-7262
▁مکرمت	-7263
▁میدهم	-7264
▁نافرج	-7265
▁ندامت	-7266
▁پذیرم	-7267
▁پرخطر	-7268
▁چونکه	-7269
▁کانجا	-7270
▁گویان	-7271
▁اسیریم	-7272
▁اندوهی	-7273
▁اندیشی	-7274
▁انسانی	-7275
▁انصافت	-7276
▁انگشتش	-7277
▁اهتزاز	-7278
▁ایستاد	-7279
▁بآستین	-7280
▁بآفرین	-7281
▁باختمش	-7282
▁باختنت	-7283
▁بازآید	-7284
▁بازاری	-7285
▁باقبال	-7286
▁بالاتر	-7287
▁بانصاف	-7288
▁بایوان	-7289
▁ببارید	-7290
▁ببالید	-7291
▁ببخشود	-7292
▁ببرادر	-7293
▁بتثلیث	-7294
▁بترصیع	-7295
▁بتسبیح	-7296
▁بتغافل	-7297
▁بتلافی	-7298
▁بتوانش	-7299
بث	-7300
هن	-7301
فاش	-7302
فیر	-7303
یشی	-7304
▁زح	-7305
▁زش	-7306
▁چا	-7307
سلام	-7308
قیقی	-7309
ویسد	-7310
▁آفت	-7311
▁افز	-7312
▁اید	-7313
▁بقب	-7314
▁تزل	-7315
▁زشش	-7316
▁شکم	-7317
▁صحی	-7318
▁صخر	-7319
▁صور	-7320
▁فوق	-7321
▁مبر	-7322
▁مرث	-7323
▁مفت	-7324
▁نود	-7325
▁وسا	-7326
▁پهن	-7327
▁چمد	-7328
▁گور	-7329
▁یکت	-7330
▁اشکش	-7331
▁امرد	-7332
▁بعبث	-7333
▁بندت	-7334
▁بوزه	-7335
▁بوقت	-7336
▁تختی	-7337
▁خدات	-7338
▁خروج	-7339
▁خفاش	-7340
▁دشتش	-7341
▁دهنم	-7342
▁زحکم	-7343
▁ساری	-7344
▁شانه	-7345
▁صخره	-7346
▁قیدی	-7347
▁لطفم	-7348
▁مشاع	-7349
▁ممان	-7350
▁مولد	-7351
▁کروی	-7352
▁گشتش	-7353
مرزیده	-7354
▁اخترت	-7355
▁افکار	-7356
▁امامی	-7357
▁بتیغم	-7358
▁بسگان	-7359
▁بقبله	-7360
▁تزلزل	-7361
▁تکفیر	-7362
▁جادوی	-7363
▁جواله	-7364
▁خجالت	-7365
▁شویدش	-7366
▁صبوری	-7367
▁صحیفه	-7368
▁عقیقی	-7369
▁غازیش	-7370
▁ماهشن	-7371
▁مرثیه	-7372
▁مشاعل	-7373
▁نخستت	-7374
▁وساوس	-7375
▁وفاتش	-7376
▁پرنده	-7377
▁کشیشی	-7378
▁یکتای	-7379
▁اخلاقش	-7380
▁افزوده	-7381
▁السلام	-7382
▁بتکاپو	-7383
▁بتکبیر	-7384
▁بحقیقت	-7385
▁بحیرتم	-7386
▁بخاشاک	-7387
▁بخامان	-7388
▁بخرابه	-7389
▁بخلعتی	-7390
▁بخلوتی	-7391
▁بخلیفه	-7392
▁بخوابت	-7393
▁بخوانم	-7394
▁بخوانی	-7395
▁بدخشان	-7396
▁بدرویش	-7397
▁بدرگاه	-7398
▁بدرگهش	-7399
نظ	-7400
امش	-7401
عار	-7402
غیر	-7403
نظل	-7404
▁سد	-7405
▁سک	-7406
▁شط	-7407
▁وک	-7408
▁چغ	-7409
اهای	-7410
▁برج	-7411
▁جهل	-7412
▁حکی	-7413
▁طغر	-7414
▁مشغ	-7415
▁ملع	-7416
▁منظ	-7417
▁نوس	-7418
▁ومه	-7419
▁چاش	-7420
زایند	-7421
شانیم	-7422
▁آهنی	-7423
▁الاخ	-7424
▁انکی	-7425
▁باست	-7426
▁بدلی	-7427
▁بدنی	-7428
▁جگرن	-7429
▁حرمش	-7430
▁حنظل	-7431
▁دلند	-7432
▁رفتش	-7433
▁سرمد	-7434
▁سکون	-7435
▁صبرم	-7436
▁صغیر	-7437
▁طعنت	-7438
▁طلوع	-7439
▁عیبی	-7440
▁منجم	-7441
▁نعال	-7442
▁وکیل	-7443
▁کبکم	-7444
▁گنجم	-7445
▁آهسته	-7446
▁اشعار	-7447
▁المنه	-7448
▁انکیس	-7449
▁بدریا	-7450
▁بدنیا	-7451
▁برمکش	-7452
▁بیزار	-7453
▁تنشان	-7454
▁توایم	-7455
▁جانور	-7456
▁خزانف	-7457
▁خورند	-7458
▁دیدیش	-7459
▁زانیه	-7460
▁سرمدی	-7461
▁طغرای	-7462
▁عتابی	-7463
▁غمامش	-7464
▁فروزی	-7465
▁لوحان	-7466
▁مشغول	-7467
▁ملعون	-7468
▁منظور	-7469
▁مولای	-7470
▁نایره	-7471
▁نمیرد	-7472
▁نوسفر	-7473
▁نیارد	-7474
▁چاشنی	-7475
▁چغانه	-7476
▁گفتنت	-7477
▁یاسمن	-7478
▁استوار	-7479
▁افشانی	-7480
▁المقدس	-7481
▁بامیدی	-7482
▁بدنهاد	-7483
▁بدهقان	-7484
▁بدهنوز	-7485
▁بدیوان	-7486
▁برآرند	-7487
▁برآورم	-7488
▁برادرم	-7489
▁برانیش	-7490
▁بربسته	-7491
▁بربندم	-7492
▁برزانی	-7493
▁برساحل	-7494
▁برسانی	-7495
▁برفتار	-7496
▁برقصیم	-7497
▁برچیده	-7498
▁برگذشت	-7499
خبر	-7500
ربر	-7501
سین	-7502
ینش	-7503
▁جذ	-7504
▁ذق	-7505
اقوس	-7506
راوت	-7507
قتول	-7508
▁ارق	-7509
▁بحث	-7510
▁بها	-7511
▁بول	-7512
▁ثمر	-7513
▁خمی	-7514
▁شین	-7515
▁فتم	-7516
▁قدت	-7517
▁قفل	-7518
▁ماس	-7519
▁ونی	-7520
آگهان	-7521
امشان	-7522
▁ایوب	-7523
▁بازآ	-7524
▁بدشت	-7525
▁بدیر	-7526
▁بعدم	-7527
▁بمنش	-7528
▁بکرم	-7529
▁جذبه	-7530
▁حزین	-7531
▁ذقنم	-7532
▁رسوا	-7533
▁ریاض	-7534
▁زهرم	-7535
▁شرمش	-7536
▁صیدخ	-7537
▁عیشت	-7538
▁قدیر	-7539
▁متهم	-7540
اندگان	-7541
۱۱۷۱هق	-7542
▁ارقمش	-7543
▁باخبر	-7544
▁بولای	-7545
▁بکربر	-7546
▁بگذار	-7547
▁تحسین	-7548
▁حرفها	-7549
▁خوابی	-7550
▁دلیرم	-7551
▁شریان	-7552
▁قرارت	-7553
▁قرارش	-7554
▁ماسوا	-7555
▁متهمش	-7556
▁مجلسم	-7557
▁مقتول	-7558
▁مقصود	-7559
▁هزارش	-7560
▁ونیاز	-7561
▁پسینش	-7562
▁کآرند	-7563
▁کردست	-7564
▁گدایش	-7565
▁افروزی	-7566
▁القرار	-7567
▁بازتاب	-7568
▁بایستم	-7569
▁برگردد	-7570
▁برگشتن	-7571
▁بریشان	-7572
▁بزرگیی	-7573
▁بزنجیر	-7574
▁بسپارد	-7575
▁بشاهان	-7576
▁بشمارم	-7577
▁بشمشیر	-7578
▁بشورید	-7579
▁بشیران	-7580
▁بصحرای	-7581
▁بضاعتی	-7582
▁بطراوت	-7583
▁بطریقت	-7584
▁بعتابت	-7585
▁بفتراک	-7586
▁بفردای	-7587
▁بفردوس	-7588
▁بفرمای	-7589
▁بلرزید	-7590
▁بمخلوق	-7591
▁بمرادت	-7592
▁بمردند	-7593
▁بمشامی	-7594
▁بمیانه	-7595
▁بمیدان	-7596
▁بنازید	-7597
▁بناقوس	-7598
▁بناپاک	-7599
بط	-7600
خن	-7601
بیا	-7602
دود	-7603
شود	-7604
ونت	-7605
پیش	-7606
▁تض	-7607
▁شش	-7608
شکیب	-7609
شیدی	-7610
▁آیت	-7611
▁برک	-7612
▁توب	-7613
▁سده	-7614
▁سمی	-7615
▁ضبط	-7616
▁عفت	-7617
▁هدف	-7618
▁پود	-7619
دمشان	-7620
نیانی	-7621
وارند	-7622
▁بسخن	-7623
▁بسیج	-7624
▁حلاج	-7625
▁خرگه	-7626
▁خضاب	-7627
▁دبور	-7628
▁رادی	-7629
▁رایق	-7630
▁شاخس	-7631
▁شباب	-7632
▁شنعت	-7633
▁شهنش	-7634
▁منزه	-7635
▁میرس	-7636
▁میمز	-7637
▁میکش	-7638
▁نارد	-7639
▁نورد	-7640
▁ودود	-7641
▁پلنگ	-7642
▁ازپیش	-7643
▁الوان	-7644
▁انبیا	-7645
▁بردیم	-7646
▁برسان	-7647
▁بپرسش	-7648
▁تضلیل	-7649
▁توبوا	-7650
▁جوابم	-7651
▁حضرتت	-7652
▁حقایق	-7653
▁خوانم	-7654
▁دارمت	-7655
▁ریشان	-7656
▁فرصتم	-7657
▁قاتلم	-7658
▁مرتبه	-7659
▁میشود	-7660
▁مینام	-7661
▁نگارش	-7662
▁کارها	-7663
▁کاستی	-7664
▁کشتنی	-7665
▁گزینی	-7666
▁اختصاص	-7667
▁بانباز	-7668
▁برکندم	-7669
▁بناچار	-7670
▁بنشینی	-7671
▁بنهاده	-7672
▁بنوازم	-7673
▁بهامون	-7674
▁بهرمند	-7675
▁بهشتاد	-7676
▁بوالعج	-7677
▁بودشان	-7678
▁بودموی	-7679
▁بپرسید	-7680
▁بپرهیز	-7681
▁بپهلوی	-7682
▁بکناری	-7683
▁بگداخت	-7684
▁بگریزی	-7685
▁بگریست	-7686
▁بگشاده	-7687
▁بگشاید	-7688
▁بگلبنی	-7689
▁بگلشنی	-7690
▁بگویید	-7691
▁بگیردم	-7692
▁بیازید	-7693
▁بیتابی	-7694
▁بیجاست	-7695
▁بیجهتم	-7696
▁بیدرنگ	-7697
▁بیرجیس	-7698
▁بیشرمی	-7699
غش	-7700
یف	-7701
تشم	-7702
عاد	-7703
ویل	-7704
یرت	-7705
▁صم	-7706
ادان	-7707
ادین	-7708
ازار	-7709
انین	-7710
زنوی	-7711
قشان	-7712
ونین	-7713
ژگون	-7714
۱۱۹۲	-7715
▁تسن	-7716
▁حصر	-7717
▁زای	-7718
▁زرت	-7719
▁غزل	-7720
▁ماد	-7721
▁معت	-7722
▁کسل	-7723
▁یون	-7724
▁۱۱۹	-7725
▁اشکی	-7726
▁امتح	-7727
▁اولم	-7728
▁بامش	-7729
▁بوسد	-7730
▁بیغش	-7731
▁دهیم	-7732
▁سعدی	-7733
▁غمگس	-7734
▁فکرش	-7735
▁قدیم	-7736
▁لطیف	-7737
▁مبرا	-7738
▁متقی	-7739
▁منات	-7740
▁منطق	-7741
▁نقاش	-7742
▁پیشم	-7743
▁۱۱۹۵	-7744
قیقشان	-7745
ولادین	-7746
▁آرایی	-7747
▁آزادش	-7748
▁ابعاد	-7749
▁ازوست	-7750
▁ببارد	-7751
▁بدگوی	-7752
▁بصیرت	-7753
▁بلایی	-7754
▁بیاری	-7755
▁بیاید	-7756
▁تحویل	-7757
▁تسنیم	-7758
▁توانی	-7759
▁جفاست	-7760
▁خوشیم	-7761
▁دامنم	-7762
▁دلهای	-7763
▁ساختی	-7764
▁شادان	-7765
▁غزنوی	-7766
▁مادری	-7767
▁معترف	-7768
▁مگیرم	-7769
▁نبودی	-7770
▁نهنگی	-7771
▁پیرار	-7772
▁چمننم	-7773
▁کآتشم	-7774
▁کونین	-7775
▁گفتنی	-7776
▁آستانم	-7777
▁آشیانه	-7778
▁انجمنم	-7779
▁بنشسته	-7780
▁بیقرار	-7781
▁بیلشان	-7782
▁بیمایه	-7783
▁بیمدار	-7784
▁بینوات	-7785
▁بیوفای	-7786
▁بیکسان	-7787
▁بیگنهی	-7788
▁تاختند	-7789
▁تدبیرم	-7790
▁تذروان	-7791
▁ترسیده	-7792
▁ترکتاز	-7793
▁تشنگان	-7794
▁تغافلی	-7795
▁تلخکام	-7796
▁تمنایت	-7797
▁تنگدلی	-7798
▁توانگر	-7799
دام	-7800
استم	-7801
اشتش	-7802
طارد	-7803
لسمی	-7804
وشته	-7805
کنان	-7806
گارم	-7807
ینهی	-7808
▁باص	-7809
▁تره	-7810
▁دلج	-7811
▁دلق	-7812
▁دیب	-7813
▁دیگ	-7814
▁رسل	-7815
▁رسو	-7816
▁رکن	-7817
▁شبق	-7818
▁عدم	-7819
▁هاش	-7820
▁پاش	-7821
▁پرن	-7822
▁چای	-7823
گزیرم	-7824
▁آبله	-7825
▁افکن	-7826
▁بگسل	-7827
▁ترنج	-7828
▁تواش	-7829
▁حرفش	-7830
▁دلیر	-7831
▁رهین	-7832
▁زاید	-7833
▁سرکن	-7834
▁سطبر	-7835
▁مویش	-7836
▁نروم	-7837
▁نقشه	-7838
▁نمیش	-7839
▁وعیش	-7840
▁پوشش	-7841
▁کناس	-7842
▁کوست	-7843
▁کوفه	-7844
▁گلها	-7845
▁بارگی	-7846
▁بازان	-7847
▁بامری	-7848
▁بجانم	-7849
▁بخشود	-7850
▁برندی	-7851
▁بوسید	-7852
▁بکدام	-7853
▁تعریس	-7854
▁جمالی	-7855
▁حیاتت	-7856
▁خاطرش	-7857
▁دادنم	-7858
▁دیارم	-7859
▁دیباج	-7860
▁رسایی	-7861
▁رهبان	-7862
▁طلسمی	-7863
▁عطارد	-7864
▁فتادم	-7865
▁مضطرب	-7866
▁میرند	-7867
▁مینهی	-7868
▁نهایت	-7869
▁نیاری	-7870
▁کاران	-7871
▁کارگر	-7872
▁کوبان	-7873
▁گزینم	-7874
▁باصحاب	-7875
▁بتقدیس	-7876
▁بدفتری	-7877
▁بگسلند	-7878
▁توانیم	-7879
▁جانگزا	-7880
▁جاهشان	-7881
▁جداییش	-7882
▁جستجوی	-7883
▁جلالتش	-7884
▁جنتشان	-7885
▁جواسیس	-7886
▁جوانیت	-7887
▁جگرنات	-7888
▁حرزشان	-7889
▁حریفند	-7890
▁حمدلله	-7891
▁حوریان	-7892
▁حکایتی	-7893
▁حکیمان	-7894
▁خاصیتی	-7895
▁خالدین	-7896
▁خالشان	-7897
▁خاموشش	-7898
▁خاندان	-7899
نیس	-7900
کفر	-7901
امنی	-7902
فرست	-7903
فندم	-7904
▁آوه	-7905
▁احس	-7906
▁ببن	-7907
▁مغب	-7908
▁هدر	-7909
▁آیند	-7910
▁انتق	-7911
▁ببال	-7912
▁ببند	-7913
▁ببوی	-7914
▁بتاب	-7915
▁بتگر	-7916
▁بخلش	-7917
▁برگی	-7918
▁بسفر	-7919
▁بیاض	-7920
▁تأمل	-7921
▁جلوس	-7922
▁خاکت	-7923
▁خوست	-7924
▁دویم	-7925
▁زخار	-7926
▁سمین	-7927
▁شبنم	-7928
▁ضعفم	-7929
▁عیدم	-7930
▁مرغک	-7931
▁هارب	-7932
▁کندش	-7933
دیوارش	-7934
گریبان	-7935
▁آوازی	-7936
▁احسنت	-7937
▁ازکفر	-7938
▁اشاره	-7939
▁اشراق	-7940
▁الحان	-7941
▁امیدم	-7942
▁اندکی	-7943
▁ببنیم	-7944
▁بتانی	-7945
▁برایت	-7946
▁بپایت	-7947
▁بکاری	-7948
▁بگویش	-7949
▁تجنیس	-7950
▁جنگجو	-7951
▁خمیده	-7952
▁دردام	-7953
▁دوایت	-7954
▁دویده	-7955
▁شعاعی	-7956
▁فرستم	-7957
▁قرارم	-7958
▁مغبچه	-7959
▁میکال	-7960
▁پاداش	-7961
▁پریدم	-7962
▁پیاله	-7963
فرستادم	-7964
▁اسفندم	-7965
▁اعتکاف	-7966
▁امیران	-7967
▁اینقدر	-7968
▁بکاریم	-7969
▁تاریخش	-7970
▁خاکشان	-7971
▁خاکیان	-7972
▁خاییده	-7973
▁خرامید	-7974
▁خردسال	-7975
▁خرسوار	-7976
▁خروشان	-7977
▁خشنودم	-7978
▁خفتمنه	-7979
▁خلقتنی	-7980
▁خنازیر	-7981
▁خواجگی	-7982
▁خواریم	-7983
▁خواندش	-7984
▁خوانیم	-7985
▁خواهید	-7986
▁خواهیش	-7987
▁خوایقش	-7988
▁خودبین	-7989
▁خودکام	-7990
▁خونبار	-7991
▁داعیان	-7992
▁دانستی	-7993
▁داوریش	-7994
▁دبیران	-7995
▁دختران	-7996
▁دخترکی	-7997
▁درآمدم	-7998
▁درخورش	-7999
نف	-8000
اتت	-8001
ایکش	-8002
سوزم	-8003
ماهی	-8004
▁آرش	-8005
▁بنو	-8006
▁تلک	-8007
▁جزو	-8008
▁خلت	-8009
▁شرط	-8010
▁طرز	-8011
▁نخی	-8012
▁نمر	-8013
▁هلک	-8014
▁واس	-8015
▁چرب	-8016
زداری	-8017
▁آلای	-8018
▁آهها	-8019
▁بالم	-8020
▁بردت	-8021
▁بردم	-8022
▁بنوی	-8023
▁بکمر	-8024
▁حقوق	-8025
▁خمار	-8026
▁خوشا	-8027
▁دادت	-8028
▁دادر	-8029
▁دامم	-8030
▁دوسه	-8031
▁رسدم	-8032
▁رطلی	-8033
▁رمال	-8034
▁شریک	-8035
▁شیون	-8036
▁ظلیل	-8037
▁لیکن	-8038
▁مردش	-8039
▁مصنف	-8040
▁منعت	-8041
▁مونس	-8042
▁میدو	-8043
▁ناهی	-8044
▁نظمش	-8045
▁نمیخ	-8046
▁هستم	-8047
▁واسط	-8048
▁چاهی	-8049
▁کنمش	-8050
▁گویت	-8051
▁آزردن	-8052
▁افگنی	-8053
▁اندرم	-8054
▁اندود	-8055
▁ایستم	-8056
▁بخاکش	-8057
▁بخلاف	-8058
▁بغرقه	-8059
▁بنوبت	-8060
▁بیخطر	-8061
▁تکاور	-8062
▁حاصلی	-8063
▁خموشم	-8064
▁خونخو	-8065
▁دامیم	-8066
▁دمیده	-8067
▁رونده	-8068
▁سوادش	-8069
▁سیماب	-8070
▁شماتت	-8071
▁صیدکش	-8072
▁مردمی	-8073
▁مردود	-8074
▁نمرود	-8075
▁همزان	-8076
▁واسطه	-8077
▁گویید	-8078
▁گوییش	-8079
▁آلایشم	-8080
▁آموختم	-8081
▁ارجمند	-8082
▁بنویسم	-8083
▁خوششان	-8084
▁خونشان	-8085
▁دادرسم	-8086
▁دردشان	-8087
▁درمانش	-8088
▁درنگری	-8089
▁درویشی	-8090
▁درگاهی	-8091
▁دستانت	-8092
▁دسترسی	-8093
▁دستگهم	-8094
▁دشمنیت	-8095
▁دعاهای	-8096
▁دلاویز	-8097
▁دلباخت	-8098
▁دلجویت	-8099
لق	-8100
اجر	-8101
اقی	-8102
نبی	-8103
▁طی	-8104
تیاز	-8105
موده	-8106
ژگان	-8107
گانت	-8108
▁آیه	-8109
▁اصل	-8110
▁بزد	-8111
▁بکی	-8112
▁خاد	-8113
▁رخی	-8114
▁شبا	-8115
▁صدا	-8116
▁عرو	-8117
▁نوک	-8118
▁چست	-8119
▁گول	-8120
داشان	-8121
راخته	-8122
نبیین	-8123
واستم	-8124
وفنون	-8125
یدگان	-8126
▁ابدا	-8127
▁بابی	-8128
▁برگم	-8129
▁بطحا	-8130
▁بمار	-8131
▁بکشت	-8132
▁بکور	-8133
▁تابی	-8134
▁تخته	-8135
▁تنان	-8136
▁جاهی	-8137
▁خسوف	-8138
▁دماو	-8139
▁رواج	-8140
▁شهاب	-8141
▁عروج	-8142
▁فاجر	-8143
▁فرسخ	-8144
▁معلق	-8145
▁میگز	-8146
▁نظیر	-8147
▁هستش	-8148
▁هشتم	-8149
▁هفته	-8150
▁کآهی	-8151
▁کسیت	-8152
▁گامت	-8153
▁یابد	-8154
▁اجابت	-8155
▁افتدم	-8156
▁بحلند	-8157
▁بشاخی	-8158
▁بغارت	-8159
▁تارها	-8160
▁دویدن	-8161
▁سواره	-8162
▁سواقی	-8163
▁عالمش	-8164
▁ماهها	-8165
▁ننوشی	-8166
▁وفاتم	-8167
▁کیستی	-8168
▁گوهرش	-8169
▁گیردش	-8170
▁افسونی	-8171
▁امتیاز	-8172
▁بلندان	-8173
▁بمژگان	-8174
▁بیشترک	-8175
▁بیندیش	-8176
▁حرامان	-8177
▁خوارتر	-8178
▁خواهدم	-8179
▁دلدوزت	-8180
▁دلسوزی	-8181
▁دلنواز	-8182
▁دمبدمش	-8183
▁دمسازش	-8184
▁دمسازی	-8185
▁دوباره	-8186
▁دیدارت	-8187
▁دیدستم	-8188
▁دیدیاز	-8189
▁ذوفنون	-8190
▁راهبرم	-8191
▁راهشان	-8192
▁رخساره	-8193
▁رداشان	-8194
▁ررخامه	-8195
▁رستگان	-8196
▁رسوایی	-8197
▁رسولان	-8198
▁رنگینی	-8199
اسم	-8200
دیا	-8201
هدی	-8202
یغم	-8203
ارتی	-8204
زارش	-8205
▁بجو	-8206
▁حیض	-8207
▁رسن	-8208
▁زچه	-8209
▁عطر	-8210
▁فضا	-8211
▁قدی	-8212
▁مهم	-8213
▁نرخ	-8214
الحسن	-8215
▁آردت	-8216
▁بامی	-8217
▁بجسم	-8218
▁بجنگ	-8219
▁بسیل	-8220
▁بیگن	-8221
▁خبری	-8222
▁خدیا	-8223
▁دزدی	-8224
▁دواز	-8225
▁رحمه	-8226
▁رخان	-8227
▁رزان	-8228
▁زریر	-8229
▁زرین	-8230
▁شبلی	-8231
▁شموس	-8232
▁شهدا	-8233
▁شهور	-8234
▁ضیغم	-8235
▁عهدی	-8236
▁غیبی	-8237
▁فرسی	-8238
▁فلکم	-8239
▁مشکن	-8240
▁مشکی	-8241
▁مهرت	-8242
▁مگرم	-8243
▁نرهی	-8244
▁نروی	-8245
▁نکور	-8246
▁هرچه	-8247
▁وزین	-8248
▁پوید	-8249
▁پیرش	-8250
▁کشتم	-8251
▁بدامت	-8252
▁بهادر	-8253
▁جانها	-8254
▁جوادی	-8255
▁خداست	-8256
▁خرامد	-8257
▁خطشان	-8258
▁خمارم	-8259
▁زبانش	-8260
▁ستمکش	-8261
▁سواری	-8262
▁شمارد	-8263
▁شمرده	-8264
▁شهیدم	-8265
▁عارفم	-8266
▁مشکلی	-8267
▁مصاحب	-8268
▁مهرور	-8269
▁موسمی	-8270
▁مگریز	-8271
▁ناوکش	-8272
▁نکشته	-8273
▁پاسخی	-8274
▁پویند	-8275
▁کلاوه	-8276
▁گناهم	-8277
▁یاوری	-8278
▁بالایی	-8279
▁بجنبید	-8280
▁بشارتی	-8281
▁بلورین	-8282
▁دوازده	-8283
▁رهاندم	-8284
▁رهانند	-8285
▁رهاییت	-8286
▁رهروان	-8287
▁رهزنان	-8288
▁رهنمون	-8289
▁رهیدند	-8290
▁روحانی	-8291
▁روستای	-8292
▁روسیاه	-8293
▁ریختنش	-8294
▁زبیمار	-8295
▁زسودای	-8296
▁زمردین	-8297
▁زمستان	-8298
▁زمسیحا	-8299
شنو	-8300
بعین	-8301
ردنم	-8302
نگار	-8303
▁آفر	-8304
▁الق	-8305
▁جشن	-8306
▁حوت	-8307
▁خطر	-8308
▁زمی	-8309
▁شرا	-8310
▁فکن	-8311
▁مجد	-8312
▁مجو	-8313
▁نقل	-8314
▁ورع	-8315
قرارش	-8316
▁آگین	-8317
▁اخگر	-8318
▁ایاغ	-8319
▁بتنم	-8320
▁بجشن	-8321
▁تاجی	-8322
▁جگرم	-8323
▁خدام	-8324
▁زهدش	-8325
▁سفره	-8326
▁سپار	-8327
▁سپید	-8328
▁سیمش	-8329
▁عیبت	-8330
▁مرغش	-8331
▁مروت	-8332
▁مشنو	-8333
▁میلت	-8334
▁نخلی	-8335
▁هرشب	-8336
▁واند	-8337
▁آمدنم	-8338
▁ازواج	-8339
▁ازینت	-8340
▁القسا	-8341
▁بآنکه	-8342
▁بادیه	-8343
▁بخویش	-8344
▁برآیی	-8345
▁برویش	-8346
▁بریشم	-8347
▁بفرقش	-8348
▁بنالم	-8349
▁بنایش	-8350
▁تاجیک	-8351
▁خسروش	-8352
▁روزتر	-8353
▁سپرده	-8354
▁صیدگه	-8355
▁محلول	-8356
▁مردنم	-8357
▁مطربه	-8358
▁ممتاز	-8359
▁نماید	-8360
▁پالان	-8361
▁پسندی	-8362
▁کرامت	-8363
▁کمینه	-8364
▁گردنت	-8365
▁گردنش	-8366
▁گفتمت	-8367
▁آرزویش	-8368
▁آزردنم	-8369
▁آفریدن	-8370
▁اربعین	-8371
▁باینجا	-8372
▁بزنگار	-8373
▁بیمارم	-8374
▁جانانم	-8375
▁داشتند	-8376
▁دندانت	-8377
▁دوستیش	-8378
▁رنجیدی	-8379
▁روشندل	-8380
▁زعفران	-8381
▁زنبیلش	-8382
▁زنجبیل	-8383
▁زندگان	-8384
▁زورآور	-8385
▁زورمند	-8386
▁زیارتش	-8387
▁زیبایی	-8388
▁زیردست	-8389
▁زینسان	-8390
▁ساعیان	-8391
▁سامعان	-8392
▁ساکنان	-8393
▁ساکنند	-8394
▁سایبان	-8395
▁ستمکشی	-8396
▁سختگیر	-8397
▁سراپای	-8398
▁سربلند	-8399
شاع	-8400
گیش	-8401
▁ضم	-8402
شاعر	-8403
لبند	-8404
یلاج	-8405
▁حیل	-8406
▁ریس	-8407
▁زنف	-8408
▁سقی	-8409
▁سلخ	-8410
▁غنا	-8411
▁فیل	-8412
▁قمر	-8413
▁للت	-8414
▁نخر	-8415
▁کآر	-8416
▁کآس	-8417
▁یوز	-8418
چوگان	-8419
▁آهنت	-8420
▁احول	-8421
▁بحلت	-8422
▁تعلم	-8423
▁جامم	-8424
▁حرفم	-8425
▁ذباب	-8426
▁رویی	-8427
▁زنام	-8428
▁سترگ	-8429
▁سهام	-8430
▁شامی	-8431
▁شعری	-8432
▁شمعی	-8433
▁شگون	-8434
▁للتق	-8435
▁ماهش	-8436
▁مقدس	-8437
▁نخری	-8438
▁نظری	-8439
▁نگهش	-8440
▁چاکی	-8441
▁کآری	-8442
▁کاوه	-8443
▁کنیه	-8444
▁یهود	-8445
▁آمدنش	-8446
▁امشبم	-8447
▁بسترم	-8448
▁بمیری	-8449
▁بهرجا	-8450
▁بگوشه	-8451
▁خجلند	-8452
▁خرامی	-8453
▁خریده	-8454
▁خوردت	-8455
▁دعایی	-8456
▁دیدنت	-8457
▁روزنت	-8458
▁زمانت	-8459
▁سعایت	-8460
▁سقیفه	-8461
▁ضمیرم	-8462
▁فزودی	-8463
▁ماهیش	-8464
▁مخواه	-8465
▁مشگین	-8466
▁نبودت	-8467
▁نخستم	-8468
▁نشانش	-8469
▁نلغزد	-8470
▁هستیم	-8471
▁هیلاج	-8472
▁وعامی	-8473
▁چنینم	-8474
▁کاسته	-8475
▁کامده	-8476
▁گنجها	-8477
▁برگرفت	-8478
▁بستگان	-8479
▁بفرستم	-8480
▁بندگیش	-8481
▁دلبردن	-8482
▁زچوگان	-8483
▁سرتاسر	-8484
▁سرشتند	-8485
▁سرفگند	-8486
▁سروران	-8487
▁سرپنجه	-8488
▁سرکشان	-8489
▁سرکشته	-8490
▁سرگران	-8491
▁سرگشته	-8492
▁سفلگان	-8493
▁سلاخان	-8494
▁سلاطین	-8495
▁سلطانم	-8496
▁سلطانی	-8497
▁سندروس	-8498
▁سنگدلی	-8499
زدد	-8500
لوق	-8501
قمار	-8502
گاها	-8503
▁بسم	-8504
▁تبه	-8505
▁رگی	-8506
▁طبی	-8507
▁وصی	-8508
حرایی	-8509
خندان	-8510
▁آزرم	-8511
▁املم	-8512
▁اویی	-8513
▁بامت	-8514
▁بدین	-8515
▁بسرو	-8516
▁بعیش	-8517
▁بغمت	-8518
▁بنظم	-8519
▁تازد	-8520
▁درمت	-8521
▁دلقش	-8522
▁دهمت	-8523
▁رحیم	-8524
▁سردت	-8525
▁سموم	-8526
▁شنبه	-8527
▁شیره	-8528
▁غمزد	-8529
▁فتور	-8530
▁قاید	-8531
▁قبول	-8532
▁مسوس	-8533
▁منبع	-8534
▁همزد	-8535
▁هوست	-8536
▁هیکل	-8537
▁وصلی	-8538
▁پرسد	-8539
▁یادت	-8540
▁یادی	-8541
ستگانش	-8542
▁آساید	-8543
▁آویزم	-8544
▁اسبان	-8545
▁بباید	-8546
▁بخشند	-8547
▁بدزدد	-8548
▁بدلبر	-8549
▁بزمین	-8550
▁بقمار	-8551
▁بهمین	-8552
▁بیمین	-8553
▁تیرگی	-8554
▁جمالت	-8555
▁دانیش	-8556
▁دریغم	-8557
▁سپاهش	-8558
▁سپردی	-8559
▁علاوه	-8560
▁فرسنگ	-8561
▁فریبم	-8562
▁مخلوق	-8563
▁نکوست	-8564
▁وزیری	-8565
▁وصلست	-8566
▁پیوست	-8567
▁کآورد	-8568
▁کجاوه	-8569
▁احتراز	-8570
▁براهیم	-8571
▁بگویند	-8572
▁دلخواه	-8573
▁سواران	-8574
▁سوزندش	-8575
▁سوگندم	-8576
▁سیمابی	-8577
▁شاعران	-8578
▁شامیان	-8579
▁شانزده	-8580
▁شاهاتا	-8581
▁شاهدان	-8582
▁شبیخون	-8583
▁شددیار	-8584
▁شراریش	-8585
▁شمارمش	-8586
▁شمشیرت	-8587
▁شهدنوش	-8588
▁شهنامه	-8589
▁شهنشاه	-8590
▁شهیدند	-8591
▁شکایتم	-8592
▁شکستند	-8593
▁شکفتنی	-8594
▁شکفتگی	-8595
▁شیرازه	-8596
▁شیرویه	-8597
▁صبحگاه	-8598
▁صبوحست	-8599
جزه	-8600
دلت	-8601
مسک	-8602
نشا	-8603
نشهی	-8604
▁اسپ	-8605
▁الی	-8606
▁بمه	-8607
▁تود	-8608
▁سخط	-8609
▁سقر	-8610
▁لعب	-8611
▁لیس	-8612
▁نرب	-8613
▁واز	-8614
▁ورق	-8615
سلامت	-8616
▁آریش	-8617
▁ابرو	-8618
▁ابکم	-8619
▁اسبت	-8620
▁انشا	-8621
▁برآش	-8622
▁بپاک	-8623
▁تاجر	-8624
▁تارش	-8625
▁تباه	-8626
▁تیغش	-8627
▁تیغی	-8628
▁حورش	-8629
▁خارش	-8630
▁زدای	-8631
▁زدند	-8632
▁سالی	-8633
▁سخره	-8634
▁سراح	-8635
▁ظلمه	-8636
▁عارش	-8637
▁لعلت	-8638
▁مارش	-8639
▁معجر	-8640
▁معده	-8641
▁ممسک	-8642
▁مپوش	-8643
▁نزدم	-8644
▁نمون	-8645
▁وزیر	-8646
▁الحزن	-8647
▁برآیم	-8648
▁بردنش	-8649
▁بهارش	-8650
▁بودنش	-8651
▁بگلاب	-8652
▁بیموی	-8653
▁تبسمت	-8654
▁خدایت	-8655
▁خراشد	-8656
▁خندند	-8657
▁دیدنش	-8658
▁روزیی	-8659
▁زدانه	-8660
▁ستیزد	-8661
▁سخنان	-8662
▁غبارش	-8663
▁فگندش	-8664
▁قاصدم	-8665
▁قراری	-8666
▁مداین	-8667
▁معجزه	-8668
▁معدلت	-8669
▁میگشت	-8670
▁نازان	-8671
▁نازند	-8672
▁وزیده	-8673
▁پرخون	-8674
▁پندار	-8675
▁کدخدا	-8676
▁کنارش	-8677
▁گسترد	-8678
▁آوردمی	-8679
▁آوردیش	-8680
▁آوردیم	-8681
▁اسپندم	-8682
▁ببندند	-8683
▁بوظیفه	-8684
▁تودردی	-8685
▁صبحدمی	-8686
▁صبوحیم	-8687
▁صیدخام	-8688
▁صیدکشی	-8689
▁صیدگاه	-8690
▁طایران	-8691
▁طبیبان	-8692
▁طرارند	-8693
▁طواویس	-8694
▁طوطیان	-8695
▁طیلسان	-8696
▁ظفرمند	-8697
▁ظلمانی	-8698
▁عاصیان	-8699
ضات	-8700
مانم	-8701
▁بما	-8702
▁ربم	-8703
▁زتو	-8704
▁زرق	-8705
▁شیب	-8706
▁قطع	-8707
▁الاس	-8708
▁باطل	-8709
▁برخش	-8710
▁برزق	-8711
▁برکش	-8712
▁بزهد	-8713
▁بسرش	-8714
▁بعذر	-8715
▁بمرد	-8716
▁بمزد	-8717
▁بملک	-8718
▁بمهر	-8719
▁تاکش	-8720
▁جواز	-8721
▁خداش	-8722
▁خلقش	-8723
▁دوشش	-8724
▁رباب	-8725
▁ربای	-8726
▁ربود	-8727
▁رنجی	-8728
▁زربر	-8729
▁زرنگ	-8730
▁ستمم	-8731
▁سودن	-8732
▁سیدی	-8733
▁عبوس	-8734
▁فتوت	-8735
▁فنون	-8736
▁مستت	-8737
▁مستش	-8738
▁معشر	-8739
▁معلم	-8740
▁نهیب	-8741
▁وحوش	-8742
▁کلید	-8743
▁گرین	-8744
▁آماده	-8745
▁الدین	-8746
▁انجام	-8747
▁باشدت	-8748
▁باشدش	-8749
▁برخرد	-8750
▁بریزد	-8751
▁بسایه	-8752
▁حسنین	-8753
▁دریدی	-8754
▁رشکند	-8755
▁رشکها	-8756
▁رنجشم	-8757
▁روضات	-8758
▁رکابش	-8759
▁زراهی	-8760
▁سروشی	-8761
▁سوزها	-8762
▁غلامت	-8763
▁مندیل	-8764
▁نمردم	-8765
▁نیفتم	-8766
▁هیچگه	-8767
▁پیاپی	-8768
▁کامدم	-8769
▁کفایت	-8770
▁امروزت	-8771
▁امروزش	-8772
▁امروزم	-8773
▁بالیده	-8774
▁بجوشید	-8775
▁بخشنده	-8776
▁بدستار	-8777
▁بقصابی	-8778
▁جمشیدی	-8779
▁دونانش	-8780
▁عالمند	-8781
▁عروسان	-8782
▁عریانی	-8783
▁عشرتگه	-8784
▁عقابان	-8785
▁عیارند	-8786
▁عیسویش	-8787
▁غافلان	-8788
▁غبارند	-8789
▁غریبان	-8790
▁غلطانم	-8791
▁غمازند	-8792
▁غمخانه	-8793
▁غمزدای	-8794
▁غوغایی	-8795
▁فرادیس	-8796
▁فراروش	-8797
▁فردوسی	-8798
▁فرزندم	-8799
اسب	-8800
اسق	-8801
اقم	-8802
علام	-8803
وردم	-8804
گفتم	-8805
▁بشو	-8806
▁توو	-8807
▁جمع	-8808
▁جنه	-8809
▁حجت	-8810
▁دیج	-8811
▁رچو	-8812
▁شرح	-8813
▁قرص	-8814
▁هزل	-8815
وریوس	-8816
▁آیات	-8817
▁انار	-8818
▁بمقر	-8819
▁تکلم	-8820
▁جفات	-8821
▁دهدت	-8822
▁زلال	-8823
▁ساید	-8824
▁سلمی	-8825
▁شکرت	-8826
▁صدای	-8827
▁عادم	-8828
▁عقلم	-8829
▁عقلی	-8830
▁عمرش	-8831
▁فاسق	-8832
▁فکان	-8833
▁قاقم	-8834
▁قدمت	-8835
▁لحدش	-8836
▁مسلس	-8837
▁نالی	-8838
▁نفسش	-8839
▁نیزه	-8840
▁هجرت	-8841
▁وشاخ	-8842
▁وصلش	-8843
▁وگرت	-8844
▁پرسم	-8845
خورشید	-8846
▁اسامی	-8847
▁اعلام	-8848
▁ببینی	-8849
▁بودمی	-8850
▁بگوهر	-8851
▁بگوید	-8852
▁بیدلم	-8853
▁بینمش	-8854
▁جبینش	-8855
▁جلادت	-8856
▁جمشان	-8857
▁دادیش	-8858
▁داریش	-8859
▁دیجور	-8860
▁رایان	-8861
▁روزشن	-8862
▁زمینم	-8863
▁سلاله	-8864
▁صدایی	-8865
▁فروشی	-8866
▁فروکش	-8867
▁قامتم	-8868
▁مباهی	-8869
▁متفرد	-8870
▁مسلسل	-8871
▁مشکوی	-8872
▁مناسب	-8873
▁نفسان	-8874
▁نهادم	-8875
▁وصالی	-8876
▁وعالی	-8877
▁پرسدم	-8878
▁پروای	-8879
▁کامشب	-8880
▁گاهان	-8881
▁آشیانش	-8882
▁افشاند	-8883
▁بیداری	-8884
▁خوانند	-8885
▁خوانین	-8886
▁خواهدت	-8887
▁دامگاه	-8888
▁شاهانش	-8889
▁فردایی	-8890
▁فرستمش	-8891
▁فرستند	-8892
▁فرسوده	-8893
▁فرمایی	-8894
▁فرمودش	-8895
▁فرنگیس	-8896
▁فروشان	-8897
▁فرونده	-8898
▁فریدون	-8899
ترش	-8900
کشم	-8901
غانی	-8902
کیسه	-8903
یادی	-8904
▁سکر	-8905
▁سیا	-8906
▁صفی	-8907
▁محو	-8908
▁مکر	-8909
▁نفی	-8910
▁همب	-8911
▁وآن	-8912
▁بارت	-8913
▁بختش	-8914
▁برخم	-8915
▁بمشت	-8916
▁ثانی	-8917
▁خندم	-8918
▁خوری	-8919
▁دگرم	-8920
▁رحیل	-8921
▁زیست	-8922
▁سیاح	-8923
▁شترش	-8924
▁صدفی	-8925
▁عجبا	-8926
▁فانی	-8927
▁قلمش	-8928
▁لطفی	-8929
▁مسوز	-8930
▁میخی	-8931
▁نسزد	-8932
▁نسود	-8933
▁نکشم	-8934
▁پاکش	-8935
▁پندم	-8936
▁کآشی	-8937
▁گندم	-8938
یرانند	-8939
▁آمیزت	-8940
▁بارها	-8941
▁بامید	-8942
▁بحسرت	-8943
▁بدوری	-8944
▁بلندت	-8945
▁بهشتی	-8946
▁بکشتم	-8947
▁تفلیس	-8948
▁حسابم	-8949
▁خفتنی	-8950
▁خلوتی	-8951
▁درهای	-8952
▁دلکشم	-8953
▁دهندم	-8954
▁رازها	-8955
▁راهبر	-8956
▁رقیبی	-8957
▁روزنش	-8958
▁زاغان	-8959
▁زانکه	-8960
▁سیاست	-8961
▁شیرده	-8962
▁فراغت	-8963
▁فروشم	-8964
▁فصیحی	-8965
▁فغانی	-8966
▁میرسم	-8967
▁نخوری	-8968
▁نهالت	-8969
▁همبزم	-8970
▁وآنکس	-8971
▁پاکان	-8972
▁پرسیم	-8973
▁پشمین	-8974
▁کاشته	-8975
▁کمندم	-8976
▁گمانی	-8977
▁امامان	-8978
▁بتسدیس	-8979
▁بدخویی	-8980
▁بروادت	-8981
▁برگیرم	-8982
▁بسامان	-8983
▁بصیادی	-8984
▁بیاران	-8985
▁بینایی	-8986
▁دلیران	-8987
▁رنجوری	-8988
▁شکرریز	-8989
▁فزودیش	-8990
▁فشانان	-8991
▁فشاندش	-8992
▁فشاندم	-8993
▁فشانده	-8994
▁فشانیم	-8995
▁فقراست	-8996
▁فقیران	-8997
▁فیلقوس	-8998
▁قاصرات	-8999
اشم	-9000
حیی	-9001
وفق	-9002
▁ضو	-9003
تماس	-9004
تمام	-9005
گفتن	-9006
▁ابد	-9007
▁تعز	-9008
▁خسش	-9009
▁زهم	-9010
▁سهم	-9011
▁سگم	-9012
▁علت	-9013
▁فزا	-9014
▁مفل	-9015
▁نحل	-9016
▁چوب	-9017
▁بخلت	-9018
▁بدهم	-9019
▁برهم	-9020
▁بشیر	-9021
▁بیشه	-9022
▁توهم	-9023
▁حاجب	-9024
▁خجند	-9025
▁خمیر	-9026
▁خویی	-9027
▁روشی	-9028
▁زلفش	-9029
▁سازش	-9030
▁صفوت	-9031
▁قفلم	-9032
▁مؤذن	-9033
▁موفق	-9034
▁پیلت	-9035
▁کسوف	-9036
▁کوهش	-9037
▁گداز	-9038
▁گشای	-9039
▁یحیی	-9040
▁یکره	-9041
▁آخرین	-9042
▁آمدست	-9043
▁ابالی	-9044
▁اتمام	-9045
▁اخترش	-9046
▁اشارت	-9047
▁بجویی	-9048
▁بردنم	-9049
▁بوسمت	-9050
▁تعزیت	-9051
▁حسرتی	-9052
▁خوردش	-9053
▁داریم	-9054
▁دانای	-9055
▁دلتنگ	-9056
▁دلیلم	-9057
▁دیدمش	-9058
▁رفتنت	-9059
▁ریاضی	-9060
▁سازند	-9061
▁سوزند	-9062
▁قاصدا	-9063
▁قفسند	-9064
▁مفلسم	-9065
▁منتفی	-9066
▁نباشم	-9067
▁نبویی	-9068
▁نسیمش	-9069
▁نکویی	-9070
▁گروهی	-9071
▁گشوده	-9072
▁التماس	-9073
▁بنشستم	-9074
▁حرمگاه	-9075
▁خوردنم	-9076
▁خوردیم	-9077
▁داناست	-9078
▁دانسته	-9079
▁دزدیدی	-9080
▁سخنوری	-9081
▁سوختمی	-9082
▁فراخور	-9083
▁قمریان	-9084
▁لاجورد	-9085
▁لرزانی	-9086
▁مؤمنات	-9087
▁ماخسته	-9088
▁مانداز	-9089
▁ماندنت	-9090
▁ماندند	-9091
▁ماندیم	-9092
▁مانندم	-9093
▁ماهیان	-9094
▁ماورای	-9095
▁مبیناد	-9096
▁مجانین	-9097
▁محتشمی	-9098
▁محجوبه	-9099
یلت	-9100
▁دز	-9101
▁بحل	-9102
▁ذنب	-9103
▁غرق	-9104
▁گمش	-9105
فروزد	-9106
▁بجگر	-9107
▁بحدی	-9108
▁بحمد	-9109
▁براز	-9110
▁بعدل	-9111
▁بعهد	-9112
▁بلعل	-9113
▁بچار	-9114
▁جبار	-9115
▁حوضش	-9116
▁خجلم	-9117
▁داغت	-9118
▁ریزم	-9119
▁زیبد	-9120
▁سالش	-9121
▁سترد	-9122
▁ستوه	-9123
▁سرها	-9124
▁شوقم	-9125
▁طرفه	-9126
▁مشعل	-9127
▁هایش	-9128
▁هوات	-9129
▁چرخه	-9130
▁آشنات	-9131
▁آشنای	-9132
▁اشکال	-9133
▁اشکها	-9134
▁المفر	-9135
▁انبار	-9136
▁انتها	-9137
▁اولین	-9138
▁بحالی	-9139
▁بحیلت	-9140
▁بریدن	-9141
▁تأسیس	-9142
▁خریدن	-9143
▁دربار	-9144
▁دیرین	-9145
▁رسیدن	-9146
▁زایده	-9147
▁زدیدن	-9148
▁ساختم	-9149
▁سالار	-9150
▁سوزدم	-9151
▁سیاهم	-9152
▁شفاعت	-9153
▁شوییش	-9154
▁شکستی	-9155
▁صدبار	-9156
▁عارفی	-9157
▁عبیرم	-9158
▁غناست	-9159
▁فریبی	-9160
▁مرادت	-9161
▁مغانی	-9162
▁منزلش	-9163
▁مویان	-9164
▁میکشم	-9165
▁نشنید	-9166
▁نقشها	-9167
▁نگهند	-9168
▁هوایش	-9169
▁پریدن	-9170
▁کمندی	-9171
▁کنیتش	-9172
▁گلشنی	-9173
▁گمشده	-9174
▁یارها	-9175
▁آشناست	-9176
▁افتادش	-9177
▁بنشیند	-9178
▁بهاران	-9179
▁خواستن	-9180
▁رازتان	-9181
▁ریختیم	-9182
▁شکستگی	-9183
▁محمودش	-9184
▁مخدرات	-9185
▁مدارید	-9186
▁مردشان	-9187
▁مردمان	-9188
▁مردگان	-9189
▁مرزبان	-9190
▁مرغوله	-9191
▁مرغکان	-9192
▁مریدان	-9193
▁مستجار	-9194
▁مستجیر	-9195
▁مستوری	-9196
▁مسکینی	-9197
▁مشکبوی	-9198
▁مشکبیز	-9199
وکب	-9200
وکت	-9201
بریه	-9202
خمور	-9203
عیون	-9204
▁طول	-9205
▁کلف	-9206
اندام	-9207
رورده	-9208
▁آرمش	-9209
▁آماج	-9210
▁آمال	-9211
▁بجرگ	-9212
▁برسم	-9213
▁بستش	-9214
▁بسعی	-9215
▁بهات	-9216
▁تحکم	-9217
▁جلاد	-9218
▁جمعی	-9219
▁حباب	-9220
▁دینی	-9221
▁سرزد	-9222
▁سیاو	-9223
▁شوکت	-9224
▁شیوه	-9225
▁صفرا	-9226
▁ضلیل	-9227
▁عارت	-9228
▁عناب	-9229
▁غنای	-9230
▁قلیل	-9231
▁مصفی	-9232
▁موکب	-9233
▁هرجا	-9234
▁گلکی	-9235
رخساری	-9236
▁آرمین	-9237
▁آنسان	-9238
▁ارزان	-9239
▁امارت	-9240
▁ببهای	-9241
▁بخزان	-9242
▁بشگون	-9243
▁بکارش	-9244
▁جرمیش	-9245
▁جگران	-9246
▁حیوان	-9247
▁خاصان	-9248
▁خوردن	-9249
▁دارید	-9250
▁رهبری	-9251
▁زنیفه	-9252
▁سرطان	-9253
▁شبگون	-9254
▁صفایی	-9255
▁فکرها	-9256
▁فگندم	-9257
▁مخمور	-9258
▁مخوان	-9259
▁مرداد	-9260
▁مشتغل	-9261
▁مغانش	-9262
▁مغانه	-9263
▁نوبتی	-9264
▁نوشید	-9265
▁نیازت	-9266
▁وشامی	-9267
▁پرتاب	-9268
▁گذارت	-9269
▁گذشتش	-9270
▁گردنم	-9271
▁گویدت	-9272
▁گیرمش	-9273
▁آذرگون	-9274
▁آرمیدم	-9275
▁البریه	-9276
▁بازویت	-9277
▁بمعرکه	-9278
▁بیدلیل	-9279
▁خاوران	-9280
▁سیمگون	-9281
▁فرزانه	-9282
▁فگندند	-9283
▁مشکسای	-9284
▁مشکینه	-9285
▁مضمونش	-9286
▁معاینه	-9287
▁معشوقی	-9288
▁معصومه	-9289
▁معموری	-9290
▁مفرمای	-9291
▁مقصودت	-9292
▁مقیمان	-9293
▁ملازمت	-9294
▁ملایکش	-9295
▁منزلتا	-9296
▁منصوبه	-9297
▁مهرشان	-9298
▁موسویش	-9299
ختم	-9300
واس	-9301
درسه	-9302
رخان	-9303
▁حاش	-9304
▁صحف	-9305
▁قوس	-9306
▁قیس	-9307
کندگی	-9308
▁ادبی	-9309
▁بدگو	-9310
▁برهش	-9311
▁بفخر	-9312
▁بفعل	-9313
▁بفلک	-9314
▁بویش	-9315
▁حلال	-9316
▁خفتی	-9317
▁رحمش	-9318
▁رسدت	-9319
▁زحمت	-9320
▁زوفا	-9321
▁سازد	-9322
▁سویم	-9323
▁شعار	-9324
▁صبرت	-9325
▁عیبش	-9326
▁فردی	-9327
▁فکند	-9328
▁قیام	-9329
▁قیمت	-9330
▁قیوم	-9331
▁منعم	-9332
▁نرفت	-9333
▁هوسن	-9334
▁وایه	-9335
▁پدرش	-9336
▁چسان	-9337
▁کمیت	-9338
▁گذرش	-9339
▁گزای	-9340
▁گزید	-9341
▁گهرم	-9342
▁آموزت	-9343
▁بجانش	-9344
▁بخششم	-9345
▁بسکین	-9346
▁بمنعم	-9347
▁بپهلو	-9348
▁تابان	-9349
▁جامیس	-9350
▁جامیش	-9351
▁جوانب	-9352
▁دبیری	-9353
▁دینکم	-9354
▁زنگاه	-9355
▁سرکند	-9356
▁شعبان	-9357
▁طلبید	-9358
▁مدرسه	-9359
▁میدمد	-9360
▁نخورم	-9361
▁نیسان	-9362
▁نیمشب	-9363
▁وسواس	-9364
▁پسران	-9365
▁گریند	-9366
▁گیریم	-9367
▁یکسان	-9368
▁آفتابش	-9369
▁برانند	-9370
▁بلندتر	-9371
▁تابدار	-9372
▁تابنده	-9373
▁توانست	-9374
▁خراسان	-9375
▁خلوتگه	-9376
▁درخانه	-9377
▁دریاست	-9378
▁دریوزه	-9379
▁سپارند	-9380
▁شاخساز	-9381
▁شمارند	-9382
▁مولایی	-9383
▁مولودش	-9384
▁مویشان	-9385
▁مکتوبی	-9386
▁مگردان	-9387
▁مگیرید	-9388
▁میازار	-9389
▁میاموز	-9390
▁میجویی	-9391
▁میخورد	-9392
▁میدارم	-9393
▁میداشت	-9394
▁میدانم	-9395
▁میدهدم	-9396
▁میرسدت	-9397
▁میریزد	-9398
▁میزانش	-9399
▁ثنا	-9400
▁جرا	-9401
▁جزع	-9402
▁شصت	-9403
▁طبل	-9404
▁عزم	-9405
▁قرن	-9406
▁نزع	-9407
▁نسل	-9408
اختمش	-9409
▁آزری	-9410
▁اجرا	-9411
▁ادبش	-9412
▁اردی	-9413
▁برجد	-9414
▁تندی	-9415
▁ثمین	-9416
▁حبیب	-9417
▁خبرش	-9418
▁دربه	-9419
▁دشتم	-9420
▁دودش	-9421
▁رامم	-9422
▁زردی	-9423
▁زهاد	-9424
▁سردی	-9425
▁سنگی	-9426
▁شرار	-9427
▁شناس	-9428
▁طبعت	-9429
▁غازی	-9430
▁لوای	-9431
▁منبر	-9432
▁نصره	-9433
▁پنبه	-9434
▁پنچه	-9435
▁کوری	-9436
سندیده	-9437
▁آلایش	-9438
▁انگور	-9439
▁بانیش	-9440
▁بباغم	-9441
▁بکمین	-9442
▁تباهی	-9443
▁خرسند	-9444
▁رامین	-9445
▁زردشت	-9446
▁سبحان	-9447
▁سیهند	-9448
▁فکرتت	-9449
▁محراب	-9450
▁ملالم	-9451
▁ملکیت	-9452
▁مینای	-9453
▁نبردش	-9454
▁نبودم	-9455
▁نرسند	-9456
▁نزاده	-9457
▁نزادی	-9458
▁نزاید	-9459
▁نشستن	-9460
▁نکهتی	-9461
▁هدایت	-9462
▁پرویز	-9463
▁پوستی	-9464
▁کاسان	-9465
▁کنایت	-9466
▁گناهش	-9467
▁ازمشرق	-9468
▁برناید	-9469
▁بیخبری	-9470
▁بیدادت	-9471
▁بیدادش	-9472
▁تختگاه	-9473
▁دودکان	-9474
▁زنگاری	-9475
▁شرمناک	-9476
▁لعلشان	-9477
▁میزنند	-9478
▁میسوزم	-9479
▁میشمرد	-9480
▁میطپید	-9481
▁میمیرم	-9482
▁مینازد	-9483
▁مینگرم	-9484
▁میچرند	-9485
▁میچیدم	-9486
▁میکردی	-9487
▁میکشان	-9488
▁میکشتم	-9489
▁میکشتی	-9490
▁میکشیم	-9491
▁میگذشت	-9492
▁میگرید	-9493
▁میگوید	-9494
▁میگیری	-9495
▁ناآشنا	-9496
▁ناامید	-9497
▁نازاده	-9498
▁ناسفته	-9499
سلد	-9500
▁حما	-9501
▁سجل	-9502
▁عبد	-9503
▁عرب	-9504
▁هنر	-9505
▁آتشت	-9506
▁آگهت	-9507
▁انده	-9508
▁اویس	-9509
▁بدخش	-9510
▁برجی	-9511
▁بکفش	-9512
▁توست	-9513
▁حشرش	-9514
▁درجی	-9515
▁رسمم	-9516
▁زماه	-9517
▁سایل	-9518
▁سرود	-9519
▁سلیم	-9520
▁عارض	-9521
▁عبور	-9522
▁غالب	-9523
▁قبای	-9524
▁محلل	-9525
▁هوشی	-9526
▁پشتم	-9527
▁چنگی	-9528
▁کوشی	-9529
▁گربه	-9530
▁گرگش	-9531
▁آرامش	-9532
▁بانوی	-9533
▁بجبین	-9534
▁بدبین	-9535
▁بدهند	-9536
▁برزده	-9537
▁بروید	-9538
▁بشنود	-9539
▁بناگه	-9540
▁بپایش	-9541
▁بچشمت	-9542
▁حلالت	-9543
▁خراشی	-9544
▁خرمنش	-9545
▁خفتان	-9546
▁خوریم	-9547
▁خیزان	-9548
▁زاریم	-9549
▁زمردم	-9550
▁سراغم	-9551
▁صاحبش	-9552
▁عیاری	-9553
▁غلتان	-9554
▁غمهای	-9555
▁فاضلی	-9556
▁فروزم	-9557
▁قبایی	-9558
▁مهوشی	-9559
▁میمرد	-9560
▁نافله	-9561
▁نهادا	-9562
▁نگسلد	-9563
▁پاسخش	-9564
▁پذیره	-9565
▁کایزد	-9566
▁کسالت	-9567
▁آبادتر	-9568
▁ابرآسا	-9569
▁انگبین	-9570
▁بدامنش	-9571
▁بنگاری	-9572
▁بچشمها	-9573
▁خاموشی	-9574
▁خندیدم	-9575
▁شنفتند	-9576
▁شنفتنی	-9577
▁صحرایی	-9578
▁فتادیش	-9579
▁فرستیش	-9580
▁قربانی	-9581
▁لییمان	-9582
▁مشکینش	-9583
▁مطربان	-9584
▁ناخوشی	-9585
▁ناشکیب	-9586
▁ناصحان	-9587
▁ناصواب	-9588
▁نالیدم	-9589
▁نالیده	-9590
▁نالیدی	-9591
▁نامحرم	-9592
▁ناورده	-9593
▁ناپدید	-9594
▁ناچارم	-9595
▁ناکامی	-9596
▁ناگفتن	-9597
▁نبارند	-9598
▁نباشدت	-9599
غرض	-9600
رانت	-9601
▁دوم	-9602
▁عربی	-9603
▁مغرب	-9604
▁منقش	-9605
▁چرید	-9606
▁آبدار	-9607
▁الغرض	-9608
▁حواری	-9609
▁سرانش	-9610
▁شنقار	-9611
▁مقدار	-9612
▁استران	-9613
▁داغدار	-9614
▁نبخارد	-9615
▁نبردند	-9616
▁نبردیم	-9617
▁نبندند	-9618
▁نثاریش	-9619
▁نخروشم	-9620
▁نخستین	-9621
▁نخواست	-9622
▁نخورده	-9623
▁نخوردی	-9624
▁نخیزند	-9625
▁ندارید	-9626
▁نداشتم	-9627
▁ندانست	-9628
▁ندمیده	-9629
▁ندیمان	-9630
▁نرانند	-9631
▁نرباید	-9632
▁نزهتگه	-9633
▁نسازند	-9634
▁نسیمند	-9635
▁نشابور	-9636
▁نشاندت	-9637
▁نشاندش	-9638
▁نشاندی	-9639
▁نشانها	-9640
▁نشناسم	-9641
▁نشکسته	-9642
▁نشینان	-9643
▁نظامیم	-9644
▁نعمانم	-9645
▁نفرستد	-9646
▁نفروشم	-9647
▁نفریبد	-9648
▁نقشبند	-9649
▁نماندش	-9650
▁نماندی	-9651
▁نمودند	-9652
▁نمیداد	-9653
▁نمیدهد	-9654
▁نمیرسد	-9655
▁نمیروم	-9656
▁نمیشوم	-9657
▁ننالید	-9658
▁ننشسته	-9659
▁ننشستی	-9660
▁ننماید	-9661
▁ننمودت	-9662
▁ننهاده	-9663
▁ننوشته	-9664
▁ننویسد	-9665
▁نهادند	-9666
▁نهفتنی	-9667
▁نوازند	-9668
▁نوخطان	-9669
▁نورانی	-9670
▁نوروزی	-9671
▁نومیدش	-9672
▁نوکیسه	-9673
▁نویسیم	-9674
▁نپذیرد	-9675
▁نپسندم	-9676
▁نپوشید	-9677
▁نکوهشت	-9678
▁نگارین	-9679
▁نگاشتن	-9680
▁نگرفتم	-9681
▁نگرفته	-9682
▁نگشتند	-9683
▁نگفتمت	-9684
▁نگفتنم	-9685
▁نگفتیم	-9686
▁نگویدت	-9687
▁نیافتم	-9688
▁نیافته	-9689
▁نیایدم	-9690
▁نیاییم	-9691
▁نیستان	-9692
▁نیستند	-9693
▁نیلگون	-9694
▁نیکمرد	-9695
▁نیکنام	-9696
▁نیکوست	-9697
▁هزاران	-9698
▁هشیاری	-9699
▁همرهان	-9700
▁همزمان	-9701
▁همنفسی	-9702
▁همنوای	-9703
▁همچنان	-9704
▁همیگفت	-9705
▁هندوست	-9706
▁هنگامه	-9707
▁هوشدار	-9708
▁هوششان	-9709
▁هوشیار	-9710
▁هژبران	-9711
▁وارسته	-9712
▁وارستی	-9713
▁وارونه	-9714
▁واضحات	-9715
▁واعظان	-9716
▁وامگیر	-9717
▁واپسین	-9718
▁واژگون	-9719
▁واگذار	-9720
▁ورزانی	-9721
▁ولادتش	-9722
▁ویرانی	-9723
▁پافگند	-9724
▁پایانش	-9725
▁پایبوس	-9726
▁پایشان	-9727
▁پراگند	-9728
▁پرستار	-9729
▁پرسیدم	-9730
▁پرسیده	-9731
▁پرسیدی	-9732
▁پرغرور	-9733
▁پرفشان	-9734
▁پروازش	-9735
▁پروازم	-9736
▁پروران	-9737
▁پروردم	-9738
▁پرورشت	-9739
▁پرورید	-9740
▁پشمینه	-9741
▁پندارم	-9742
▁پنهانی	-9743
▁پهلوان	-9744
▁پوسیده	-9745
▁پوشیدم	-9746
▁پوشیدی	-9747
▁پیداتر	-9748
▁پیداست	-9749
▁پیرانه	-9750
▁پیرایه	-9751
▁پیرهنم	-9752
▁پیرهنی	-9753
▁پیشوای	-9754
▁پیشگاه	-9755
▁پیغامش	-9756
▁پیموده	-9757
▁پیوندم	-9758
▁پیوندی	-9759
▁پیچیده	-9760
▁پیکانت	-9761
▁چارطبع	-9762
▁چاپلوس	-9763
▁چشاندی	-9764
▁چشمانش	-9765
▁چوماهی	-9766
▁چوپرسم	-9767
▁چیدستم	-9768
▁کآراست	-9769
▁کآرایش	-9770
▁کآسمان	-9771
▁کآشیان	-9772
▁کآفتاب	-9773
▁کآورده	-9774
▁کارهای	-9775
▁کارگاه	-9776
▁کاسرار	-9777
▁کاشانه	-9778
▁کاغیار	-9779
▁کافگند	-9780
▁کاندرو	-9781
▁کبوتری	-9782
▁کردشان	-9783
▁کردگار	-9784
▁کریمان	-9785
▁کریمتر	-9786
▁کشانیم	-9787
▁کشتنیم	-9788
▁کشیدیش	-9789
▁کشیشان	-9790
▁کنعانی	-9791
▁کنیزان	-9792
▁کهغافل	-9793
▁کهکشان	-9794
▁کوهسار	-9795
▁کیخسرو	-9796
▁کیمیای	-9797
▁کیمییا	-9798
▁گاوانش	-9799
▁گذارمت	-9800
▁گذاریم	-9801
▁گذاشتم	-9802
▁گذرانی	-9803
▁گذرگاه	-9804
▁گذشتیش	-9805
▁گرداشت	-9806
▁گردیدن	-9807
▁گرفتیم	-9808
▁گستاخم	-9809
▁گشادند	-9810
▁گشتگان	-9811
▁گفتشان	-9812
▁گفتندی	-9813
▁گلفشان	-9814
▁گمارمت	-9815
▁گمرهان	-9816
▁گنجوری	-9817
▁گهرریز	-9818
▁گوششان	-9819
▁گویاست	-9820
▁گیسوان	-9821
▁گیسویت	-9822
▁یادشان	-9823
▁یادگار	-9824
▁یاوریش	-9825
▁یزدانی	-9826
▁یعقوبم	-9827
▁یهودان	-9828
▁یکباره	-9829
▁یکدانه	-9830
▁یکدسته	-9831
▁یکروزه	-9832
▁آرزومند	-9833
▁آزادشان	-9834
▁آشفتگان	-9835
▁آشیانها	-9836
▁آمدستیم	-9837
▁آمرزیده	-9838
▁آموختمی	-9839
▁آمیختند	-9840
▁آمیختیم	-9841
▁آوارگیم	-9842
▁آوازتان	-9843
▁آوازشان	-9844
▁ابراهیم	-9845
▁ارمغانت	-9846
▁ازمحاسن	-9847
▁ازمرحمت	-9848
▁ازنگاهی	-9849
▁استادیش	-9850
▁استخراج	-9851
▁استدراج	-9852
▁استغفار	-9853
▁استقبال	-9854
▁استمزاج	-9855
▁اسرافیل	-9856
▁اسماعیل	-9857
▁اشتیاقت	-9858
▁اشکبارش	-9859
▁اضطرابت	-9860
▁اضطرابی	-9861
▁اعتبارش	-9862
▁افتادمت	-9863
▁افتادگی	-9864
▁افراختی	-9865
▁افریدون	-9866
▁افسرشان	-9867
▁افسونگر	-9868
▁افشانان	-9869
▁افشاندش	-9870
▁افشانده	-9871
▁الاخلاق	-9872
▁الاسامی	-9873
▁الاعادی	-9874
▁الانامی	-9875
▁الایمان	-9876
▁التعجیل	-9877
▁التفاتش	-9878
▁العداوة	-9879
▁العظامی	-9880
▁القساوه	-9881
▁النبیین	-9882
▁الکلامی	-9883
▁امتحانم	-9884
▁انتظارم	-9885
▁انتظامی	-9886
▁انتقامت	-9887
▁اندامها	-9888
▁اندوختم	-9889
▁انعامند	-9890
▁انگشتها	-9891
▁اوفتادت	-9892
▁اوفتادی	-9893
▁اژدهاوش	-9894
▁اینچنین	-9895
▁بآشیانش	-9896
▁بابلیان	-9897
▁بادامها	-9898
▁بازآوری	-9899
▁بازگردد	-9900
▁باستاره	-9901
▁باضطراب	-9902
▁باغبانش	-9903
▁بافسانه	-9904
▁بالرؤوس	-9905
▁بالعیون	-9906
▁بامدادی	-9907
▁بانتظار	-9908
▁باندازه	-9909
▁بایستمش	-9910
▁ببازویت	-9911
▁ببهشتند	-9912
▁بتختگاه	-9913
▁بخرامند	-9914
▁بخشایشی	-9915
▁بخشیدمت	-9916
▁بخوابگه	-9917
▁بخورشید	-9918
▁بدخوییم	-9919
▁بدرویشی	-9920
▁بدشمنان	-9921
▁بدلجویی	-9922
▁بدنبالت	-9923
▁بدوستان	-9924
▁بدگمانم	-9925
▁برآشفتم	-9926
▁برآوازم	-9927
▁برافتاد	-9928
▁برافشان	-9929
▁برایشان	-9930
▁برایگان	-9931
▁برخاستم	-9932
▁برخاسته	-9933
▁برخاستی	-9934
▁بردارند	-9935
▁برداشتم	-9936
▁برقیبان	-9937
▁برنایدم	-9938
▁برنتابد	-9939
▁برندارد	-9940
▁برنداشت	-9941
▁برهنگان	-9942
▁برهگذار	-9943
▁برگردند	-9944
▁برگرفتم	-9945
▁برگرفته	-9946
▁برگزیده	-9947
▁بزرگانه	-9948
▁بستگانش	-9949
▁بسرفشان	-9950
▁بسرچشمه	-9951
▁بشاگردی	-9952
▁بشتافتی	-9953
▁بشماریم	-9954
▁بشکافته	-9955
▁بشکافند	-9956
▁بعدازین	-9957
▁بغریبان	-9958
▁بغلامان	-9959
▁بفتراکم	-9960
▁بلقیسان	-9961
▁بمحرومی	-9962
▁بمسکینی	-9963
▁بمشاطگی	-9964
▁بمقیمان	-9965
▁بمنزلگه	-9966
▁بنامیزد	-9967
▁بناگوشش	-9968
▁بناگوشی	-9969
▁بنشانیم	-9970
▁بهزاران	-9971
▁بهمرهان	-9972
▁بوالحسن	-9973
▁بوالعجب	-9974
▁بوالهوس	-9975
▁بوتیمار	-9976
▁بودژاله	-9977
▁بوزجمهر	-9978
▁بولایات	-9979
▁بویرانی	-9980
▁بپاخاست	-9981
▁بپاسبان	-9982
▁بپرداخت	-9983
▁بپرهیزی	-9984
▁بپرورده	-9985
▁بپرورمت	-9986
▁بچراگاه	-9987
▁بکاشانه	-9988
▁بگذاریم	-9989
▁بگذاشتی	-9990
▁بگذراند	-9991
▁بگرداند	-9992
▁بگریبان	-9993
▁بگشایند	-9994
▁بگلرخان	-9995
▁بگمانند	-9996
▁بیابانش	-9997
▁بیاراست	-9998
▁بیخبران	-9999
▁بیدآباد	-10000
▁بیدارها	-10001
▁بیقرارش	-10002
▁بیهوشیم	-10003
▁بیوفاتر	-10004
▁بیچارگی	-10005
▁بیکلاهی	-10006
▁بیگناهم	-10007
▁بیگنهان	-10008
▁بیگنهند	-10009
▁ترازخون	-10010
▁تراشیده	-10011
▁تماشاگه	-10012
▁تماشایت	-10013
▁توانایی	-10014
▁تیزگامی	-10015
▁جانفزای	-10016
▁جوالهای	-10017
▁جوانبخش	-10018
▁جگرانند	-10019
▁حاتمشان	-10020
▁حاسدانت	-10021
▁حقگزاری	-10022
▁خامششان	-10023
▁خاموشند	-10024
▁خاکسترش	-10025
▁خاکستری	-10026
▁خاکپایی	-10027
▁خداوندم	-10028
▁خداوندی	-10029
▁خرامنده	-10030
▁خرامیده	-10031
▁خردسالی	-10032
▁خستگانش	-10033
▁خلوتگاه	-10034
▁خوابشان	-10035
▁خواستند	-10036
▁خواندند	-10037
▁خوانشان	-10038
▁خودبینی	-10039
▁خودنقاب	-10040
▁خوشخرام	-10041
▁خونبهای	-10042
▁خیابانی	-10043
▁داستانی	-10044
▁دامانان	-10045
▁دانشورش	-10046
▁دانشوری	-10047
▁درختانش	-10048
▁دردآشام	-10049
▁دردمندی	-10050
▁دردکشان	-10051
▁دریاخیز	-10052
▁دستگیری	-10053
▁دلداریت	-10054
▁دلربایی	-10055
▁دلشکسته	-10056
▁دلشکنان	-10057
▁دلفروزم	-10058
▁دلپسندت	-10059
▁دماوندم	-10060
▁دواجشان	-10061
▁دوسترین	-10062
▁دگرانند	-10063
▁دگرباره	-10064
▁ذوالمنن	-10065
▁رازداری	-10066
▁رازهاست	-10067
▁رامشگری	-10068
▁راهگذار	-10069
▁رستاخیز	-10070
▁رستخیزش	-10071
▁رستمشان	-10072
▁رستگاری	-10073
▁رنجاندت	-10074
▁رنجانمت	-10075
▁روانشان	-10076
▁روزبروز	-10077
▁روزنامه	-10078
▁روزگارش	-10079
▁روزگارم	-10080
▁روزگاری	-10081
▁روستایی	-10082
▁روشنایی	-10083
▁زآتشکده	-10084
▁زاهدانش	-10085
▁زراعیان	-10086
▁زرافشان	-10087
▁زرفشانم	-10088
▁زنخدانت	-10089
▁زپیمانه	-10090
▁سازگاری	-10091
▁ستمگران	-10092
▁سحرورند	-10093
▁سراحلیل	-10094
▁سراپرده	-10095
▁سرخوشان	-10096
▁سرفرازت	-10097
▁سرنگونت	-10098
▁سرگردان	-10099
▁سرگشاده	-10100
▁سطرلابش	-10101
▁سلیمانی	-10102
▁سمرقندم	-10103
▁سنجیدند	-10104
▁سوختگان	-10105
▁سوداخیز	-10106
▁سپارندم	-10107
▁شاخسارش	-10108
▁شادزیاد	-10109
▁شادکامی	-10110
▁شاهانست	-10111
▁شاهانند	-10112
▁شاهنشهی	-10113
▁شاهوارش	-10114
▁شایستگی	-10115
▁شبانگاه	-10116
▁شنیدندی	-10117
▁شهرستان	-10118
▁شهریاری	-10119
▁شهوتستی	-10120
▁شهیدانت	-10121
▁شهیدانش	-10122
▁شکرخندی	-10123
▁شکرستان	-10124
▁شکرفشان	-10125
▁شیرینیش	-10126
▁شیفتگان	-10127
▁صاحبدلی	-10128
▁صدرنشین	-10129
▁صیادمهر	-10130
▁طیرانند	-10131
▁عاشقانت	-10132
▁عشقبازی	-10133
▁غلامانت	-10134
▁غمناکان	-10135
▁غمگساری	-10136
▁فادخلوا	-10137
▁فراموشی	-10138
▁فرخندگی	-10139
▁فرستادت	-10140
▁فرستادی	-10141
▁فسونهاش	-10142
▁فشاندند	-10143
▁قاصددلم	-10144
▁قایمقام	-10145
▁قنادیلش	-10146
▁لباسشان	-10147
▁لشکرگهت	-10148
▁للتقلیل	-10149
▁لوحیهای	-10150
▁محتشمان	-10151
▁مرغزارش	-10152
▁مرغزاری	-10153
▁مسلمانم	-10154
▁مسکینان	-10155
▁مشایعتش	-10156
▁مشاییان	-10157
▁مشکبارش	-10158
▁معزولیش	-10159
▁معشوقان	-10160
▁معلومات	-10161
▁مقدمشان	-10162
▁ممنونند	-10163
▁مهربانم	-10164
▁مهرورزی	-10165
▁مهرپرور	-10166
▁مهمانان	-10167
▁مهمانیم	-10168
▁مومیایی	-10169
▁مژگانان	-10170
▁میتوانم	-10171
▁میخواست	-10172
▁میخواهد	-10173
▁میخواهم	-10174
▁میخوردم	-10175
▁میدویدم	-10176
▁میرسیدم	-10177
▁میریزدش	-10178
▁میزبانی	-10179
▁میسپارد	-10180
▁میشمردم	-10181
▁میطلبند	-10182
▁میفشانی	-10183
▁مینافام	-10184
▁مینالید	-10185
▁مینمودت	-10186
▁مینوازد	-10187
▁میگریزی	-10188
▁میگفتمش	-10189
▁ناتمامت	-10190
▁ناتمامی	-10191
▁نازارمت	-10192
▁ناشکیبی	-10193
▁نافرجام	-10194
▁ناقوسها	-10195
▁نامحرمی	-10196
▁نامرادی	-10197
▁ناپاکان	-10198
▁ناکاسته	-10199
▁ناگزیرم	-10200
▁نبخشیدی	-10201
▁نتوانست	-10202
▁نجنبیدی	-10203
▁نخوانده	-10204
▁نخوانند	-10205
▁نخواهند	-10206
▁ندادندم	-10207
▁نداشتند	-10208
▁ندانسته	-10209
▁نشاندند	-10210
▁نشاندیش	-10211
▁نشماریش	-10212
▁نشناختم	-10213
▁نشناختی	-10214
▁نشکستند	-10215
▁نفاقشان	-10216
▁نفروشند	-10217
▁نفزایند	-10218
▁نقشبندش	-10219
▁نقشهایش	-10220
▁نلرزیدت	-10221
▁نمکدانت	-10222
▁نمیتوان	-10223
▁نمیخردم	-10224
▁نمیدادم	-10225
▁نمیدادی	-10226
▁نمیرنجم	-10227
▁نمینالم	-10228
▁نمیپرسد	-10229
▁نمیکردی	-10230
▁ننالیده	-10231
▁ننشاندی	-10232
▁نوشخندت	-10233
▁نونتیجه	-10234
▁نپسندمت	-10235
▁نپسندند	-10236
▁نپنداری	-10237
▁نکوروست	-10238
▁نگاهبان	-10239
▁نگذاشتم	-10240
▁نگرانند	-10241
▁نگشایند	-10242
▁نگونسار	-10243
▁نیارستی	-10244
▁نیاوردم	-10245
▁نیاکانت	-10246
▁نیستولی	-10247
▁نیفتاده	-10248
▁نیفروزد	-10249
▁نیوشنده	-10250
▁نیکنامی	-10251
▁نیکونام	-10252
▁هشیاریت	-10253
▁همدمانش	-10254
▁همزانوی	-10255
▁همزبانش	-10256
▁همزبانم	-10257
▁همسایگی	-10258
▁همصحبتی	-10259
▁همهشاعر	-10260
▁همکلامی	-10261
▁همیکردش	-10262
▁هندوانه	-10263
▁وافؤادی	-10264
▁وامانده	-10265
▁واگذارم	-10266
▁وفادارا	-10267
▁پادشاهی	-10268
▁پادشایی	-10269
▁پادشهان	-10270
▁پادشهند	-10271
▁پالهنگی	-10272
▁پاکشیده	-10273
▁پاکوبان	-10274
▁پایمالم	-10275
▁پراکندی	-10276
▁پراگندم	-10277
▁پرداخته	-10278
▁پرفتوحش	-10279
▁پرفشانی	-10280
▁پرنیانی	-10281
▁پروبالی	-10282
▁پسندیده	-10283
▁پشیمانی	-10284
▁پنداشتش	-10285
▁پنداشتی	-10286
▁پوستینی	-10287
▁پولادین	-10288
▁پیراسته	-10289
▁پیراستی	-10290
▁پیراهنت	-10291
▁پیرمغان	-10292
▁پیشانیم	-10293
▁پیشیمان	-10294
▁پیمانان	-10295
▁چاپلوسی	-10296
▁چاکرانت	-10297
▁چندانکه	-10298
▁کآسمانی	-10299
▁کآشیانی	-10300
▁کابروان	-10301
▁کارفرما	-10302
▁کاروانش	-10303
▁کارکنان	-10304
▁کاسلامت	-10305
▁کافتاده	-10306
▁کافروخت	-10307
▁کافسانه	-10308
▁کشتزارش	-10309
▁کشتگانم	-10310
▁گاهگاهی	-10311
▁گذرگاهی	-10312
▁گرانبها	-10313
▁گردیدنش	-10314
▁گرفتارم	-10315
▁گرفتندش	-10316
▁گریبانت	-10317
▁گریبانم	-10318
▁گستاخیم	-10319
▁گلستانم	-10320
▁گمشدگان	-10321
▁گوسفندی	-10322
▁گوشواره	-10323
▁یادگارش	-10324
▁یاراییم	-10325
▁یافتندی	-10326
▁یکبارگی	-10327
▁یکدوسال	-10328
▁آرزومندم	-10329
▁آموزگارش	-10330
▁آوازهاست	-10331
▁ابوالحسن	-10332
▁ابوالنصر	-10333
▁اخترشناس	-10334
▁ارجمندان	-10335
▁استخوانت	-10336
▁استخوانی	-10337
▁اسلامیان	-10338
▁اشراقیان	-10339
▁افتادشان	-10340
▁افتادگان	-10341
▁افراختمش	-10342
▁افروختمی	-10343
▁افسونگری	-10344
▁افلاسشان	-10345
▁افلاکیان	-10346
▁افگندشان	-10347
▁الحمدلله	-10348
▁امیدگاها	-10349
▁اندامشان	-10350
▁اندیشناک	-10351
▁اوستادان	-10352
▁ایستادگی	-10353
▁ایمانیان	-10354
▁ایوانشان	-10355
▁بازخواست	-10356
▁باغبانان	-10357
▁بامدادان	-10358
▁ببرادران	-10359
▁بدلبریها	-10360
▁برانگیزم	-10361
▁برخوردار	-10362
▁برزیگران	-10363
▁برمکیانش	-10364
▁برگمارند	-10365
▁برینجهان	-10366
▁بندگانند	-10367
▁بهمسایگی	-10368
▁بوالعجبی	-10369
▁بوالهوسی	-10370
▁بودناخلف	-10371
▁بپاخاسته	-10372
▁بپاسبانی	-10373
▁بکافریها	-10374
▁بینوایان	-10375
▁بیوفایان	-10376
▁بیوفاییت	-10377
▁بیگناهان	-10378
▁تحقیقشان	-10379
▁توانستند	-10380
▁توفیقشان	-10381
▁جهانداری	-10382
▁جهانگردی	-10383
▁جوانمردی	-10384
▁خوبرویان	-10385
▁خودخواهی	-10386
▁خوردستند	-10387
▁خوشخرامت	-10388
▁خوشخرامی	-10389
▁خونبهایی	-10390
▁خونخواره	-10391
▁داستانها	-10392
▁دانشوران	-10393
▁دردمندان	-10394
▁دستگیریم	-10395
▁دوستدارا	-10396
▁دوستدارش	-10397
▁دیدارشان	-10398
▁دیوانگان	-10399
▁راخواهیم	-10400
▁رامشگران	-10401
▁زابلیانش	-10402
▁زبردستند	-10403
▁زندگانیت	-10404
▁ستمگریها	-10405
▁سرگردانم	-10406
▁سیاووشان	-10407
▁شهانراست	-10408
▁شهریاران	-10409
▁شهریارند	-10410
▁شهید۱۱۹۲	-10411
▁شورانگیز	-10412
▁شکستگانت	-10413
▁شیبانیان	-10414
▁صندوقهای	-10415
▁صیدافگنی	-10416
▁عنبرفشان	-10417
▁فرستادمت	-10418
▁فرفوریوس	-10419
▁فیروزبخت	-10420
▁قدرداریش	-10421
▁قندیلهای	-10422
▁مالامالی	-10423
▁ماهرویان	-10424
▁مهربانیت	-10425
▁میخواستم	-10426
▁میساختند	-10427
▁میشمارمت	-10428
▁میهمانان	-10429
▁میهمانیم	-10430
▁میگردیدم	-10431
▁نازنینان	-10432
▁ناقوسشان	-10433
▁نامحرمان	-10434
▁نشناختمش	-10435
▁نشناختند	-10436
▁نفرستاده	-10437
▁نفرستادی	-10438
▁نمیتوانم	-10439
▁نمیگذارد	-10440
▁نوشخندان	-10441
▁نپیمایدم	-10442
▁نگارستان	-10443
▁نگذاشتند	-10444
▁نگهداریت	-10445
▁نیازاریش	-10446
▁نیافریده	-10447
▁نیاموزند	-10448
▁نیاوردیش	-10449
▁نیکبختان	-10450
▁هاروتشان	-10451
▁هوسناکان	-10452
▁وانداخته	-10453
▁پاسبانان	-10454
▁پافشارند	-10455
▁پاکدامنی	-10456
▁پاکیزگان	-10457
▁پرافشانم	-10458
▁پراکندگی	-10459
▁پرداختند	-10460
▁پریشانیم	-10461
▁پوشیدستم	-10462
▁چوخورشید	-10463
▁کارآگهان	-10464
▁کامرانیت	-10465
▁کانباشته	-10466
▁کاینچنین	-10467
▁گرهگشایی	-10468
▁گلرخساری	-10469
▁گلستانند	-10470
▁گمگشتگان	-10471
▁گوسفندان	-10472
▁گوشواریش	-10473
▁یونانیان	-10474
▁انوشیروان	-10475
▁بدشنامشان	-10476
▁بدوشیزگان	-10477
▁برافراختم	-10478
▁برافراختی	-10479
▁برافراشته	-10480
▁براندازیم	-10481
▁بفرهمایون	-10482
▁تماشاییان	-10483
▁تیرافگنان	-10484
▁حریراندام	-10485
▁خدمتگزاری	-10486
▁خودپسندان	-10487
▁خونخوارند	-10488
▁درانداختی	-10489
▁دلباختگان	-10490
▁دوستداران	-10491
▁دوستداریت	-10492
▁ریسمانهای	-10493
▁سرافراخته	-10494
▁سرافگندگی	-10495
▁سراندازیم	-10496
▁شتابندگان	-10497
▁صیدافگنان	-10498
▁فرستادشان	-10499
▁میفرستادم	-10500
▁ناجوانمرد	-10501
▁نامهربانی	-10502
▁ناپسندیده	-10503
▁ندانداگرم	-10504
▁نوسفرانند	-10505
▁نپیندارند	-10506
▁همراهانند	-10507
▁همصحبتانش	-10508
▁هواخواهان	-10509
▁واماندگان	-10510
▁پسندیدگان	-10511
▁کجروشیهای	-10512
▁باغبانزاده	-10513
▁سرافگندگان	-10514
▁نارپستانان	-10515
▁کالانعامند	-10516
▁افتاددیوارش	-10517
▁امیدواریهای	-10518
▁بگوهرشناسان	-10519
▁محشور۱۱۷۱هق	-10520
▁هواخواهانند	-10521
آخ	-10522
آل	-10523
أث	-10524
اظ	-10525
بض	-10526
تخ	-10527
تس	-10528
تک	-10529
ثا	-10530
ثی	-10531
جل	-10532
حث	-10533
خج	-10534
دح	-10535
ذک	-10536
رط	-10537
رن	-10538
زپ	-10539
سف	-10540
شا	-10541
طف	-10542
ظت	-10543
غا	-10544
مخ	-10545
مص	-10546
مق	-10547
نپ	-10548
نچ	-10549
هب	-10550
هج	-10551
هه	-10552
هٰ	-10553
چل	-10554
ژر	-10555
گت	-10556
یق	-10557
▁.	-10558
آفر	-10559
ؤمن	-10560
ابج	-10561
اتل	-10562
احل	-10563
احم	-10564
ارس	-10565
ازت	-10566
ازگ	-10567
اسر	-10568
اشک	-10569
اغی	-10570
افس	-10571
افه	-10572
الح	-10573
انف	-10574
اهت	-10575
اوس	-10576
اکا	-10577
اکد	-10578
اکر	-10579
اکس	-10580
اکش	-10581
اکن	-10582
اکپ	-10583
بال	-10584
بتی	-10585
برآ	-10586
برو	-10587
برگ	-10588
بله	-10589
بوت	-10590
بید	-10591
بیم	-10592
تخت	-10593
ترم	-10594
تشک	-10595
تیم	-10596
ثیر	-10597
جات	-10598
جاو	-10599
آه	-10600
رر	-10601
سأ	-10602
قل	-10603
پی	-10604
چش	-10605
یض	-10606
اجه	-10607
اوش	-10608
ایز	-10609
جفا	-10610
جنگ	-10611
جوس	-10612
حبش	-10613
حتم	-10614
حدی	-10615
حری	-10616
حست	-10617
حسر	-10618
حکه	-10619
حیل	-10620
حیم	-10621
خان	-10622
خاک	-10623
ختش	-10624
ختص	-10625
ختل	-10626
ختگ	-10627
خرم	-10628
خست	-10629
خسر	-10630
خشد	-10631
خلخ	-10632
خلی	-10633
خمی	-10634
خنه	-10635
خود	-10636
خوش	-10637
خیم	-10638
درد	-10639
دری	-10640
دشم	-10641
دهم	-10642
دوس	-10643
دوش	-10644
ذرت	-10645
ذرد	-10646
ذرو	-10647
ذور	-10648
راو	-10649
ربش	-10650
رجا	-10651
ردآ	-10652
رشک	-10653
رفس	-10654
رمغ	-10655
رمم	-10656
رمگ	-10657
رمی	-10658
رنج	-10659
رود	-10660
رون	-10661
ریب	-10662
ریش	-10663
ریض	-10664
ریل	-10665
ریه	-10666
ریی	-10667
زلز	-10668
زنی	-10669
ساب	-10670
ساف	-10671
ستت	-10672
ستغ	-10673
سرد	-10674
سله	-10675
سمی	-10676
سوف	-10677
سید	-10678
سیم	-10679
شاط	-10680
شدم	-10681
شرم	-10682
شری	-10683
ششم	-10684
شقی	-10685
شمم	-10686
شنه	-10687
شکا	-10688
شکب	-10689
شکس	-10690
شکش	-10691
شکف	-10692
شکم	-10693
شکن	-10694
شیم	-10695
صاد	-10696
صبح	-10697
صبر	-10698
صری	-10699
جس	-10700
صع	-10701
فض	-10702
فط	-10703
قو	-10704
مگ	-10705
اسخ	-10706
الا	-10707
الش	-10708
برا	-10709
خال	-10710
درا	-10711
دنگ	-10712
دیح	-10713
ذرا	-10714
راپ	-10715
رفت	-10716
روم	-10717
سرا	-10718
شمی	-10719
صفت	-10720
صلی	-10721
صور	-10722
صیب	-10723
صیم	-10724
ضبش	-10725
ضری	-10726
طار	-10727
طرا	-10728
طرش	-10729
طری	-10730
طله	-10731
طلی	-10732
طوق	-10733
ظاه	-10734
ظری	-10735
ظلی	-10736
ظهر	-10737
عات	-10738
عتد	-10739
عذر	-10740
عری	-10741
عله	-10742
علی	-10743
عمی	-10744
غوش	-10745
فات	-10746
فاو	-10747
فاپ	-10748
فرم	-10749
فست	-10750
فلش	-10751
فله	-10752
فکر	-10753
فیش	-10754
قال	-10755
قده	-10756
قرا	-10757
قرت	-10758
قصر	-10759
قلی	-10760
لاد	-10761
لار	-10762
لاز	-10763
لبر	-10764
لبن	-10765
لرز	-10766
لشن	-10767
لوس	-10768
لکم	-10769
لیح	-10770
لیف	-10771
لیچ	-10772
ماد	-10773
ماس	-10774
مای	-10775
مدل	-10776
مدن	-10777
مده	-10778
مسی	-10779
مشک	-10780
مله	-10781
منش	-10782
منم	-10783
منی	-10784
موز	-10785
موش	-10786
مگر	-10787
میت	-10788
میز	-10789
میش	-10790
میم	-10791
میک	-10792
میگ	-10793
میی	-10794
ناز	-10795
نجش	-10796
ندر	-10797
نشت	-10798
نها	-10799
--	-10800
آث	-10801
اض	-10802
بچ	-10803
بگ	-10804
مذ	-10805
چا	-10806
ؤاد	-10807
ادن	-10808
افش	-10809
الف	-10810
الق	-10811
تگر	-10812
جگر	-10813
حال	-10814
دشت	-10815
راش	-10816
زال	-10817
زشت	-10818
ستک	-10819
شاب	-10820
شاک	-10821
شتگ	-10822
صال	-10823
طشت	-10824
ظال	-10825
عال	-10826
عفم	-10827
عیم	-10828
قند	-10829
لاف	-10830
مال	-10831
مشت	-10832
منه	-10833
نهی	-10834
نکه	-10835
نگد	-10836
نگن	-10837
نید	-10838
هاب	-10839
هال	-10840
هبا	-10841
هبر	-10842
هدا	-10843
هرب	-10844
هرت	-10845
هرر	-10846
هرم	-10847
همد	-10848
همن	-10849
همی	-10850
هور	-10851
هوش	-10852
واک	-10853
وبی	-10854
ودب	-10855
ودن	-10856
ورآ	-10857
ورا	-10858
ورز	-10859
ورو	-10860
وزج	-10861
وزم	-10862
وزی	-10863
وسب	-10864
وسد	-10865
وسه	-10866
وشد	-10867
وشو	-10868
وطی	-10869
ولا	-10870
ومی	-10871
وهر	-10872
وود	-10873
ووس	-10874
ویب	-10875
ویخ	-10876
پست	-10877
پهر	-10878
پوش	-10879
پین	-10880
چشم	-10881
چنگ	-10882
چیز	-10883
کاب	-10884
کاد	-10885
کاف	-10886
کرم	-10887
کشت	-10888
کلی	-10889
کنج	-10890
کهت	-10891
کیه	-10892
گال	-10893
گرن	-10894
گرو	-10895
گرچ	-10896
گنج	-10897
گوی	-10898
یاب	-10899
أل	-10900
أن	-10901
اآ	-10902
خی	-10903
د۱	-10904
زب	-10905
شس	-10906
طح	-10907
طم	-10908
نا	-10909
هق	-10910
گم	-10911
یع	-10912
انب	-10913
انر	-10914
ترا	-10915
حام	-10916
خای	-10917
خری	-10918
راگ	-10919
رشت	-10920
رمش	-10921
ستب	-10922
سلی	-10923
صان	-10924
ضور	-10925
طرب	-10926
عضا	-10927
غمه	-10928
فاج	-10929
فان	-10930
فگن	-10931
فید	-10932
لبد	-10933
لبه	-10934
لفت	-10935
ودخ	-10936
پهل	-10937
گیم	-10938
یای	-10939
یبد	-10940
یبم	-10941
یخت	-10942
یدا	-10943
یدخ	-10944
یدر	-10945
یدل	-10946
یرج	-10947
یرک	-10948
یرگ	-10949
یزش	-10950
یزه	-10951
یشم	-10952
یغش	-10953
یغی	-10954
یلق	-10955
یمم	-10956
یمگ	-10957
یوس	-10958
یوش	-10959
یکل	-10960
▁آخ	-10961
▁آف	-10962
▁آگ	-10963
▁اث	-10964
▁تخ	-10965
▁ثو	-10966
▁جش	-10967
▁حا	-10968
▁حذ	-10969
▁خت	-10970
▁دن	-10971
▁دگ	-10972
▁ذب	-10973
▁رر	-10974
▁رن	-10975
▁رچ	-10976
▁زی	-10977
▁طا	-10978
▁طف	-10979
▁طو	-10980
▁عز	-10981
▁غا	-10982
▁غص	-10983
▁غو	-10984
▁فع	-10985
▁فو	-10986
▁قع	-10987
▁لؤ	-10988
▁لج	-10989
▁لخ	-10990
▁لش	-10991
▁هف	-10992
▁هل	-10993
▁پخ	-10994
▁پش	-10995
▁کؤ	-10996
▁کع	-10997
▁گن	-10998
▁یل	-10999
أت	-11000
ؤذ	-11001
بز	-11002
تأ	-11003
تص	-11004
ثق	-11005
جذ	-11006
حض	-11007
رث	-11008
رپ	-11009
ر۱	-11010
شص	-11011
صخ	-11012
ضح	-11013
طش	-11014
لآ	-11015
لذ	-11016
لغ	-11017
نث	-11018
نع	-11019
کؤ	-11020
کپ	-11021
گج	-11022
یء	-11023
۷۱	-11024
۹۲	-11025
الل	-11026
انا	-11027
اهب	-11028
بام	-11029
بند	-11030
خنی	-11031
خوی	-11032
رقه	-11033
زاد	-11034
سمت	-11035
طید	-11036
طین	-11037
قاش	-11038
لکی	-11039
ماش	-11040
نند	-11041
واد	-11042
ویا	-11043
چست	-11044
یله	-11045
▁اه	-11046
▁اگ	-11047
▁حب	-11048
▁دق	-11049
▁شح	-11050
▁ین	-11051
▁یو	-11052
▁۱۱	-11053
آلیش	-11054
آمدم	-11055
آنکه	-11056
أمون	-11057
ؤادی	-11058
ابجا	-11059
ابست	-11060
ابله	-11061
ابلی	-11062
ابگه	-11063
ادار	-11064
ادمت	-11065
ارده	-11066
ارست	-11067
ارمش	-11068
اروش	-11069
ارگر	-11070
ازاد	-11071
ازان	-11072
ازوی	-11073
ازین	-11074
اسان	-11075
استن	-11076
اعری	-11077
اعیل	-11078
افتم	-11079
افدل	-11080
افرا	-11081
افرو	-11082
افلی	-11083
افور	-11084
الاک	-11085
البد	-11086
العج	-11087
المن	-11088
الیس	-11089
امری	-11090
امشب	-11091
امیر	-11092
امیز	-11093
امیش	-11094
اندا	-11095
اندم	-11096
اندن	-11097
اندگ	-11098
اندی	-11099
أس	-11100
ؤا	-11101
ؤو	-11102
اگ	-11103
بم	-11104
تج	-11105
تز	-11106
تض	-11107
ثن	-11108
جع	-11109
حز	-11110
ذل	-11111
زع	-11112
سق	-11113
شح	-11114
صغ	-11115
طگ	-11116
عظ	-11117
عق	-11118
غف	-11119
فص	-11120
مث	-11121
وظ	-11122
چگ	-11123
ژا	-11124
کح	-11125
کژ	-11126
گا	-11127
یپ	-11128
ارض	-11129
برت	-11130
بست	-11131
جمل	-11132
خفت	-11133
زرم	-11134
سور	-11135
شاه	-11136
صله	-11137
صود	-11138
طای	-11139
غدی	-11140
لعت	-11141
لور	-11142
هیز	-11143
واف	-11144
وبه	-11145
وشخ	-11146
وقه	-11147
پاد	-11148
کری	-11149
گنه	-11150
یدگ	-11151
یرب	-11152
▁اض	-11153
▁زک	-11154
▁فح	-11155
افتر	-11156
المش	-11157
انرا	-11158
انون	-11159
انکه	-11160
انگر	-11161
انیه	-11162
اهرت	-11163
اهند	-11164
اهها	-11165
اهیش	-11166
اهین	-11167
اوان	-11168
اکست	-11169
اکیز	-11170
ایده	-11171
ایشی	-11172
ایمق	-11173
اییت	-11174
باری	-11175
باشت	-11176
بامی	-11177
بانش	-11178
بایی	-11179
بدمش	-11180
براه	-11181
بروی	-11182
برین	-11183
بسته	-11184
بندم	-11185
بنده	-11186
بکان	-11187
بیدی	-11188
بیرم	-11189
بینش	-11190
تاسر	-11191
تفات	-11192
توبی	-11193
ثاری	-11194
ثمین	-11195
جامی	-11196
جسته	-11197
جشان	-11198
جوبه	-11199
بف	-11200
بل	-11201
حذ	-11202
دخ	-11203
رج	-11204
زح	-11205
زغ	-11206
زک	-11207
سخ	-11208
سز	-11209
ضو	-11210
طع	-11211
ظا	-11212
غص	-11213
فق	-11214
فن	-11215
لح	-11216
مج	-11217
مح	-11218
مظ	-11219
مف	-11220
مژ	-11221
هژ	-11222
پل	-11223
پن	-11224
ژه	-11225
آست	-11226
اصه	-11227
امح	-11228
اکی	-11229
بیش	-11230
دور	-11231
ستش	-11232
سفت	-11233
شتغ	-11234
شمن	-11235
صتم	-11236
ضلی	-11237
طلس	-11238
ظام	-11239
عید	-11240
عیش	-11241
غای	-11242
قیم	-11243
لبی	-11244
ماز	-11245
نمی	-11246
نگب	-11247
هید	-11248
هیم	-11249
وات	-11250
ودا	-11251
وشت	-11252
پرد	-11253
گنی	-11254
ینس	-11255
▁آذ	-11256
▁بض	-11257
▁جس	-11258
▁عا	-11259
▁فط	-11260
▁کح	-11261
▁یؤ	-11262
اشای	-11263
الفت	-11264
ایتم	-11265
جیده	-11266
حترا	-11267
حسرت	-11268
ختار	-11269
ختان	-11270
ختلف	-11271
ختمی	-11272
ختنت	-11273
خرده	-11274
خستم	-11275
خشان	-11276
خندت	-11277
خنده	-11278
خندی	-11279
خوان	-11280
خیار	-11281
خیزش	-11282
دامی	-11283
دانی	-11284
داین	-11285
درنش	-11286
دریس	-11287
دسته	-11288
دهدی	-11289
دوزت	-11290
دیده	-11291
ذارد	-11292
ذارم	-11293
ذاری	-11294
ذاشت	-11295
ذران	-11296
رابش	-11297
رادی	-11298
رارم	-11299
بس	-11300
بق	-11301
تت	-11302
جن	-11303
حص	-11304
خگ	-11305
ذه	-11306
رأ	-11307
رچ	-11308
زخ	-11309
شغ	-11310
صن	-11311
غه	-11312
فز	-11313
لث	-11314
لد	-11315
لل	-11316
لن	-11317
لچ	-11318
نس	-11319
نص	-11320
نک	-11321
وث	-11322
کع	-11323
گو	-11324
یآ	-11325
▁۱	-11326
آذر	-11327
آری	-11328
آلی	-11329
ابگ	-11330
انن	-11331
جلم	-11332
حفه	-11333
داز	-11334
شتز	-11335
صحر	-11336
غها	-11337
فتی	-11338
قای	-11339
قیر	-11340
لگه	-11341
مست	-11342
نجب	-11343
هیل	-11344
پای	-11345
گذر	-11346
گوش	-11347
یال	-11348
یید	-11349
یین	-11350
▁آث	-11351
▁شا	-11352
▁قس	-11353
▁چم	-11354
▁یغ	-11355
ارای	-11356
الله	-11357
تانی	-11358
تشان	-11359
راری	-11360
راسر	-11361
راشد	-11362
رامی	-11363
رایی	-11364
رداد	-11365
ردای	-11366
ردشت	-11367
ردمی	-11368
ردون	-11369
ردید	-11370
ردیش	-11371
رشان	-11372
رمنش	-11373
رمید	-11374
رمین	-11375
روزش	-11376
ریاد	-11377
ریای	-11378
زانه	-11379
زدان	-11380
زشان	-11381
زودت	-11382
زودش	-11383
زونی	-11384
سازش	-11385
سامی	-11386
ساند	-11387
سبان	-11388
سبیح	-11389
سبیل	-11390
سترم	-11391
ستمد	-11392
ستیز	-11393
سدیس	-11394
سران	-11395
سرتم	-11396
سروش	-11397
سروی	-11398
سرین	-11399
آد	-11400
آف	-11401
بص	-11402
بک	-11403
تب	-11404
تغ	-11405
خض	-11406
دآ	-11407
دپ	-11408
ذش	-11409
ذو	-11410
شط	-11411
ضم	-11412
عر	-11413
عو	-11414
غم	-11415
قس	-11416
لر	-11417
لش	-11418
لو	-11419
هگ	-11420
وآ	-11421
پا	-11422
چت	-11423
ژگ	-11424
کآ	-11425
گب	-11426
گف	-11427
گل	-11428
یک	-11429
اصی	-11430
اهن	-11431
اگر	-11432
بدی	-11433
تنگ	-11434
جرم	-11435
حاس	-11436
ردت	-11437
روس	-11438
سحت	-11439
سون	-11440
شقت	-11441
صار	-11442
صره	-11443
عاه	-11444
فاع	-11445
قله	-11446
لاج	-11447
لسر	-11448
هره	-11449
هنم	-11450
وشب	-11451
ونم	-11452
ویج	-11453
یطی	-11454
▁خش	-11455
▁وق	-11456
ادگر	-11457
امند	-11458
انیت	-11459
اییش	-11460
بران	-11461
جایت	-11462
راخت	-11463
ربان	-11464
سسته	-11465
سشان	-11466
سیده	-11467
سیلم	-11468
شاده	-11469
شامی	-11470
شاند	-11471
شانش	-11472
شانه	-11473
شانی	-11474
شبند	-11475
شتاب	-11476
شتاد	-11477
شتیش	-11478
شستم	-11479
شقان	-11480
شمار	-11481
شمان	-11482
شمین	-11483
شهان	-11484
شوار	-11485
شکار	-11486
شکست	-11487
شکفت	-11488
شکها	-11489
شکوی	-11490
شکین	-11491
صواب	-11492
صومه	-11493
صیده	-11494
ضرتت	-11495
ضریم	-11496
ضطرا	-11497
ضوان	-11498
طانی	-11499
آذ	-11500
آش	-11501
اچ	-11502
اژ	-11503
بآ	-11504
بو	-11505
حن	-11506
حک	-11507
خب	-11508
خط	-11509
دب	-11510
دو	-11511
دک	-11512
عط	-11513
عن	-11514
نر	-11515
نل	-11516
نن	-11517
هز	-11518
پخ	-11519
پذ	-11520
چس	-11521
ژب	-11522
کج	-11523
۱۹	-11524
ارگ	-11525
امگ	-11526
انع	-11527
بلت	-11528
جود	-11529
حاک	-11530
دفت	-11531
دهی	-11532
ردس	-11533
رکی	-11534
شکر	-11535
شکل	-11536
ظرف	-11537
عنه	-11538
غمت	-11539
فتا	-11540
فتو	-11541
فین	-11542
لهم	-11543
منت	-11544
ناس	-11545
هار	-11546
ودژ	-11547
وزب	-11548
ینق	-11549
▁لذ	-11550
الای	-11551
ایند	-11552
براد	-11553
ثارش	-11554
ثانی	-11555
حیله	-11556
ذارش	-11557
شادی	-11558
طایی	-11559
طشان	-11560
ظارم	-11561
عامی	-11562
عایی	-11563
عبان	-11564
عتاب	-11565
غامی	-11566
غایی	-11567
غوان	-11568
فاست	-11569
فایی	-11570
فتمی	-11571
فتند	-11572
فتوت	-11573
فتور	-11574
فتیم	-11575
فرهم	-11576
فسند	-11577
فلان	-11578
فلیس	-11579
فهان	-11580
فگند	-11581
قامی	-11582
قانی	-11583
قمان	-11584
قوبم	-11585
قیان	-11586
قیرم	-11587
لابش	-11588
لاقش	-11589
لالم	-11590
لانت	-11591
لانی	-11592
لایی	-11593
لوسی	-11594
ماری	-11595
ماشا	-11596
ماقی	-11597
مامی	-11598
مایه	-11599
آس	-11600
جف	-11601
ذب	-11602
ذق	-11603
رآ	-11604
زس	-11605
صب	-11606
صل	-11607
طق	-11608
ظو	-11609
لپ	-11610
لگ	-11611
هس	-11612
هغ	-11613
وذ	-11614
وچ	-11615
پش	-11616
چغ	-11617
ژد	-11618
کز	-11619
یث	-11620
یس	-11621
اغم	-11622
انت	-11623
باش	-11624
جیر	-11625
رمس	-11626
رنه	-11627
سست	-11628
شکد	-11629
صید	-11630
ضاب	-11631
عدل	-11632
قهر	-11633
مدع	-11634
میخ	-11635
نهم	-11636
هلی	-11637
ودم	-11638
وشش	-11639
ژاد	-11640
یفت	-11641
ینی	-11642
▁تگ	-11643
▁دک	-11644
▁رد	-11645
▁رل	-11646
▁رگ	-11647
▁عت	-11648
▁نچ	-11649
ارسی	-11650
ازیر	-11651
اشقی	-11652
افری	-11653
انای	-11654
حالی	-11655
خلوا	-11656
دمان	-11657
زدید	-11658
شکند	-11659
فایش	-11660
مایت	-11661
مداد	-11662
مدار	-11663
مدحش	-11664
مدست	-11665
مدیم	-11666
مراد	-11667
مردم	-11668
مرده	-11669
مرشد	-11670
منای	-11671
مندر	-11672
مودت	-11673
مودش	-11674
مونش	-11675
میای	-11676
میرد	-11677
میلش	-11678
مینم	-11679
نابی	-11680
ناری	-11681
نامی	-11682
ناهم	-11683
نایی	-11684
نتها	-11685
نجان	-11686
نجشم	-11687
نجها	-11688
نجور	-11689
نداز	-11690
ندتر	-11691
ندرم	-11692
ندید	-11693
ندیش	-11694
ندیل	-11695
نشان	-11696
نمان	-11697
نهای	-11698
نهند	-11699
آص	-11700
آگ	-11701
حد	-11702
دث	-11703
رق	-11704
زش	-11705
زگ	-11706
سگ	-11707
شأ	-11708
طپ	-11709
عک	-11710
غن	-11711
غک	-11712
فغ	-11713
فک	-11714
مز	-11715
نخ	-11716
وص	-11717
پو	-11718
یؤ	-11719
یح	-11720
ادا	-11721
امر	-11722
اهل	-11723
این	-11724
برم	-11725
ثان	-11726
جاز	-11727
جند	-11728
داح	-11729
دهد	-11730
رست	-11731
روش	-11732
زیر	-11733
لسی	-11734
لکت	-11735
منا	-11736
منز	-11737
نصر	-11738
نود	-11739
هتش	-11740
پار	-11741
کدر	-11742
یدو	-11743
ینگ	-11744
▁بذ	-11745
▁خب	-11746
▁وب	-11747
▁کژ	-11748
▁گف	-11749
ابور	-11750
اعظت	-11751
الار	-11752
اهشن	-11753
ایتت	-11754
تاری	-11755
تحان	-11756
جویم	-11757
ردود	-11758
رنده	-11759
رویش	-11760
ریبی	-11761
ریوز	-11762
سنین	-11763
ضمون	-11764
ظارش	-11765
فسان	-11766
فغان	-11767
مدید	-11768
نهاد	-11769
نوای	-11770
نوشم	-11771
نگال	-11772
نگام	-11773
نگاه	-11774
نگرد	-11775
نگور	-11776
نگون	-11777
نیدم	-11778
هانم	-11779
هانگ	-11780
هبان	-11781
هبای	-11782
هرست	-11783
هسته	-11784
هیدم	-11785
وادت	-11786
واری	-11787
والن	-11788
وامی	-11789
وانب	-11790
وانت	-11791
واند	-11792
وانگ	-11793
واهد	-11794
واوی	-11795
وحست	-11796
ودای	-11797
ودند	-11798
ودها	-11799
آت	-11800
آو	-11801
اث	-11802
تل	-11803
حو	-11804
دف	-11805
رش	-11806
رع	-11807
زج	-11808
سح	-11809
صا	-11810
طغ	-11811
غب	-11812
فگ	-11813
لع	-11814
مؤ	-11815
مض	-11816
هو	-11817
چم	-11818
چی	-11819
یخ	-11820
یو	-11821
یگ	-11822
ادث	-11823
ازک	-11824
اشد	-11825
اکت	-11826
تند	-11827
ثقب	-11828
حاد	-11829
دند	-11830
راغ	-11831
ربی	-11832
ردا	-11833
زمه	-11834
شست	-11835
شند	-11836
شیش	-11837
صند	-11838
صیر	-11839
ضای	-11840
عرا	-11841
فوس	-11842
ماج	-11843
هست	-11844
هفت	-11845
هود	-11846
هوس	-11847
ولت	-11848
کوی	-11849
کید	-11850
یرز	-11851
یوز	-11852
▁زآ	-11853
▁قل	-11854
▁چت	-11855
ادید	-11856
اران	-11857
بانت	-11858
حرمی	-11859
ختری	-11860
دامت	-11861
ستاد	-11862
شکری	-11863
شکلی	-11864
لزار	-11865
ماید	-11866
وازد	-11867
ودکی	-11868
ودگی	-11869
ورید	-11870
ورین	-11871
ور۱۱	-11872
وزان	-11873
وزجم	-11874
وسته	-11875
وستی	-11876
وسمی	-11877
وسند	-11878
وسوی	-11879
وسید	-11880
وشاب	-11881
وشنی	-11882
وشیز	-11883
وشیم	-11884
وطیم	-11885
وقان	-11886
وناب	-11887
ونان	-11888
ونتی	-11889
ونده	-11890
ونری	-11891
ونند	-11892
ونگر	-11893
ویخت	-11894
ویشت	-11895
وییش	-11896
پارم	-11897
پاری	-11898
پایه	-11899
آق	-11900
تح	-11901
ته	-11902
تگ	-11903
ثم	-11904
خز	-11905
دز	-11906
سج	-11907
سک	-11908
شع	-11909
ضل	-11910
غز	-11911
قض	-11912
لز	-11913
مط	-11914
مع	-11915
مو	-11916
هش	-11917
په	-11918
گد	-11919
اخس	-11920
اخم	-11921
ادد	-11922
ارب	-11923
اغت	-11924
انج	-11925
انس	-11926
اپی	-11927
باه	-11928
تست	-11929
جست	-11930
حقی	-11931
راد	-11932
ردک	-11933
ستح	-11934
ستخ	-11935
ستد	-11936
ستن	-11937
ستو	-11938
ستگ	-11939
سنگ	-11940
شاد	-11941
صلم	-11942
قری	-11943
قفس	-11944
مدح	-11945
مری	-11946
ملت	-11947
نبه	-11948
هرپ	-11949
هری	-11950
وزن	-11951
ونش	-11952
ونی	-11953
چرا	-11954
کست	-11955
گرد	-11956
▁جع	-11957
▁زس	-11958
▁زپ	-11959
▁نح	-11960
▁گب	-11961
ابند	-11962
ادرم	-11963
انیم	-11964
ایگی	-11965
بانم	-11966
بانه	-11967
خلوق	-11968
دالت	-11969
ردار	-11970
ردیم	-11971
زاست	-11972
زرده	-11973
شمرد	-11974
قبله	-11975
نهار	-11976
پذیر	-11977
پسند	-11978
پیده	-11979
کاری	-11980
کردش	-11981
کردم	-11982
کرده	-11983
کشته	-11984
کنام	-11985
کوست	-11986
گاهم	-11987
گردد	-11988
گرفت	-11989
گرنه	-11990
گرید	-11991
گریز	-11992
گریم	-11993
گمان	-11994
گندش	-11995
گیزم	-11996
یارم	-11997
یاری	-11998
یالی	-11999
آز	-12000
ؤم	-12001
بغ	-12002
تق	-12003
رک	-12004
غت	-12005
قط	-12006
لج	-12007
لط	-12008
مچ	-12009
▁ژ	-12010
امق	-12011
ایر	-12012
بور	-12013
حرم	-12014
خزن	-12015
رها	-12016
رید	-12017
ستج	-12018
سدت	-12019
شرا	-12020
طام	-12021
عند	-12022
فاف	-12023
لیخ	-12024
مدش	-12025
ملک	-12026
مور	-12027
ندک	-12028
نهد	-12029
هات	-12030
هشت	-12031
ودپ	-12032
وزت	-12033
وشا	-12034
ونب	-12035
پرس	-12036
کرش	-12037
یرا	-12038
▁تز	-12039
▁جگ	-12040
▁خز	-12041
▁خف	-12042
▁زق	-12043
▁زچ	-12044
▁سن	-12045
▁شت	-12046
▁شج	-12047
▁شص	-12048
▁شغ	-12049
▁صخ	-12050
▁وآ	-12051
▁چش	-12052
▁چن	-12053
الیم	-12054
امده	-12055
ایید	-12056
بیلش	-12057
ردها	-12058
ردین	-12059
فتاد	-12060
فتان	-12061
لوان	-12062
لیچه	-12063
مدعا	-12064
مننم	-12065
وادی	-12066
وریت	-12067
ویید	-12068
یایی	-12069
یدات	-12070
یدار	-12071
یداف	-12072
یدلم	-12073
یدلی	-12074
یدنش	-12075
یدهی	-12076
یدید	-12077
یدیش	-12078
یراف	-12079
یرمش	-12080
یروز	-12081
یروم	-12082
یرون	-12083
یروی	-12084
یرید	-12085
یریز	-12086
یزدم	-12087
یستم	-12088
یطان	-12089
یماب	-12090
یمند	-12091
یمین	-12092
یناز	-12093
یناف	-12094
ینال	-12095
ینام	-12096
ینای	-12097
ینتش	-12098
ینجا	-12099
تع	-12100
ظی	-12101
عض	-12102
نق	-12103
یج	-12104
...	-12105
آنج	-12106
ارج	-12107
ارط	-12108
ارف	-12109
ارک	-12110
امو	-12111
انز	-12112
انک	-12113
اهش	-12114
اکو	-12115
تید	-12116
جین	-12117
خگر	-12118
دای	-12119
ذاب	-12120
رار	-12121
ستق	-12122
شقم	-12123
شنم	-12124
ضیغ	-12125
عین	-12126
غار	-12127
فار	-12128
لام	-12129
لید	-12130
لین	-12131
ماه	-12132
میپ	-12133
ناب	-12134
ندت	-12135
ندن	-12136
نفت	-12137
گام	-12138
یاه	-12139
یمش	-12140
ینج	-12141
ینن	-12142
ینو	-12143
ینچ	-12144
ینک	-12145
یون	-12146
▁فش	-12147
▁قو	-12148
▁پو	-12149
▁چس	-12150
ارین	-12151
اصرا	-12152
اقبت	-12153
امید	-12154
بیری	-12155
تشین	-12156
ریده	-12157
زالی	-12158
سرده	-12159
شانم	-12160
غیار	-12161
نالم	-12162
نجام	-12163
نجین	-12164
نگشت	-12165
وسفر	-12166
یارش	-12167
یرای	-12168
یرین	-12169
ینان	-12170
ینور	-12171
ینکی	-12172
ینگر	-12173
ینیش	-12174
▁آبد	-12175
▁آسا	-12176
▁آست	-12177
▁آشت	-12178
▁آشی	-12179
▁آمر	-12180
▁آنج	-12181
▁آنه	-12182
▁آنچ	-12183
▁آنگ	-12184
▁آهه	-12185
▁آین	-12186
▁ابک	-12187
▁اخل	-12188
▁ارت	-12189
▁ارد	-12190
▁ارو	-12191
▁ازق	-12192
▁ازن	-12193
▁ازی	-12194
▁اظه	-12195
▁افش	-12196
▁افل	-12197
▁افک	-12198
▁اقب	-12199
آم	-12200
ثو	-12201
جغ	-12202
ذن	-12203
عز	-12204
عش	-12205
مأ	-12206
مپ	-12207
آرد	-12208
ادک	-12209
ارآ	-12210
اهه	-12211
اود	-12212
ایب	-12213
برف	-12214
تار	-12215
تری	-12216
تفی	-12217
جاب	-12218
حوش	-12219
ردش	-12220
ردو	-12221
ردگ	-12222
ریر	-12223
رین	-12224
زرد	-12225
زند	-12226
زید	-12227
شنگ	-12228
صتش	-12229
عتک	-12230
عوی	-12231
فرا	-12232
فرد	-12233
لست	-12234
لیت	-12235
مید	-12236
نبل	-12237
ندا	-12238
ندس	-12239
ندو	-12240
ندگ	-12241
هند	-12242
هوی	-12243
پید	-12244
پیم	-12245
ژند	-12246
یدت	-12247
یرن	-12248
یشخ	-12249
▁حن	-12250
▁قا	-12251
▁هز	-12252
▁یز	-12253
▁یس	-12254
افام	-12255
اموش	-12256
اندر	-12257
جاوه	-12258
دانش	-12259
دایت	-12260
ردست	-12261
ساوس	-12262
ستور	-12263
سویش	-12264
شتری	-12265
قصاب	-12266
هرور	-12267
وارم	-12268
یناد	-12269
▁اقط	-12270
▁الد	-12271
▁اله	-12272
▁الو	-12273
▁امس	-12274
▁امک	-12275
▁انف	-12276
▁اهر	-12277
▁اوی	-12278
▁ایج	-12279
▁ایر	-12280
▁ایز	-12281
▁ایش	-12282
▁ایم	-12283
▁ایو	-12284
▁بآه	-12285
▁باق	-12286
▁ببا	-12287
▁بتخ	-12288
▁بتق	-12289
▁بجش	-12290
▁بجن	-12291
▁بحس	-12292
▁بخا	-12293
▁بخز	-12294
▁بخی	-12295
▁بدا	-12296
▁بدب	-12297
▁بدز	-12298
▁برز	-12299
تف	-12300
دد	-12301
دن	-12302
زچ	-12303
سش	-12304
شف	-12305
شگ	-12306
طو	-12307
چن	-12308
ارپ	-12309
اهد	-12310
بود	-12311
جال	-12312
حید	-12313
خنم	-12314
دوی	-12315
راه	-12316
زاز	-12317
زهت	-12318
شفت	-12319
شگر	-12320
صمت	-12321
طیر	-12322
ظیر	-12323
عفت	-12324
عون	-12325
فتت	-12326
فتگ	-12327
قاد	-12328
لنگ	-12329
هنه	-12330
ودگ	-12331
وشه	-12332
پند	-12333
چید	-12334
ژده	-12335
گنم	-12336
یدآ	-12337
یدک	-12338
یرش	-12339
▁جه	-12340
▁حز	-12341
ادرت	-12342
ادوی	-12343
ادیل	-12344
ایست	-12345
حیان	-12346
خترم	-12347
رمان	-12348
زنند	-12349
ستای	-12350
عایت	-12351
عجیل	-12352
فتید	-12353
منون	-12354
ندود	-12355
نیده	-12356
هوان	-12357
وحیم	-12358
ودرد	-12359
ویدت	-12360
وییم	-12361
کیده	-12362
یدست	-12363
یدهم	-12364
▁آمو	-12365
▁افر	-12366
▁بخد	-12367
▁برس	-12368
▁بسؤ	-12369
▁بسج	-12370
▁بسع	-12371
▁بسف	-12372
▁بسن	-12373
▁بسپ	-12374
▁بسک	-12375
▁بسگ	-12376
▁بطف	-12377
▁بطل	-12378
▁بعت	-12379
▁بفت	-12380
▁بلع	-12381
▁بلق	-12382
▁بلک	-12383
▁بمع	-12384
▁بهت	-12385
▁بهز	-12386
▁بهش	-12387
▁بهل	-12388
▁بهه	-12389
▁بوز	-12390
▁بوظ	-12391
▁بوع	-12392
▁بکا	-12393
▁بکه	-12394
▁بگد	-12395
▁بگس	-12396
▁بگن	-12397
▁بیج	-12398
▁بیز	-12399
جت	-12400
حظ	-12401
سع	-12402
نغ	-12403
وخ	-12404
اام	-12405
ادگ	-12406
الن	-12407
امم	-12408
امن	-12409
جای	-12410
حوی	-12411
رام	-12412
رهم	-12413
روی	-12414
شوی	-12415
صفی	-12416
طبر	-12417
عشم	-12418
غام	-12419
فتش	-12420
قشک	-12421
مهر	-12422
نوی	-12423
هام	-12424
ودش	-12425
وذر	-12426
وسن	-12427
وند	-12428
ویر	-12429
چاک	-12430
کای	-12431
یام	-12432
یرح	-12433
یرو	-12434
یلم	-12435
▁آق	-12436
▁تذ	-12437
▁شق	-12438
▁صع	-12439
▁ضب	-12440
▁عس	-12441
▁عک	-12442
▁فز	-12443
▁قه	-12444
ادگی	-12445
اشنی	-12446
امین	-12447
انوی	-12448
اورد	-12449
ایات	-12450
برید	-12451
ثیری	-12452
جایی	-12453
شایی	-12454
مارت	-12455
نجمن	-12456
وتست	-12457
ویست	-12458
یرده	-12459
▁اسر	-12460
▁باخ	-12461
▁باض	-12462
▁بوت	-12463
▁بیس	-12464
▁بیط	-12465
▁بیق	-12466
▁بیل	-12467
▁بیچ	-12468
▁تأم	-12469
▁تاخ	-12470
▁تاش	-12471
▁تحس	-12472
▁تحص	-12473
▁تزا	-12474
▁تعط	-12475
▁تعم	-12476
▁تقص	-12477
▁تلا	-12478
▁تمث	-12479
▁توا	-12480
▁توز	-12481
▁توس	-12482
▁توش	-12483
▁توف	-12484
▁توه	-12485
▁توک	-12486
▁توی	-12487
▁تگر	-12488
▁جزی	-12489
▁جلی	-12490
▁جمی	-12491
▁جنی	-12492
▁جیح	-12493
▁حاذ	-12494
▁حام	-12495
▁حاک	-12496
▁حبذ	-12497
▁حبی	-12498
▁حجا	-12499
تذ	-12500
دج	-12501
شخ	-12502
صد	-12503
فخ	-12504
آرم	-12505
ادز	-12506
افد	-12507
اهو	-12508
ایا	-12509
بتل	-12510
تای	-12511
تگه	-12512
تیر	-12513
خام	-12514
ختن	-12515
دیر	-12516
رعی	-12517
زری	-12518
سام	-12519
سما	-12520
صاب	-12521
عدا	-12522
عوت	-12523
فند	-12524
لاه	-12525
لون	-12526
لیر	-12527
وسم	-12528
ونا	-12529
ونخ	-12530
ونر	-12531
ووش	-12532
پاه	-12533
پنج	-12534
گست	-12535
یاخ	-12536
یرس	-12537
ینت	-12538
یوم	-12539
▁زت	-12540
▁غی	-12541
▁مم	-12542
▁گا	-12543
▁یح	-12544
اتقم	-12545
ارتش	-12546
ارون	-12547
الام	-12548
امون	-12549
انست	-12550
ایای	-12551
باهی	-12552
رابی	-12553
شکال	-12554
ماده	-12555
ناست	-12556
نجرت	-12557
نجید	-12558
ندار	-12559
ندام	-12560
ندگی	-12561
وسها	-12562
وگان	-12563
کسان	-12564
یراز	-12565
یرنج	-12566
یرند	-12567
یرود	-12568
ینیم	-12569
▁بدش	-12570
▁بسز	-12571
▁تجم	-12572
▁تکب	-12573
▁حرک	-12574
▁حری	-12575
▁حسر	-12576
▁حضر	-12577
▁حقی	-12578
▁حوض	-12579
▁خای	-12580
▁خدم	-12581
▁خطب	-12582
▁خلی	-12583
▁خنج	-12584
▁خیا	-12585
▁داو	-12586
▁دای	-12587
▁درآ	-12588
▁درا	-12589
▁درب	-12590
▁درف	-12591
▁درن	-12592
▁دره	-12593
▁دفت	-12594
▁دلخ	-12595
▁دلد	-12596
▁دلن	-12597
▁دله	-12598
▁دمب	-12599
حج	-12600
خص	-12601
فو	-12602
نژ	-12603
یص	-12604
۱ه	-12605
۱۷	-12606
ادخ	-12607
اهم	-12608
اهگ	-12609
باد	-12610
تاه	-12611
جان	-12612
جید	-12613
خار	-12614
ذات	-12615
ذبه	-12616
راع	-12617
رری	-12618
ریک	-12619
زنگ	-12620
سرش	-12621
سیب	-12622
شمش	-12623
شنا	-12624
شنت	-12625
شیخ	-12626
ظان	-12627
علت	-12628
فاد	-12629
فیع	-12630
قاب	-12631
قدی	-12632
لحی	-12633
لوت	-12634
لیه	-12635
مدو	-12636
ناد	-12637
نتخ	-12638
نفا	-12639
وزش	-12640
وفت	-12641
یرف	-12642
یمر	-12643
▁دج	-12644
▁عض	-12645
▁عظ	-12646
ادند	-12647
اروب	-12648
اطگی	-12649
بشان	-12650
رخام	-12651
رهان	-12652
سوان	-12653
شسته	-12654
شنده	-12655
طیان	-12656
قصیم	-12657
نعان	-12658
هایی	-12659
هرری	-12660
ودیش	-12661
وشنگ	-12662
ویزه	-12663
پسین	-12664
کیان	-12665
یانه	-12666
یراه	-12667
▁آنس	-12668
▁آنق	-12669
▁امر	-12670
▁بجل	-12671
▁بسو	-12672
▁ترح	-12673
▁خفا	-12674
▁دلر	-12675
▁دلس	-12676
▁دمس	-12677
▁دهق	-12678
▁دوب	-12679
▁دوت	-12680
▁دوس	-12681
▁دوی	-12682
▁دیل	-12683
▁ذرا	-12684
▁راح	-12685
▁راخ	-12686
▁راد	-12687
▁راض	-12688
▁راع	-12689
▁ران	-12690
▁رخس	-12691
▁رشت	-12692
▁رهب	-12693
▁رهر	-12694
▁رهن	-12695
▁رون	-12696
▁رکو	-12697
▁زرف	-12698
▁زلی	-12699
آغ	-12700
صط	-12701
اشن	-12702
ترف	-12703
تشی	-12704
درت	-12705
درن	-12706
دیم	-12707
رفش	-12708
رفم	-12709
رفی	-12710
زها	-12711
طلب	-12712
ظار	-12713
عمر	-12714
غاف	-12715
فسش	-12716
فسم	-12717
فسی	-12718
قیس	-12719
مدم	-12720
نفس	-12721
نگج	-12722
گرب	-12723
یمی	-12724
یکن	-12725
▁رق	-12726
▁زج	-12727
اردت	-12728
اشاک	-12729
التش	-12730
الها	-12731
اکرد	-12732
جران	-12733
خارد	-12734
رفان	-12735
روزت	-12736
ریقه	-12737
ریمی	-12738
رینه	-12739
سیرم	-12740
شاهی	-12741
شنود	-12742
صیان	-12743
فاتش	-12744
لامی	-12745
مارد	-12746
ناله	-12747
نجرف	-12748
نگست	-12749
واله	-12750
وسبی	-12751
پیند	-12752
ژاله	-12753
یینه	-12754
▁آبن	-12755
▁اسک	-12756
▁اهت	-12757
▁اکن	-12758
▁بآش	-12759
▁بفس	-12760
▁ترب	-12761
▁ترن	-12762
▁زیش	-12763
▁ساب	-12764
▁ساد	-12765
▁ساغ	-12766
▁ساف	-12767
▁سبح	-12768
▁ستر	-12769
▁سخر	-12770
▁سدر	-12771
▁سرآ	-12772
▁سرز	-12773
▁سرط	-12774
▁سرن	-12775
▁سرچ	-12776
▁سفل	-12777
▁سلو	-12778
▁سوگ	-12779
▁سین	-12780
▁شای	-12781
▁شبل	-12782
▁شبن	-12783
▁شبگ	-12784
▁شجا	-12785
▁شدخ	-12786
▁شدد	-12787
▁شنا	-12788
▁شهب	-12789
▁شهو	-12790
▁شکا	-12791
▁شکف	-12792
▁شکو	-12793
▁شگر	-12794
▁صال	-12795
▁صبو	-12796
▁صند	-12797
▁صنو	-12798
▁طار	-12799
ثغ	-12800
دگ	-12801
ذا	-12802
فؤ	-12803
هک	-12804
امل	-12805
جنی	-12806
راح	-12807
ریا	-12808
ساح	-12809
سنی	-12810
طفت	-12811
طنی	-12812
ظلم	-12813
عتش	-12814
عمت	-12815
عنی	-12816
غرت	-12817
غفر	-12818
غنی	-12819
فرق	-12820
فره	-12821
قمش	-12822
لتش	-12823
لمش	-12824
لود	-12825
لول	-12826
مفر	-12827
نور	-12828
نیا	-12829
نیب	-12830
نیف	-12831
چون	-12832
کوم	-12833
کیس	-12834
یتش	-12835
یشن	-12836
یگر	-12837
▁طغ	-12838
ادتش	-12839
خویی	-12840
دینه	-12841
زیدم	-12842
سیدم	-12843
شترم	-12844
شمنی	-12845
شیدم	-12846
غانه	-12847
فتنی	-12848
مگاه	-12849
نیاز	-12850
هوده	-12851
وبان	-12852
وشیر	-12853
چیدم	-12854
ژدها	-12855
گانه	-12856
گیرم	-12857
یداد	-12858
▁ازپ	-12859
▁ببح	-12860
▁ببخ	-12861
▁ببز	-12862
▁ببه	-12863
▁بتث	-12864
▁بتغ	-12865
▁بمث	-12866
▁بنی	-12867
▁تحم	-12868
▁تیش	-12869
▁حنی	-12870
▁طام	-12871
▁طاو	-12872
▁طرا	-12873
▁طلو	-12874
▁طوی	-12875
▁ظاه	-12876
▁ظلی	-12877
▁عاد	-12878
▁عال	-12879
▁عرا	-12880
▁عرص	-12881
▁عشر	-12882
▁عصف	-12883
▁عقر	-12884
▁عمد	-12885
▁غار	-12886
▁غاز	-12887
▁غال	-12888
▁غزن	-12889
▁غلت	-12890
▁غمز	-12891
▁غمن	-12892
▁غمه	-12893
▁غمو	-12894
▁غور	-12895
▁غوط	-12896
▁فاد	-12897
▁فار	-12898
▁فاط	-12899
تظ	-12900
حگ	-12901
سؤ	-12902
لص	-12903
وء	-12904
آیم	-12905
ابم	-12906
اتق	-12907
افی	-12908
بلک	-12909
تاد	-12910
تقی	-12911
تلم	-12912
ثقی	-12913
حبد	-12914
حشی	-12915
راک	-12916
رگر	-12917
سهل	-12918
فلک	-12919
قیب	-12920
قیف	-12921
قیق	-12922
لای	-12923
لمت	-12924
لمث	-12925
لمق	-12926
لکل	-12927
منع	-12928
هلو	-12929
هنی	-12930
هکن	-12931
وسش	-12932
وقی	-12933
پان	-12934
یوه	-12935
ادقی	-12936
افلم	-12937
اهیت	-12938
ایتی	-12939
برتی	-12940
جاجی	-12941
خرام	-12942
داخت	-12943
ستمم	-12944
ستمک	-12945
شاوه	-12946
ظالم	-12947
عمان	-12948
غانش	-12949
غانم	-12950
فران	-12951
فروش	-12952
لایت	-12953
لمفر	-12954
نایت	-12955
هلای	-12956
هلوی	-12957
واهی	-12958
وایت	-12959
پایت	-12960
کایت	-12961
کهتی	-12962
▁باع	-12963
▁خلا	-12964
▁خلو	-12965
▁دما	-12966
▁رعی	-12967
▁شنق	-12968
▁فان	-12969
▁فای	-12970
▁فتا	-12971
▁فرب	-12972
▁فرم	-12973
▁فره	-12974
▁فصا	-12975
▁قاد	-12976
▁قال	-12977
▁قام	-12978
▁قای	-12979
▁قبی	-12980
▁قیم	-12981
▁لؤل	-12982
▁لاب	-12983
▁لاج	-12984
▁لاز	-12985
▁لاغ	-12986
▁لای	-12987
▁لبا	-12988
▁لجا	-12989
▁لحد	-12990
▁لخل	-12991
▁لیی	-12992
▁مأم	-12993
▁مات	-12994
▁ماج	-12995
▁ماخ	-12996
▁مای	-12997
▁متح	-12998
▁متو	-12999
بج	-13000
بش	-13001
خک	-13002
مک	-13003
وپ	-13004
اتن	-13005
امد	-13006
ایگ	-13007
بات	-13008
بدا	-13009
بزه	-13010
جبی	-13011
حات	-13012
حدم	-13013
خدا	-13014
دات	-13015
دبی	-13016
دمش	-13017
دیث	-13018
رمر	-13019
زدم	-13020
زلم	-13021
سبی	-13022
سدم	-13023
سلم	-13024
شبی	-13025
صدا	-13026
صدم	-13027
صرا	-13028
طبی	-13029
عدم	-13030
غدم	-13031
فلم	-13032
قدم	-13033
قلم	-13034
لات	-13035
لما	-13036
لمه	-13037
مات	-13038
نات	-13039
وام	-13040
پدم	-13041
کلم	-13042
گرت	-13043
▁پد	-13044
اتلم	-13045
انور	-13046
اهات	-13047
اهدم	-13048
بیین	-13049
تارش	-13050
ختنش	-13051
سفته	-13052
صایش	-13053
فتدم	-13054
لمات	-13055
لمنه	-13056
لیده	-13057
مردی	-13058
وزدم	-13059
کردی	-13060
یچگه	-13061
۱۱۹۵	-13062
▁انک	-13063
▁بنس	-13064
▁بنظ	-13065
▁بنف	-13066
▁بنم	-13067
▁بکد	-13068
▁بکر	-13069
▁خات	-13070
▁سبی	-13071
▁ضای	-13072
▁طوا	-13073
▁فات	-13074
▁مجر	-13075
▁مجم	-13076
▁محج	-13077
▁محز	-13078
▁محف	-13079
▁مخص	-13080
▁مذه	-13081
▁مرح	-13082
▁مرق	-13083
▁مرن	-13084
▁مره	-13085
▁مرک	-13086
▁مری	-13087
▁مزر	-13088
▁مسأ	-13089
▁مسک	-13090
▁مشع	-13091
▁مصا	-13092
▁مظل	-13093
▁معر	-13094
▁معص	-13095
▁مغر	-13096
▁مقت	-13097
▁مقد	-13098
▁مقی	-13099
طن	-13100
عب	-13101
عس	-13102
اجت	-13103
اجز	-13104
اجو	-13105
اجگ	-13106
اجی	-13107
ادق	-13108
باج	-13109
برش	-13110
بول	-13111
تاج	-13112
جوش	-13113
خنگ	-13114
زاج	-13115
ساج	-13116
ستع	-13117
سیر	-13118
طنم	-13119
عجر	-13120
قاج	-13121
مشر	-13122
ناخ	-13123
وهش	-13124
وهی	-13125
کفت	-13126
کوه	-13127
گشا	-13128
یشت	-13129
یچم	-13130
یچک	-13131
▁هٰ	-13132
▁وگ	-13133
ادیم	-13134
انان	-13135
تازد	-13136
جنان	-13137
خنان	-13138
دانه	-13139
رگان	-13140
زنان	-13141
سترد	-13142
ستوه	-13143
سندی	-13144
غرای	-13145
لوده	-13146
نانت	-13147
نانم	-13148
گانگ	-13149
گنان	-13150
یدمد	-13151
یماج	-13152
▁ازک	-13153
▁رخص	-13154
▁زلز	-13155
▁ساح	-13156
▁ساع	-13157
▁ساو	-13158
▁شهن	-13159
▁فاج	-13160
▁منا	-13161
▁منب	-13162
▁منج	-13163
▁منص	-13164
▁منق	-13165
▁منو	-13166
▁موب	-13167
▁موز	-13168
▁مون	-13169
▁مگذ	-13170
▁میآ	-13171
▁میا	-13172
▁میب	-13173
▁میج	-13174
▁میس	-13175
▁میش	-13176
▁میو	-13177
▁نات	-13178
▁ناج	-13179
▁ناق	-13180
▁ناه	-13181
▁ناگ	-13182
▁نخو	-13183
▁ندز	-13184
▁ندم	-13185
▁ندی	-13186
▁نرگ	-13187
▁نست	-13188
▁نسخ	-13189
▁نسی	-13190
▁نشأ	-13191
▁نشا	-13192
▁نشو	-13193
▁نشی	-13194
▁نفا	-13195
▁نفت	-13196
▁نفز	-13197
▁نقی	-13198
▁نوب	-13199
لؤ	-13200
وگ	-13201
أمن	-13202
ازش	-13203
اصد	-13204
اصل	-13205
افظ	-13206
بسم	-13207
بچه	-13208
تنی	-13209
جوی	-13210
حکم	-13211
خیر	-13212
ددی	-13213
دسی	-13214
رفه	-13215
سدی	-13216
سیح	-13217
شهر	-13218
صدی	-13219
طیم	-13220
عدی	-13221
قضا	-13222
لسم	-13223
متر	-13224
موی	-13225
ور۱	-13226
یات	-13227
یسی	-13228
یغا	-13229
▁ضع	-13230
▁ظف	-13231
▁عو	-13232
▁وم	-13233
▁په	-13234
ادتر	-13235
اصان	-13236
اصدا	-13237
اصدم	-13238
اصلی	-13239
اعده	-13240
امدی	-13241
اهدی	-13242
بارد	-13243
دویت	-13244
دیار	-13245
راسی	-13246
روزی	-13247
زارت	-13248
سانه	-13249
ستار	-13250
سیای	-13251
فاعت	-13252
فتگی	-13253
مایی	-13254
مندش	-13255
نمون	-13256
ویسم	-13257
ویشی	-13258
یرسد	-13259
یرسم	-13260
▁بجب	-13261
▁بجس	-13262
▁بجی	-13263
▁بپذ	-13264
▁خدی	-13265
▁عاص	-13266
▁عدی	-13267
▁عقی	-13268
▁غمخ	-13269
▁مدع	-13270
▁نوج	-13271
▁نون	-13272
▁نپذ	-13273
▁نکش	-13274
▁نکن	-13275
▁نگا	-13276
▁نگس	-13277
▁نگو	-13278
▁نیا	-13279
▁نیس	-13280
▁نیف	-13281
▁هات	-13282
▁هاد	-13283
▁هال	-13284
▁هدی	-13285
▁هرا	-13286
▁هرج	-13287
▁هرش	-13288
▁هرم	-13289
▁هرچ	-13290
▁هرک	-13291
▁هرگ	-13292
▁همز	-13293
▁همص	-13294
▁همک	-13295
▁هول	-13296
▁هیر	-13297
▁هیز	-13298
▁هیه	-13299
بب	-13300
دژ	-13301
قگ	-13302
نط	-13303
أسی	-13304
اخا	-13305
اخش	-13306
اخل	-13307
اخو	-13308
الک	-13309
ثیه	-13310
حیا	-13311
حیه	-13312
زنم	-13313
ساد	-13314
سیت	-13315
شاخ	-13316
شها	-13317
شوق	-13318
صنم	-13319
فام	-13320
قتی	-13321
قنم	-13322
لاخ	-13323
نمش	-13324
واخ	-13325
پاخ	-13326
یها	-13327
▁تی	-13328
آوری	-13329
اخیم	-13330
ارها	-13331
ازها	-13332
اغان	-13333
اغها	-13334
افیه	-13335
امال	-13336
انام	-13337
حالم	-13338
خاست	-13339
راشت	-13340
ساحل	-13341
ستاخ	-13342
شمها	-13343
شکنم	-13344
عالم	-13345
فتنم	-13346
فرید	-13347
مالم	-13348
مانت	-13349
نتاب	-13350
نمود	-13351
هاند	-13352
وداخ	-13353
وزها	-13354
وشیه	-13355
گریه	-13356
یبان	-13357
یردم	-13358
یهند	-13359
▁الب	-13360
▁الت	-13361
▁الث	-13362
▁الج	-13363
▁الر	-13364
▁الس	-13365
▁الط	-13366
▁الغ	-13367
▁الن	-13368
▁باف	-13369
▁تغی	-13370
▁تیه	-13371
▁شفی	-13372
▁عقو	-13373
▁مپس	-13374
▁واج	-13375
▁واد	-13376
▁واف	-13377
▁واپ	-13378
▁واگ	-13379
▁وحد	-13380
▁ودا	-13381
▁وسی	-13382
▁پاد	-13383
▁پاط	-13384
▁پال	-13385
▁پاگ	-13386
▁پرت	-13387
▁پرغ	-13388
▁پرف	-13389
▁پوس	-13390
▁پوی	-13391
▁پیا	-13392
▁پیل	-13393
▁پیم	-13394
▁چام	-13395
▁چاپ	-13396
▁چوخ	-13397
▁چوپ	-13398
▁چوگ	-13399
.ـ	-13400
جش	-13401
دق	-13402
رؤ	-13403
رل	-13404
ظل	-13405
آرا	-13406
آشن	-13407
ارو	-13408
اگه	-13409
بتم	-13410
برق	-13411
جدر	-13412
حبت	-13413
درس	-13414
درش	-13415
رشن	-13416
رگه	-13417
شبم	-13418
شور	-13419
طاب	-13420
طور	-13421
عشر	-13422
عیل	-13423
فوت	-13424
قبت	-13425
قشب	-13426
قوی	-13427
لوی	-13428
مشب	-13429
هرش	-13430
وبت	-13431
وتر	-13432
وتگ	-13433
وشن	-13434
چمد	-13435
چگه	-13436
گور	-13437
یلس	-13438
اروت	-13439
اشقم	-13440
حانم	-13441
ذشته	-13442
رابت	-13443
رارت	-13444
راهی	-13445
روزد	-13446
روزم	-13447
سازگ	-13448
سنیم	-13449
شنوی	-13450
شویش	-13451
شیرم	-13452
غدان	-13453
ندمت	-13454
نهان	-13455
نگدل	-13456
هرشن	-13457
وتری	-13458
وتگه	-13459
وتیم	-13460
وسان	-13461
یاهی	-13462
▁بخو	-13463
▁بعر	-13464
▁حات	-13465
▁حلا	-13466
▁دشن	-13467
▁دلگ	-13468
▁سوا	-13469
▁مشن	-13470
▁نگی	-13471
▁همس	-13472
▁چکن	-13473
▁کآد	-13474
▁کآش	-13475
▁کآه	-13476
▁کآو	-13477
▁کآی	-13478
▁کاب	-13479
▁کاک	-13480
▁کسر	-13481
▁کسو	-13482
▁کشا	-13483
▁کمت	-13484
▁کنا	-13485
▁کنع	-13486
▁کهغ	-13487
▁کهک	-13488
▁کوث	-13489
▁کوز	-13490
▁کوف	-13491
▁کون	-13492
▁کوچ	-13493
▁کوک	-13494
▁کیخ	-13495
▁گرب	-13496
▁گرس	-13497
▁گرن	-13498
▁گرچ	-13499
آر	-13500
بپ	-13501
جگ	-13502
زت	-13503
زو	-13504
ظف	-13505
اقل	-13506
بیز	-13507
تشگ	-13508
حمد	-13509
داش	-13510
دوم	-13511
دگر	-13512
رسم	-13513
زوم	-13514
سنت	-13515
شاق	-13516
شوم	-13517
قته	-13518
قتو	-13519
لبل	-13520
لیث	-13521
مرت	-13522
مرز	-13523
مرغ	-13524
مرق	-13525
مرگ	-13526
نبر	-13527
نتظ	-13528
نتق	-13529
نوم	-13530
هین	-13531
وقت	-13532
ومه	-13533
وکش	-13534
ژال	-13535
کمل	-13536
کور	-13537
کیل	-13538
گیز	-13539
اهنت	-13540
دارا	-13541
داست	-13542
راقت	-13543
زنین	-13544
طانم	-13545
عاست	-13546
غانت	-13547
قایه	-13548
قتنی	-13549
لیمی	-13550
مراه	-13551
مرود	-13552
مغان	-13553
میمش	-13554
هشان	-13555
ولای	-13556
وهشت	-13557
پیدن	-13558
کرها	-13559
یاست	-13560
▁اشخ	-13561
▁حنظ	-13562
▁خرق	-13563
▁خرو	-13564
▁دلف	-13565
▁ریح	-13566
▁زمر	-13567
▁محن	-13568
▁مرز	-13569
▁هیل	-13570
▁گسی	-13571
▁گلا	-13572
▁گلر	-13573
▁گلز	-13574
▁گلن	-13575
▁گلچ	-13576
▁گلک	-13577
▁گلگ	-13578
▁گند	-13579
▁گوس	-13580
▁گیل	-13581
▁یاز	-13582
▁یاق	-13583
▁یوس	-13584
▁یکب	-13585
▁یکر	-13586
▁یکن	-13587
ابشان	-13588
اجشان	-13589
اجگان	-13590
اخلاق	-13591
ادشان	-13592
ادشاه	-13593
ادمهر	-13594
ادویی	-13595
ادگان	-13596
اراست	-13597
اربان	-13598
ارتگر	-13599
ژن	-13600
آسا	-13601
تبه	-13602
حظه	-13603
خطر	-13604
ذلی	-13605
رزد	-13606
زدت	-13607
ستا	-13608
سزد	-13609
شمت	-13610
صمی	-13611
طرت	-13612
طرز	-13613
طرل	-13614
طگی	-13615
غزد	-13616
قبش	-13617
قوق	-13618
لقه	-13619
محر	-13620
وقم	-13621
کاو	-13622
اجگی	-13623
ارگی	-13624
انقه	-13625
انگی	-13626
اگاه	-13627
بهای	-13628
حرام	-13629
حگاه	-13630
ختگی	-13631
ردگی	-13632
رویم	-13633
رگاه	-13634
زاید	-13635
شاید	-13636
شرمی	-13637
شیند	-13638
طربه	-13639
مدند	-13640
میخت	-13641
هانت	-13642
هانی	-13643
همای	-13644
وریم	-13645
یرتم	-13646
▁آزم	-13647
▁ارب	-13648
▁ارج	-13649
▁ارز	-13650
▁ارس	-13651
▁بزل	-13652
▁بضا	-13653
▁تمک	-13654
▁تنع	-13655
▁درگ	-13656
▁شنب	-13657
▁طیر	-13658
▁قطر	-13659
▁محم	-13660
▁محی	-13661
▁کآت	-13662
▁کآخ	-13663
▁گیت	-13664
ارسته	-13665
ارشان	-13666
ارنده	-13667
اروان	-13668
ارگان	-13669
ارگاه	-13670
اریخش	-13671
ازاده	-13672
ازارم	-13673
ازاری	-13674
ازشان	-13675
ازنین	-13676
استان	-13677
استند	-13678
اسدان	-13679
اشایت	-13680
اشایی	-13681
اشتند	-13682
اعادی	-13683
اعظان	-13684
اغبان	-13685
افشان	-13686
افلان	-13687
افگند	-13688
اقانی	-13689
الانع	-13690
الشان	-13691
العجب	-13692
المند	-13693
الهای	-13694
الهوس	-13695
الیدم	-13696
الیدن	-13697
اماند	-13698
امروز	-13699
رص	-13700
عذ	-13701
غد	-13702
کا	-13703
یا	-13704
۹۵	-13705
أمل	-13706
اضی	-13707
بسر	-13708
بنش	-13709
جرت	-13710
جره	-13711
جشم	-13712
خرا	-13713
دلش	-13714
ذکر	-13715
ریق	-13716
زنج	-13717
طرف	-13718
طمه	-13719
فنش	-13720
قهه	-13721
لوا	-13722
لوک	-13723
متا	-13724
متی	-13725
نشه	-13726
وزگ	-13727
کتو	-13728
کسی	-13729
کمت	-13730
یعم	-13731
ادیث	-13732
ادیس	-13733
اشتن	-13734
امنش	-13735
انجا	-13736
جروش	-13737
حادی	-13738
حانی	-13739
خوست	-13740
ذیرم	-13741
رفته	-13742
ریمت	-13743
زادی	-13744
زهتش	-13745
زوست	-13746
زیرم	-13747
شاره	-13748
صاره	-13749
عادی	-13750
فتمت	-13751
فندی	-13752
لامت	-13753
متاز	-13754
میکن	-13755
نشاه	-13756
نشست	-13757
واره	-13758
ورمت	-13759
وسمت	-13760
وشنش	-13761
کشیم	-13762
گندی	-13763
یرفت	-13764
یزمت	-13765
▁اجن	-13766
▁بپر	-13767
▁رمی	-13768
▁ظری	-13769
▁مجن	-13770
▁مسی	-13771
▁نره	-13772
▁همد	-13773
آفرین	-13774
امعان	-13775
امنده	-13776
امیاب	-13777
امیده	-13778
امیزد	-13779
اناست	-13780
انایی	-13781
انداز	-13782
اندان	-13783
اندند	-13784
اندیم	-13785
انستم	-13786
انسته	-13787
انگاه	-13788
اهبان	-13789
اپلوس	-13790
اکامی	-13791
اکشان	-13792
اکیان	-13793
ایبان	-13794
ایران	-13795
ایشان	-13796
ایعتش	-13797
ایمان	-13798
ایگان	-13799
عص	-13800
مب	-13801
هف	-13802
چک	-13803
اخی	-13804
بلا	-13805
بوا	-13806
تها	-13807
ثمر	-13808
جیل	-13809
حشر	-13810
حول	-13811
دست	-13812
ذان	-13813
زاف	-13814
شرق	-13815
شرک	-13816
ظور	-13817
علش	-13818
فاه	-13819
فری	-13820
فلس	-13821
متح	-13822
مرش	-13823
موس	-13824
نوز	-13825
نچه	-13826
یبا	-13827
یبش	-13828
▁کچ	-13829
ازده	-13830
تبان	-13831
حرگه	-13832
خرین	-13833
رامت	-13834
روان	-13835
زندی	-13836
زوده	-13837
زویش	-13838
سارش	-13839
سترش	-13840
غنون	-13841
فتنه	-13842
قامت	-13843
لاله	-13844
مامت	-13845
نینم	-13846
وارش	-13847
ولتش	-13848
پرسی	-13849
چارم	-13850
چنان	-13851
یامت	-13852
یرار	-13853
▁اسح	-13854
▁اسف	-13855
▁بشر	-13856
▁بمخ	-13857
▁بمق	-13858
▁بمک	-13859
▁بچر	-13860
▁جوا	-13861
▁خست	-13862
▁روض	-13863
▁معا	-13864
▁معج	-13865
▁معز	-13866
▁معل	-13867
▁منح	-13868
▁واژ	-13869
▁ورز	-13870
▁کلث	-13871
باخته	-13872
بارند	-13873
بانان	-13874
بختان	-13875
بروان	-13876
بهایی	-13877
تابان	-13878
تابند	-13879
تفاتش	-13880
تمامت	-13881
تواند	-13882
توانی	-13883
جوانم	-13884
حتراز	-13885
حرمان	-13886
خترکی	-13887
ختندی	-13888
ختگان	-13889
ختگاه	-13890
ختیار	-13891
داران	-13892
داییش	-13893
دهاوش	-13894
ذروان	-13895
ذرگاه	-13896
رازوی	-13897
راسته	-13898
راشته	-13899
أم	-13900
اا	-13901
چر	-13902
آفت	-13903
اسط	-13904
اقع	-13905
اقف	-13906
تاع	-13907
جوم	-13908
دیش	-13909
ذاق	-13910
رکش	-13911
شحه	-13912
شیر	-13913
ضطر	-13914
طاق	-13915
عطر	-13916
غبی	-13917
ماب	-13918
متش	-13919
مکش	-13920
پاس	-13921
چمن	-13922
گیی	-13923
یاج	-13924
یاق	-13925
▁صغ	-13926
▁یق	-13927
امتم	-13928
اکسی	-13929
ایزد	-13930
بالی	-13931
حراب	-13932
رارش	-13933
رفیش	-13934
ریدی	-13935
سالی	-13936
سیدی	-13937
شتاق	-13938
شیشه	-13939
عالی	-13940
لالی	-13941
مالی	-13942
میدی	-13943
نگین	-13944
نیدی	-13945
کانت	-13946
کبیر	-13947
یزدت	-13948
▁انق	-13949
▁بوب	-13950
▁بوج	-13951
▁تکف	-13952
▁حرب	-13953
▁خاز	-13954
▁دند	-13955
▁شیش	-13956
▁صدب	-13957
▁فاس	-13958
▁قاق	-13959
▁لطی	-13960
▁مسج	-13961
▁مسل	-13962
▁ممد	-13963
▁یاو	-13964
ارستی	-13965
اسامی	-13966
اسبان	-13967
الیدی	-13968
امالی	-13969
امیدی	-13970
بارگی	-13971
رافیل	-13972
رامان	-13973
رانیت	-13974
راکند	-13975
راگند	-13976
رداری	-13977
رداست	-13978
رداشت	-13979
رداند	-13980
ردانم	-13981
ردانی	-13982
ردشان	-13983
ردمان	-13984
ردیدم	-13985
ردیده	-13986
رزانی	-13987
رستان	-13988
رمغان	-13989
رمنده	-13990
رمودش	-13991
رمگاه	-13992
رمیدم	-13993
رمیده	-13994
رهیزی	-13995
ریانی	-13996
ریشان	-13997
ریفند	-13998
ریمان	-13999
حس	-14000
فم	-14001
لخ	-14002
بعت	-14003
تشت	-14004
جوع	-14005
حمل	-14006
حمه	-14007
خره	-14008
زلت	-14009
زلش	-14010
سعت	-14011
شتش	-14012
شمر	-14013
شین	-14014
طال	-14015
عتب	-14016
فخر	-14017
قصم	-14018
لبم	-14019
لتی	-14020
معت	-14021
ملا	-14022
ملش	-14023
نبش	-14024
کرت	-14025
▁اظ	-14026
اتنم	-14027
العت	-14028
بانز	-14029
خردم	-14030
رازخ	-14031
راعت	-14032
رسته	-14033
ریبد	-14034
زلزل	-14035
▁	-14036
ا	-14037
ن	-14038
ر	-14039
ی	-14040
د	-14041
م	-14042
و	-14043
ه	-14044
ب	-14045
ت	-14046
ز	-14047
ش	-14048
ک	-14049
س	-14050
ل	-14051
گ	-14052
خ	-14053
ف	-14054
آ	-14055
ج	-14056
چ	-14057
ق	-14058
پ	-14059
ع	-14060
غ	-14061
ح	-14062
ص	-14063
ط	-14064
ذ	-14065
ض	-14066
ظ	-14067
ث	-14068
ژ	-14069
أ	-14070
ؤ	-14071
-	-14072
۱	-14073
ء	-14074
.	-14075
۹	-14076
/	-14077
ة	-14078
ـ	-14079
ٰ	-14080
۲	-14081
۵	-14082
۷	-14083
