<unk>	0
<s>	0
</s>	0
▁ا	-0
▁ب	-1
▁ک	-2
▁م	-3
▁د	-4
ان	-5
▁ن	-6
▁ر	-7
▁ش	-8
ست	-9
▁آ	-10
ار	-11
▁و	-12
ین	-13
▁ز	-14
▁ت	-15
▁گ	-16
▁از	-17
▁خ	-18
▁س	-19
▁چ	-20
ده	-21
▁که	-22
▁ه	-23
▁را	-24
▁در	-25
ند	-26
ای	-27
▁است	-28
▁پ	-29
▁ج	-30
ام	-31
▁بر	-32
▁این	-33
فت	-34
▁ی	-35
▁تو	-36
وی	-37
▁با	-38
ود	-39
عر	-40
▁به	-41
ید	-42
▁من	-43
▁آن	-44
ون	-45
رد	-46
▁ع	-47
یر	-48
▁شعر	-49
▁می	-50
▁دل	-51
▁ف	-52
اد	-53
شم	-54
اه	-55
▁سر	-56
گر	-57
خت	-58
شت	-59
▁ح	-60
▁هم	-61
▁غ	-62
ور	-63
را	-64
ال	-65
▁بی	-66
▁کن	-67
وز	-68
▁ای	-69
▁ق	-70
▁گر	-71
لی	-72
وش	-73
▁چو	-74
وان	-75
▁ص	-76
▁چه	-77
▁نه	-78
اری	-79
▁تا	-80
▁مح	-81
▁نی	-82
بی	-83
سی	-84
▁چون	-85
▁گل	-86
▁سا	-87
▁دار	-88
▁ام	-89
بان	-90
لا	-91
مان	-92
▁شد	-93
▁گفت	-94
▁بود	-95
▁ل	-96
▁او	-97
▁هر	-98
ذر	-99
اره	-100
▁دو	-101
▁پی	-102
ری	-103
▁روز	-104
فا	-105
▁مو	-106
▁جان	-107
شان	-108
▁ط	-109
▁خو	-110
می	-111
از	-112
هر	-113
▁مرا	-114
▁ساخت	-115
▁اد	-116
▁یک	-117
▁کند	-118
▁پر	-119
انه	-120
وع	-121
مد	-122
اب	-123
شک	-124
▁«	-125
▁آذر	-126
رم	-127
▁ادبی	-128
ضوع	-129
▁موضوع	-130
ارهٔ	-131
شمارهٔ	-132
▁ساختار	-133
نگ	-134
▁شب	-135
اک	-136
▁بد	-137
▁ما	-138
▁شک	-139
▁دی	-140
▁سرو	-141
یم	-142
▁بگ	-143
▁فر	-144
▁خود	-145
▁کرد	-146
▁چشم	-147
▁زبان	-148
نه	-149
▁نیست	-150
شد	-151
دا	-152
سته	-153
بر	-154
انی	-155
نج	-156
شق	-157
▁دارد	-158
▁بس	-159
▁نب	-160
▁اگر	-161
گی	-162
▁مر	-163
▁کس	-164
▁دست	-165
▁رفت	-166
▁غم	-167
▁نگ	-168
▁خون	-169
▁اف	-170
▁همه	-171
تو	-172
▁شا	-173
یست	-174
رده	-175
من	-176
▁وی	-177
اف	-178
ستان	-179
▁شده	-180
لب	-181
وس	-182
▁روی	-183
▁ند	-184
▁بین	-185
شی	-186
ایی	-187
هان	-188
▁کز	-189
▁آمد	-190
▁غیر	-191
اند	-192
▁عشق	-193
یز	-194
▁عن	-195
▁نش	-196
کن	-197
له	-198
▁گرد	-199
▁دگر	-200
▁دا	-201
صه	-202
نده	-203
▁دید	-204
▁آه	-205
▁ها	-206
▁ده	-207
▁لب	-208
جا	-209
▁کرده	-210
لیل	-211
▁تر	-212
▁باغ	-213
▁چیست	-214
که	-215
فته	-216
▁نا	-217
▁یار	-218
▁تح	-219
اید	-220
▁یا	-221
شته	-222
▁بخ	-223
▁بیت	-224
سر	-225
▁شام	-226
قی	-227
▁نام	-228
ینه	-229
▁باز	-230
نی	-231
▁خلا	-232
▁مض	-233
امین	-234
▁بب	-235
▁کار	-236
▁دارای	-237
یش	-238
▁گوی	-239
▁شاعر	-240
▁استع	-241
▁تحلیل	-242
▁ره	-243
▁کو	-244
▁کلا	-245
▁شامل	-246
▁خلاصه	-247
سیک	-248
ژگی	-249
▁ویژگی	-250
▁کلاسیک	-251
▁شاعرانه	-252
▁/	-253
توای	-254
فاده	-255
▁خاک	-256
▁محور	-257
▁سروده	-258
▁عنوان	-259
▁محتوای	-260
▁مضامین	-261
▁استعاری	-262
▁استفاده	-263
▁باد	-264
▁آب	-265
▁دام	-266
اله	-267
▁بلب	-268
▁آت	-269
مت	-270
رف	-271
▁بت	-272
فر	-273
▁اند	-274
ایت	-275
▁داد	-276
▁جهان	-277
▁درد	-278
▁بن	-279
▁یکی	-280
اهی	-281
▁نمی	-282
فس	-283
با	-284
▁۱	-285
▁کسی	-286
▁آش	-287
▁کش	-288
▁کوی	-289
▁بک	-290
▁راه	-291
▁نو	-292
▁مرغ	-293
لک	-294
▁آر	-295
امی	-296
▁مرد	-297
▁بز	-298
▁خوش	-299
وه	-300
▁کا	-301
لم	-302
هل	-303
اده	-304
▁آو	-305
▁کنم	-306
▁رو	-307
▁خل	-308
یدم	-309
▁رس	-310
▁دم	-311
▁آتش	-312
▁رخ	-313
▁بج	-314
▁افت	-315
▁شن	-316
دی	-317
ستم	-318
▁شم	-319
▁مهر	-320
▁دوست	-321
▁ماند	-322
▁جز	-323
▁شه	-324
▁پیر	-325
▁دیده	-326
زار	-327
▁خواه	-328
▁پا	-329
گان	-330
خته	-331
▁مه	-332
▁مگر	-333
▁مشک	-334
▁کشت	-335
اج	-336
▁شاه	-337
چه	-338
▁نک	-339
یغ	-340
▁قد	-341
ره	-342
▁سو	-343
یه	-344
▁نخ	-345
▁مج	-346
▁گوش	-347
▁پای	-348
▁شود	-349
▁خط	-350
▁کی	-351
نان	-352
▁سوی	-353
سم	-354
وت	-355
▁گو	-356
▁برد	-357
▁چرا	-358
▁گذ	-359
▁بلبل	-360
بت	-361
روز	-362
▁صید	-363
انم	-364
▁دلم	-365
▁آید	-366
▁زل	-367
است	-368
اص	-369
شن	-370
▁گفتم	-371
به	-372
نم	-373
▁وفا	-374
▁ازین	-375
▁پیش	-376
▁شیر	-377
ویش	-378
یان	-379
▁ال	-380
شب	-381
▁هست	-382
یده	-383
مر	-384
▁بست	-385
ارم	-386
▁ری	-387
▁آشفته	-388
▁ناله	-389
▁نبود	-390
▁نظ	-391
دم	-392
▁عج	-393
گه	-394
الم	-395
حر	-396
▁ماه	-397
▁ار	-398
یند	-399
▁دور	-400
▁سپ	-401
▁داشت	-402
یل	-403
توان	-404
ایه	-405
مین	-406
▁وص	-407
▁ولی	-408
ها	-409
▁تیر	-410
▁نامه	-411
▁خدا	-412
نش	-413
▁سینه	-414
▁خر	-415
▁فت	-416
غان	-417
▁گرفت	-418
▁آس	-419
▁شو	-420
ات	-421
زه	-422
مه	-423
▁امشب	-424
ارد	-425
▁دشم	-426
▁زلف	-427
▁یی	-428
▁قفس	-429
قه	-430
▁دارم	-431
نت	-432
▁تن	-433
▁آنکه	-434
▁کآ	-435
▁بهر	-436
▁اس	-437
▁لی	-438
زد	-439
▁کف	-440
▁گی	-441
▁حرف	-442
▁نشان	-443
اق	-444
▁جام	-445
▁پس	-446
▁یاد	-447
▁چند	-448
▁دانی	-449
ویم	-450
▁همان	-451
▁غل	-452
▁مد	-453
افل	-454
امت	-455
بح	-456
▁زد	-457
▁تیغ	-458
▁میان	-459
▁ور	-460
نین	-461
▁امروز	-462
▁مع	-463
▁خور	-464
▁چمن	-465
▁بو	-466
گاه	-467
▁صد	-468
▁نم	-469
▁بند	-470
▁کجا	-471
ادی	-472
وست	-473
▁فرا	-474
جر	-475
▁پرده	-476
طر	-477
▁زن	-478
▁فلک	-479
▁آم	-480
▁زین	-481
وم	-482
▁سخ	-483
▁کم	-484
▁برآ	-485
▁تنگ	-486
▁نبا	-487
▁آنجا	-488
▁آورد	-489
▁ظ	-490
▁جوان	-491
▁آز	-492
▁کشد	-493
▁بسته	-494
دل	-495
▁جای	-496
▁وز	-497
▁روان	-498
وا	-499
▁بوی	-500
▁باشد	-501
▁اهل	-502
▁ناز	-503
ارش	-504
فرین	-505
▁اما	-506
▁خرا	-507
اغ	-508
یرم	-509
▁مست	-510
▁بم	-511
▁نر	-512
▁بیر	-513
▁روزی	-514
▁برخ	-515
▁بیا	-516
▁جم	-517
▁دوش	-518
کان	-519
گند	-520
▁بپ	-521
▁حال	-522
▁گشت	-523
▁مردم	-524
▁آستان	-525
▁جا	-526
▁رب	-527
▁بزم	-528
▁سود	-529
یب	-530
یشه	-531
▁بسر	-532
▁نتوان	-533
▁صبا	-534
▁آفرین	-535
▁-	-536
یدی	-537
▁حس	-538
▁رنج	-539
▁شاخ	-540
▁صبح	-541
یچ	-542
▁آشی	-543
▁بسی	-544
▁نهان	-545
▁نباشد	-546
▁شهر	-547
▁زر	-548
▁ابر	-549
▁دهد	-550
قت	-551
▁آرز	-552
▁نق	-553
▁دیگر	-554
▁آفرینش	-555
شر	-556
▁بل	-557
ماند	-558
▁سوز	-559
▁شکر	-560
▁کام	-561
▁هجر	-562
▁سایه	-563
▁بیرون	-564
▁سل	-565
▁بیم	-566
▁نظر	-567
▁آی	-568
▁میک	-569
خر	-570
وف	-571
▁نگر	-572
▁غافل	-573
صر	-574
▁رشک	-575
اش	-576
▁بگو	-577
زل	-578
▁گفتی	-579
▁مس	-580
▁زمان	-581
یزد	-582
▁رح	-583
▁کنی	-584
▁هزار	-585
▁اندر	-586
▁ان	-587
▁سب	-588
▁زند	-589
▁هیچ	-590
▁کشته	-591
عت	-592
هی	-593
▁سحر	-594
▁مکن	-595
▁خد	-596
▁خم	-597
▁خلق	-598
▁آشیان	-599
انده	-600
▁نیک	-601
▁افس	-602
▁بمن	-603
اس	-604
▁حی	-605
▁ساقی	-606
▁گویم	-607
الی	-608
▁رود	-609
▁زان	-610
▁خوان	-611
وده	-612
گار	-613
▁کنون	-614
▁گاه	-615
▁بینم	-616
▁بخت	-617
▁بید	-618
▁جفا	-619
▁رقی	-620
▁تم	-621
▁عمر	-622
▁ذ	-623
▁اش	-624
▁نفس	-625
▁زمین	-626
لت	-627
▁حل	-628
▁شرم	-629
▁شمع	-630
▁کردی	-631
ردم	-632
▁ستم	-633
▁باید	-634
▁ببین	-635
یار	-636
▁فرد	-637
آن	-638
▁شبی	-639
▁راز	-640
▁رفته	-641
نا	-642
▁حک	-643
ندان	-644
▁پاک	-645
▁کشی	-646
▁امید	-647
چو	-648
▁گش	-649
▁بار	-650
▁فرو	-651
▁شیرین	-652
رس	-653
▁نماند	-654
▁شکوه	-655
مل	-656
یدا	-657
▁حرم	-658
▁سنگ	-659
▁وگر	-660
▁پرو	-661
▁آواز	-662
▁آسمان	-663
ادم	-664
فای	-665
یران	-666
▁برگ	-667
▁آنچه	-668
▁یاری	-669
▁خواهد	-670
امان	-671
▁وصل	-672
کر	-673
باد	-674
▁لط	-675
ورده	-676
▁پند	-677
▁خانه	-678
▁فشان	-679
▁محمد	-680
▁مانده	-681
حت	-682
▁عجب	-683
▁مشکل	-684
▁چنین	-685
ثر	-686
کش	-687
اشق	-688
اهد	-689
سرت	-690
▁قاص	-691
عی	-692
داشت	-693
▁بام	-694
▁بگذ	-695
▁بینی	-696
▁همچو	-697
کنم	-698
▁نغ	-699
▁بال	-700
▁خام	-701
▁گله	-702
شید	-703
▁ست	-704
▁عق	-705
▁خوی	-706
▁زیر	-707
▁پهل	-708
▁بنده	-709
▁دشمن	-710
▁حسرت	-711
▁داری	-712
▁شنیدم	-713
عل	-714
ندم	-715
▁خنده	-716
▁خار	-717
▁ندارد	-718
▁روش	-719
▁ملک	-720
▁چین	-721
▁گلشن	-722
هد	-723
▁بع	-724
▁جو	-725
▁طرف	-726
یری	-727
▁خض	-728
▁میر	-729
▁سی	-730
کنون	-731
▁اکنون	-732
وری	-733
ویی	-734
▁نشسته	-735
نب	-736
▁خبر	-737
▁ساز	-738
▁آخر	-739
در	-740
فی	-741
▁صی	-742
▁بیش	-743
▁خسر	-744
▁عاشق	-745
▁اب	-746
▁بش	-747
▁بچ	-748
▁بنش	-749
▁جور	-750
▁داغ	-751
▁سخن	-752
▁دانم	-753
▁باغبان	-754
کی	-755
زون	-756
▁اخت	-757
▁ازو	-758
▁سیم	-759
▁منت	-760
تر	-761
▁سگ	-762
▁آری	-763
▁زنده	-764
▁فغان	-765
مش	-766
▁دع	-767
▁گنج	-768
انش	-769
شتر	-770
▁میگ	-771
▁گمان	-772
حی	-773
▁علی	-774
▁همی	-775
▁ترسم	-776
▁خویش	-777
وید	-778
▁رنگ	-779
▁خواج	-780
▁دامن	-781
▁چنان	-782
▁ض	-783
▁عر	-784
▁بیند	-785
▁گریه	-786
نون	-787
▁گم	-788
اریخ	-789
▁دیدم	-790
▁حج	-791
▁داده	-792
▁گشته	-793
▁اح	-794
▁قط	-795
▁ریخت	-796
▁شوق	-797
▁وقت	-798
▁بشک	-799
▁رخت	-800
▁پاس	-801
▁پیدا	-802
▁روزگار	-803
تی	-804
ندی	-805
▁مگ	-806
▁نور	-807
▁نیز	-808
▁سپهر	-809
▁مباد	-810
تف	-811
▁بدل	-812
▁فری	-813
▁موی	-814
▁گوشه	-815
▁گیرد	-816
ناه	-817
▁بیگ	-818
▁زهر	-819
▁لطف	-820
▁گلی	-821
قص	-822
▁تاب	-823
▁دلت	-824
▁میخ	-825
▁نگه	-826
▁بگرد	-827
▁فردا	-828
▁لاله	-829
▁کشتی	-830
▁دوستان	-831
تم	-832
اشت	-833
▁هو	-834
▁دین	-835
▁برده	-836
▁حلقه	-837
▁فرست	-838
▁افتاد	-839
لس	-840
هم	-841
ارت	-842
▁خا	-843
▁درخت	-844
▁فراق	-845
یزم	-846
▁حر	-847
ارها	-848
▁تنه	-849
▁لیک	-850
▁آمده	-851
▁افتد	-852
▁نشین	-853
▁تاریخ	-854
▁گد	-855
▁طلب	-856
▁غو	-857
▁دیر	-858
▁بهشت	-859
▁سوخت	-860
▁خواهم	-861
وق	-862
▁مغ	-863
▁سال	-864
▁نسی	-865
▁بتان	-866
▁کشید	-867
▁آغ	-868
▁مش	-869
سیده	-870
▁اشک	-871
▁تازه	-872
▁منزل	-873
▁کویت	-874
▁تل	-875
▁نال	-876
▁نگذ	-877
▁کرم	-878
▁دریغ	-879
▁هاتف	-880
▁آرزوست	-881
▁۲	-882
▁ریز	-883
▁نوش	-884
▁بهار	-885
▁خورد	-886
▁خواجه	-887
▁شکایت	-888
رو	-889
فتاب	-890
▁زده	-891
▁باشی	-892
▁نغمه	-893
▁گویی	-894
▁جانان	-895
بری	-896
کند	-897
▁ترک	-898
▁جود	-899
▁سرا	-900
زن	-901
▁خضر	-902
▁تنها	-903
▁زاهد	-904
▁نکند	-905
خم	-906
راب	-907
▁صف	-908
غیار	-909
▁ماهی	-910
طان	-911
وار	-912
وسف	-913
▁جل	-914
▁خج	-915
▁وع	-916
▁جدا	-917
▁شوی	-918
▁پری	-919
▁آفتاب	-920
▁بنشین	-921
▁بص	-922
▁شی	-923
وانه	-924
▁تهی	-925
▁باده	-926
▁درین	-927
▁روشن	-928
▁عالم	-929
▁درویش	-930
▁پدر	-931
▁رقیب	-932
▁خورشید	-933
بار	-934
عبه	-935
گون	-936
▁بح	-937
▁مژ	-938
▁پوش	-939
▁سیاه	-940
▁شاید	-941
▁کاین	-942
▁افتاده	-943
▁بودم	-944
▁کردم	-945
▁گردد	-946
▁اغیار	-947
یت	-948
▁۳	-949
▁حق	-950
▁قدر	-951
▁خراب	-952
▁شکست	-953
▁صیاد	-954
▁گوهر	-955
▁کاروان	-956
▁بغ	-957
▁غر	-958
▁کاش	-959
زم	-960
▁اول	-961
▁جگر	-962
▁بدست	-963
▁۴	-964
▁زی	-965
▁شاد	-966
▁جویم	-967
▁قاصد	-968
▁لیلی	-969
▁ندیدم	-970
ایش	-971
▁شر	-972
▁اوست	-973
▁خواب	-974
عه	-975
▁نس	-976
▁آگه	-977
▁نشن	-978
▁یوسف	-979
وب	-980
وال	-981
▁قم	-982
▁اثر	-983
▁دری	-984
▁لعل	-985
▁نخو	-986
▁کنج	-987
▁برای	-988
▁فگند	-989
▁گذشت	-990
▁یاران	-991
گز	-992
▁منع	-993
▁نشست	-994
▁کعبه	-995
▁مجنون	-996
کس	-997
▁صبر	-998
▁نقش	-999
▁گیر	-1000
▁باشم	-1001
▁بوستان	-1002
▁گز	-1003
▁گذر	-1004
▁عجبی	-1005
▁کمان	-1006
▁گیرم	-1007
▁رسیده	-1008
▁۵	-1009
ردی	-1010
▁قر	-1011
▁بدگ	-1012
▁جست	-1013
▁عذر	-1014
▁خسرو	-1015
▁گوید	-1016
▁حکایت	-1017
▁قی	-1018
نجیر	-1019
▁کشان	-1020
ما	-1021
▁ات	-1022
▁یع	-1023
▁بآن	-1024
▁بوس	-1025
▁تلخ	-1026
▁نیم	-1027
▁گرچه	-1028
▁افسوس	-1029
▁اینکه	-1030
رخ	-1031
ریف	-1032
▁انج	-1033
▁دلش	-1034
▁سیه	-1035
▁هوس	-1036
▁رسید	-1037
▁پیمان	-1038
؟!	-1039
▁صح	-1040
▁قص	-1041
▁برم	-1042
▁خلوت	-1043
▁عیان	-1044
▁وعده	-1045
▁درمان	-1046
اح	-1047
وک	-1048
▁اص	-1049
▁شع	-1050
نهان	-1051
▁مرگ	-1052
ویت	-1053
▁لا	-1054
▁نن	-1055
▁دهی	-1056
▁طبی	-1057
▁عهد	-1058
▁گرم	-1059
▁راست	-1060
▁محمل	-1061
▁چکنم	-1062
▁برداشت	-1063
▁بف	-1064
▁کب	-1065
▁بده	-1066
▁بره	-1067
▁ظلم	-1068
▁توان	-1069
▁مپ	-1070
▁زاری	-1071
▁کیست	-1072
▁گردن	-1073
▁پاسبان	-1074
▁نع	-1075
انند	-1076
▁دان	-1077
▁کان	-1078
▁اختر	-1079
▁بلبلی	-1080
▁برخیزم	-1081
اخ	-1082
خو	-1083
زان	-1084
یدن	-1085
ارند	-1086
▁حسن	-1087
▁عدل	-1088
▁جامی	-1089
▁نگاه	-1090
▁کشتن	-1091
▁خواست	-1092
ادر	-1093
ادش	-1094
▁خان	-1095
▁رسد	-1096
▁روم	-1097
▁زود	-1098
▁برون	-1099
▁جنان	-1100
▁محبت	-1101
▁افروز	-1102
▁دامان	-1103
گفت	-1104
▁قت	-1105
▁کل	-1106
▁دشت	-1107
▁عیب	-1108
▁فکر	-1109
▁آرند	-1110
▁باین	-1111
▁تماش	-1112
▁توام	-1113
▁مجلس	-1114
▁چشمه	-1115
▁زنجیر	-1116
▁مهربان	-1117
صت	-1118
تاب	-1119
ریم	-1120
سند	-1121
وزه	-1122
▁مق	-1123
▁مید	-1124
▁بلند	-1125
▁نشد	-1126
▁بادا	-1127
▁کاری	-1128
▁آورده	-1129
▁سلطان	-1130
▁بگردانی	-1131
▁کج	-1132
▁آرم	-1133
▁مطر	-1134
▁کشم	-1135
▁رشته	-1136
▁بگذشت	-1137
▁پنهان	-1138
▁گردون	-1139
او	-1140
▁ث	-1141
حان	-1142
سان	-1143
کین	-1144
▁سف	-1145
یبان	-1146
▁خاص	-1147
▁رحم	-1148
▁چاک	-1149
▁بجان	-1150
▁دیدی	-1151
▁ایشان	-1152
▁ندیده	-1153
ضا	-1154
▁عذ	-1155
▁طوف	-1156
▁خاطر	-1157
▁هرگز	-1158
▁مشکین	-1159
سد	-1160
ول	-1161
ساز	-1162
▁عقل	-1163
▁غیرت	-1164
▁گفتا	-1165
▁گفتن	-1166
▁حیف	-1167
▁سخت	-1168
▁ناید	-1169
▁پهلو	-1170
▁نگذاشت	-1171
تا	-1172
فتم	-1173
▁تب	-1174
▁مخ	-1175
▁انت	-1176
▁برب	-1177
▁مین	-1178
▁آمدی	-1179
▁جانم	-1180
▁سبزه	-1181
▁ورنه	-1182
فه	-1183
ادت	-1184
سار	-1185
هاد	-1186
▁جد	-1187
▁زم	-1188
▁مل	-1189
▁بیخ	-1190
▁صاف	-1191
▁منش	-1192
▁نهد	-1193
▁های	-1194
▁بباغ	-1195
▁دیدن	-1196
▁نکرد	-1197
▁کشیده	-1198
جد	-1199
▁غن	-1200
▁جوی	-1201
▁شان	-1202
▁جفای	-1203
▁طبیب	-1204
▁محشر	-1205
▁آیینه	-1206
▁مرغان	-1207
یی	-1208
مند	-1209
▁بق	-1210
▁طب	-1211
▁حور	-1212
▁گهر	-1213
▁خدای	-1214
▁نهاد	-1215
ضه	-1216
دار	-1217
▁آل	-1218
▁رع	-1219
▁بزر	-1220
▁دود	-1221
▁چراغ	-1222
▁گردم	-1223
▁برآید	-1224
▁نبیند	-1225
▁پسر	-1226
▁گنه	-1227
▁تیره	-1228
▁شهید	-1229
▁مطرب	-1230
▁نبرد	-1231
▁کنار	-1232
▁گناه	-1233
▁بستند	-1234
▁ریخته	-1235
سل	-1236
ایق	-1237
دهد	-1238
▁عی	-1239
▁فق	-1240
اخته	-1241
▁آرد	-1242
▁ادب	-1243
▁زار	-1244
▁ناخ	-1245
▁پیغ	-1246
▁دانه	-1247
▁چشمم	-1248
▁خواند	-1249
▁خوشتر	-1250
▁فریاد	-1251
▁بدگمان	-1252
▁گریبان	-1253
▁تش	-1254
▁نز	-1255
▁انگ	-1256
▁بشن	-1257
▁روح	-1258
▁زنی	-1259
▁نخل	-1260
▁حرفی	-1261
▁دمید	-1262
▁پرتو	-1263
▁چهره	-1264
▁پیکان	-1265
▁سج	-1266
▁بنا	-1267
▁بگر	-1268
▁تار	-1269
▁خال	-1270
▁خرم	-1271
▁زخم	-1272
▁شیخ	-1273
▁مشت	-1274
▁بیتو	-1275
▁حریف	-1276
▁شگفت	-1277
▁چرخ	-1278
▁انجمن	-1279
▁نداشت	-1280
▁پرورد	-1281
▁گلستان	-1282
زی	-1283
سا	-1284
▁اج	-1285
▁غوغ	-1286
▁کاو	-1287
▁جلوه	-1288
▁وگرنه	-1289
▁خس	-1290
▁لو	-1291
گنده	-1292
▁بگش	-1293
▁حدی	-1294
▁سلی	-1295
▁محت	-1296
▁چار	-1297
▁آشنا	-1298
▁ایزد	-1299
▁نیمی	-1300
▁پرست	-1301
▁گریم	-1302
▁جدایی	-1303
▁گفتمش	-1304
▁اندیشه	-1305
▁ناتوان	-1306
ضی	-1307
غر	-1308
قم	-1309
بین	-1310
ستی	-1311
▁تأ	-1312
▁ببر	-1313
▁بخش	-1314
▁بخل	-1315
▁برق	-1316
▁تخت	-1317
▁خیل	-1318
▁دعا	-1319
▁رسم	-1320
▁زاغ	-1321
▁سفر	-1322
▁مصر	-1323
▁ناف	-1324
▁هوش	-1325
▁آزاد	-1326
▁بخاک	-1327
▁درون	-1328
▁نخست	-1329
گس	-1330
باب	-1331
▁بط	-1332
نیده	-1333
▁بتو	-1334
▁بعد	-1335
▁بکش	-1336
▁خیز	-1337
▁عار	-1338
▁مدح	-1339
▁هما	-1340
▁پشت	-1341
▁خونم	-1342
▁دیار	-1343
▁زاده	-1344
▁افزون	-1345
▁پهلوی	-1346
▁رقیبان	-1347
▁مص	-1348
▁آست	-1349
▁عاق	-1350
▁غمت	-1351
▁پوست	-1352
▁خاموش	-1353
▁خونین	-1354
ایم	-1355
فتی	-1356
لهی	-1357
▁خوا	-1358
▁طاق	-1359
▁عید	-1360
▁چنگ	-1361
▁جامه	-1362
▁خیزد	-1363
▁شبان	-1364
▁فروز	-1365
▁نسیم	-1366
▁گذرد	-1367
▁کجایی	-1368
راز	-1369
ندد	-1370
▁زمن	-1371
▁یاب	-1372
▁آغاز	-1373
▁بچشم	-1374
▁خالی	-1375
▁محرم	-1376
▁ناوک	-1377
▁صباحی	-1378
▁فرهاد	-1379
▁ندانم	-1380
▁خواهیم	-1381
▁سلیمان	-1382
▁غلامان	-1383
قب	-1384
الت	-1385
لان	-1386
▁گه	-1387
▁آرا	-1388
▁آوی	-1389
▁بان	-1390
▁بنه	-1391
▁بگل	-1392
▁بیک	-1393
▁جوش	-1394
▁حاج	-1395
▁سنب	-1396
▁قلم	-1397
▁وای	-1398
▁آموز	-1399
▁بروز	-1400
▁بودش	-1401
▁نالم	-1402
▁کمند	-1403
▁افگند	-1404
جی	-1405
▁سلس	-1406
▁طره	-1407
▁نوح	-1408
▁گرت	-1409
▁آغوش	-1410
▁بخود	-1411
▁خامه	-1412
▁رفتی	-1413
▁فزون	-1414
▁مجید	-1415
▁نرگس	-1416
▁کنند	-1417
▁تمام	-1418
▁حسین	-1419
▁رفتم	-1420
▁زمانه	-1421
▁دیگران	-1422
رب	-1423
کم	-1424
حاب	-1425
▁جه	-1426
▁وا	-1427
▁کد	-1428
▁آهی	-1429
▁زآن	-1430
▁شوخ	-1431
▁صاح	-1432
▁فتد	-1433
▁وین	-1434
▁پرس	-1435
▁کوه	-1436
▁اسیر	-1437
▁الله	-1438
▁گدای	-1439
▁دادند	-1440
▁پنداری	-1441
ریب	-1442
▁حم	-1443
▁نف	-1444
▁هن	-1445
▁وف	-1446
▁۱۱	-1447
▁امت	-1448
▁برو	-1449
▁بفر	-1450
▁جنگ	-1451
▁حاص	-1452
▁دزد	-1453
▁شور	-1454
▁فرخ	-1455
▁پیو	-1456
▁کین	-1457
▁گلش	-1458
▁گیس	-1459
▁بدام	-1460
▁بسوی	-1461
▁رخنه	-1462
▁ریزد	-1463
▁عنبر	-1464
▁گاهی	-1465
▁گفتش	-1466
▁گیتی	-1467
▁بودند	-1468
▁پرواز	-1469
▁گرفتار	-1470
▁تغ	-1471
▁طل	-1472
▁طم	-1473
اموش	-1474
▁بجز	-1475
▁بری	-1476
▁بکف	-1477
▁حشر	-1478
▁خیر	-1479
▁سرد	-1480
▁فرز	-1481
▁قدم	-1482
▁وام	-1483
▁پنج	-1484
▁گرگ	-1485
▁بگفت	-1486
▁خدمت	-1487
▁خزان	-1488
▁خوشه	-1489
▁دهان	-1490
▁سرای	-1491
▁سنبل	-1492
▁غنچه	-1493
▁مرغی	-1494
▁مغان	-1495
▁طوفان	-1496
▁قیامت	-1497
▁مسکین	-1498
▁میکده	-1499
▁گرفته	-1500
▁فراموش	-1501
ایل	-1502
دان	-1503
ریز	-1504
چار	-1505
فشان	-1506
▁تاج	-1507
▁شدم	-1508
▁قصر	-1509
▁قصه	-1510
▁کهن	-1511
▁آباد	-1512
▁بوده	-1513
▁رفتن	-1514
▁شنید	-1515
▁فتاد	-1516
▁نیام	-1517
▁خندان	-1518
▁نهانی	-1519
▁پروانه	-1520
▁آیی	-1521
▁امین	-1522
▁دهند	-1523
▁صحبت	-1524
▁غمین	-1525
▁فریب	-1526
▁قطره	-1527
▁نگار	-1528
▁کینه	-1529
▁گفته	-1530
▁سراسر	-1531
▁پریشان	-1532
فتر	-1533
وشم	-1534
گری	-1535
▁مط	-1536
میده	-1537
▁باش	-1538
▁درت	-1539
▁دلا	-1540
▁هوا	-1541
▁کاف	-1542
▁اینک	-1543
▁بگذر	-1544
▁دردی	-1545
▁ساده	-1546
▁مپرس	-1547
▁پیره	-1548
▁چکند	-1549
▁دندان	-1550
رت	-1551
سه	-1552
ختم	-1553
قار	-1554
نگی	-1555
▁تک	-1556
▁۱۴	-1557
مانی	-1558
گاهی	-1559
▁آشن	-1560
▁تست	-1561
▁درش	-1562
▁دهم	-1563
▁غمی	-1564
▁میز	-1565
▁افسر	-1566
▁الهی	-1567
▁جمال	-1568
▁حاصل	-1569
▁حدیث	-1570
▁خسته	-1571
▁راهی	-1572
▁صاحب	-1573
▁قامت	-1574
▁مغنی	-1575
▁پادش	-1576
▁چاره	-1577
▁کشور	-1578
▁گذار	-1579
▁یافت	-1580
▁افغان	-1581
▁بسیار	-1582
▁بگذرد	-1583
▁بیداد	-1584
▁جوانی	-1585
▁شکسته	-1586
▁فرمان	-1587
▁گدایی	-1588
▁دیوانه	-1589
▁میخانه	-1590
▁میکردم	-1591
فل	-1592
بیر	-1593
جاج	-1594
ران	-1595
▁سز	-1596
▁طع	-1597
اهان	-1598
شکده	-1599
▁بحر	-1600
▁بزن	-1601
▁حیر	-1602
▁دوا	-1603
▁قات	-1604
▁نهم	-1605
▁آرام	-1606
▁آزار	-1607
▁آینه	-1608
▁انتظ	-1609
▁خاکش	-1610
▁داند	-1611
▁دانش	-1612
▁زهره	-1613
▁شراب	-1614
▁شیشه	-1615
▁قطعه	-1616
▁ناقه	-1617
▁هوای	-1618
▁کوثر	-1619
▁یعنی	-1620
▁داشتم	-1621
▁رساند	-1622
▁پیغام	-1623
▁۶	-1624
▁۷	-1625
▁۸	-1626
کار	-1627
▁جغ	-1628
▁خی	-1629
▁رض	-1630
▁وح	-1631
▁یغ	-1632
▁۱۰	-1633
▁۱۲	-1634
▁۱۳	-1635
▁۱۵	-1636
▁۱۶	-1637
▁۱۷	-1638
▁جرس	-1639
▁جرم	-1640
▁رخش	-1641
▁زدی	-1642
▁عام	-1643
▁قوت	-1644
▁لبت	-1645
▁نشک	-1646
▁آمدش	-1647
▁آهوی	-1648
▁ایاز	-1649
▁بودی	-1650
▁خلقی	-1651
▁دلبر	-1652
▁ساحت	-1653
▁سروی	-1654
▁فرصت	-1655
▁ندان	-1656
▁نوشت	-1657
▁افسون	-1658
▁افشان	-1659
▁سلسله	-1660
▁شکاری	-1661
▁نسیمی	-1662
▁گویند	-1663
خش	-1664
وفا	-1665
▁جر	-1666
▁فص	-1667
▁کای	-1668
▁ایام	-1669
▁برند	-1670
▁رویت	-1671
▁غارت	-1672
▁نگفت	-1673
▁آرزوی	-1674
▁دوستی	-1675
▁سنگدل	-1676
▁ندانی	-1677
شه	-1678
▁۹	-1679
ندلی	-1680
▁ارم	-1681
▁بهم	-1682
▁بیه	-1683
▁خجل	-1684
▁خلد	-1685
▁صفا	-1686
▁عین	-1687
▁منی	-1688
▁بندد	-1689
▁بیار	-1690
▁بیضه	-1691
▁خفته	-1692
▁دفتر	-1693
▁شنفت	-1694
▁پرور	-1695
▁بایدش	-1696
▁جهانی	-1697
▁عندلی	-1698
▁پیمانه	-1699
کت	-1700
بیل	-1701
زود	-1702
صاف	-1703
مود	-1704
های	-1705
گین	-1706
▁دف	-1707
نبال	-1708
گونه	-1709
▁بای	-1710
▁بدن	-1711
▁بدی	-1712
▁جاد	-1713
▁خفت	-1714
▁سیر	-1715
▁قاف	-1716
▁قدح	-1717
▁منم	-1718
▁مگو	-1719
▁نیش	-1720
▁همت	-1721
▁کزو	-1722
▁تویی	-1723
▁دراز	-1724
▁ساعت	-1725
▁سفید	-1726
▁شکار	-1727
▁مژده	-1728
▁نشنا	-1729
▁وفای	-1730
▁کنان	-1731
▁گفتگ	-1732
▁آوردی	-1733
▁فتاده	-1734
▁برخیزد	-1735
▁شهیدان	-1736
الب	-1737
باز	-1738
▁عص	-1739
▁قب	-1740
▁مظ	-1741
▁بدو	-1742
▁تأث	-1743
▁رای	-1744
▁طبع	-1745
▁قتل	-1746
▁ننش	-1747
▁هند	-1748
▁یکد	-1749
▁تیشه	-1750
▁خروش	-1751
▁دردا	-1752
▁سودا	-1753
▁فتنه	-1754
▁مدعی	-1755
▁نمید	-1756
▁کسان	-1757
▁آزاده	-1758
▁آسوده	-1759
▁چندان	-1760
▁آتشکده	-1761
طه	-1762
داد	-1763
قوب	-1764
لاج	-1765
کنی	-1766
▁افگ	-1767
▁سبز	-1768
▁صوف	-1769
▁طمع	-1770
▁غرض	-1771
▁فیر	-1772
▁قصد	-1773
▁مکش	-1774
▁گلب	-1775
▁ساغر	-1776
▁سجده	-1777
▁سراغ	-1778
▁قاتل	-1779
▁قمری	-1780
▁نافه	-1781
▁پسند	-1782
▁کمین	-1783
▁گردی	-1784
▁گویا	-1785
▁بستان	-1786
▁خواهی	-1787
▁رنگین	-1788
▁شنیده	-1789
▁غلمان	-1790
▁ناچار	-1791
▁ناگاه	-1792
▁ندارم	-1793
▁گریان	-1794
▁گفتند	-1795
▁یعقوب	-1796
▁تع	-1797
▁قف	-1798
خوان	-1799
▁آیم	-1800
▁خرام	-1801
▁دوشم	-1802
▁گلزار	-1803
▁عد	-1804
▁شمش	-1805
▁مال	-1806
▁ناک	-1807
▁جسته	-1808
▁نالد	-1809
▁کریم	-1810
▁ایوان	-1811
▁دگران	-1812
▁ریزند	-1813
▁اسیران	-1814
۱۱	-1815
ابت	-1816
▁زغ	-1817
▁فس	-1818
▁مک	-1819
▁۱۸	-1820
روخت	-1821
▁آهو	-1822
▁اجل	-1823
▁رقص	-1824
▁صنم	-1825
▁نقد	-1826
▁نکه	-1827
▁آسان	-1828
▁باخت	-1829
▁ببرد	-1830
▁براف	-1831
▁تربت	-1832
▁دسته	-1833
▁روزه	-1834
▁شادم	-1835
▁شاهد	-1836
▁شاهی	-1837
▁چشمی	-1838
▁ایران	-1839
▁برآمد	-1840
▁بشکند	-1841
▁دشمنی	-1842
▁قاصدی	-1843
▁میگفت	-1844
▁ناساز	-1845
▁نرویم	-1846
▁نکرده	-1847
▁ویران	-1848
▁یابند	-1849
▁بنشینم	-1850
ازد	-1851
قان	-1852
قوت	-1853
مون	-1854
ورد	-1855
وشی	-1856
▁عم	-1857
▁نج	-1858
▁آدم	-1859
▁اسل	-1860
▁اسم	-1861
▁الا	-1862
▁بتک	-1863
▁بدر	-1864
▁بمی	-1865
▁دلی	-1866
▁دیو	-1867
▁رست	-1868
▁سرم	-1869
▁عود	-1870
▁فار	-1871
▁مسل	-1872
▁مهد	-1873
▁میل	-1874
▁نار	-1875
▁ننگ	-1876
▁گره	-1877
▁آگاه	-1878
▁بازی	-1879
▁بروی	-1880
▁جبین	-1881
▁حاجی	-1882
▁حالم	-1883
▁حیله	-1884
▁سراف	-1885
▁شکفت	-1886
▁غبار	-1887
▁نهال	-1888
▁همین	-1889
▁وفات	-1890
▁پرسی	-1891
▁چشمش	-1892
▁کارم	-1893
▁کشند	-1894
▁انصاف	-1895
▁ایمان	-1896
▁بیخبر	-1897
▁بیگنه	-1898
▁تغافل	-1899
▁دامنت	-1900
▁دربان	-1901
▁قافله	-1902
▁نشاند	-1903
▁نشنود	-1904
▁یاقوت	-1905
▁امتحان	-1906
▁دشمنان	-1907
کب	-1908
اهم	-1909
عان	-1910
لاب	-1911
لیس	-1912
▁ظل	-1913
▁له	-1914
▁وه	-1915
▁آبش	-1916
▁آبی	-1917
▁آشک	-1918
▁آمی	-1919
▁آهن	-1920
▁خنج	-1921
▁خند	-1922
▁دخت	-1923
▁ذوق	-1924
▁رقم	-1925
▁رها	-1926
▁سنج	-1927
▁علم	-1928
▁غلط	-1929
▁موج	-1930
▁نان	-1931
▁نظم	-1932
▁پار	-1933
▁کیش	-1934
▁افرا	-1935
▁باغی	-1936
▁باور	-1937
▁بسکه	-1938
▁بصبر	-1939
▁تشنه	-1940
▁خیال	-1941
▁دادی	-1942
▁دریا	-1943
▁درید	-1944
▁دستی	-1945
▁دوری	-1946
▁رحمی	-1947
▁رستم	-1948
▁زیان	-1949
▁زیبا	-1950
▁شدند	-1951
▁عذرا	-1952
▁غلام	-1953
▁غمزه	-1954
▁میوه	-1955
▁نوبت	-1956
▁نگرد	-1957
▁هنوز	-1958
▁پایی	-1959
▁گران	-1960
▁یغما	-1961
▁احوال	-1962
▁تنگدل	-1963
▁ساخته	-1964
▁مهمان	-1965
▁پیشتر	-1966
▁کردند	-1967
وط	-1968
▁سع	-1969
▁غب	-1970
▁بیچ	-1971
▁رام	-1972
▁برسد	-1973
▁میده	-1974
▁گشاده	-1975
▁نازنین	-1976
▁نص	-1977
▁ریا	-1978
▁شدی	-1979
▁فاش	-1980
▁مژه	-1981
▁کوت	-1982
▁بخون	-1983
▁بدری	-1984
▁اصحاب	-1985
▁ستمگر	-1986
▁سودای	-1987
▁شکفته	-1988
▁حریفان	-1989
▁گدایان	-1990
ابر	-1991
میر	-1992
وزخ	-1993
▁آد	-1994
▁رم	-1995
▁زخ	-1996
▁صل	-1997
▁طف	-1998
▁عف	-1999
▁فی	-2000
▁لع	-2001
▁نپ	-2002
▁وط	-2003
▁کر	-2004
ازیم	-2005
الید	-2006
قصیر	-2007
▁الق	-2008
▁تذر	-2009
▁خشم	-2010
▁دمی	-2011
▁شما	-2012
▁شوم	-2013
▁براه	-2014
▁بپاس	-2015
▁جایی	-2016
▁دردم	-2017
▁شادی	-2018
▁غریب	-2019
▁ماده	-2020
▁پیشه	-2021
▁بیدار	-2022
▁تقصیر	-2023
▁دلبری	-2024
▁دیوار	-2025
▁سیمین	-2026
▁شاهان	-2027
▁غمگین	-2028
▁فشانم	-2029
▁کاشان	-2030
▁آشنایی	-2031
▁بندگان	-2032
▁خواستم	-2033
▁نگذارد	-2034
ثوم	-2035
جرا	-2036
ذار	-2037
شتی	-2038
فتد	-2039
وخت	-2040
▁اع	-2041
▁غز	-2042
▁غی	-2043
اریم	-2044
خواه	-2045
زاری	-2046
وشان	-2047
▁اعت	-2048
▁دهن	-2049
▁ریش	-2050
▁زال	-2051
▁زرد	-2052
▁سرگ	-2053
▁شرر	-2054
▁غمش	-2055
▁فصل	-2056
▁لال	-2057
▁لبم	-2058
▁مشو	-2059
▁معش	-2060
▁نغز	-2061
▁ننه	-2062
▁واق	-2063
▁پشم	-2064
▁گلم	-2065
▁بکسی	-2066
▁بیاد	-2067
▁تذرو	-2068
▁جمله	-2069
▁جورت	-2070
▁جوید	-2071
▁حجاب	-2072
▁خوشم	-2073
▁رسته	-2074
▁رنجش	-2075
▁سرمه	-2076
▁شهره	-2077
▁عشقت	-2078
▁مادر	-2079
▁مایه	-2080
▁مدار	-2081
▁مرده	-2082
▁موسی	-2083
▁ندهد	-2084
▁هوشم	-2085
▁کآمد	-2086
▁گشاد	-2087
▁آزرده	-2088
▁باران	-2089
▁بردار	-2090
▁تأثیر	-2091
▁تماشا	-2092
▁دریغا	-2093
▁دهقان	-2094
▁سوخته	-2095
▁فاخته	-2096
▁ماجرا	-2097
▁نالان	-2098
▁نشانی	-2099
▁پیامی	-2100
▁کلثوم	-2101
▁گذارم	-2102
بد	-2103
جم	-2104
خا	-2105
اتم	-2106
امه	-2107
بها	-2108
شتن	-2109
لاک	-2110
نای	-2111
▁جی	-2112
▁مز	-2113
خانه	-2114
شنام	-2115
▁آور	-2116
▁اصف	-2117
▁باو	-2118
▁بلا	-2119
▁جغد	-2120
▁درم	-2121
▁ذکر	-2122
▁زنه	-2123
▁سرش	-2124
▁سست	-2125
▁سمن	-2126
▁شدش	-2127
▁فرق	-2128
▁قبا	-2129
▁هفت	-2130
▁وصف	-2131
▁چاه	-2132
▁اولی	-2133
▁بانگ	-2134
▁ببزم	-2135
▁بوسه	-2136
▁بکار	-2137
▁بیوف	-2138
▁خاست	-2139
▁خداو	-2140
▁خنجر	-2141
▁رحمت	-2142
▁سویت	-2143
▁عامل	-2144
▁قتلم	-2145
▁مایل	-2146
▁مسجد	-2147
▁ناگه	-2148
▁وامق	-2149
▁وصال	-2150
▁کتاب	-2151
▁کزین	-2152
▁یارب	-2153
▁آشکار	-2154
▁ابلیس	-2155
▁ستاره	-2156
▁فشاند	-2157
▁فگنده	-2158
▁میرود	-2159
▁نیاید	-2160
▁همانا	-2161
▁چگونه	-2162
▁گرفتم	-2163
▁آویخته	-2164
▁بیگانه	-2165
ضط	-2166
گیر	-2167
▁زب	-2168
ردان	-2169
▁زاد	-2170
▁سبب	-2171
▁طوط	-2172
▁آنان	-2173
▁امیر	-2174
▁بگوش	-2175
▁شهری	-2176
▁عیسی	-2177
▁بیوفا	-2178
▁قصیده	-2179
▁استخوان	-2180
جو	-2181
▁برف	-2182
▁خرد	-2183
▁دون	-2184
▁شهد	-2185
▁قضا	-2186
▁میم	-2187
▁نوی	-2188
▁هان	-2189
▁کآن	-2190
▁کود	-2191
▁برین	-2192
▁حساب	-2193
▁خوار	-2194
▁دایم	-2195
▁غوغا	-2196
▁فرود	-2197
▁خسروی	-2198
▁دمساز	-2199
▁گریست	-2200
سن	-2201
یزی	-2202
▁رک	-2203
اختم	-2204
وابی	-2205
گانی	-2206
گهان	-2207
گیرد	-2208
▁برز	-2209
▁بصد	-2210
▁درو	-2211
▁زور	-2212
▁عفو	-2213
▁عکس	-2214
▁آوری	-2215
▁برود	-2216
▁بپای	-2217
▁بچمن	-2218
▁دستش	-2219
▁دلکش	-2220
▁رسند	-2221
▁زیاد	-2222
▁سخنی	-2223
▁طاقت	-2224
▁ندید	-2225
▁کوزه	-2226
▁بگرفت	-2227
▁خوبان	-2228
▁دشمنت	-2229
▁شیراز	-2230
▁نگاهی	-2231
▁چارده	-2232
▁فرستمت	-2233
▁انداختم	-2234
▁زندگانی	-2235
تش	-2236
حا	-2237
حل	-2238
قر	-2239
لف	-2240
افت	-2241
خور	-2242
▁خن	-2243
▁مف	-2244
▁نط	-2245
قبال	-2246
ودان	-2247
گاری	-2248
▁ازل	-2249
▁بتن	-2250
▁بدخ	-2251
▁جزا	-2252
▁رفی	-2253
▁رون	-2254
▁سرخ	-2255
▁سهل	-2256
▁طری	-2257
▁فقر	-2258
▁قید	-2259
▁محک	-2260
▁مرح	-2261
▁مور	-2262
▁هنگ	-2263
▁ودا	-2264
▁کور	-2265
▁گون	-2266
▁آنگه	-2267
▁آیدم	-2268
▁بجای	-2269
▁بخیل	-2270
▁بردی	-2271
▁برید	-2272
▁بستر	-2273
▁بکوی	-2274
▁بگوی	-2275
▁حجاج	-2276
▁حجاز	-2277
▁خاصه	-2278
▁دروی	-2279
▁دولت	-2280
▁رایت	-2281
▁رعای	-2282
▁سرشک	-2283
▁شمرد	-2284
▁شکنج	-2285
▁فارغ	-2286
▁فراز	-2287
▁فزود	-2288
▁مدام	-2289
▁نمان	-2290
▁نمود	-2291
▁نمیر	-2292
▁نکهت	-2293
▁نیکو	-2294
▁وادی	-2295
▁پیری	-2296
▁آلوده	-2297
▁ابوال	-2298
▁اسلام	-2299
▁اینجا	-2300
▁بجایی	-2301
▁برادر	-2302
▁بینند	-2303
▁خرابه	-2304
▁خورده	-2305
▁دنبال	-2306
▁دیاری	-2307
▁عاقبت	-2308
▁محتاج	-2309
▁ناخوش	-2310
▁کشیدم	-2311
▁گذشته	-2312
▁گفتگو	-2313
▁آراسته	-2314
▁عنبرین	-2315
▁فرخنده	-2316
▁مسلمان	-2317
▁ناسازی	-2318
▁نخواهد	-2319
)»	-2320
اط	-2321
اع	-2322
ظر	-2323
▁(	-2324
اشا	-2325
اکب	-2326
ایک	-2327
جیر	-2328
حون	-2329
دها	-2330
رما	-2331
واب	-2332
چین	-2333
▁اق	-2334
▁بآ	-2335
▁زه	-2336
▁لح	-2337
▁مت	-2338
▁نث	-2339
▁نژ	-2340
▁۱۹	-2341
اریش	-2342
اییم	-2343
ویند	-2344
▁آیا	-2345
▁الت	-2346
▁الح	-2347
▁باب	-2348
▁خشک	-2349
▁رهش	-2350
▁روا	-2351
▁سهی	-2352
▁طای	-2353
▁عسل	-2354
▁قفا	-2355
▁ناد	-2356
▁نای	-2357
▁نرم	-2358
▁ویر	-2359
▁کمر	-2360
▁گدا	-2361
▁گست	-2362
▁آمدم	-2363
▁آنها	-2364
▁آگهی	-2365
▁بشکر	-2366
▁جانب	-2367
▁حجله	-2368
▁دختر	-2369
▁دستم	-2370
▁رشکم	-2371
▁رهنم	-2372
▁زلفت	-2373
▁سازم	-2374
▁سفله	-2375
▁سگان	-2376
▁شمار	-2377
▁شیدا	-2378
▁طلعت	-2379
▁علاج	-2380
▁غرور	-2381
▁قفای	-2382
▁لوحی	-2383
▁محفل	-2384
▁مرنج	-2385
▁مستی	-2386
▁مشام	-2387
▁منهم	-2388
▁نداد	-2389
▁نشود	-2390
▁نیاز	-2391
▁هرکه	-2392
▁همدم	-2393
▁پایه	-2394
▁چشمت	-2395
▁کسوت	-2396
▁کوکب	-2397
▁گلبن	-2398
▁گوشم	-2399
▁امکان	-2400
▁انگشت	-2401
▁بیاضی	-2402
▁دستان	-2403
▁دشنام	-2404
▁زمانی	-2405
▁سپارم	-2406
▁غوغای	-2407
▁فیروز	-2408
▁نشاید	-2409
▁نشینم	-2410
▁نشینی	-2411
▁نظاره	-2412
▁پیرهن	-2413
▁کشتنم	-2414
▁کنعان	-2415
▁کواکب	-2416
▁گشاید	-2417
▁گلچین	-2418
▁آستانش	-2419
▁بیابان	-2420
▁بیگناه	-2421
▁فرستاد	-2422
▁نخواهم	-2423
▁نشستند	-2424
▁آموزگار	-2425
▁انداخته	-2426
▁بیوفایی	-2427
▁مهربانی	-2428
▁ندانستم	-2429
جز	-2430
▁سه	-2431
▁اضط	-2432
▁بخر	-2433
▁زیب	-2434
▁مول	-2435
▁کلک	-2436
▁بازو	-2437
▁کامی	-2438
▁گردش	-2439
▁بیچاره	-2440
زا	-2441
▁بکن	-2442
▁صدر	-2443
▁لشک	-2444
▁مزن	-2445
▁کوش	-2446
▁بکام	-2447
▁درست	-2448
▁ظالم	-2449
▁نایی	-2450
▁نواز	-2451
▁پیکی	-2452
▁کآذر	-2453
▁بلبلم	-2454
▁بندگی	-2455
▁شاهین	-2456
▁شمشیر	-2457
▁غلامی	-2458
▁عندلیب	-2459
قش	-2460
ذیر	-2461
ناک	-2462
▁ضح	-2463
▁عط	-2464
▁مأ	-2465
▁چل	-2466
الیه	-2467
عیان	-2468
▁الم	-2469
▁بجا	-2470
▁حذر	-2471
▁زغن	-2472
▁سار	-2473
▁شفا	-2474
▁عجز	-2475
▁هشی	-2476
▁برکه	-2477
▁بپرس	-2478
▁دلبا	-2479
▁شبها	-2480
▁نامد	-2481
▁نزار	-2482
▁نگون	-2483
▁کامد	-2484
▁ابروی	-2485
▁بربست	-2486
▁بسرای	-2487
▁دیوان	-2488
▁سرایت	-2489
▁منقار	-2490
▁نهفته	-2491
▁نگرفت	-2492
▁نگرید	-2493
▁نگوید	-2494
▁گلگون	-2495
▁آستانه	-2496
▁افروزد	-2497
▁برخاست	-2498
▁داستان	-2499
▁شکرانه	-2500
▁نتواند	-2501
▁پیوسته	-2502
▁اندازیم	-2503
▁برآورده	-2504
دس	-2505
قف	-2506
آمد	-2507
بخت	-2508
ضرت	-2509
عیف	-2510
لال	-2511
نجا	-2512
وای	-2513
ورت	-2514
گشت	-2515
▁خص	-2516
▁رط	-2517
▁۲۰	-2518
انگی	-2519
اووس	-2520
بانی	-2521
داری	-2522
رمود	-2523
سیحا	-2524
ناهی	-2525
وانی	-2526
ویان	-2527
کشان	-2528
▁آهم	-2529
▁ارغ	-2530
▁خرس	-2531
▁راغ	-2532
▁زنخ	-2533
▁سرت	-2534
▁سعی	-2535
▁شکی	-2536
▁طرب	-2537
▁ظاه	-2538
▁محر	-2539
▁مرو	-2540
▁معم	-2541
▁ناب	-2542
▁نجف	-2543
▁نده	-2544
▁نوم	-2545
▁نیر	-2546
▁نیل	-2547
▁همر	-2548
ستانی	-2549
▁آتشی	-2550
▁آمدن	-2551
▁احمد	-2552
▁ایمن	-2553
▁بادت	-2554
▁باری	-2555
▁بباز	-2556
▁بستی	-2557
▁بلقی	-2558
▁بلکه	-2559
▁بوسم	-2560
▁ترسا	-2561
▁توبه	-2562
▁جواب	-2563
▁جویی	-2564
▁حیات	-2565
▁دامی	-2566
▁دانا	-2567
▁درگه	-2568
▁دوان	-2569
▁دوزخ	-2570
▁روزم	-2571
▁رونق	-2572
▁ساله	-2573
▁سزای	-2574
▁شعله	-2575
▁شهان	-2576
▁صیدی	-2577
▁ضعیف	-2578
▁طوطی	-2579
▁غواص	-2580
▁لشکر	-2581
▁مجال	-2582
▁مظهر	-2583
▁مکان	-2584
▁مکتو	-2585
▁مگیر	-2586
▁نامی	-2587
▁نعمت	-2588
▁نفسی	-2589
▁نکنم	-2590
▁پایت	-2591
▁پنجه	-2592
▁پیام	-2593
▁کاند	-2594
▁کبوت	-2595
▁یادم	-2596
▁آزادی	-2597
▁آستین	-2598
▁آمدند	-2599
▁امیدی	-2600
▁بالین	-2601
▁ببیند	-2602
▁بتکده	-2603
▁بجهان	-2604
▁برابر	-2605
▁بسینه	-2606
▁بماند	-2607
▁بپاسخ	-2608
▁بینمت	-2609
▁بیگان	-2610
▁جوابی	-2611
▁خاکست	-2612
▁دریده	-2613
▁دیدار	-2614
▁رهایی	-2615
▁صبحدم	-2616
▁طاووس	-2617
▁فراقت	-2618
▁محمود	-2619
▁معشوق	-2620
▁نوروز	-2621
▁نکردم	-2622
▁نیستم	-2623
▁هستند	-2624
▁پادشه	-2625
▁کوتاه	-2626
▁یکدگر	-2627
▁افتادم	-2628
▁انتظار	-2629
▁بیماری	-2630
▁جاودان	-2631
▁میگویم	-2632
▁درویشان	-2633
حش	-2634
ظه	-2635
فع	-2636
پر	-2637
کو	-2638
خند	-2639
روح	-2640
شرت	-2641
عام	-2642
لاط	-2643
مدا	-2644
گرم	-2645
ینم	-2646
▁تد	-2647
▁صن	-2648
▁عش	-2649
▁فن	-2650
▁وس	-2651
تابی	-2652
جوان	-2653
جویی	-2654
زبان	-2655
وخته	-2656
▁بقا	-2657
▁بمح	-2658
▁بنی	-2659
▁تنی	-2660
▁جوع	-2661
▁حکم	-2662
▁خشن	-2663
▁زدم	-2664
▁زنگ	-2665
▁سبح	-2666
▁شعف	-2667
▁طوس	-2668
▁غاف	-2669
▁غمم	-2670
▁فیض	-2671
▁مده	-2672
▁معن	-2673
▁میچ	-2674
▁نفر	-2675
▁پرا	-2676
▁پیک	-2677
▁گام	-2678
▁گاو	-2679
▁گرش	-2680
وانده	-2681
▁آشفت	-2682
▁ابرو	-2683
▁افتم	-2684
▁بالا	-2685
▁بستم	-2686
▁بناگ	-2687
▁بندم	-2688
▁بهتر	-2689
▁بهره	-2690
▁تنگی	-2691
▁جبری	-2692
▁جرمی	-2693
▁حاتم	-2694
▁حلوا	-2695
▁حکمت	-2696
▁خاکم	-2697
▁خاکی	-2698
▁خجلت	-2699
▁خدنگ	-2700
▁خرقه	-2701
▁خرمن	-2702
▁ذوال	-2703
▁راحت	-2704
▁رخصت	-2705
▁سازی	-2706
▁سمند	-2707
▁صوفی	-2708
▁ضمیر	-2709
▁طالب	-2710
▁غوطه	-2711
▁قبله	-2712
▁لیلا	-2713
▁مخزن	-2714
▁مرهم	-2715
▁مطلب	-2716
▁میخو	-2717
▁نکنی	-2718
▁وداع	-2719
▁پرید	-2720
▁پیکر	-2721
▁کشدم	-2722
▁گواه	-2723
▁گیری	-2724
▁آوازه	-2725
▁آگاهی	-2726
▁احباب	-2727
▁امیدو	-2728
▁بازوی	-2729
▁بالای	-2730
▁برهمن	-2731
▁بشنوم	-2732
▁بنشان	-2733
▁بکویش	-2734
▁بینوا	-2735
▁ترکان	-2736
▁تمامی	-2737
▁تواند	-2738
▁خطایی	-2739
▁خندید	-2740
▁رضوان	-2741
▁زنهار	-2742
▁عنایت	-2743
▁فرزند	-2744
▁فشانی	-2745
▁مجروح	-2746
▁مستان	-2747
▁مژگان	-2748
▁میانه	-2749
▁میزند	-2750
▁میکشد	-2751
▁نوشته	-2752
▁نگردد	-2753
▁نگفته	-2754
▁هنگام	-2755
▁پیراه	-2756
▁چوگان	-2757
▁گشوده	-2758
▁بیدلان	-2759
▁تماشای	-2760
▁خداوند	-2761
▁خرامان	-2762
▁خونبها	-2763
▁دردمند	-2764
▁شرمنده	-2765
▁مرغزار	-2766
▁ننشیند	-2767
▁نگویند	-2768
▁ویرانه	-2769
▁گرفتند	-2770
▁دوستدار	-2771
▁کلی	-2772
▁احسان	-2773
▁خجسته	-2774
▁خواری	-2775
▁مردان	-2776
▁گفتار	-2777
▁اصفهان	-2778
بع	-2779
شا	-2780
▁صر	-2781
▁کت	-2782
ارمت	-2783
▁تمن	-2784
▁تیز	-2785
▁جسم	-2786
▁جنت	-2787
▁خطه	-2788
▁بریم	-2789
▁رعنا	-2790
▁روست	-2791
▁صافی	-2792
▁نعیم	-2793
▁کهنه	-2794
▁بردند	-2795
▁شمارم	-2796
▁عاشقی	-2797
▁اضطراب	-2798
غی	-2799
راس	-2800
ردن	-2801
زله	-2802
سید	-2803
واز	-2804
▁دش	-2805
▁سح	-2806
▁غف	-2807
حرای	-2808
راست	-2809
▁بغم	-2810
▁دهش	-2811
▁زاه	-2812
▁ساق	-2813
▁صلا	-2814
▁طور	-2815
▁فرس	-2816
▁مار	-2817
▁مهی	-2818
▁پرد	-2819
▁کری	-2820
▁آلود	-2821
▁بخیر	-2822
▁تکیه	-2823
▁جنون	-2824
▁دستت	-2825
▁دهاد	-2826
▁رکاب	-2827
▁زنند	-2828
▁سبیل	-2829
▁فسون	-2830
▁ماتم	-2831
▁مردن	-2832
▁مزار	-2833
▁نفسم	-2834
▁وفاد	-2835
▁پناه	-2836
▁آوردم	-2837
▁استاد	-2838
▁اندوه	-2839
▁برخیز	-2840
▁خرابی	-2841
▁دریای	-2842
▁دشوار	-2843
▁رفتند	-2844
▁زلزله	-2845
▁شنویم	-2846
▁میروی	-2847
▁نرسید	-2848
▁ننوشم	-2849
▁کشیدن	-2850
▁ساربان	-2851
▁میداند	-2852
▁میگیرد	-2853
▁دلباخته	-2854
▁ناتوانی	-2855
حه	-2856
سس	-2857
صح	-2858
عا	-2859
وج	-2860
کد	-2861
اسد	-2862
بات	-2863
باه	-2864
خون	-2865
شتم	-2866
شمه	-2867
عیت	-2868
قاه	-2869
لاس	-2870
متر	-2871
نجد	-2872
وفه	-2873
ینی	-2874
▁اخ	-2875
▁تز	-2876
▁زآ	-2877
▁سط	-2878
▁صه	-2879
▁طپ	-2880
▁عب	-2881
▁عل	-2882
▁لر	-2883
▁ول	-2884
اداش	-2885
استه	-2886
ترسم	-2887
رومی	-2888
شیدی	-2889
فروز	-2890
یلان	-2891
▁بوع	-2892
▁خنک	-2893
▁خوب	-2894
▁رضا	-2895
▁سای	-2896
▁سرف	-2897
▁سری	-2898
▁سلط	-2899
▁سوک	-2900
▁صاد	-2901
▁صلح	-2902
▁عسس	-2903
▁عیش	-2904
▁فخر	-2905
▁لله	-2906
▁محب	-2907
▁مفت	-2908
▁ناو	-2909
▁نهی	-2910
▁نکو	-2911
▁وطن	-2912
▁کله	-2913
▁آتشم	-2914
▁آهنگ	-2915
▁ابری	-2916
▁ارقم	-2917
▁امام	-2918
▁انجم	-2919
▁باقی	-2920
▁بباد	-2921
▁بختی	-2922
▁بسوز	-2923
▁بشنو	-2924
▁بمنت	-2925
▁بگشا	-2926
▁جانی	-2927
▁جوهر	-2928
▁حضرت	-2929
▁حیرت	-2930
▁خراج	-2931
▁خلاف	-2932
▁دادم	-2933
▁دورم	-2934
▁دگری	-2935
▁روضه	-2936
▁ریزی	-2937
▁زارم	-2938
▁سوزد	-2939
▁طعنه	-2940
▁طلبد	-2941
▁ظاهر	-2942
▁عبیر	-2943
▁عذار	-2944
▁غماز	-2945
▁غیور	-2946
▁قدرت	-2947
▁قرار	-2948
▁ماست	-2949
▁مخور	-2950
▁ننال	-2951
▁نوید	-2952
▁نیار	-2953
▁هرکس	-2954
▁هستی	-2955
▁وصلم	-2956
▁پاره	-2957
▁پاسخ	-2958
▁چمنی	-2959
▁چندی	-2960
▁کدام	-2961
▁کنشت	-2962
▁یارم	-2963
▁آنگاه	-2964
▁باخته	-2965
▁بخلوت	-2966
▁بلقیس	-2967
▁بمنزل	-2968
▁بمیان	-2969
▁بیهوش	-2970
▁توانم	-2971
▁روباه	-2972
▁زبانی	-2973
▁سوختن	-2974
▁شنیدن	-2975
▁شکوفه	-2976
▁غالیه	-2977
▁غباری	-2978
▁مسیحا	-2979
▁مپسند	-2980
▁مکتوب	-2981
▁میرسد	-2982
▁میکنم	-2983
▁نامهر	-2984
▁ندیدی	-2985
▁نهاده	-2986
▁نومید	-2987
▁نیامد	-2988
▁هجران	-2989
▁همیشه	-2990
▁هیچکس	-2991
▁پروین	-2992
▁پوشید	-2993
▁پیران	-2994
▁کآنجا	-2995
▁کاندر	-2996
▁کبوتر	-2997
▁کنارم	-2998
▁گرفتی	-2999
▁گیسوی	-3000
▁ابروان	-3001
▁بدامان	-3002
▁برگشته	-3003
▁بنالید	-3004
▁خانقاه	-3005
▁خرابات	-3006
▁خواسته	-3007
▁فروزان	-3008
▁محرومی	-3009
▁مهوشان	-3010
▁میترسم	-3011
▁نالیدن	-3012
▁ناگهان	-3013
▁نیکبخت	-3014
▁کدامین	-3015
▁کودکان	-3016
▁نشناخته	-3017
▁کاروانی	-3018
▁برافروخت	-3019
ؤل	-3020
اپ	-3021
تن	-3022
جه	-3023
دت	-3024
سب	-3025
ؤلؤ	-3026
ابل	-3027
الع	-3028
اوی	-3029
بای	-3030
جرم	-3031
جیس	-3032
حنه	-3033
ختی	-3034
دال	-3035
دیل	-3036
دیو	-3037
ذشت	-3038
رات	-3039
زای	-3040
سوز	-3041
سیس	-3042
فتح	-3043
قیق	-3044
لاق	-3045
لوم	-3046
ماع	-3047
میل	-3048
ندل	-3049
یرد	-3050
▁اط	-3051
▁تق	-3052
▁ذق	-3053
▁سم	-3054
▁صع	-3055
▁طر	-3056
▁فه	-3057
▁مب	-3058
▁مث	-3059
▁هی	-3060
▁وج	-3061
▁وش	-3062
▁پل	-3063
▁گس	-3064
الان	-3065
ایره	-3066
زانی	-3067
ساری	-3068
ستند	-3069
فقار	-3070
لیخا	-3071
نشین	-3072
نگان	-3073
هرمن	-3074
کندر	-3075
یمان	-3076
▁بتر	-3077
▁بتم	-3078
▁بتی	-3079
▁بخط	-3080
▁بشم	-3081
▁بمر	-3082
▁بکس	-3083
▁تند	-3084
▁ختن	-3085
▁دوی	-3086
▁رمه	-3087
▁رند	-3088
▁رهم	-3089
▁روس	-3090
▁زبر	-3091
▁زره	-3092
▁زنش	-3093
▁زنم	-3094
▁زهد	-3095
▁سفت	-3096
▁شرف	-3097
▁صفه	-3098
▁عرش	-3099
▁عرض	-3100
▁عقد	-3101
▁قلت	-3102
▁قوی	-3103
▁لقب	-3104
▁لوح	-3105
▁متح	-3106
▁مجل	-3107
▁محل	-3108
▁مغز	-3109
▁مفر	-3110
▁مقص	-3111
▁مند	-3112
▁میب	-3113
▁میط	-3114
▁نبی	-3115
▁نسر	-3116
▁نعش	-3117
▁نمک	-3118
▁نیا	-3119
▁پست	-3120
▁پشی	-3121
▁چتر	-3122
▁کاه	-3123
▁کفت	-3124
▁کفر	-3125
▁یله	-3126
ساران	-3127
شدگان	-3128
▁آذری	-3129
▁افگن	-3130
▁اوفت	-3131
▁ببوس	-3132
▁بجام	-3133
▁بدرد	-3134
▁برفت	-3135
▁برقص	-3136
▁بزرگ	-3137
▁بشهر	-3138
▁بشوق	-3139
▁بغیر	-3140
▁بفرد	-3141
▁بنام	-3142
▁بویی	-3143
▁بگیر	-3144
▁بیکی	-3145
▁تبسم	-3146
▁تحفه	-3147
▁تیغت	-3148
▁جانش	-3149
▁جودش	-3150
▁حاشا	-3151
▁حجره	-3152
▁خاصم	-3153
▁دادش	-3154
▁داور	-3155
▁دماغ	-3156
▁دکان	-3157
▁راهم	-3158
▁رهان	-3159
▁رویش	-3160
▁ریشه	-3161
▁زنار	-3162
▁زنان	-3163
▁سبحه	-3164
▁سجود	-3165
▁سراب	-3166
▁سرشت	-3167
▁سودم	-3168
▁سوزی	-3169
▁شحنه	-3170
▁شمال	-3171
▁صحرا	-3172
▁صورت	-3173
▁طایر	-3174
▁طفلی	-3175
▁عادت	-3176
▁عارض	-3177
▁عدلش	-3178
▁عشاق	-3179
▁عمری	-3180
▁عنان	-3181
▁قفسم	-3182
▁لؤلؤ	-3183
▁لبان	-3184
▁مقام	-3185
▁مهان	-3186
▁ناام	-3187
▁نهفت	-3188
▁نوای	-3189
▁نوحه	-3190
▁نژاد	-3191
▁نگری	-3192
▁هدهد	-3193
▁هلال	-3194
▁هلاک	-3195
▁همره	-3196
▁وحدت	-3197
▁پایم	-3198
▁پیرم	-3199
▁گرنه	-3200
▁یادش	-3201
▁یمین	-3202
▁آدینه	-3203
▁آهنین	-3204
▁آهوان	-3205
▁ارباب	-3206
▁اسیری	-3207
▁اقبال	-3208
▁انکار	-3209
▁اهرمن	-3210
▁بادیه	-3211
▁ببینم	-3212
▁بخواب	-3213
▁برآرد	-3214
▁بریده	-3215
▁بغداد	-3216
▁بلبلش	-3217
▁بنیاد	-3218
▁بهرام	-3219
▁بهشتی	-3220
▁بگفتش	-3221
▁بگمان	-3222
▁بگوشم	-3223
▁بیخود	-3224
▁بیمار	-3225
▁جادوی	-3226
▁جویند	-3227
▁جیحون	-3228
▁دادگر	-3229
▁دایره	-3230
▁دمادم	-3231
▁رخشان	-3232
▁رعایا	-3233
▁رفتنم	-3234
▁روشنی	-3235
▁ریحان	-3236
▁ریزان	-3237
▁زبانم	-3238
▁زلیخا	-3239
▁زندان	-3240
▁زندگی	-3241
▁سزاست	-3242
▁سنگین	-3243
▁سوگند	-3244
▁صیادم	-3245
▁فرشته	-3246
▁فروخت	-3247
▁فگندی	-3248
▁مبادا	-3249
▁محزون	-3250
▁مشتری	-3251
▁مضمون	-3252
▁میکند	-3253
▁نخجیر	-3254
▁نداری	-3255
▁نداند	-3256
▁نشیند	-3257
▁نگویم	-3258
▁نیارم	-3259
▁نیستی	-3260
▁وفایی	-3261
▁پرسند	-3262
▁پستان	-3263
▁پیوند	-3264
▁گذارد	-3265
▁گردید	-3266
▁گستاخ	-3267
▁گفتنش	-3268
▁آسمانم	-3269
▁آشفتگی	-3270
▁آمیخته	-3271
▁اختیار	-3272
▁اسکندر	-3273
▁افسانه	-3274
▁افگنان	-3275
▁بناگوش	-3276
▁خوانده	-3277
▁خویشتن	-3278
▁درختان	-3279
▁زاهدان	-3280
▁زنخدان	-3281
▁شبستان	-3282
▁شکایتی	-3283
▁صفاهان	-3284
▁صوفیان	-3285
▁عاشقان	-3286
▁فتادند	-3287
▁نشنیده	-3288
▁نشکفته	-3289
▁نمانده	-3290
▁نوجوان	-3291
▁همزبان	-3292
▁پرورده	-3293
▁پیراهن	-3294
▁چنانکه	-3295
▁کشیدند	-3296
▁تماشایی	-3297
▁رساندند	-3298
▁فرستاده	-3299
▁ابوالفتح	-3300
▁ذوالفقار	-3301
▁ناخوانده	-3302
▁صب	-3303
وران	-3304
▁مدحت	-3305
▁بخرام	-3306
یهو	-3307
▁حو	-3308
▁الع	-3309
▁ایا	-3310
▁شست	-3311
▁طاس	-3312
▁مخت	-3313
▁ندا	-3314
▁بجوش	-3315
▁تیهو	-3316
▁معجز	-3317
▁مگوی	-3318
▁ناتم	-3319
▁نصیب	-3320
▁گرامی	-3321
آیی	-3322
اور	-3323
دلی	-3324
رنگ	-3325
زید	-3326
شکی	-3327
کام	-3328
▁زح	-3329
اخیز	-3330
اریه	-3331
اشتی	-3332
ختند	-3333
پسند	-3334
▁برت	-3335
▁تنم	-3336
▁سیب	-3337
▁آدمی	-3338
▁بازش	-3339
▁بدان	-3340
▁بسمل	-3341
▁بگنج	-3342
▁ترکی	-3343
▁دهدم	-3344
▁دوات	-3345
▁شاها	-3346
▁عاقل	-3347
▁عشقم	-3348
▁مولا	-3349
▁نقاب	-3350
▁هراس	-3351
▁کاسه	-3352
▁کیسه	-3353
▁گشود	-3354
▁آبادی	-3355
▁آزاری	-3356
▁اینان	-3357
▁باشیم	-3358
▁بزبان	-3359
▁خاصیت	-3360
▁درگاه	-3361
▁دونان	-3362
▁سامان	-3363
▁صحرای	-3364
▁میرفت	-3365
▁اولیتر	-3366
▁بزرگان	-3367
▁بیهوده	-3368
▁شوریده	-3369
▁میخندد	-3370
▁میدهمش	-3371
▁وفادار	-3372
▁انتظارش	-3373
▁بدریوزه	-3374
خل	-3375
عد	-3376
عم	-3377
پس	-3378
افق	-3379
اکل	-3380
دمی	-3381
دید	-3382
فاق	-3383
گرف	-3384
۱۱۷	-3385
▁تت	-3386
▁ته	-3387
▁جن	-3388
▁زو	-3389
▁سد	-3390
▁شخ	-3391
▁طن	-3392
▁فل	-3393
▁پن	-3394
باره	-3395
بتلا	-3396
رانی	-3397
ریفی	-3398
ومند	-3399
یزان	-3400
▁آسی	-3401
▁احت	-3402
▁بسا	-3403
▁بنگ	-3404
▁بچه	-3405
▁خاق	-3406
▁خری	-3407
▁خطا	-3408
▁خطت	-3409
▁خوف	-3410
▁دمد	-3411
▁رهت	-3412
▁زدر	-3413
▁زشت	-3414
▁سگت	-3415
▁شدن	-3416
▁شری	-3417
▁شنو	-3418
▁فال	-3419
▁فتح	-3420
▁قلب	-3421
▁مرت	-3422
▁منه	-3423
▁نرد	-3424
▁نزد	-3425
▁نشم	-3426
▁نوا	-3427
▁هار	-3428
▁همس	-3429
▁همن	-3430
▁وار	-3431
▁وقف	-3432
▁پرش	-3433
▁پره	-3434
▁پیچ	-3435
▁چرد	-3436
▁گبر	-3437
▁گلو	-3438
▁گمر	-3439
روخته	-3440
مدیده	-3441
▁امتح	-3442
▁اگرت	-3443
▁بختم	-3444
▁بخند	-3445
▁بنان	-3446
▁بچنگ	-3447
▁تراز	-3448
▁تزوی	-3449
▁حرام	-3450
▁حربا	-3451
▁حریم	-3452
▁خضاب	-3453
▁رازی	-3454
▁رامش	-3455
▁راند	-3456
▁رفیع	-3457
▁رنجه	-3458
▁روزت	-3459
▁ساعد	-3460
▁سحری	-3461
▁سودی	-3462
▁سوزم	-3463
▁شاخش	-3464
▁شنود	-3465
▁شوید	-3466
▁شگرف	-3467
▁صادق	-3468
▁صهبا	-3469
▁صیدش	-3470
▁ضحاک	-3471
▁طلبی	-3472
▁عباد	-3473
▁عراق	-3474
▁عروس	-3475
▁فراغ	-3476
▁قیصر	-3477
▁لطفت	-3478
▁مانی	-3479
▁محنت	-3480
▁مدان	-3481
▁مراد	-3482
▁مردی	-3483
▁مریم	-3484
▁مسلم	-3485
▁مفلس	-3486
▁مویی	-3487
▁میگر	-3488
▁نامش	-3489
▁نخفت	-3490
▁ندهی	-3491
▁نقشی	-3492
▁نمیگ	-3493
▁نگهی	-3494
▁نیاو	-3495
▁وقتی	-3496
▁پرسش	-3497
▁چمنم	-3498
▁کاکل	-3499
▁کباب	-3500
▁کجات	-3501
▁کویش	-3502
▁کیمی	-3503
▁گزند	-3504
▁یارا	-3505
▁آرایش	-3506
▁افتدش	-3507
▁افزود	-3508
▁القصه	-3509
▁امیری	-3510
▁اندکی	-3511
▁انگار	-3512
▁بدنام	-3513
▁براند	-3514
▁بزرگی	-3515
▁بشکنم	-3516
▁بمیرم	-3517
▁بوعده	-3518
▁بگشود	-3519
▁جمعیت	-3520
▁حدیثی	-3521
▁حسرتم	-3522
▁خرامی	-3523
▁خوشدل	-3524
▁درخور	-3525
▁دوریت	-3526
▁رسیدی	-3527
▁رواست	-3528
▁زاهدی	-3529
▁ستانی	-3530
▁سرایی	-3531
▁شماری	-3532
▁شناسد	-3533
▁طریقه	-3534
▁عدالت	-3535
▁عریان	-3536
▁عمارت	-3537
▁مبتلا	-3538
▁معمور	-3539
▁نبردم	-3540
▁نبسته	-3541
▁نبوده	-3542
▁نخورد	-3543
▁نشنوی	-3544
▁نگاری	-3545
▁نگویی	-3546
▁نیستش	-3547
▁نیفتد	-3548
▁هشیار	-3549
▁واقعه	-3550
▁ولایت	-3551
▁پسندم	-3552
▁پیاده	-3553
▁کافور	-3554
▁کاووس	-3555
▁کجاست	-3556
▁گناهی	-3557
▁گیلان	-3558
▁یکبار	-3559
▁آرمیده	-3560
▁ارمغان	-3561
▁افروخت	-3562
▁افگنده	-3563
▁بازگشت	-3564
▁ببازار	-3565
▁بدنبال	-3566
▁برانگی	-3567
▁بفرمان	-3568
▁بهاران	-3569
▁جادویی	-3570
▁جوانان	-3571
▁خروشید	-3572
▁دلفروز	-3573
▁راستان	-3574
▁رنجیده	-3575
▁ندارند	-3576
▁نکویان	-3577
▁نیارست	-3578
▁هوشمند	-3579
▁پیغامی	-3580
▁کامیاب	-3581
▁گفتگوی	-3582
▁آزادگان	-3583
▁افروخته	-3584
▁برداشتی	-3585
▁دشمنانت	-3586
▁ستمدیده	-3587
▁پریشانی	-3588
▁دوستداری	-3589
▁سرافگنده	-3590
▁نامهربان	-3591
بل	-3592
جب	-3593
حق	-3594
حم	-3595
خه	-3596
صف	-3597
صو	-3598
ضب	-3599
عف	-3600
غل	-3601
گل	-3602
یط	-3603
ؤوس	-3604
ابی	-3605
اجب	-3606
اکم	-3607
ایع	-3608
باش	-3609
بدم	-3610
بوی	-3611
بیس	-3612
تاع	-3613
تان	-3614
جاد	-3615
جار	-3616
خیز	-3617
دوز	-3618
دیر	-3619
دیک	-3620
راف	-3621
رند	-3622
ریس	-3623
زدی	-3624
زنش	-3625
زیز	-3626
سوا	-3627
شدر	-3628
عفر	-3629
قاب	-3630
قای	-3631
قدر	-3632
قوس	-3633
لحت	-3634
لیش	-3635
لیپ	-3636
ملو	-3637
ملی	-3638
نجی	-3639
همه	-3640
هور	-3641
واس	-3642
ورم	-3643
وزد	-3644
وشد	-3645
ویس	-3646
کشم	-3647
گرگ	-3648
▁اث	-3649
▁اژ	-3650
▁تس	-3651
▁دب	-3652
▁فد	-3653
▁فض	-3654
▁فک	-3655
▁مذ	-3656
▁هد	-3657
▁چر	-3658
اتمش	-3659
انیش	-3660
اهید	-3661
ایده	-3662
ایون	-3663
سرار	-3664
شیده	-3665
ظهار	-3666
فعال	-3667
لاوت	-3668
مانش	-3669
مهری	-3670
هدار	-3671
همان	-3672
ودای	-3673
وریا	-3674
چشمه	-3675
کنان	-3676
کنند	-3677
گارش	-3678
گذار	-3679
گران	-3680
▁آصف	-3681
▁آنم	-3682
▁الر	-3683
▁الف	-3684
▁اوج	-3685
▁باط	-3686
▁بجو	-3687
▁برن	-3688
▁بغل	-3689
▁بلی	-3690
▁بمد	-3691
▁بمس	-3692
▁بپا	-3693
▁بپر	-3694
▁بکم	-3695
▁تاک	-3696
▁تخم	-3697
▁ترا	-3698
▁ترم	-3699
▁تفا	-3700
▁تنش	-3701
▁ثمر	-3702
▁جاه	-3703
▁جفت	-3704
▁جیب	-3705
▁حرص	-3706
▁حقه	-3707
▁خست	-3708
▁خسک	-3709
▁خسی	-3710
▁خطش	-3711
▁درج	-3712
▁رخس	-3713
▁رهی	-3714
▁زرا	-3715
▁زسر	-3716
▁زمز	-3717
▁سان	-3718
▁سبو	-3719
▁سرک	-3720
▁سزد	-3721
▁سور	-3722
▁سگی	-3723
▁شاب	-3724
▁شای	-3725
▁شبت	-3726
▁شکن	-3727
▁صدف	-3728
▁ضعف	-3729
▁طعن	-3730
▁عاج	-3731
▁عرب	-3732
▁عزل	-3733
▁عمل	-3734
▁غری	-3735
▁غضب	-3736
▁فرش	-3737
▁قند	-3738
▁لات	-3739
▁لبی	-3740
▁مطل	-3741
▁معذ	-3742
▁معر	-3743
▁مگس	-3744
▁نقط	-3745
▁وان	-3746
▁ورق	-3747
▁پرم	-3748
▁پشه	-3749
▁چهر	-3750
▁کبر	-3751
▁کحل	-3752
▁کفن	-3753
▁کفی	-3754
▁گرو	-3755
▁گسل	-3756
▁یمن	-3757
انیان	-3758
ستاده	-3759
شتیاق	-3760
طرلاب	-3761
لاطون	-3762
ینهار	-3763
▁آذرت	-3764
▁آرزو	-3765
▁آرمت	-3766
▁آسود	-3767
▁آنکو	-3768
▁آوار	-3769
▁آیدش	-3770
▁آیین	-3771
▁استغ	-3772
▁بارش	-3773
▁ببحر	-3774
▁ببست	-3775
▁بتاب	-3776
▁بتخت	-3777
▁بترس	-3778
▁بتیغ	-3779
▁بخشی	-3780
▁بدهش	-3781
▁بدوش	-3782
▁بدیر	-3783
▁بردن	-3784
▁برگر	-3785
▁بشکن	-3786
▁بطرف	-3787
▁بلور	-3788
▁بناز	-3789
▁بندی	-3790
▁بنهد	-3791
▁بنگر	-3792
▁بگلب	-3793
▁بینش	-3794
▁تازی	-3795
▁ترکش	-3796
▁تلخی	-3797
▁تگرگ	-3798
▁تیری	-3799
▁جلیل	-3800
▁حالی	-3801
▁حاکم	-3802
▁حریر	-3803
▁حمام	-3804
▁خارا	-3805
▁خاری	-3806
▁خدیو	-3807
▁خروس	-3808
▁خرید	-3809
▁خطاب	-3810
▁خطبه	-3811
▁خلیل	-3812
▁خندد	-3813
▁دادن	-3814
▁دعوی	-3815
▁دلیل	-3816
▁راضی	-3817
▁راهش	-3818
▁رسان	-3819
▁رسوا	-3820
▁رسول	-3821
▁رضای	-3822
▁رفیق	-3823
▁رنجد	-3824
▁رویم	-3825
▁زانی	-3826
▁زوفا	-3827
▁زیرک	-3828
▁زیور	-3829
▁سارش	-3830
▁سالک	-3831
▁ستمت	-3832
▁ستمش	-3833
▁سحاب	-3834
▁سراپ	-3835
▁سرکه	-3836
▁سلام	-3837
▁سماع	-3838
▁شرمی	-3839
▁شنوم	-3840
▁شوخی	-3841
▁شوکت	-3842
▁صندل	-3843
▁طرفه	-3844
▁ظلمت	-3845
▁ظهور	-3846
▁عشرت	-3847
▁عقده	-3848
▁عمدا	-3849
▁عناب	-3850
▁فتان	-3851
▁فکرت	-3852
▁قابل	-3853
▁لازم	-3854
▁لعلت	-3855
▁مباش	-3856
▁متاع	-3857
▁محکم	-3858
▁محیط	-3859
▁مریز	-3860
▁معطر	-3861
▁مقیم	-3862
▁مملو	-3863
▁منال	-3864
▁منظر	-3865
▁میشم	-3866
▁میطپ	-3867
▁مینا	-3868
▁نبرم	-3869
▁نخرد	-3870
▁نرود	-3871
▁نزنم	-3872
▁نشاط	-3873
▁نشوی	-3874
▁نماز	-3875
▁نکشد	-3876
▁نگشت	-3877
▁نیمه	-3878
▁همسر	-3879
▁هندو	-3880
▁واجب	-3881
▁واقف	-3882
▁والی	-3883
▁وحشی	-3884
▁پارس	-3885
▁پاکد	-3886
▁چلیپ	-3887
▁چینی	-3888
▁کآید	-3889
▁کبود	-3890
▁کسری	-3891
▁کفیل	-3892
▁کمتر	-3893
▁گامی	-3894
▁گذری	-3895
▁گروه	-3896
▁گشتی	-3897
▁گونه	-3898
▁گیسو	-3899
▁یابم	-3900
▁یسار	-3901
خواهان	-3902
▁آراست	-3903
▁آواره	-3904
▁آوردت	-3905
▁آویزه	-3906
▁اظهار	-3907
▁افلاک	-3908
▁افکند	-3909
▁اقامت	-3910
▁القدس	-3911
▁انعام	-3912
▁ایجاد	-3913
▁باغها	-3914
▁بایدت	-3915
▁بایدم	-3916
▁بجنان	-3917
▁بدامن	-3918
▁بدیده	-3919
▁برآرم	-3920
▁برجیس	-3921
▁برویت	-3922
▁برگرد	-3923
▁بششدر	-3924
▁بشنوی	-3925
▁بعالم	-3926
▁بفغان	-3927
▁بمحشر	-3928
▁بمردم	-3929
▁بهارم	-3930
▁بهزار	-3931
▁بوریا	-3932
▁بکویت	-3933
▁بگذار	-3934
▁بگردن	-3935
▁بگیرد	-3936
▁بیشتر	-3937
▁تاراج	-3938
▁تدبیر	-3939
▁ترانه	-3940
▁تلبیس	-3941
▁توانا	-3942
▁جلالت	-3943
▁حلاوت	-3944
▁حمایت	-3945
▁حوران	-3946
▁حیرتم	-3947
▁خشنود	-3948
▁خطاست	-3949
▁خلایق	-3950
▁خوردم	-3951
▁خوردن	-3952
▁دارند	-3953
▁داشتی	-3954
▁درآمد	-3955
▁دردها	-3956
▁درگهش	-3957
▁دلدوز	-3958
▁دلیری	-3959
▁دمبدم	-3960
▁دوستر	-3961
▁دیبای	-3962
▁دیدند	-3963
▁دیگری	-3964
▁راهزن	-3965
▁ربوده	-3966
▁رخسار	-3967
▁رعایت	-3968
▁رقصان	-3969
▁رمیده	-3970
▁رندان	-3971
▁روسبی	-3972
▁ریختی	-3973
▁زلفین	-3974
▁ستاده	-3975
▁سرزنش	-3976
▁سپاری	-3977
▁شاهیش	-3978
▁شمشاد	-3979
▁شهباز	-3980
▁صیادی	-3981
▁طبیبم	-3982
▁عینکی	-3983
▁فرستی	-3984
▁فرمود	-3985
▁قربان	-3986
▁قفایت	-3987
▁لبریز	-3988
▁مادرت	-3989
▁ماسوا	-3990
▁ماندی	-3991
▁مانند	-3992
▁متحیر	-3993
▁محترم	-3994
▁مرحبا	-3995
▁مردمش	-3996
▁مستور	-3997
▁مشتعل	-3998
▁مصلحت	-3999
▁مظلوم	-4000
▁مفروش	-4001
▁مقصود	-4002
▁ملامت	-4003
▁ملایک	-4004
▁میبرد	-4005
▁میدان	-4006
▁ناهید	-4007
▁نباشی	-4008
▁نباید	-4009
▁نزدیک	-4010
▁نستان	-4011
▁نسرین	-4012
▁نسوزد	-4013
▁نشانم	-4014
▁نشستم	-4015
▁نشستی	-4016
▁نماید	-4017
▁نمایی	-4018
▁نموده	-4019
▁ننالد	-4020
▁نهالی	-4021
▁نهانم	-4022
▁نوایی	-4023
▁نکردی	-4024
▁نیرنگ	-4025
▁هوایی	-4026
▁وفایت	-4027
▁کتابی	-4028
▁کرامت	-4029
▁کردیش	-4030
▁کوهکن	-4031
▁گذاری	-4032
▁گرانی	-4033
▁گریزد	-4034
▁گریزم	-4035
▁گسسته	-4036
▁گفتیم	-4037
▁گمانش	-4038
▁گویمت	-4039
▁آسمانی	-4040
▁آموخته	-4041
▁ارغوان	-4042
▁اشتیاق	-4043
▁انفعال	-4044
▁اینهمه	-4045
▁بامداد	-4046
▁برافرا	-4047
▁بشکسته	-4048
▁بلبلان	-4049
▁بناگاه	-4050
▁بگلزار	-4051
▁بیمهری	-4052
▁جبرییل	-4053
▁جویبار	-4054
▁خاکستر	-4055
▁خواستی	-4056
▁خونریز	-4057
▁دلبران	-4058
▁دلجویی	-4059
▁زنارها	-4060
▁زینهار	-4061
▁سرفراز	-4062
▁سپهدار	-4063
▁شبانگه	-4064
▁شرمسار	-4065
▁شگفتید	-4066
▁فلاطون	-4067
▁فیروزه	-4068
▁قلتبان	-4069
▁محرمان	-4070
▁میهمان	-4071
▁ندانند	-4072
▁نشانده	-4073
▁نشینند	-4074
▁نمیرود	-4075
▁نوشخند	-4076
▁همنشین	-4077
▁پرستان	-4078
▁پرفشان	-4079
▁پوشیده	-4080
▁گذارند	-4081
▁گردیده	-4082
▁گلزاری	-4083
▁گنجینه	-4084
▁امیدوار	-4085
▁باغبانی	-4086
▁خواجگان	-4087
▁خورشیدی	-4088
▁دادخواه	-4089
▁دربانان	-4090
▁دلشدگان	-4091
▁دوستانت	-4092
▁رهنمایی	-4093
▁عندلیبی	-4094
▁ناامیدی	-4095
▁نمیدانم	-4096
▁نمیدانی	-4097
▁گرفتاری	-4098
▁امیدوارم	-4099
▁مسلمانان	-4100
▁میگساران	-4101
▁دوستداران	-4102
وح	-4103
۱۱۸	-4104
▁طوق	-4105
▁کمی	-4106
▁الفت	-4107
▁سپاه	-4108
▁قفسی	-4109
▁کمال	-4110
▁خوشخر	-4111
▁روزنه	-4112
ظم	-4113
کل	-4114
احت	-4115
کات	-4116
ردست	-4117
▁تقی	-4118
▁قوم	-4119
▁نطق	-4120
▁پخت	-4121
▁کاخ	-4122
رفشان	-4123
▁بزمت	-4124
▁حامی	-4125
▁حرمت	-4126
▁مصری	-4127
▁کوشم	-4128
▁حرکات	-4129
▁نشانه	-4130
▁نظامی	-4131
▁نویسم	-4132
▁پریده	-4133
▁شهریار	-4134
▁نیامدی	-4135
..	-4136
ته	-4137
سپ	-4138
حسن	-4139
ذرد	-4140
شار	-4141
وسی	-4142
۱۱۹	-4143
▁زا	-4144
▁۲۱	-4145
زیده	-4146
▁باک	-4147
▁زخط	-4148
▁زرق	-4149
▁سپه	-4150
▁شبم	-4151
▁شهی	-4152
▁عطا	-4153
▁قلی	-4154
▁لاف	-4155
▁هجو	-4156
▁کبک	-4157
اورزی	-4158
وانند	-4159
▁باغم	-4160
▁بدیع	-4161
▁بگدا	-4162
▁توشه	-4163
▁دراج	-4164
▁رشید	-4165
▁طفیل	-4166
▁عینک	-4167
▁نوشم	-4168
▁نکته	-4169
▁هادی	-4170
▁پوشد	-4171
▁کوته	-4172
▁کوچه	-4173
▁کیان	-4174
▁افسار	-4175
▁افشار	-4176
▁اینها	-4177
▁بارها	-4178
▁بازار	-4179
▁بجایش	-4180
▁برزین	-4181
▁بیخته	-4182
▁تعمیر	-4183
▁تمنای	-4184
▁خوایق	-4185
▁دروغی	-4186
▁سحرگه	-4187
▁عاشقم	-4188
▁ناکسی	-4189
▁نگریم	-4190
▁پایان	-4191
▁پیرزن	-4192
▁گلرنگ	-4193
▁یافته	-4194
▁بتاریخ	-4195
▁بدیگری	-4196
▁خسروان	-4197
▁خندانت	-4198
▁دوستیت	-4199
▁غارتگر	-4200
▁میگذرد	-4201
▁جهانگیر	-4202
▁زنجیرها	-4203
▁سلطانان	-4204
▁نامردان	-4205
▁نخوانند	-4206
▁پاسبانی	-4207
▁پرستاری	-4208
▁کشاورزی	-4209
فد	-4210
قا	-4211
قل	-4212
مس	-4213
هن	-4214
گش	-4215
ازی	-4216
افگ	-4217
سال	-4218
قام	-4219
لوه	-4220
موم	-4221
وجی	-4222
ویه	-4223
یفه	-4224
یلی	-4225
▁حص	-4226
▁طی	-4227
▁قا	-4228
ابله	-4229
اران	-4230
افری	-4231
امون	-4232
بارش	-4233
ختمش	-4234
داین	-4235
سانی	-4236
شنوم	-4237
شیشه	-4238
غانی	-4239
قیقت	-4240
نیبت	-4241
هایت	-4242
وازم	-4243
وسفر	-4244
چیده	-4245
گردی	-4246
یهای	-4247
▁آبت	-4248
▁آوخ	-4249
▁ازم	-4250
▁ایم	-4251
▁بشب	-4252
▁بوت	-4253
▁بکی	-4254
▁تتق	-4255
▁تمی	-4256
▁جار	-4257
▁جنب	-4258
▁دنی	-4259
▁رجا	-4260
▁رخم	-4261
▁رمد	-4262
▁زتو	-4263
▁زجا	-4264
▁سخا	-4265
▁سطح	-4266
▁سیل	-4267
▁شبه	-4268
▁شدت	-4269
▁شنا	-4270
▁شهش	-4271
▁طین	-4272
▁عجم	-4273
▁عصر	-4274
▁غصه	-4275
▁فام	-4276
▁فوج	-4277
▁فین	-4278
▁قطب	-4279
▁محش	-4280
▁مزد	-4281
▁نسل	-4282
▁نشی	-4283
▁هزل	-4284
▁همچ	-4285
▁وال	-4286
▁چهل	-4287
▁چکد	-4288
▁چید	-4289
▁کآب	-4290
▁گلت	-4291
▁گلع	-4292
▁گیا	-4293
▁یال	-4294
▁یزد	-4295
▁۱۱۹	-4296
خشنده	-4297
خواهی	-4298
شاندی	-4299
یروان	-4300
▁آمین	-4301
▁آیدت	-4302
▁اگرم	-4303
▁بالی	-4304
▁بجرم	-4305
▁بحکم	-4306
▁بزلف	-4307
▁بستن	-4308
▁بسرا	-4309
▁بسقر	-4310
▁بشاخ	-4311
▁بنای	-4312
▁بهیچ	-4313
▁بودت	-4314
▁بچرخ	-4315
▁بگسل	-4316
▁بیشه	-4317
▁بیمش	-4318
▁جادو	-4319
▁جرعه	-4320
▁خصمی	-4321
▁خفتم	-4322
▁خلقت	-4323
▁خوشگ	-4324
▁داغم	-4325
▁دایه	-4326
▁دعای	-4327
▁دواج	-4328
▁دیبا	-4329
▁رحمه	-4330
▁رخان	-4331
▁رطبی	-4332
▁زحمت	-4333
▁زلفش	-4334
▁زمام	-4335
▁زمزم	-4336
▁ساحل	-4337
▁ساوه	-4338
▁سخنش	-4339
▁سدره	-4340
▁سران	-4341
▁سردی	-4342
▁سعید	-4343
▁سویش	-4344
▁سپند	-4345
▁شرار	-4346
▁طناز	-4347
▁عارت	-4348
▁عیبت	-4349
▁غرقه	-4350
▁غفلت	-4351
▁غفور	-4352
▁غیری	-4353
▁فراخ	-4354
▁فگار	-4355
▁قباد	-4356
▁قرین	-4357
▁مجمر	-4358
▁محال	-4359
▁مدرس	-4360
▁مرگم	-4361
▁ملوک	-4362
▁مینو	-4363
▁ناصح	-4364
▁نامت	-4365
▁نفاق	-4366
▁ننهی	-4367
▁نوشد	-4368
▁نکشت	-4369
▁نکوه	-4370
▁نگرم	-4371
▁نیکی	-4372
▁هرشب	-4373
▁هشتم	-4374
▁هیزم	-4375
▁واپس	-4376
▁وصلت	-4377
▁وصلی	-4378
▁پلاس	-4379
▁پنبه	-4380
▁کآشی	-4381
▁کرمت	-4382
▁کلاه	-4383
▁کندی	-4384
▁گزین	-4385
▁گشتم	-4386
▁گوسف	-4387
▁گوشش	-4388
▁آموخت	-4389
▁آنگهی	-4390
▁ابلهی	-4391
▁اختری	-4392
▁اسیرم	-4393
▁اندوز	-4394
▁بباغی	-4395
▁ببامی	-4396
▁بجلوه	-4397
▁بخیلی	-4398
▁بدوزخ	-4399
▁برفکن	-4400
▁بستیم	-4401
▁بسوزی	-4402
▁بسویت	-4403
▁بشیشه	-4404
▁بعاشق	-4405
▁بفرست	-4406
▁بندند	-4407
▁بپوشم	-4408
▁بگلشن	-4409
▁بیزار	-4410
▁بینیم	-4411
▁تربتم	-4412
▁جنیبت	-4413
▁حرفیش	-4414
▁خرامد	-4415
▁درآیی	-4416
▁درختی	-4417
▁دلدار	-4418
▁رباید	-4419
▁رویان	-4420
▁زلالی	-4421
▁سرآمد	-4422
▁سرشته	-4423
▁سواری	-4424
▁سوختی	-4425
▁سپردن	-4426
▁شریان	-4427
▁شنفتم	-4428
▁شهیدی	-4429
▁شکستن	-4430
▁طبیبا	-4431
▁ظریفی	-4432
▁عدویت	-4433
▁عصیان	-4434
▁غزالی	-4435
▁فتادی	-4436
▁فقیرم	-4437
▁مأموم	-4438
▁مأمون	-4439
▁محتشم	-4440
▁مخوان	-4441
▁مرتضی	-4442
▁مرحله	-4443
▁منافق	-4444
▁میدهد	-4445
▁میکرد	-4446
▁نامحر	-4447
▁نبودش	-4448
▁نفسان	-4449
▁نهادی	-4450
▁نوسفر	-4451
▁نکهتی	-4452
▁نگشته	-4453
▁نگفتم	-4454
▁نگنجد	-4455
▁هاروت	-4456
▁هستیش	-4457
▁پاداش	-4458
▁چشمان	-4459
▁کبکان	-4460
▁کدامت	-4461
▁کماند	-4462
▁گذران	-4463
▁گلشنت	-4464
▁گمراه	-4465
▁آستانت	-4466
▁آستانی	-4467
▁آوازان	-4468
▁افسرده	-4469
▁اندرین	-4470
▁بارگاه	-4471
▁بازاری	-4472
▁بایزید	-4473
▁ببینیم	-4474
▁بخندید	-4475
▁بدخوست	-4476
▁بدریای	-4477
▁بدگویی	-4478
▁برآورد	-4479
▁بربسته	-4480
▁برومند	-4481
▁بفرمود	-4482
▁خرسندی	-4483
▁دامانش	-4484
▁دستگیر	-4485
▁دلتنگی	-4486
▁دلپسند	-4487
▁راعیان	-4488
▁رخشنده	-4489
▁رعایای	-4490
▁سپارمت	-4491
▁ضعیفان	-4492
▁منتهای	-4493
▁میدیدم	-4494
▁میشنوم	-4495
▁نابسته	-4496
▁نادیدن	-4497
▁نادیده	-4498
▁نتوانم	-4499
▁نتوانی	-4500
▁نداریم	-4501
▁نشنیدی	-4502
▁نمیکنم	-4503
▁نیامده	-4504
▁هزاران	-4505
▁هشیاری	-4506
▁همراهی	-4507
▁همسایه	-4508
▁کافران	-4509
▁کامروز	-4510
▁گریزان	-4511
▁گیسویش	-4512
▁اصفاهان	-4513
▁بباغبان	-4514
▁بگنجینه	-4515
▁بیاراست	-4516
▁بینهایت	-4517
▁بیگانگی	-4518
▁داستانی	-4519
▁درخشنده	-4520
▁دیوارها	-4521
▁ستمکشان	-4522
▁سرگردان	-4523
▁صبحگاهی	-4524
▁مرغزاری	-4525
▁نمیگویم	-4526
▁پاسبانش	-4527
▁پنداشتی	-4528
▁کاروانش	-4529
▁کامرانی	-4530
▁گریبانت	-4531
▁برانگیخته	-4532
▁ناسازگاری	-4533
اء	-4534
اذ	-4535
ثل	-4536
ثه	-4537
دش	-4538
ذت	-4539
رگ	-4540
زت	-4541
سط	-4542
سو	-4543
ضش	-4544
ضع	-4545
عث	-4546
عظ	-4547
فش	-4548
نظ	-4549
وض	-4550
گن	-4551
یس	-4552
آید	-4553
ابه	-4554
احل	-4555
ارا	-4556
ازم	-4557
ازن	-4558
ازه	-4559
اطر	-4560
اعت	-4561
امع	-4562
اها	-4563
اپل	-4564
ایب	-4565
برگ	-4566
بیب	-4567
بیح	-4568
بیم	-4569
تاز	-4570
جاب	-4571
جام	-4572
جله	-4573
حاس	-4574
حید	-4575
خاب	-4576
خشد	-4577
دیس	-4578
دین	-4579
ذبه	-4580
ذرم	-4581
ذره	-4582
ذری	-4583
راج	-4584
راک	-4585
رعه	-4586
رها	-4587
ریض	-4588
زین	-4589
سای	-4590
سطو	-4591
سمت	-4592
سنه	-4593
سیع	-4594
طبع	-4595
عتی	-4596
فات	-4597
فاش	-4598
فشه	-4599
بچه	-4600
تبه	-4601
حمه	-4602
خیل	-4603
طاق	-4604
فور	-4605
فیق	-4606
قین	-4607
لبه	-4608
لدا	-4609
لله	-4610
لیم	-4611
مرد	-4612
ملم	-4613
نار	-4614
نظل	-4615
نوس	-4616
وتی	-4617
ودی	-4618
ورش	-4619
وره	-4620
ولی	-4621
ونس	-4622
ویز	-4623
پوش	-4624
ژدم	-4625
کتب	-4626
کرد	-4627
کسم	-4628
کشی	-4629
گهم	-4630
یبت	-4631
یحت	-4632
یدر	-4633
یلش	-4634
یمت	-4635
ینا	-4636
ییر	-4637
▁تج	-4638
▁تف	-4639
▁ثم	-4640
▁رج	-4641
▁رز	-4642
▁زس	-4643
▁زش	-4644
▁زع	-4645
▁زپ	-4646
▁فگ	-4647
▁قل	-4648
▁لآ	-4649
▁مؤ	-4650
▁نت	-4651
▁نل	-4652
▁هق	-4653
▁چک	-4654
▁یه	-4655
▁۲۴	-4656
▁۲۶	-4657
▁۳۰	-4658
▁۳۲	-4659
▁۳۳	-4660
▁۳۴	-4661
▁۳۵	-4662
▁۳۶	-4663
▁۳۷	-4664
▁۳۸	-4665
▁۳۹	-4666
▁۴۰	-4667
▁۴۲	-4668
▁۴۳	-4669
▁۴۵	-4670
▁۴۶	-4671
▁۴۷	-4672
▁۴۸	-4673
▁۵۰	-4674
▁۵۱	-4675
▁۵۲	-4676
▁۵۳	-4677
▁۵۴	-4678
▁۵۶	-4679
احین	-4680
ادری	-4681
اراج	-4682
ارید	-4683
اسند	-4684
اطمه	-4685
افیت	-4686
امها	-4687
امیس	-4688
انها	-4689
انیم	-4690
ایان	-4691
ایدم	-4692
برند	-4693
حرام	-4694
دانت	-4695
دیگر	-4696
رانه	-4697
ربلا	-4698
رمای	-4699
اعی	-4700
افر	-4701
رسد	-4702
زلف	-4703
طیل	-4704
▁جف	-4705
▁شط	-4706
▁۲۲	-4707
▁۴۱	-4708
رمند	-4709
ریبد	-4710
ستمش	-4711
سمان	-4712
سمین	-4713
سنیم	-4714
سویش	-4715
سیاب	-4716
شتها	-4717
شناس	-4718
صحبت	-4719
غافل	-4720
فسون	-4721
فیعا	-4722
قایق	-4723
قندم	-4724
لبری	-4725
لناک	-4726
لیفه	-4727
مایی	-4728
نامه	-4729
ندند	-4730
همال	-4731
وابت	-4732
وانش	-4733
وایب	-4734
وختم	-4735
ورند	-4736
وزون	-4737
وسفی	-4738
ولوی	-4739
وندم	-4740
وهری	-4741
پرسی	-4742
پیشه	-4743
چنین	-4744
کسیر	-4745
کینی	-4746
گانش	-4747
گشته	-4748
گفته	-4749
گندم	-4750
یارش	-4751
یخته	-4752
یدان	-4753
یدند	-4754
یدون	-4755
یهات	-4756
▁آیت	-4757
▁اسب	-4758
▁افق	-4759
▁الص	-4760
▁امل	-4761
▁انق	-4762
▁اید	-4763
▁باج	-4764
▁بتس	-4765
▁بحی	-4766
▁برج	-4767
▁بشت	-4768
▁بغر	-4769
▁بفت	-4770
▁بمج	-4771
▁بمش	-4772
▁ترش	-4773
▁تری	-4774
▁تیم	-4775
▁جاب	-4776
▁جدل	-4777
▁جمع	-4778
▁حسد	-4779
▁حمد	-4780
▁حمل	-4781
▁ختم	-4782
▁خرش	-4783
▁خشت	-4784
▁خصم	-4785
▁خطر	-4786
▁خطی	-4787
▁خفی	-4788
▁خلل	-4789
▁درا	-4790
▁درع	-4791
▁دیگ	-4792
▁ذات	-4793
▁ذره	-4794
▁ذقن	-4795
▁رزم	-4796
▁رفع	-4797
▁رهد	-4798
▁ریع	-4799
ابا	-4800
مدی	-4801
▁۲۳	-4802
▁۵۵	-4803
خمور	-4804
خوار	-4805
▁بحل	-4806
▁داج	-4807
▁زاب	-4808
▁زدش	-4809
▁زدن	-4810
▁زدو	-4811
▁زغم	-4812
▁زنج	-4813
▁زهی	-4814
▁زچه	-4815
▁سام	-4816
▁سبا	-4817
▁سبق	-4818
▁سرپ	-4819
▁سمر	-4820
▁سند	-4821
▁سوس	-4822
▁سپر	-4823
▁سگش	-4824
▁سگم	-4825
▁سید	-4826
▁شتا	-4827
▁شصت	-4828
▁شکم	-4829
▁صحن	-4830
▁صدق	-4831
▁صرف	-4832
▁صلی	-4833
▁طفل	-4834
▁طپد	-4835
▁ظرف	-4836
▁عدم	-4837
▁عدو	-4838
▁عرف	-4839
▁عقی	-4840
▁علا	-4841
▁عور	-4842
▁عوض	-4843
▁غله	-4844
▁غنی	-4845
▁غیب	-4846
▁فرص	-4847
▁فزا	-4848
▁فصی	-4849
▁فکن	-4850
▁قاع	-4851
▁قرص	-4852
▁قطع	-4853
▁قمر	-4854
▁لبش	-4855
▁لجه	-4856
▁لذت	-4857
▁لوث	-4858
▁مبر	-4859
▁متف	-4860
▁مذه	-4861
▁مرس	-4862
▁مزم	-4863
▁مشا	-4864
▁ممت	-4865
▁منط	-4866
▁مکر	-4867
▁میغ	-4868
▁میف	-4869
▁ناش	-4870
▁ناص	-4871
▁ناچ	-4872
▁نجد	-4873
▁نزه	-4874
▁نطع	-4875
▁نعل	-4876
▁ننم	-4877
▁هدف	-4878
▁هشت	-4879
▁همد	-4880
▁ورد	-4881
▁ورز	-4882
▁وزن	-4883
▁وصی	-4884
▁وضع	-4885
▁وهم	-4886
▁پاب	-4887
▁پاف	-4888
▁پیت	-4889
▁پید	-4890
▁چمد	-4891
▁چوب	-4892
▁کاج	-4893
▁کاس	-4894
▁کرا	-4895
▁کسل	-4896
▁کفش	-4897
▁کفم	-4898
▁کوس	-4899
▁کون	-4900
▁کید	-4901
▁گهی	-4902
اموخت	-4903
اندیش	-4904
انگیز	-4905
باشته	-4906
توانم	-4907
خاسته	-4908
ریفان	-4909
شایند	-4910
طاقتی	-4911
قیقها	-4912
قیمان	-4913
ورشید	-4914
ویانی	-4915
گزاری	-4916
یاران	-4917
یزگان	-4918
▁آدمش	-4919
▁آسیب	-4920
▁آشام	-4921
▁آورم	-4922
▁اثری	-4923
▁احول	-4924
▁اخلا	-4925
▁اسقف	-4926
▁اشتر	-4927
▁اشکم	-4928
▁اطلس	-4929
▁انده	-4930
▁اندک	-4931
▁بابل	-4932
▁بابی	-4933
▁بادش	-4934
▁بادی	-4935
▁باره	-4936
▁باعث	-4937
▁بانی	-4938
▁ببخش	-4939
▁ببرم	-4940
▁ببوی	-4941
▁بجیب	-4942
▁بحشر	-4943
▁بخار	-4944
▁بخرد	-4945
▁بخشم	-4946
▁بداد	-4947
▁بدار	-4948
▁بداغ	-4949
▁بدلم	-4950
▁بدهن	-4951
▁بدگو	-4952
▁برتر	-4953
▁برجا	-4954
▁بردش	-4955
▁برسم	-4956
▁برقی	-4957
▁برگش	-4958
▁بریز	-4959
▁بزخم	-4960
▁بزمش	-4961
▁بزیر	-4962
▁بزین	-4963
▁بشاه	-4964
▁بطلب	-4965
▁بفلک	-4966
▁بقعه	-4967
▁بمال	-4968
▁بمرد	-4969
▁بمشک	-4970
▁بنال	-4971
▁بنظر	-4972
▁بهای	-4973
▁بوفا	-4974
▁بپاخ	-4975
▁بپرد	-4976
▁بپره	-4977
▁بپهل	-4978
▁بکاخ	-4979
▁بکنج	-4980
▁بیسر	-4981
▁بیقر	-4982
▁بیکس	-4983
▁تاری	-4984
▁تحمل	-4985
▁تسلی	-4986
▁تیرش	-4987
▁تیغم	-4988
▁ثنای	-4989
▁جانت	-4990
▁جزیل	-4991
▁جستن	-4992
▁جعفر	-4993
▁جمیل	-4994
▁جودت	-4995
▁جیفه	-4996
▁حاجت	-4997
▁حالت	-4998
▁حبیب	-4999
▁حسنت	-5000
▁حمدا	-5001
▁حمله	-5002
▁حنظل	-5003
▁حواس	-5004
▁حورش	-5005
▁حکیم	-5006
▁حیدر	-5007
▁حیوه	-5008
▁خاتم	-5009
▁خارب	-5010
▁خازن	-5011
▁خبری	-5012
▁خران	-5013
▁خرده	-5014
▁خرما	-5015
▁خضری	-5016
▁خفاش	-5017
▁خفیف	-5018
▁خموش	-5019
▁خندی	-5020
▁خودی	-5021
▁خوری	-5022
▁خیره	-5023
▁دارا	-5024
▁دامت	-5025
▁دامش	-5026
▁دامم	-5027
▁دجله	-5028
▁دخیل	-5029
▁درشت	-5030
▁درفش	-5031
▁درنگ	-5032
▁درهم	-5033
▁دروغ	-5034
▁دعات	-5035
▁دعوت	-5036
▁دلشک	-5037
▁دودی	-5038
▁دیدش	-5039
▁دیری	-5040
▁ذرات	-5041
▁ذلیل	-5042
▁راهب	-5043
▁رهزن	-5044
▁رهند	-5045
▁روزش	-5046
▁روند	-5047
▁زارش	-5048
▁زاغی	-5049
▁زاند	-5050
▁زانو	-5051
▁زاید	-5052
▁زبور	-5053
▁زجاج	-5054
▁زخمم	-5055
▁زخمی	-5056
▁زرشک	-5057
▁زرکش	-5058
▁زمره	-5059
▁زهاد	-5060
▁زهجر	-5061
▁زیار	-5062
▁سازد	-5063
▁ستان	-5064
▁ستمی	-5065
▁سختی	-5066
▁سخنم	-5067
▁سرزد	-5068
▁سروت	-5069
▁سرکش	-5070
▁سعود	-5071
▁سفته	-5072
▁سفتی	-5073
▁سلوک	-5074
▁سهیل	-5075
▁سواد	-5076
▁سوده	-5077
▁سوزن	-5078
▁سپرد	-5079
▁سینا	-5080
▁شاخم	-5081
▁شاخی	-5082
▁شایق	-5083
▁شبنم	-5084
▁شتاب	-5085
▁شرمم	-5086
▁شعار	-5087
▁شمعی	-5088
▁شنوی	-5089
▁شکنی	-5090
▁شکیب	-5091
▁شیوه	-5092
▁صبری	-5093
▁صرصر	-5094
▁صعود	-5095
▁صعوه	-5096
▁صفتم	-5097
▁صفحه	-5098
▁صیدم	-5099
▁ضایع	-5100
▁طاعت	-5101
▁طالع	-5102
▁طامع	-5103
▁طبعش	-5104
▁طبله	-5105
▁طبلک	-5106
▁طراز	-5107
▁طرفی	-5108
▁طریق	-5109
▁طلبم	-5110
▁ظلمی	-5111
▁عتاب	-5112
▁عدیل	-5113
▁عذری	-5114
▁عرصه	-5115
▁عزیز	-5116
▁عشقی	-5117
▁عقول	-5118
▁علیه	-5119
▁عمان	-5120
▁عمرت	-5121
▁عیبم	-5122
▁غزال	-5123
▁غلتم	-5124
▁غیبی	-5125
▁غیرم	-5126
▁فانی	-5127
▁فرار	-5128
▁فرقت	-5129
▁فرما	-5130
▁قدسی	-5131
▁قدمت	-5132
▁قدمی	-5133
▁قرآن	-5134
▁قسیس	-5135
▁قصاب	-5136
▁قفست	-5137
▁قمار	-5138
▁قوتی	-5139
▁قیاس	-5140
▁لابد	-5141
▁لایق	-5142
▁لباس	-5143
▁لجاج	-5144
▁لحظه	-5145
▁لرزد	-5146
▁لطفش	-5147
▁لقای	-5148
▁مالم	-5149
▁مانم	-5150
▁ماهت	-5151
▁مبند	-5152
▁متاب	-5153
▁مثقب	-5154
▁مجوس	-5155
▁مددی	-5156
▁مرغم	-5157
▁مرگش	-5158
▁مریض	-5159
▁مزاج	-5160
▁مسهل	-5161
▁مشکم	-5162
▁مشکن	-5163
▁معنی	-5164
▁منتی	-5165
▁منجم	-5166
▁مهره	-5167
▁مهری	-5168
▁موزه	-5169
▁مولد	-5170
▁مویت	-5171
▁مپیچ	-5172
▁میرم	-5173
▁میزد	-5174
▁میشد	-5175
▁مینه	-5176
▁ناخن	-5177
▁نازش	-5178
▁نازم	-5179
▁نازک	-5180
▁ناکس	-5181
▁ندهم	-5182
▁نزند	-5183
▁نسخه	-5184
▁نسزد	-5185
▁نشوم	-5186
▁نعشم	-5187
▁نفور	-5188
▁نهشت	-5189
▁نواخ	-5190
▁نورش	-5191
▁نژند	-5192
▁نگین	-5193
▁نیلی	-5194
▁نیوش	-5195
▁هاله	-5196
▁هجرت	-5197
▁هجرم	-5198
▁هشته	-5199
▁همتش	-5200
▁همدا	-5201
▁واعظ	-5202
▁وجود	-5203
▁وحید	-5204
▁وزان	-5205
▁وسعت	-5206
▁وسیع	-5207
▁وطنم	-5208
▁ولیک	-5209
▁پدید	-5210
▁پذیر	-5211
▁پندی	-5212
▁پوید	-5213
▁پیرو	-5214
▁پیشت	-5215
▁چاپل	-5216
▁چندم	-5217
▁چهار	-5218
▁چکار	-5219
▁چکنی	-5220
▁کآخر	-5221
▁کآرم	-5222
▁کارش	-5223
▁کاست	-5224
▁کافر	-5225
▁کاهی	-5226
▁کران	-5227
▁کفنش	-5228
▁کلبه	-5229
▁کندم	-5230
▁کندن	-5231
▁کنمت	-5232
▁کویی	-5233
▁کژدم	-5234
▁گاوی	-5235
▁گربه	-5236
▁گرید	-5237
▁گزاف	-5238
▁گزان	-5239
▁گلاب	-5240
▁گنجی	-5241
▁گنده	-5242
▁گیاه	-5243
▁یارش	-5244
▁یقین	-5245
▁یلدا	-5246
▁یکان	-5247
▁یکدل	-5248
▁یکسو	-5249
افگنان	-5250
امانان	-5251
فشانده	-5252
▁آبدار	-5253
▁آبنوس	-5254
▁آتشین	-5255
▁آرندم	-5256
▁آزمون	-5257
▁آسایش	-5258
▁آماده	-5259
▁آنزلف	-5260
▁آنقدر	-5261
▁آوازش	-5262
▁آگاهم	-5263
▁ابدال	-5264
▁اخترم	-5265
▁اخوان	-5266
▁ادریس	-5267
▁ارسطو	-5268
▁اسباب	-5269
▁اسرار	-5270
▁اسراف	-5271
▁اشجار	-5272
▁افلاس	-5273
▁الحان	-5274
▁الوان	-5275
▁اندیش	-5276
▁انوری	-5277
▁اوفتد	-5278
▁اولاد	-5279
▁اژدها	-5280
▁اکسیر	-5281
▁ایزدی	-5282
▁باختر	-5283
▁بالله	-5284
▁باورم	-5285
▁بایست	-5286
▁بباید	-5287
▁ببستر	-5288
▁ببندد	-5289
▁بخاطر	-5290
▁بخوان	-5291
▁بدخوی	-5292
▁بدستش	-5293
▁بدوست	-5294
▁بدولت	-5295
▁بربند	-5296
▁برزده	-5297
▁برویم	-5298
▁بزاری	-5299
▁بشیرم	-5300
▁بعشرت	-5301
▁بفرما	-5302
▁بفسون	-5303
▁بلندی	-5304
▁بمستی	-5305
▁بمسجد	-5306
▁بناله	-5307
▁بنشست	-5308
▁بنفشه	-5309
▁بهشتم	-5310
▁بوالع	-5311
▁بودیم	-5312
▁بوسند	-5313
▁بپذیر	-5314
▁بگشاد	-5315
▁بگفتا	-5316
▁بگلبن	-5317
▁بگوید	-5318
▁بگویی	-5319
▁بیرحم	-5320
▁بینید	-5321
▁بیهده	-5322
▁بیچون	-5323
▁بیکسی	-5324
▁تبدیل	-5325
▁تسنیم	-5326
▁تشریف	-5327
▁تشنگی	-5328
▁تغییر	-5329
▁تقدیر	-5330
▁توحید	-5331
▁توفیق	-5332
▁جبریل	-5333
▁جفایت	-5334
▁جفایش	-5335
▁جمشید	-5336
▁جنایت	-5337
▁جواله	-5338
▁جوشید	-5339
▁حاتمش	-5340
▁حقیقت	-5341
▁حیران	-5342
▁حیوان	-5343
▁خاسته	-5344
▁خاستی	-5345
▁خاقان	-5346
▁خانقه	-5347
▁خدنگی	-5348
▁خرابت	-5349
▁خوردی	-5350
▁خوشاب	-5351
▁خونبه	-5352
▁خونخو	-5353
▁خیزدم	-5354
▁دامنش	-5355
▁دانای	-5356
▁درختش	-5357
▁دریدی	-5358
▁دستور	-5359
▁دشمنش	-5360
▁دعایت	-5361
▁دلشان	-5362
▁دلکشم	-5363
▁دوستت	-5364
▁دویدم	-5365
▁دویده	-5366
▁ذوایب	-5367
▁راستی	-5368
▁رانده	-5369
▁رسیدم	-5370
▁رفتنش	-5371
▁رفتیم	-5372
▁رنجید	-5373
▁روانه	-5374
▁روزان	-5375
▁روزها	-5376
▁ریختن	-5377
▁ریزدم	-5378
▁ریزمت	-5379
▁زاریم	-5380
▁زانوی	-5381
▁زانکه	-5382
▁زبانه	-5383
▁زرگری	-5384
▁زمزمه	-5385
▁زنبیل	-5386
▁سراغت	-5387
▁سرشان	-5388
▁سرمدی	-5389
▁سروها	-5390
▁سرکشد	-5391
▁سرکنم	-5392
▁سعادت	-5393
▁سلطنت	-5394
▁سندان	-5395
▁سپهری	-5396
▁سیاهش	-5397
▁شعاعی	-5398
▁شفیعا	-5399
▁شمایل	-5400
▁شکارش	-5401
▁شکنجه	-5402
▁شکیبا	-5403
▁شگفتت	-5404
▁شیطان	-5405
▁صیدگه	-5406
▁عافیت	-5407
▁عجایب	-5408
▁عذاری	-5409
▁عصفور	-5410
▁عیاری	-5411
▁غافلم	-5412
▁غافلی	-5413
▁غرامت	-5414
▁غرقاب	-5415
▁غریبم	-5416
▁غریبی	-5417
▁غلطان	-5418
▁غلطید	-5419
▁غیرتم	-5420
▁فاطمه	-5421
▁فایده	-5422
▁فتادش	-5423
▁فدایت	-5424
▁فرازی	-5425
▁فراقم	-5426
▁فردوس	-5427
▁فروشد	-5428
▁فضایش	-5429
▁فغانش	-5430
▁فقیری	-5431
▁لاجرم	-5432
▁لولوی	-5433
▁ماندم	-5434
▁ماندن	-5435
▁مجلست	-5436
▁محابا	-5437
▁محبوب	-5438
▁محتسب	-5439
▁محراب	-5440
▁محروم	-5441
▁محفلش	-5442
▁محملش	-5443
▁محملم	-5444
▁مختصر	-5445
▁مخمور	-5446
▁مرادش	-5447
▁مرادم	-5448
▁مزارم	-5449
▁مزرعه	-5450
▁مسافر	-5451
▁مستحق	-5452
▁مستند	-5453
▁مشامم	-5454
▁مشحون	-5455
▁معذور	-5456
▁معراج	-5457
▁مغبچه	-5458
▁مفتون	-5459
▁منشین	-5460
▁موزون	-5461
▁مگذار	-5462
▁میبری	-5463
▁میخور	-5464
▁میدهی	-5465
▁میدید	-5466
▁میروم	-5467
▁میچکد	-5468
▁میکشم	-5469
▁ناقوس	-5470
▁ناوکش	-5471
▁نایدت	-5472
▁نبینم	-5473
▁نبینی	-5474
▁نثارش	-5475
▁نثاری	-5476
▁نجویم	-5477
▁نخستش	-5478
▁نخندد	-5479
▁نرفته	-5480
▁نرنجی	-5481
▁نسازد	-5482
▁نسفته	-5483
▁نشنوم	-5484
▁نصیحت	-5485
▁نفرست	-5486
▁نمانم	-5487
▁نمیرم	-5488
▁ننگرد	-5489
▁نوازش	-5490
▁نوشتم	-5491
▁نوشتن	-5492
▁نکوهش	-5493
▁نگاهش	-5494
▁نگاهم	-5495
▁نگران	-5496
▁نگردی	-5497
▁نگفتی	-5498
▁نگیرد	-5499
▁نگیرم	-5500
▁نیافت	-5501
▁نیروی	-5502
▁نیسان	-5503
▁هزارت	-5504
▁هندوی	-5505
▁هنوزش	-5506
▁هوایش	-5507
▁هیهات	-5508
▁پارسا	-5509
▁پاگاه	-5510
▁پرسید	-5511
▁پرهیز	-5512
▁پروری	-5513
▁پسندی	-5514
▁پیامت	-5515
▁پیریم	-5516
▁پیوست	-5517
▁چراغی	-5518
▁چلیپا	-5519
▁چنگال	-5520
▁کآدمی	-5521
▁کاریت	-5522
▁کامشب	-5523
▁کربلا	-5524
▁کشتیش	-5525
▁کشوری	-5526
▁کشیدی	-5527
▁کناره	-5528
▁کناری	-5529
▁کنندم	-5530
▁کیوان	-5531
▁گاهیش	-5532
▁گذارش	-5533
▁گذشتم	-5534
▁گرسنه	-5535
▁گرگان	-5536
▁گزیدم	-5537
▁گشادی	-5538
▁گفتنم	-5539
▁گلبرگ	-5540
▁گلبنی	-5541
▁گمانم	-5542
▁گوارا	-5543
▁گواهی	-5544
▁گوهری	-5545
▁گوییم	-5546
▁گیرند	-5547
▁یاریت	-5548
▁یزدان	-5549
▁یوسفی	-5550
▁یکایک	-5551
▁آرزویت	-5552
▁آشکارا	-5553
▁آشیانم	-5554
▁آمدستی	-5555
▁آگاهیت	-5556
▁اختران	-5557
▁ارزانی	-5558
▁استغفر	-5559
▁اعتبار	-5560
▁اعتدال	-5561
▁افراشت	-5562
▁افزونی	-5563
▁افسونت	-5564
▁افگندم	-5565
▁افگندی	-5566
▁الامین	-5567
▁الرحمه	-5568
▁انتخاب	-5569
▁انقلاب	-5570
▁اوفتاد	-5571
▁باختند	-5572
▁بارنده	-5573
▁بایشان	-5574
▁ببوسید	-5575
▁بتاراج	-5576
▁بتخانه	-5577
▁بتماشا	-5578
▁بخشایش	-5579
▁برخیزی	-5580
▁برفتند	-5581
▁بریدند	-5582
▁بزمگاه	-5583
▁بسودای	-5584
▁بسیاری	-5585
▁بمحراب	-5586
▁بپاداش	-5587
▁بگشاید	-5588
▁بیدادم	-5589
▁بیهمال	-5590
▁بیگنهم	-5591
▁تأثیری	-5592
▁تابنده	-5593
▁ترازوی	-5594
▁ترکتاز	-5595
▁تفاوتی	-5596
▁تنهایی	-5597
▁تنگنای	-5598
▁جانسوز	-5599
▁جهانند	-5600
▁حیرانم	-5601
▁خاکدان	-5602
▁خرسندم	-5603
▁خوانان	-5604
▁خواندم	-5605
▁خواندی	-5606
▁خواهند	-5607
▁خوشبوی	-5608
▁خونابه	-5609
▁داغدار	-5610
▁دانستم	-5611
▁درمانم	-5612
▁دوششان	-5613
▁دیدگان	-5614
▁رخساره	-5615
▁رسانده	-5616
▁رسانید	-5617
▁رستخیز	-5618
▁رهنمون	-5619
▁ریاحین	-5620
▁ریختند	-5621
▁ریشخند	-5622
▁ستمگری	-5623
▁سراپای	-5624
▁سرچشمه	-5625
▁سرگذشت	-5626
▁سطرلاب	-5627
▁سلسبیل	-5628
▁شتابان	-5629
▁طلبکار	-5630
▁عاقلان	-5631
▁غزالان	-5632
▁فرداست	-5633
▁فرزانه	-5634
▁فرزندی	-5635
▁فهمیده	-5636
▁قباپوش	-5637
▁لعلشان	-5638
▁ماهیان	-5639
▁مرنجان	-5640
▁مستانه	-5641
▁مستجاب	-5642
▁مفلسان	-5643
▁میبرند	-5644
▁میزبان	-5645
▁میطپدم	-5646
▁مینالم	-5647
▁مینمود	-5648
▁میپرسی	-5649
▁ناتمام	-5650
▁ناگفته	-5651
▁نخورده	-5652
▁نخوردی	-5653
▁نرسیده	-5654
▁نستانم	-5655
▁نشنیدم	-5656
▁نمیکند	-5657
▁نوامیس	-5658
▁نویسند	-5659
▁نیاورد	-5660
▁همایون	-5661
▁همصحبت	-5662
▁همیکرد	-5663
▁هولناک	-5664
▁هیچکسم	-5665
▁پادشاه	-5666
▁پایمال	-5667
▁پریدند	-5668
▁پشیمان	-5669
▁پلنگان	-5670
▁پهلویت	-5671
▁پیرانه	-5672
▁کریمان	-5673
▁کشاندی	-5674
▁کشانیم	-5675
▁کشتگان	-5676
▁کیمیای	-5677
▁گستاخی	-5678
▁گمگشته	-5679
▁گوشمال	-5680
▁یاسمین	-5681
▁یغمایی	-5682
▁یکدانه	-5683
▁یکدیگر	-5684
▁آوارگان	-5685
▁اختیارش	-5686
▁استعداد	-5687
▁افراخته	-5688
▁اندوخته	-5689
▁انگیخته	-5690
▁ایستاده	-5691
▁اینگونه	-5692
▁بحریفان	-5693
▁بخورشید	-5694
▁بداندیش	-5695
▁بدگمانی	-5696
▁بنشانند	-5697
▁بویرانه	-5698
▁بگلستان	-5699
▁بیابانش	-5700
▁بیاموخت	-5701
▁بیدلانت	-5702
▁بیطاقتی	-5703
▁بیگناهی	-5704
▁جفاپیشه	-5705
▁جهانیان	-5706
▁خونخوار	-5707
▁روزگاری	-5708
▁ریختندی	-5709
▁سالهاست	-5710
▁سرافراز	-5711
▁سرافگند	-5712
▁سنگدلان	-5713
▁شرمساری	-5714
▁فراموشش	-5715
▁فرستادم	-5716
▁فرستادن	-5717
▁مسلمانی	-5718
▁میخواست	-5719
▁نشناسند	-5720
▁نوخاسته	-5721
▁نگشایند	-5722
▁نیاورده	-5723
▁پارسایی	-5724
▁کاروانم	-5725
▁کاویانی	-5726
▁گردنشان	-5727
▁گلستانی	-5728
▁استخوانی	-5729
▁افراسیاب	-5730
▁امیدواری	-5731
▁برفشانده	-5732
▁بیگانگان	-5733
▁روحانیان	-5734
▁شورانگیز	-5735
▁فیروزمند	-5736
▁نواخوانی	-5737
▁همداستان	-5738
▁هندوستان	-5739
▁هوشمندان	-5740
▁بیخبرانند	-5741
▁دادخواهان	-5742
▁پاکدامانان	-5743
بهه	-5744
▁جبهه	-5745
▁دردش	-5746
▁صبوح	-5747
▁فیضت	-5748
▁انبار	-5749
▁حمامی	-5750
!!	-5751
۱ه	-5752
جزه	-5753
حوس	-5754
ظیم	-5755
▁۲۵	-5756
▁۲۷	-5757
▁۲۸	-5758
▁۲۹	-5759
▁۳۱	-5760
▁۴۴	-5761
▁۴۹	-5762
▁۵۷	-5763
انون	-5764
۱۱۹۲	-5765
▁آنک	-5766
▁خلف	-5767
▁سبک	-5768
▁صله	-5769
۱۱۷۱ه	-5770
▁بازگ	-5771
▁ببام	-5772
▁بصری	-5773
▁خامی	-5774
▁سامی	-5775
▁صبحت	-5776
▁عارف	-5777
▁عامی	-5778
▁عظیم	-5779
▁نیکن	-5780
▁کلام	-5781
▁کوفی	-5782
▁حرامی	-5783
▁خارجی	-5784
▁زیشان	-5785
▁قانون	-5786
▁معجزه	-5787
▁مقامی	-5788
▁میرزا	-5789
▁نادان	-5790
▁پختگی	-5791
▁پرورش	-5792
▁زبردست	-5793
▁نداشته	-5794
▁سخنوران	-5795
ئی	-5796
یف	-5797
▁هج	-5798
کیسه	-5799
▁تعر	-5800
▁ربا	-5801
▁غبغ	-5802
▁غزل	-5803
▁ماک	-5804
ناکان	-5805
▁المق	-5806
▁بازم	-5807
▁جلال	-5808
▁جلوس	-5809
▁درود	-5810
▁عقاب	-5811
▁عقرب	-5812
▁بواله	-5813
▁منزلت	-5814
▁مولود	-5815
▁کارند	-5816
▁کردمی	-5817
▁کشاند	-5818
▁ماکیان	-5819
▁نوکیسه	-5820
.ـ	-5821
تد	-5822
حب	-5823
رر	-5824
ٰذ	-5825
پد	-5826
یا	-5827
آسا	-5828
آور	-5829
بده	-5830
ترف	-5831
جاز	-5832
جدی	-5833
حلی	-5834
خاص	-5835
خسر	-5836
دلم	-5837
دمت	-5838
رمت	-5839
زیت	-5840
شرق	-5841
صیل	-5842
عاد	-5843
عتش	-5844
فتن	-5845
فله	-5846
فلی	-5847
قاج	-5848
لوب	-5849
مسک	-5850
نبد	-5851
نجم	-5852
نحه	-5853
نگر	-5854
هشت	-5855
پاک	-5856
پرد	-5857
گهش	-5858
یها	-5859
▁..	-5860
▁شأ	-5861
▁شش	-5862
▁عث	-5863
▁پذ	-5864
▁۵۸	-5865
آباد	-5866
آنکس	-5867
ادلی	-5868
ادیث	-5869
افام	-5870
افته	-5871
البد	-5872
انین	-5873
جروش	-5874
حلیل	-5875
خسرو	-5876
دادی	-5877
ردنم	-5878
رزید	-5879
زنوی	-5880
زیاد	-5881
سالی	-5882
سانه	-5883
سپاس	-5884
ظیفه	-5885
فلسم	-5886
فندم	-5887
واحب	-5888
واری	-5889
وشته	-5890
ٰذان	-5891
پایی	-5892
پذیر	-5893
ژگان	-5894
کامش	-5895
کردی	-5896
گفتم	-5897
یشان	-5898
ینند	-5899
▁آقا	-5900
▁آمر	-5901
▁بعت	-5902
▁تعب	-5903
▁جنس	-5904
▁حرز	-5905
▁حشم	-5906
▁خسم	-5907
▁دفع	-5908
▁دهل	-5909
▁رچو	-5910
▁سخط	-5911
▁سرب	-5912
▁سلخ	-5913
▁شبا	-5914
▁شبق	-5915
▁شرط	-5916
▁شرق	-5917
▁شیء	-5918
▁شین	-5919
▁صدا	-5920
▁ضرر	-5921
▁غنج	-5922
▁فرج	-5923
▁فنا	-5924
▁فهم	-5925
▁فیه	-5926
▁قبس	-5927
▁قهر	-5928
▁لعب	-5929
▁لنگ	-5930
▁مجو	-5931
▁مدد	-5932
▁منز	-5933
▁مهم	-5934
▁نسب	-5935
▁هاش	-5936
▁واز	-5937
▁ومه	-5938
▁پهن	-5939
▁چها	-5940
▁کاز	-5941
▁کلف	-5942
▁کنش	-5943
▁گول	-5944
آگهان	-5945
ادران	-5946
افتاد	-5947
الحسن	-5948
امالی	-5949
ایدار	-5950
ایعتش	-5951
بارها	-5952
ذارها	-5953
ردمند	-5954
ردیدم	-5955
زارها	-5956
زانوی	-5957
زداری	-5958
سلامت	-5959
سپارد	-5960
شمنان	-5961
فتاده	-5962
نگاهی	-5963
هشتند	-5964
وروست	-5965
گشایی	-5966
▁...ـ	-5967
▁آذار	-5968
▁ارزد	-5969
▁ازوف	-5970
▁افکن	-5971
▁انار	-5972
▁ایما	-5973
▁بالم	-5974
▁بامت	-5975
▁بجزع	-5976
▁بجوز	-5977
▁بخشد	-5978
▁بدخو	-5979
▁بدعا	-5980
▁بدلی	-5981
▁براز	-5982
▁برجد	-5983
▁بسنگ	-5984
▁بطپد	-5985
▁بعجز	-5986
▁بعقل	-5987
▁بعهد	-5988
▁بغمم	-5989
▁بماه	-5990
▁بندت	-5991
▁بنهم	-5992
▁بوزه	-5993
▁بوقت	-5994
▁بپاک	-5995
▁بگرو	-5996
▁بیان	-5997
▁تاجر	-5998
▁تباه	-5999
▁تخته	-6000
▁تمنا	-6001
▁تمیز	-6002
▁تنیم	-6003
▁تولا	-6004
▁ثانی	-6005
▁جامم	-6006
▁جلاد	-6007
▁جنبم	-6008
▁جورش	-6009
▁حرمش	-6010
▁حرکت	-6011
▁خجلم	-6012
▁خجند	-6013
▁خشمت	-6014
▁خوست	-6015
▁دردت	-6016
▁دلال	-6017
▁دلجو	-6018
▁دلند	-6019
▁دنیی	-6020
▁دهدت	-6021
▁دوای	-6022
▁دوتا	-6023
▁دوسه	-6024
▁دینی	-6025
▁رازش	-6026
▁رسمم	-6027
▁رمید	-6028
▁روشی	-6029
▁رویی	-6030
▁ریزم	-6031
▁ریزه	-6032
▁زآتش	-6033
▁زبال	-6034
▁زخطا	-6035
▁زوال	-6036
▁زیرا	-6037
▁سازش	-6038
▁سحرم	-6039
▁سویم	-6040
▁سیما	-6041
▁شاهش	-6042
▁شسته	-6043
▁شهند	-6044
▁شهوت	-6045
▁شکفد	-6046
▁شیار	-6047
▁شیون	-6048
▁صبرت	-6049
▁صلحی	-6050
▁صنما	-6051
▁ضحکه	-6052
▁عبوس	-6053
▁عدوی	-6054
▁عربی	-6055
▁عقبی	-6056
▁عقلی	-6057
▁علمت	-6058
▁غازی	-6059
▁غبرا	-6060
▁غبغب	-6061
▁غلتد	-6062
▁فتوت	-6063
▁فحلی	-6064
▁فربه	-6065
▁فرسخ	-6066
▁فرسی	-6067
▁لعبت	-6068
▁لنگر	-6069
▁لیکن	-6070
▁ماهش	-6071
▁مجاز	-6072
▁مدحش	-6073
▁مروی	-6074
▁مصفی	-6075
▁مقدس	-6076
▁ممسک	-6077
▁منکه	-6078
▁مهرش	-6079
▁مگرد	-6080
▁مگرم	-6081
▁میمز	-6082
▁میگز	-6083
▁نادر	-6084
▁نسلش	-6085
▁نسود	-6086
▁نشیب	-6087
▁نفیر	-6088
▁نمون	-6089
▁نوشی	-6090
▁هرچه	-6091
▁هنرت	-6092
▁هوات	-6093
▁هیچش	-6094
▁وزین	-6095
▁وطنی	-6096
▁پاله	-6097
▁پاکی	-6098
▁پرنم	-6099
▁پسته	-6100
▁پشمی	-6101
▁چاشت	-6102
▁کابر	-6103
▁کاهد	-6104
▁کروی	-6105
▁کسیت	-6106
▁کنیم	-6107
▁کوفه	-6108
▁گرگش	-6109
▁گزید	-6110
▁گلکی	-6111
▁گنبد	-6112
▁گوشو	-6113
▁یکسر	-6114
اردلان	-6115
افریها	-6116
بانیان	-6117
یرانند	-6118
▁آخرین	-6119
▁آزارم	-6120
▁آزردن	-6121
▁آمدنش	-6122
▁آموزت	-6123
▁آهسته	-6124
▁آویخت	-6125
▁ابعاد	-6126
▁اجلال	-6127
▁اجنحه	-6128
▁اضطرا	-6129
▁اعجاز	-6130
▁افتدم	-6131
▁المنه	-6132
▁امارت	-6133
▁امسال	-6134
▁امشبم	-6135
▁انتها	-6136
▁انسان	-6137
▁ایمنم	-6138
▁باشدم	-6139
▁بتانی	-6140
▁بخدمت	-6141
▁برآیی	-6142
▁بردیم	-6143
▁برگشت	-6144
▁بشاخی	-6145
▁بصورت	-6146
▁بطفلی	-6147
▁بنامه	-6148
▁بنمود	-6149
▁بهاری	-6150
▁بهانه	-6151
▁بهلال	-6152
▁بپایت	-6153
▁بپرسش	-6154
▁بچشمش	-6155
▁بکشتی	-6156
▁بگویم	-6157
▁تحصیل	-6158
▁تزویر	-6159
▁تشویش	-6160
▁تعزیت	-6161
▁تمکین	-6162
▁تناهی	-6163
▁ثوابی	-6164
▁جاریه	-6165
▁جفاست	-6166
▁جویدش	-6167
▁جگران	-6168
▁حرفتی	-6169
▁حسابت	-6170
▁حسابم	-6171
▁حسنین	-6172
▁حصیری	-6173
▁خجلند	-6174
▁خراشد	-6175
▁خرامت	-6176
▁خرسند	-6177
▁خریده	-6178
▁خزانف	-6179
▁خلافت	-6180
▁خلوتی	-6181
▁خمارم	-6182
▁دادنش	-6183
▁داران	-6184
▁دردام	-6185
▁دعاست	-6186
▁دمیده	-6187
▁دوایت	-6188
▁دیباج	-6189
▁دیدمت	-6190
▁رایان	-6191
▁رسیدن	-6192
▁رفتنی	-6193
▁رهبری	-6194
▁روستا	-6195
▁ریشان	-6196
▁زاهدا	-6197
▁زجاجی	-6198
▁زداین	-6199
▁زکامش	-6200
▁سافله	-6201
▁ساوجی	-6202
▁ستمکش	-6203
▁سخنان	-6204
▁سوزان	-6205
▁سوزند	-6206
▁سیاهم	-6207
▁سیاهی	-6208
▁شادیم	-6209
▁شاعری	-6210
▁شبگون	-6211
▁شعبان	-6212
▁شعبده	-6213
▁شفاعت	-6214
▁شناسی	-6215
▁شهانت	-6216
▁صاحبا	-6217
▁صباحت	-6218
▁صواحب	-6219
▁طلبید	-6220
▁طمقاج	-6221
▁عادلی	-6222
▁عاریه	-6223
▁عاقله	-6224
▁عالیه	-6225
▁عمانی	-6226
▁عنانم	-6227
▁غزنوی	-6228
▁فرزین	-6229
▁فروشم	-6230
▁فغانی	-6231
▁فلانی	-6232
▁قاتلم	-6233
▁قاصدا	-6234
▁قافیه	-6235
▁قفسند	-6236
▁لرزان	-6237
▁ماران	-6238
▁محشور	-6239
▁مدامی	-6240
▁مدرسه	-6241
▁مسجدی	-6242
▁معترف	-6243
▁مغلوب	-6244
▁مفتری	-6245
▁مفلسم	-6246
▁منهوب	-6247
▁مولای	-6248
▁مکرمت	-6249
▁میآیی	-6250
▁میدمد	-6251
▁میدهم	-6252
▁میزاب	-6253
▁میمرد	-6254
▁مینام	-6255
▁میپرد	-6256
▁نافله	-6257
▁نالیم	-6258
▁ناووس	-6259
▁نخوری	-6260
▁ندامت	-6261
▁نرسته	-6262
▁نزادی	-6263
▁نشمار	-6264
▁نصیبم	-6265
▁نفسند	-6266
▁نقشکی	-6267
▁ننالم	-6268
▁نپسند	-6269
▁نچیده	-6270
▁نکویی	-6271
▁هستیم	-6272
▁همنفس	-6273
▁همچون	-6274
▁هٰذان	-6275
▁وآنکس	-6276
▁وداعی	-6277
▁پذیرم	-6278
▁کآواز	-6279
▁کاشکی	-6280
▁کالبد	-6281
▁کامده	-6282
▁کاورد	-6283
▁کجروش	-6284
▁کردمت	-6285
▁کردیم	-6286
▁کرشمه	-6287
▁کریمی	-6288
▁کفایت	-6289
▁کمانش	-6290
▁کودکی	-6291
▁کوفتن	-6292
▁گردنم	-6293
▁گرفتش	-6294
▁گفتنی	-6295
▁گمانت	-6296
▁گناهش	-6297
▁گناهم	-6298
▁گویان	-6299
پسندیده	-6300
▁آزردنم	-6301
▁ابرآسا	-6302
▁احادیث	-6303
▁احتراز	-6304
▁ازمشرق	-6305
▁ازیشان	-6306
▁اسفندم	-6307
▁اسیریم	-6308
▁افروزی	-6309
▁افزودت	-6310
▁امروزش	-6311
▁انتقام	-6312
▁انجمنم	-6313
▁انسانی	-6314
▁باختمش	-6315
▁بانصاف	-6316
▁بخلوتی	-6317
▁بدرگهش	-6318
▁بدیوان	-6319
▁برانند	-6320
▁برنجیر	-6321
▁بروادت	-6322
▁بسامان	-6323
▁بعتابت	-6324
▁بمژگان	-6325
▁بنشیند	-6326
▁بنگاری	-6327
▁بهامون	-6328
▁بهشتاد	-6329
▁بوتراب	-6330
▁بوظیفه	-6331
▁بکناری	-6332
▁بگداخت	-6333
▁بگریزی	-6334
▁بگریست	-6335
▁بیدادت	-6336
▁بیداری	-6337
▁بیدوست	-6338
▁جانانم	-6339
▁جداییش	-6340
▁جمشیدی	-6341
▁جوانیت	-6342
▁خاقانی	-6343
▁خاموشش	-6344
▁خردمند	-6345
▁خضراست	-6346
▁خلقتنی	-6347
▁خودکام	-6348
▁داعیان	-6349
▁درگاهی	-6350
▁دلپذیر	-6351
▁دمسازش	-6352
▁دوستیش	-6353
▁دیدستم	-6354
▁روستای	-6355
▁زادگان	-6356
▁زورآور	-6357
▁زیبایی	-6358
▁ساقیست	-6359
▁سختگیر	-6360
▁سرفگند	-6361
▁سلطانی	-6362
▁سواران	-6363
▁سپارند	-6364
▁شبیخون	-6365
▁شکفتگی	-6366
▁شیرویه	-6367
▁صبحدمی	-6368
▁صبوحست	-6369
▁عثمانی	-6370
▁فردوسی	-6371
▁فرستیش	-6372
▁مجانین	-6373
▁مردگان	-6374
▁مقابله	-6375
▁منزلتا	-6376
▁مولایی	-6377
▁مگردان	-6378
▁میدانم	-6379
▁میدهدم	-6380
▁میرسدت	-6381
▁میکشان	-6382
▁ناخوشی	-6383
▁ناسپاس	-6384
▁ناکرده	-6385
▁نشاندش	-6386
▁نقشهای	-6387
▁نمیداد	-6388
▁ننالید	-6389
▁ننوشته	-6390
▁نگارین	-6391
▁نگفتیم	-6392
▁هنگامه	-6393
▁پایدار	-6394
▁پوشیدی	-6395
▁پیرهنم	-6396
▁پیرهنی	-6397
▁پیغامش	-6398
▁پیکانت	-6399
▁چیدستم	-6400
▁کآراست	-6401
▁کارگاه	-6402
▁کاشانه	-6403
▁کاغیار	-6404
▁کریمتر	-6405
▁کشتنیم	-6406
▁کیخسرو	-6407
▁کیمییا	-6408
▁گفتندی	-6409
▁گمارمت	-6410
خواهانند	-6411
▁آرامگاه	-6412
▁آمرزیده	-6413
▁آموختمی	-6414
▁ارغوانی	-6415
▁ازنگاهی	-6416
▁استادیش	-6417
▁استقبال	-6418
▁افغانست	-6419
▁امتحانم	-6420
▁بامدادی	-6421
▁ببهشتند	-6422
▁بدشمنان	-6423
▁برآوازم	-6424
▁برافتاد	-6425
▁برافشان	-6426
▁برایگان	-6427
▁برخاسته	-6428
▁برنداشت	-6429
▁برگزیده	-6430
▁بشکافته	-6431
▁بوالحسن	-6432
▁بوالهوس	-6433
▁بگذاشتی	-6434
▁بگسلاند	-6435
▁بیگنهند	-6436
▁جگرانند	-6437
▁خاکستری	-6438
▁خاکپایی	-6439
▁خردسالی	-6440
▁خلوتگاه	-6441
▁دلپسندت	-6442
▁دواجشان	-6443
▁دگرباره	-6444
▁رازداری	-6445
▁رستاخیز	-6446
▁روشنایی	-6447
▁سراحلیل	-6448
▁سوداخیز	-6449
▁شادزیاد	-6450
▁شاهانند	-6451
▁شبانگاه	-6452
▁طیرانند	-6453
▁غمناکان	-6454
▁مسلمانم	-6455
▁مشایعتش	-6456
▁میسپارد	-6457
▁مینافام	-6458
▁مینوازد	-6459
▁میگریزی	-6460
▁نمیرنجم	-6461
▁نمیکردی	-6462
▁ننالیده	-6463
▁ننشاندی	-6464
▁ننشینند	-6465
▁نکوروست	-6466
▁نگونسار	-6467
▁نیاوردم	-6468
▁همزانوی	-6469
▁هندوانه	-6470
▁وفادارا	-6471
▁پادشایی	-6472
▁پالهنگی	-6473
▁پرداخته	-6474
▁پندارند	-6475
▁پوستینی	-6476
▁کآشیانی	-6477
▁کاسلامت	-6478
▁کافسانه	-6479
▁گوسفندی	-6480
▁ابوالحسن	-6481
▁افروختمی	-6482
▁ببرادران	-6483
▁بپاسبانی	-6484
▁بکافریها	-6485
▁جهانگردی	-6486
▁جویبارها	-6487
▁خودخواهی	-6488
▁خوشخرامت	-6489
▁خوشگواری	-6490
▁دستگیریم	-6491
▁دیوانگان	-6492
▁ستمگریها	-6493
▁شیبانیان	-6494
▁مالامالی	-6495
▁میگردیدم	-6496
▁نامحرمان	-6497
▁نشناختمش	-6498
▁نوشیروان	-6499
▁کارآگهان	-6500
▁کارزارها	-6501
▁کامرانیت	-6502
▁کمانداری	-6503
▁گرهگشایی	-6504
▁گلعذارها	-6505
▁بیماردلان	-6506
▁ناپسندیده	-6507
▁کجروشیهای	-6508
▁هواخواهانند	-6509
اذق	-6510
اپو	-6511
خاء	-6512
شحه	-6513
صوص	-6514
طاع	-6515
طیس	-6516
نظر	-6517
وحش	-6518
گشا	-6519
اءاش	-6520
ادثه	-6521
ادخل	-6522
اعیل	-6523
الحش	-6524
اویه	-6525
بردن	-6526
جملی	-6527
جمهر	-6528
جمیل	-6529
جورد	-6530
حاسن	-6531
خجیر	-6532
خراج	-6533
درات	-6534
دراج	-6535
ذیرد	-6536
رؤوس	-6537
سمتم	-6538
سوزی	-6539
شاوه	-6540
صافت	-6541
صوبه	-6542
صومه	-6543
علاج	-6544
فراس	-6545
فرما	-6546
قدیس	-6547
لاطم	-6548
مدوح	-6549
نقاب	-6550
نواز	-6551
ولیش	-6552
پرسم	-6553
پرور	-6554
یربد	-6555
▁بآی	-6556
▁تفح	-6557
▁جثه	-6558
▁حبل	-6559
▁حوص	-6560
▁رجب	-6561
▁رجز	-6562
▁رزق	-6563
▁رطب	-6564
▁رطل	-6565
▁رمض	-6566
▁زآب	-6567
▁زگل	-6568
▁شغل	-6569
▁صنع	-6570
▁طرح	-6571
▁طرز	-6572
▁طنز	-6573
▁عبث	-6574
▁عبد	-6575
▁عزت	-6576
▁فضل	-6577
▁فلز	-6578
▁لحد	-6579
▁لخل	-6580
▁مؤذ	-6581
▁مته	-6582
▁نپس	-6583
▁ینم	-6584
ابروی	-6585
اسنجی	-6586
اگردی	-6587
بیمار	-6588
داختی	-6589
ذاران	-6590
رزیدت	-6591
رویان	-6592
ریدون	-6593
زولیش	-6594
سایگی	-6595
شکیبی	-6596
ضاعتی	-6597
عموری	-6598
فتوحش	-6599
بخش	-6600
شرکت	-6601
وزخش	-6602
فرمند	-6603
لاطین	-6604
لاقات	-6605
لبریه	-6606
مدلله	-6607
ناطیس	-6608
واسیس	-6609
واویس	-6610
ویشتن	-6611
یمانه	-6612
▁آخور	-6613
▁آشتی	-6614
▁آمیز	-6615
▁آیمت	-6616
▁احتم	-6617
▁احتی	-6618
▁اربع	-6619
▁ارجم	-6620
▁اطرف	-6621
▁اعتم	-6622
▁اعتک	-6623
▁اعضا	-6624
▁اعظم	-6625
▁اعمی	-6626
▁افزا	-6627
▁اقلی	-6628
▁الاع	-6629
▁التن	-6630
▁الته	-6631
▁الحق	-6632
▁اوجت	-6633
▁باطن	-6634
▁بترک	-6635
▁بحسب	-6636
▁بدخش	-6637
▁بشمش	-6638
▁بعجب	-6639
▁بغلط	-6640
▁بمثل	-6641
▁بمخل	-6642
▁بمدح	-6643
▁بمرگ	-6644
▁بنسب	-6645
▁بوبد	-6646
▁بیجه	-6647
▁ترحم	-6648
▁تزاح	-6649
▁تعلم	-6650
▁تفحص	-6651
▁تقدم	-6652
▁تنعم	-6653
▁توسن	-6654
▁توکل	-6655
▁تیمم	-6656
▁ثواب	-6657
▁جرسم	-6658
▁جرسی	-6659
▁حاذق	-6660
▁حدید	-6661
▁حلاج	-6662
▁حنای	-6663
▁خصمت	-6664
▁خنوس	-6665
▁ذقنش	-6666
▁ذقنم	-6667
▁راغب	-6668
▁رایق	-6669
▁رتبه	-6670
▁رجال	-6671
▁رضات	-6672
▁رطبش	-6673
▁زبده	-6674
▁زبرد	-6675
▁زجام	-6676
▁زحرم	-6677
▁زخون	-6678
▁زسنگ	-6679
▁زعفر	-6680
▁زعلی	-6681
▁زعمر	-6682
▁زغمت	-6683
▁زپاس	-6684
▁زیبد	-6685
▁سربل	-6686
▁سفتن	-6687
▁سقای	-6688
▁سندر	-6689
▁سندس	-6690
▁سوسن	-6691
▁صبرم	-6692
▁صلای	-6693
▁صلوه	-6694
▁صلیب	-6695
▁صنمش	-6696
▁صنمی	-6697
▁ضحوک	-6698
▁طایف	-6699
افتر	-6700
نگری	-6701
نگیس	-6702
▁طعم	-6703
تشکده	-6704
فشانم	-6705
فشانی	-6706
▁تغاف	-6707
▁تکلم	-6708
▁جنگل	-6709
▁خمسه	-6710
▁دبیر	-6711
▁سایل	-6712
▁سردت	-6713
▁شوره	-6714
▁طعمه	-6715
▁طمعت	-6716
▁طیور	-6717
▁ظرفی	-6718
▁ظلال	-6719
▁عبور	-6720
▁عزلش	-6721
▁عشوه	-6722
▁عصمت	-6723
▁عفوت	-6724
▁علمش	-6725
▁عنقا	-6726
▁غدیر	-6727
▁غضبش	-6728
▁فاسد	-6729
▁فزای	-6730
▁فسحت	-6731
▁فصیح	-6732
▁فقرت	-6733
▁فهمد	-6734
▁فکار	-6735
▁فکلی	-6736
▁قاضی	-6737
▁قاعد	-6738
▁قبای	-6739
▁قلاب	-6740
▁قلعه	-6741
▁لالا	-6742
▁لطیف	-6743
▁لعلی	-6744
▁لوحش	-6745
▁مأمن	-6746
▁مؤمن	-6747
▁مبرا	-6748
▁متحد	-6749
▁مثال	-6750
▁محجو	-6751
▁مذاق	-6752
▁مذهب	-6753
▁مرکب	-6754
▁مزمن	-6755
▁مزید	-6756
▁مزین	-6757
▁مطاب	-6758
▁مطلق	-6759
▁مطوق	-6760
▁مظلم	-6761
▁معاذ	-6762
▁معذب	-6763
▁معشو	-6764
▁مقبل	-6765
▁منطق	-6766
▁موبد	-6767
▁مکتب	-6768
▁مکدر	-6769
▁مکشد	-6770
▁نارپ	-6771
▁نبخش	-6772
▁نتاج	-6773
▁نحاس	-6774
▁نحوس	-6775
▁نشیه	-6776
▁نعلش	-6777
▁نفتد	-6778
▁هجوم	-6779
▁هرمس	-6780
▁همنف	-6781
▁هیضه	-6782
▁وجان	-6783
▁وسوس	-6784
▁وشوی	-6785
▁پافش	-6786
▁پراک	-6787
▁پنچه	-6788
▁پیاپ	-6789
▁چامه	-6790
▁چران	-6791
▁چرید	-6792
▁چنار	-6793
▁چکاو	-6794
▁کؤوس	-6795
▁کاهل	-6796
▁کرسی	-6797
▁کلیب	-6798
▁کودک	-6799
▁بطن	-6800
▁تدب	-6801
▁جهة	-6802
▁جهت	-6803
▁مصح	-6804
▁هنر	-6805
▁چرب	-6806
ربایی	-6807
لانگه	-6808
▁ابکم	-6809
▁بانت	-6810
▁برجی	-6811
▁برزق	-6812
▁بطری	-6813
▁بفرق	-6814
▁بیکل	-6815
▁تاجی	-6816
▁تحکم	-6817
▁جوشد	-6818
▁جوشش	-6819
▁حاجب	-6820
▁حباب	-6821
▁حمرا	-6822
▁خفتی	-6823
▁رکوع	-6824
▁غالب	-6825
▁غمگس	-6826
▁فلان	-6827
▁قایم	-6828
▁مصاح	-6829
▁مصحف	-6830
▁مصور	-6831
▁مغرب	-6832
▁مفتی	-6833
▁نفوس	-6834
▁نقطه	-6835
▁پشتم	-6836
▁چنگل	-6837
▁چنگی	-6838
▁کوشی	-6839
▁کوهش	-6840
▁گامش	-6841
▁گسست	-6842
▁یؤوس	-6843
▁یابد	-6844
▁یازی	-6845
▁یالش	-6846
▁یونس	-6847
▁۱۱۹۵	-6848
ادخلوا	-6849
ازردان	-6850
اسدانت	-6851
برویان	-6852
خواهیم	-6853
خورشید	-6854
رافشان	-6855
رداریش	-6856
رفشانم	-6857
زیگران	-6858
ساختند	-6859
شناسان	-6860
قیقشان	-6861
لبریها	-6862
همایون	-6863
وزجمهر	-6864
۱۱۷۱هق	-6865
▁آسایم	-6866
▁آشنات	-6867
▁آشنای	-6868
▁آمیزت	-6869
▁آوارگ	-6870
▁آورمش	-6871
▁آوریت	-6872
▁آویزم	-6873
▁آگندم	-6874
▁آگهان	-6875
▁اتفاق	-6876
▁احرام	-6877
▁اخلاص	-6878
▁اخلاق	-6879
▁اخیار	-6880
▁ادیبت	-6881
▁ارایک	-6882
▁اسلوب	-6883
▁اشخاص	-6884
▁اطراف	-6885
▁افسرش	-6886
▁افکنی	-6887
▁اقطاع	-6888
▁اقلیم	-6889
▁الاسم	-6890
▁التفا	-6891
▁الحرم	-6892
▁الدین	-6893
▁الصبح	-6894
▁الصنم	-6895
▁العدا	-6896
▁العهد	-6897
▁المثل	-6898
▁ایازش	-6899
ثغر	-6900
سلد	-6901
غرض	-6902
بینی	-6903
تماع	-6904
سلام	-6905
غرای	-6906
ورزی	-6907
▁تأخ	-6908
▁خسش	-6909
▁نزع	-6910
بیناد	-6911
▁آلای	-6912
▁ادبش	-6913
▁بآست	-6914
▁بخلق	-6915
▁برقع	-6916
▁تختی	-6917
▁خالق	-6918
▁خوبم	-6919
▁دودش	-6920
▁رامم	-6921
▁روحم	-6922
▁زهدش	-6923
▁سستی	-6924
▁سفره	-6925
▁سلیم	-6926
▁عروج	-6927
▁غیبت	-6928
▁فایق	-6929
▁مصرع	-6930
▁نافر	-6931
▁نافش	-6932
▁نزدم	-6933
▁هوشی	-6934
▁پستی	-6935
▁پیغم	-6936
▁آلایش	-6937
▁اعیان	-6938
▁الثغر	-6939
▁الغرض	-6940
▁انگور	-6941
▁ایمنی	-6942
▁بآیین	-6943
▁بابلی	-6944
▁باربد	-6945
▁باطله	-6946
▁ببخشد	-6947
▁ببرید	-6948
▁ببهای	-6949
▁بتابد	-6950
▁بتازد	-6951
▁بترکش	-6952
▁بتکلم	-6953
▁بجورم	-6954
▁بحضرت	-6955
▁بحلند	-6956
▁بحیاء	-6957
▁بحیله	-6958
▁بخاکش	-6959
▁بخرای	-6960
▁بخششم	-6961
▁بخلاق	-6962
▁بدروی	-6963
▁براحت	-6964
▁برقفا	-6965
▁برناب	-6966
▁بساحل	-6967
▁بسخاء	-6968
▁بسزای	-6969
▁بسنجد	-6970
▁بسوخت	-6971
▁بشرکت	-6972
▁بطلان	-6973
▁بعداز	-6974
▁بفترا	-6975
▁بفراز	-6976
▁بفردا	-6977
▁بفرقش	-6978
▁بفروش	-6979
▁بلاها	-6980
▁بمانی	-6981
▁بمجلس	-6982
▁بمجمل	-6983
▁بمدحش	-6984
▁بمدعا	-6985
▁بمرغی	-6986
▁بمرگم	-6987
▁بمشاط	-6988
▁بنالد	-6989
▁بناگه	-6990
▁بنویس	-6991
▁بنیان	-6992
▁بهوای	-6993
▁بهیچم	-6994
▁بوتیم	-6995
▁بپردا	-6996
▁بپرور	-6997
▁بکامم	-6998
▁بکینم	-6999
بول	-7000
غول	-7001
▁ثن	-7002
ادتش	-7003
تاسر	-7004
جمند	-7005
طرتا	-7006
قیفه	-7007
نیفه	-7008
ولاد	-7009
ویسد	-7010
▁اکم	-7011
▁بقب	-7012
▁تکف	-7013
▁ثقی	-7014
▁سفل	-7015
▁طول	-7016
▁قول	-7017
▁مخل	-7018
▁ملع	-7019
انگشت	-7020
اوندم	-7021
جداری	-7022
حانگی	-7023
فروزد	-7024
▁التع	-7025
▁بربط	-7026
▁بقای	-7027
▁بقصر	-7028
▁بقضا	-7029
▁بوجد	-7030
▁ثقیل	-7031
▁ثمین	-7032
▁جهاد	-7033
▁حورا	-7034
▁خاصی	-7035
▁زمصر	-7036
▁شانز	-7037
▁عذاب	-7038
▁عقیق	-7039
▁غنمی	-7040
▁غنیم	-7041
▁قیمت	-7042
▁مخال	-7043
▁ملال	-7044
▁ملای	-7045
▁ملون	-7046
▁نرسد	-7047
▁هفتم	-7048
▁چسان	-7049
▁گهرم	-7050
حانگیز	-7051
ولادین	-7052
▁آرامش	-7053
▁التعج	-7054
▁اکملت	-7055
▁بانیش	-7056
▁بجبین	-7057
▁بسکین	-7058
▁بشتاب	-7059
▁بقبله	-7060
▁بگریز	-7061
▁بگریه	-7062
▁بیاضش	-7063
▁بیخطر	-7064
▁بیچار	-7065
▁تأخیر	-7066
▁تأملی	-7067
▁تباهی	-7068
▁تبسمت	-7069
▁تتارش	-7070
▁تجارت	-7071
▁تجملی	-7072
▁تحملی	-7073
▁تحمیل	-7074
▁تدریس	-7075
▁تراشد	-7076
▁تراکم	-7077
▁تزاحم	-7078
▁تزویج	-7079
▁تعالی	-7080
▁تعریس	-7081
▁تعطیل	-7082
▁تفاخر	-7083
▁تقریب	-7084
▁تلاطم	-7085
▁تهلیل	-7086
▁تکاور	-7087
▁تکفیر	-7088
▁تیماج	-7089
▁ثانیش	-7090
▁ثنایت	-7091
▁جابجا	-7092
▁جاروب	-7093
▁جغدان	-7094
▁جغدند	-7095
▁جمالت	-7096
▁جمیلش	-7097
▁جوابت	-7098
▁جوابم	-7099
تابد	-7100
خواج	-7101
▁زشش	-7102
خواجه	-7103
خواست	-7104
فریدن	-7105
▁دشتش	-7106
▁ظلمه	-7107
▁فکرش	-7108
▁قتلی	-7109
▁مؤذن	-7110
▁مفرش	-7111
▁مقتو	-7112
▁مپوش	-7113
▁نشدی	-7114
▁ننهم	-7115
▁کبیر	-7116
▁کلان	-7117
اهانند	-7118
▁آرمین	-7119
▁اخترش	-7120
▁ارزان	-7121
▁بحریم	-7122
▁بخزان	-7123
▁بدهند	-7124
▁برهنه	-7125
▁برونم	-7126
▁بریدن	-7127
▁بمنعم	-7128
▁جامیس	-7129
▁جویای	-7130
▁جوییم	-7131
▁حجابت	-7132
▁حنیفه	-7133
▁حوصله	-7134
▁حکمتا	-7135
▁حیاتت	-7136
▁خاتمش	-7137
▁خاربن	-7138
▁خاصان	-7139
▁خجالت	-7140
▁خجلتی	-7141
▁خروسش	-7142
▁خروشش	-7143
▁خرگهم	-7144
▁خریدن	-7145
▁خضریم	-7146
▁خطیبی	-7147
▁خفتنی	-7148
▁خلقته	-7149
▁خلیفه	-7150
▁خموشم	-7151
▁خنجرت	-7152
▁خندند	-7153
▁خیالش	-7154
▁دانست	-7155
▁درازت	-7156
▁دربها	-7157
▁دروغم	-7158
▁درگهم	-7159
▁دلخون	-7160
▁دلهای	-7161
▁دلگشا	-7162
▁دهانم	-7163
▁دهندش	-7164
▁دوزخش	-7165
▁دینکم	-7166
▁راغها	-7167
▁راندی	-7168
▁رایتت	-7169
▁رحمتی	-7170
▁رستمت	-7171
▁رستمش	-7172
▁رضاست	-7173
▁رعنای	-7174
▁رمانی	-7175
▁رمضان	-7176
▁رمیدی	-7177
▁رهاند	-7178
▁رونده	-7179
▁رکعبه	-7180
▁زابلی	-7181
▁زاندل	-7182
▁زانیه	-7183
▁زایده	-7184
▁زبرقی	-7185
▁زدیدن	-7186
▁زدیده	-7187
▁زراعت	-7188
▁زردشت	-7189
▁زشراب	-7190
▁زمزمش	-7191
▁زنهاد	-7192
▁زنگاه	-7193
▁زنیفه	-7194
▁زودتر	-7195
▁زیارت	-7196
▁ساعتی	-7197
▁ساغرت	-7198
▁سامری	-7199
یوب	-7200
رخان	-7201
مردی	-7202
▁اتح	-7203
▁اصل	-7204
▁اصن	-7205
▁حما	-7206
▁ررخ	-7207
▁شرع	-7208
▁صحو	-7209
▁صما	-7210
▁قرن	-7211
▁قیس	-7212
▁وجد	-7213
▁یما	-7214
ابردی	-7215
گزیرم	-7216
▁آشوب	-7217
▁آگهم	-7218
▁اثرش	-7219
▁برمک	-7220
▁بفعل	-7221
▁بوسد	-7222
▁سبزش	-7223
▁سرما	-7224
▁شربت	-7225
▁شریف	-7226
▁عذرت	-7227
▁عذرم	-7228
▁فلوس	-7229
▁قیام	-7230
▁قیوم	-7231
▁لاوه	-7232
▁محلل	-7233
▁معما	-7234
▁منعش	-7235
▁منعم	-7236
▁نساج	-7237
▁نساز	-7238
▁هوسن	-7239
▁پیما	-7240
▁گزای	-7241
▁گلرخ	-7242
اندازه	-7243
▁آزادش	-7244
▁ابروک	-7245
▁اتحاد	-7246
▁اصنام	-7247
▁التبا	-7248
▁الحال	-7249
▁بآنجا	-7250
▁بآنکه	-7251
▁برملا	-7252
▁برمکش	-7253
▁بوسمت	-7254
▁بوسید	-7255
▁بپهلو	-7256
▁جانگز	-7257
▁جستمت	-7258
▁جستند	-7259
▁خرمنت	-7260
▁سبحان	-7261
▁سجودت	-7262
▁سرخوش	-7263
▁سردیش	-7264
▁سرشار	-7265
▁سرشکم	-7266
▁سرودی	-7267
▁سرپنج	-7268
▁سرگرم	-7269
▁سریشم	-7270
▁سفیدش	-7271
▁سقیفه	-7272
▁سمرشد	-7273
▁سمندر	-7274
▁سمندش	-7275
▁سنبلی	-7276
▁سوراخ	-7277
▁سپردی	-7278
▁سیاحت	-7279
▁سیلاب	-7280
▁شاهیت	-7281
▁شایبه	-7282
▁شبانه	-7283
▁شتابی	-7284
▁شریفه	-7285
▁شقایق	-7286
▁شناخت	-7287
▁شنقار	-7288
▁شهادت	-7289
▁شویدش	-7290
▁شکنند	-7291
▁صادقی	-7292
▁صافتر	-7293
▁صالحش	-7294
▁صبوری	-7295
▁صنعان	-7296
▁صهبای	-7297
▁طاقتی	-7298
▁طفلان	-7299
بره	-7300
بزم	-7301
منن	-7302
وود	-7303
▁قع	-7304
اهیم	-7305
ایگی	-7306
تماس	-7307
ساوه	-7308
ستگی	-7309
ونتی	-7310
یانی	-7311
▁افغ	-7312
▁بسج	-7313
▁بسپ	-7314
▁رلف	-7315
▁سزا	-7316
▁سلک	-7317
▁عزم	-7318
▁ناآ	-7319
▁نبخ	-7320
▁ورت	-7321
▁کسش	-7322
اوانش	-7323
لومات	-7324
نهانی	-7325
▁الای	-7326
▁اگرغ	-7327
▁باضط	-7328
▁بجفا	-7329
▁بسان	-7330
▁بغار	-7331
▁بغری	-7332
▁بغمت	-7333
▁جستج	-7334
▁جگرم	-7335
▁خسوف	-7336
▁خونی	-7337
▁دستک	-7338
▁زیست	-7339
▁ساری	-7340
▁شیفت	-7341
▁علقه	-7342
▁غوره	-7343
▁قعود	-7344
▁نبری	-7345
▁همگی	-7346
▁پوشش	-7347
▁کلکم	-7348
افریده	-7349
ونتیجه	-7350
▁اولین	-7351
▁بسازد	-7352
▁بسجده	-7353
▁بغارت	-7354
▁بنایش	-7355
▁بودنه	-7356
▁بپایش	-7357
▁توبره	-7358
▁جهانت	-7359
▁خدایی	-7360
▁خرابش	-7361
▁داوود	-7362
▁دورتر	-7363
▁سیاهت	-7364
▁شادان	-7365
▁شکستی	-7366
▁طلعتم	-7367
▁طپیدن	-7368
▁طینتش	-7369
▁عارضت	-7370
▁عارفی	-7371
▁عبیرم	-7372
▁عرفان	-7373
▁عصایش	-7374
▁عصمتش	-7375
▁عطارد	-7376
▁عقربش	-7377
▁عقیقش	-7378
▁عقیقی	-7379
▁علامت	-7380
▁علایق	-7381
▁غافله	-7382
▁غزنین	-7383
▁غشاوه	-7384
▁غلتان	-7385
▁غمازی	-7386
▁غمهای	-7387
▁غمیگن	-7388
▁غناست	-7389
▁غنمیت	-7390
▁غوانی	-7391
▁فتانت	-7392
▁فتراک	-7393
▁فراخی	-7394
▁فراغم	-7395
▁فرخنه	-7396
▁فرصتش	-7397
▁فرصتی	-7398
▁فریبش	-7399
ارن	-7400
جلت	-7401
رمر	-7402
غال	-7403
▁حد	-7404
▁دغ	-7405
امیم	-7406
اینه	-7407
بالی	-7408
توحش	-7409
ستیم	-7410
لشان	-7411
▁انه	-7412
▁باس	-7413
▁بگس	-7414
▁بگی	-7415
▁تبی	-7416
▁حیض	-7417
▁خنگ	-7418
▁دغا	-7419
▁زدا	-7420
▁شمن	-7421
▁طال	-7422
▁فیل	-7423
▁ماخ	-7424
▁ماش	-7425
▁مجم	-7426
▁مدا	-7427
▁نبد	-7428
▁هدی	-7429
داخته	-7430
شتغال	-7431
▁باسق	-7432
▁بحسن	-7433
▁بدفت	-7434
▁بدمد	-7435
▁بدین	-7436
▁بقدم	-7437
▁بکفر	-7438
▁زیبش	-7439
▁شکور	-7440
▁فروش	-7441
▁فرید	-7442
▁فسوس	-7443
▁مجمع	-7444
▁مداح	-7445
▁مرمر	-7446
▁ناوه	-7447
▁نهیم	-7448
▁نیاک	-7449
▁هدیه	-7450
▁کردت	-7451
▁انهار	-7452
▁ببارد	-7453
▁برآری	-7454
▁بگناه	-7455
▁دوایی	-7456
▁دولتش	-7457
▁زخجلت	-7458
▁زنندش	-7459
▁سروری	-7460
▁سپهرش	-7461
▁طالعت	-7462
▁فراتر	-7463
▁فزودش	-7464
▁فزونی	-7465
▁فسارش	-7466
▁فطرتا	-7467
▁فکرها	-7468
▁فکلیت	-7469
▁فگندش	-7470
▁قابله	-7471
▁قبایی	-7472
▁قدرتت	-7473
▁قرارت	-7474
▁قرارش	-7475
▁قندیل	-7476
▁لآلیش	-7477
▁لاتنم	-7478
▁لافتی	-7479
▁لبالب	-7480
▁لحیان	-7481
▁لطافت	-7482
▁لطیفه	-7483
▁لعلیش	-7484
▁لیلیش	-7485
▁مأمنش	-7486
▁ماریه	-7487
▁ماشطه	-7488
▁ماهشن	-7489
▁مبرهن	-7490
▁متفرد	-7491
▁متفکر	-7492
▁متهمش	-7493
▁متوحش	-7494
▁مثقبش	-7495
▁مجلسی	-7496
▁محرمش	-7497
▁محشری	-7498
▁محلول	-7499
ارق	-7500
بلب	-7501
حمی	-7502
رای	-7503
ومی	-7504
▁رأ	-7505
ابین	-7506
اداب	-7507
ازید	-7508
المی	-7509
برده	-7510
بلبل	-7511
ساید	-7512
عانی	-7513
میان	-7514
وزند	-7515
ونده	-7516
▁اصط	-7517
▁بیع	-7518
▁تلف	-7519
▁دهر	-7520
▁رأس	-7521
▁رحل	-7522
▁رگی	-7523
▁شخص	-7524
▁شمی	-7525
▁شنج	-7526
▁ویس	-7527
▁کدخ	-7528
حرومی	-7529
قصابی	-7530
مرهان	-7531
هروان	-7532
▁اصطب	-7533
▁بحال	-7534
▁بیمد	-7535
▁ترنم	-7536
▁جرمم	-7537
▁حجال	-7538
▁حسنی	-7539
▁خوشی	-7540
▁خویت	-7541
▁دواز	-7542
▁رحمش	-7543
▁سرگش	-7544
▁شوند	-7545
▁عیبش	-7546
▁مصاف	-7547
▁مومی	-7548
▁نزهت	-7549
▁چشان	-7550
گریبان	-7551
▁استغف	-7552
▁امرای	-7553
▁بانوی	-7554
▁برکشم	-7555
▁برکنی	-7556
▁ترحمی	-7557
▁تکبیر	-7558
▁جانها	-7559
▁خفتان	-7560
▁رمیان	-7561
▁شمیمش	-7562
▁شنجرف	-7563
▁طبیبش	-7564
▁عالمی	-7565
▁فراهم	-7566
▁فسانه	-7567
▁قاعده	-7568
▁محملی	-7569
▁محیطی	-7570
▁مخالف	-7571
▁مختلف	-7572
▁مخصوص	-7573
▁مخواه	-7574
▁مدهوش	-7575
▁مذهبت	-7576
▁مرادت	-7577
▁مرساد	-7578
▁مرسله	-7579
▁مرغوب	-7580
▁مریضت	-7581
▁مشاطه	-7582
▁مشتاق	-7583
▁مشتغل	-7584
▁مشغول	-7585
▁مصاحب	-7586
▁مصرعی	-7587
▁مصیبت	-7588
▁مطابق	-7589
▁مطربه	-7590
▁مطلقه	-7591
▁مطلوب	-7592
▁مظلمه	-7593
▁معرکه	-7594
▁معشری	-7595
▁معمار	-7596
▁معیوب	-7597
▁مغانش	-7598
▁مفرما	-7599
تفا	-7600
حری	-7601
ریت	-7602
لاخ	-7603
لاز	-7604
لاف	-7605
▁چی	-7606
ابان	-7607
افتی	-7608
بروز	-7609
تفاع	-7610
شانه	-7611
قمان	-7612
▁اوث	-7613
▁بصی	-7614
▁خدی	-7615
▁خرک	-7616
▁زرو	-7617
▁پیم	-7618
اشانه	-7619
لاخان	-7620
لازمت	-7621
ندیله	-7622
▁اعلی	-7623
▁انتق	-7624
▁ببرت	-7625
▁بقفس	-7626
▁بمان	-7627
▁بودژ	-7628
▁بکرت	-7629
▁جنبش	-7630
▁خدیا	-7631
▁خناز	-7632
▁خیزم	-7633
▁دمان	-7634
▁رحیم	-7635
▁رعیت	-7636
▁روزگ	-7637
▁شرمش	-7638
▁عزای	-7639
▁موسم	-7640
▁هستش	-7641
▁پیشم	-7642
▁یمان	-7643
▁اوثان	-7644
▁بتیرم	-7645
▁بجامی	-7646
▁بخلاف	-7647
▁برنده	-7648
▁بشنود	-7649
▁بمیرد	-7650
▁بکارش	-7651
▁بکسیت	-7652
▁تابان	-7653
▁جفاجو	-7654
▁دختری	-7655
▁ساحری	-7656
▁سرگرد	-7657
▁سنجاب	-7658
▁سیهند	-7659
▁شمردن	-7660
▁فکرتت	-7661
▁قدریت	-7662
▁لقمان	-7663
▁مفریب	-7664
▁مقارن	-7665
▁مقبول	-7666
▁مقتول	-7667
▁مقدار	-7668
▁مقیمش	-7669
▁ملعون	-7670
▁مندرس	-7671
▁منزلم	-7672
▁منشان	-7673
▁منطفی	-7674
▁منمای	-7675
▁مهانت	-7676
▁مهتاب	-7677
▁مهوشم	-7678
▁موافق	-7679
▁موران	-7680
▁مکینی	-7681
▁میآید	-7682
▁میداد	-7683
▁میزان	-7684
▁میسوز	-7685
▁میفکن	-7686
▁میفگن	-7687
▁مینهد	-7688
▁مینهی	-7689
▁میچمد	-7690
▁ناآشن	-7691
▁ناخلف	-7692
▁نارسا	-7693
▁نازان	-7694
▁نازکت	-7695
▁ناشده	-7696
▁ناوکی	-7697
▁ناچیز	-7698
▁ناگفت	-7699
بیز	-7700
خلف	-7701
رسی	-7702
ساک	-7703
شبی	-7704
▁صو	-7705
استی	-7706
بیین	-7707
یانش	-7708
▁بصر	-7709
▁تاز	-7710
▁تسی	-7711
▁تنک	-7712
▁خصر	-7713
▁صند	-7714
▁طوی	-7715
▁موف	-7716
▁نهر	-7717
▁چوم	-7718
ناخلف	-7719
نبیین	-7720
▁اجرا	-7721
▁اینم	-7722
▁ببند	-7723
▁برگی	-7724
▁بوید	-7725
▁خطوط	-7726
▁رایض	-7727
▁رشحه	-7728
▁سبوس	-7729
▁سطبر	-7730
▁شانه	-7731
▁صندو	-7732
▁صولت	-7733
▁عیار	-7734
▁غمام	-7735
▁مردک	-7736
▁موفق	-7737
▁نخیز	-7738
▁هنگی	-7739
▁پرنی	-7740
▁پویه	-7741
▁کآفت	-7742
▁استبر	-7743
▁اعتلا	-7744
▁امساک	-7745
▁امشبی	-7746
▁اندرز	-7747
▁باورت	-7748
▁بجانم	-7749
▁بدانش	-7750
▁براهی	-7751
▁برجای	-7752
▁بنگرم	-7753
▁بگویش	-7754
▁تازگی	-7755
▁تسیلم	-7756
▁دقایق	-7757
▁دیروز	-7758
▁سواره	-7759
▁صولتش	-7760
▁طویله	-7761
▁عالمش	-7762
▁غمامش	-7763
▁فراغت	-7764
▁فروغی	-7765
▁قیصرت	-7766
▁مجلسم	-7767
▁ممدوح	-7768
▁نایاب	-7769
▁نایره	-7770
▁نبخشد	-7771
▁نبردش	-7772
▁نبندد	-7773
▁نبودم	-7774
▁نتابد	-7775
▁نتازد	-7776
▁نخواه	-7777
▁نخورم	-7778
▁ندادن	-7779
▁نرسند	-7780
▁نرنجد	-7781
▁نزاده	-7782
▁نزاید	-7783
▁نزهتش	-7784
▁نسازم	-7785
▁نسوخت	-7786
▁نشاطم	-7787
▁نشستن	-7788
▁نشکفت	-7789
▁نشکفد	-7790
▁نعمان	-7791
▁نعمتی	-7792
▁نفروش	-7793
▁نمارق	-7794
▁نمودی	-7795
▁نمکین	-7796
▁نمیگذ	-7797
▁ننمود	-7798
▁ننوشد	-7799
صی	-7800
ؤال	-7801
ادل	-7802
ثال	-7803
حات	-7804
شام	-7805
صاص	-7806
صور	-7807
صیع	-7808
هنگ	-7809
وله	-7810
چلی	-7811
▁حش	-7812
آشام	-7813
اموز	-7814
جاست	-7815
دیار	-7816
صحاب	-7817
ضحات	-7818
ورای	-7819
وشید	-7820
▁آیه	-7821
▁بیژ	-7822
▁تهر	-7823
▁جرا	-7824
▁ساغ	-7825
▁سلب	-7826
▁قار	-7827
▁قعر	-7828
▁مغر	-7829
▁نلغ	-7830
▁چال	-7831
▁کنت	-7832
▁افتی	-7833
▁ایشی	-7834
▁بلید	-7835
▁بکشد	-7836
▁بیست	-7837
▁بیژن	-7838
▁تافت	-7839
▁حشرم	-7840
▁دستگ	-7841
▁زمرد	-7842
▁سخای	-7843
▁ماهم	-7844
▁مقدم	-7845
▁ممتح	-7846
▁نباز	-7847
▁نظره	-7848
▁کچلی	-7849
ونامان	-7850
▁ایشیخ	-7851
▁بآهنگ	-7852
▁بحرین	-7853
▁بسؤال	-7854
▁تمثال	-7855
▁تمیزی	-7856
▁تهران	-7857
▁دوستش	-7858
▁رامین	-7859
▁رویدم	-7860
▁ساغرم	-7861
▁سراست	-7862
▁سرمست	-7863
▁شمعها	-7864
▁شنفته	-7865
▁شکافت	-7866
▁عنادل	-7867
▁فرادی	-7868
▁فروزی	-7869
▁فریبم	-7870
▁قارون	-7871
▁لاتقم	-7872
▁مزمار	-7873
▁معالی	-7874
▁مغرور	-7875
▁ملالم	-7876
▁ممتحن	-7877
▁منصور	-7878
▁نلغزد	-7879
▁ننوشی	-7880
▁ننگرم	-7881
▁ننگری	-7882
▁ننگست	-7883
▁نهالت	-7884
▁نهفتی	-7885
▁نوازی	-7886
▁نوبتی	-7887
▁نوخیز	-7888
▁نوذری	-7889
▁نوشتی	-7890
▁نویسی	-7891
▁نپرسد	-7892
▁نژادا	-7893
▁نکنند	-7894
▁نگارا	-7895
▁نگذرم	-7896
▁نگذری	-7897
▁نگسلد	-7898
▁نگیری	-7899
صب	-7900
اتا	-7901
اقش	-7902
انو	-7903
شیم	-7904
ضلی	-7905
یبد	-7906
▁حض	-7907
▁حف	-7908
اضلی	-7909
بریز	-7910
دهدی	-7911
رابه	-7912
قیان	-7913
▁بصع	-7914
▁تشت	-7915
▁حفظ	-7916
▁زفی	-7917
▁شدز	-7918
▁عبر	-7919
▁غصب	-7920
▁موس	-7921
▁همز	-7922
وردار	-7923
▁اعدا	-7924
▁بافس	-7925
▁تیرم	-7926
▁جذبه	-7927
▁حصار	-7928
▁حضور	-7929
▁حکمش	-7930
▁داود	-7931
▁دهمت	-7932
▁دوال	-7933
▁دگرت	-7934
▁زفیض	-7935
▁سرود	-7936
▁شدزر	-7937
▁شهدن	-7938
▁شودش	-7939
▁عنبی	-7940
▁میزن	-7941
▁نوگل	-7942
▁پاکو	-7943
▁کبری	-7944
راقیان	-7945
▁آمیخت	-7946
▁انداز	-7947
▁بزانو	-7948
▁بصعوه	-7949
▁تبریز	-7950
▁جانور	-7951
▁خودپس	-7952
▁رحیلش	-7953
▁رواقش	-7954
▁روانم	-7955
▁طغرای	-7956
▁عبرتی	-7957
▁فاضلی	-7958
▁لالای	-7959
▁مادرش	-7960
▁متابع	-7961
▁مهوشی	-7962
▁موسمی	-7963
▁نیفتم	-7964
▁نیمشب	-7965
▁نیکیش	-7966
▁هدایت	-7967
▁هدهدی	-7968
▁هزاری	-7969
▁هفتاد	-7970
▁هلاکو	-7971
▁هماها	-7972
▁همبزم	-7973
▁همدست	-7974
▁همرنگ	-7975
▁همرهم	-7976
▁هوشنگ	-7977
▁هیربد	-7978
▁هیلاج	-7979
▁واعظت	-7980
▁والله	-7981
▁والیس	-7982
▁وبلبل	-7983
▁ورزند	-7984
▁ورزیم	-7985
▁وزیده	-7986
▁وسایل	-7987
▁وسواس	-7988
▁وسوسه	-7989
▁وشامی	-7990
▁وعیان	-7991
▁وفاتش	-7992
▁وفایم	-7993
▁ونهان	-7994
▁پابست	-7995
▁پابند	-7996
▁پاطیل	-7997
▁پرتاب	-7998
▁پرخون	-7999
تشم	-8000
تیر	-8001
جبی	-8002
خام	-8003
ربر	-8004
سره	-8005
صوم	-8006
غرا	-8007
غیر	-8008
ناد	-8009
▁صخ	-8010
ؤادی	-8011
بیله	-8012
رانت	-8013
شکیب	-8014
فزای	-8015
▁آنش	-8016
▁ترف	-8017
▁حاش	-8018
▁دلج	-8019
▁دلق	-8020
▁سجل	-8021
▁صحی	-8022
▁صنو	-8023
▁فای	-8024
▁فدا	-8025
▁میت	-8026
▁چهی	-8027
▁گلن	-8028
▁اشکش	-8029
▁اشکی	-8030
▁بواب	-8031
▁بپیش	-8032
▁تابی	-8033
▁خروج	-8034
▁دلیر	-8035
▁زتیر	-8036
▁زهار	-8037
▁سیاح	-8038
▁شأنش	-8039
▁شعری	-8040
▁صخره	-8041
▁صغیر	-8042
▁طغرا	-8043
▁عیدی	-8044
▁فایض	-8045
▁قناد	-8046
▁منزه	-8047
▁میرد	-8048
▁نرفت	-8049
▁پیاز	-8050
▁کابل	-8051
افؤادی	-8052
▁انجام	-8053
▁بلعام	-8054
▁بکربر	-8055
▁بگیری	-8056
▁بیدوا	-8057
▁توانی	-8058
▁دادنم	-8059
▁دیدیش	-8060
▁زیرکی	-8061
▁صحیفه	-8062
▁صنوبر	-8063
▁فتادم	-8064
▁فروزم	-8065
▁قبیله	-8066
▁معصوم	-8067
▁معنوی	-8068
▁مگیرم	-8069
▁ناسره	-8070
▁نیشتر	-8071
▁پردگی	-8072
▁پریدن	-8073
▁پستیش	-8074
▁پسندت	-8075
▁پشتها	-8076
▁پشیزی	-8077
▁پوستی	-8078
▁پویند	-8079
▁پیدات	-8080
▁پیمود	-8081
▁چالاک	-8082
▁چراست	-8083
▁چرنده	-8084
▁چریدی	-8085
▁چشیده	-8086
▁چکیده	-8087
▁کآتشم	-8088
▁کآرند	-8089
▁کآسان	-8090
▁کآنچه	-8091
▁کآورد	-8092
▁کآیمت	-8093
▁کابین	-8094
▁کاداب	-8095
▁کاسان	-8096
▁کاسته	-8097
▁کاستی	-8098
▁کاسیر	-8099
--	-8100
طت	-8101
عک	-8102
اتح	-8103
تای	-8104
نود	-8105
▁اه	-8106
▁حب	-8107
▁سک	-8108
اقوس	-8109
بیحی	-8110
سوره	-8111
عکاس	-8112
قیبی	-8113
ورید	-8114
▁---	-8115
▁ارد	-8116
▁اهت	-8117
▁بها	-8118
▁جلد	-8119
▁حبذ	-8120
▁دوم	-8121
▁دیت	-8122
▁فتم	-8123
▁مرج	-8124
▁نثر	-8125
▁پرخ	-8126
▁کیس	-8127
ارهای	-8128
▁اهتز	-8129
▁بازآ	-8130
▁بجنب	-8131
▁بدشت	-8132
▁برگم	-8133
▁بچاک	-8134
▁بکشت	-8135
▁تنفس	-8136
▁جزیه	-8137
▁حبذا	-8138
▁خلطت	-8139
▁رحمن	-8140
▁رحیل	-8141
▁سریر	-8142
▁سکون	-8143
▁شهپر	-8144
▁شومش	-8145
▁شکرخ	-8146
▁صفای	-8147
▁صیام	-8148
▁طپان	-8149
▁فاتح	-8150
▁فدای	-8151
▁فرات	-8152
▁فرسا	-8153
▁فهمی	-8154
▁فگنم	-8155
▁موجب	-8156
▁نصره	-8157
▁هایش	-8158
▁اردوی	-8159
▁بخشود	-8160
▁برخرد	-8161
▁بودمی	-8162
▁خوشیم	-8163
▁ذبیحی	-8164
▁رباست	-8165
▁سپارد	-8166
▁شدندش	-8167
▁قسوره	-8168
▁مباهی	-8169
▁مرجان	-8170
▁منبری	-8171
▁ناشاد	-8172
▁نغنود	-8173
▁نقیبی	-8174
▁پرخطر	-8175
▁کالان	-8176
▁کامدم	-8177
▁کانون	-8178
▁کبابت	-8179
▁کجایت	-8180
▁کردار	-8181
▁کسالت	-8182
▁کفران	-8183
▁کلیسا	-8184
▁کلیچه	-8185
▁کمانی	-8186
▁کنونم	-8187
▁کوثرش	-8188
▁کونین	-8189
▁کوهست	-8190
▁گانیم	-8191
▁گدازد	-8192
▁گدایش	-8193
▁گذشتش	-8194
▁گذشتن	-8195
▁گذشتی	-8196
▁گریزی	-8197
▁گریند	-8198
▁گزیند	-8199
قن	-8200
أله	-8201
بیا	-8202
ردد	-8203
عرض	-8204
بایم	-8205
دردی	-8206
زارش	-8207
پرسد	-8208
▁آبر	-8209
▁امن	-8210
▁ریو	-8211
▁زقن	-8212
▁قفل	-8213
▁هوی	-8214
▁پرچ	-8215
ابانی	-8216
شیمان	-8217
عامند	-8218
ندگان	-8219
▁اردی	-8220
▁ایست	-8221
▁بحیر	-8222
▁بعرض	-8223
▁دهنی	-8224
▁رادی	-8225
▁سرخی	-8226
▁سرین	-8227
▁عصای	-8228
▁عیدم	-8229
▁غلای	-8230
▁فنای	-8231
▁نهند	-8232
▁نیفت	-8233
▁هیجا	-8234
▁وجای	-8235
▁پلید	-8236
▁چارم	-8237
▁یکشب	-8238
▁آبروی	-8239
▁اجماع	-8240
▁انبیا	-8241
▁بحالم	-8242
▁بشنفت	-8243
▁بشکاف	-8244
▁بگشای	-8245
▁تافتی	-8246
▁دهانش	-8247
▁زاویه	-8248
▁سالکی	-8249
▁شاهدی	-8250
▁صافدل	-8251
▁مسأله	-8252
▁ناورد	-8253
▁نشکند	-8254
▁نفرین	-8255
▁همایی	-8256
▁هویدا	-8257
▁پرچمی	-8258
▁کافتد	-8259
▁گشایم	-8260
▁گلبنش	-8261
▁گلشنی	-8262
▁گلنار	-8263
▁گویدت	-8264
▁گیاهی	-8265
▁گیرمش	-8266
▁یافتم	-8267
▁یماقی	-8268
▁یمانش	-8269
▁یمانی	-8270
▁یکتای	-8271
▁یکدوس	-8272
▁یکنظر	-8273
انداختی	-8274
اندازیم	-8275
جوانمرد	-8276
سمانهای	-8277
شنامشان	-8278
ندیلهای	-8279
وشیروان	-8280
گریبانم	-8281
یندارند	-8282
▁آراستی	-8283
▁آرایان	-8284
▁آستانم	-8285
▁آسمانش	-8286
▁آسیایی	-8287
▁آشناست	-8288
▁آشکارش	-8289
▁آشیانه	-8290
▁آفریدن	-8291
▁آلایشم	-8292
▁آلودگی	-8293
▁آنانکه	-8294
▁ابوالن	-8295
▁اجتماع	-8296
▁احتمال	-8297
▁احتیاج	-8298
▁اختصاص	-8299
أه	-8300
بق	-8301
رغ	-8302
بور	-8303
زدش	-8304
سنش	-8305
سیل	-8306
عای	-8307
نگو	-8308
▁زص	-8309
▁غش	-8310
رمرا	-8311
لیلی	-8312
ژگون	-8313
▁آنخ	-8314
▁افو	-8315
▁رسی	-8316
▁لکی	-8317
▁مشم	-8318
▁نعر	-8319
▁پیل	-8320
▁کنز	-8321
ایعقل	-8322
▁آنخط	-8323
▁اویی	-8324
▁بران	-8325
▁برهت	-8326
▁بیمن	-8327
▁بیوز	-8328
▁ترسی	-8329
▁خاره	-8330
▁رجوع	-8331
▁زصید	-8332
▁سابق	-8333
▁شرکت	-8334
▁طارم	-8335
▁قاآن	-8336
▁قبول	-8337
▁لاغر	-8338
▁مشمر	-8339
▁نجنب	-8340
▁نشأه	-8341
▁نعره	-8342
▁چاکم	-8343
▁گسیل	-8344
اندگان	-8345
مینالم	-8346
▁آرایی	-8347
▁اشکها	-8348
▁افواج	-8349
▁بحسرت	-8350
▁تعلیم	-8351
▁توزین	-8352
▁توسنش	-8353
▁جوییش	-8354
▁حقایق	-8355
▁حیرتی	-8356
▁خرابم	-8357
▁خلیلی	-8358
▁ریزدت	-8359
▁زارها	-8360
▁زبانش	-8361
▁زنبور	-8362
▁سخنگو	-8363
▁سیمرغ	-8364
▁صنمان	-8365
▁مدعای	-8366
▁مراست	-8367
▁میلاد	-8368
▁نازند	-8369
▁نثارت	-8370
▁نخستت	-8371
▁ندزدش	-8372
▁نهادا	-8373
▁پنجره	-8374
▁کدخدا	-8375
▁کیستی	-8376
▁اثرمرا	-8377
▁ارتفاع	-8378
▁ارغنون	-8379
▁اروندم	-8380
▁ازقندم	-8381
▁استران	-8382
▁اسلامی	-8383
▁اشتران	-8384
▁اشتغال	-8385
▁اصطبلت	-8386
▁اعتماد	-8387
▁افکنند	-8388
▁اقلیمی	-8389
▁البریه	-8390
▁التباس	-8391
▁التفات	-8392
▁التماس	-8393
▁التنور	-8394
▁التهاب	-8395
▁الجمیل	-8396
▁الحرام	-8397
▁السلام	-8398
▁العاشق	-8399
قع	-8400
انت	-8401
جور	-8402
قهه	-8403
ژبر	-8404
ییم	-8405
▁صم	-8406
▁لم	-8407
▁ید	-8408
ابور	-8409
روشم	-8410
شاند	-8411
متین	-8412
هقهه	-8413
▁اجر	-8414
▁بدم	-8415
▁سوء	-8416
▁صحف	-8417
▁صوت	-8418
▁غاز	-8419
▁مام	-8420
▁معد	-8421
▁کمش	-8422
▁کهر	-8423
داریت	-8424
ژبران	-8425
یلسان	-8426
▁بهات	-8427
▁جغدم	-8428
▁درده	-8429
▁دعوا	-8430
▁عامت	-8431
▁عمرش	-8432
▁قیدی	-8433
▁مرقع	-8434
▁معدن	-8435
▁همتی	-8436
▁کاود	-8437
▁کشمت	-8438
▁کشیم	-8439
▁کنده	-8440
▁کیشت	-8441
▁یادت	-8442
افشاند	-8443
▁آرزوم	-8444
▁ارزیز	-8445
▁بازند	-8446
▁بخنده	-8447
▁بزشتی	-8448
▁بسازم	-8449
▁بنگری	-8450
▁بکشتن	-8451
▁بیاور	-8452
▁جلادت	-8453
▁جوانش	-8454
▁حریفی	-8455
▁خیالی	-8456
▁دامنم	-8457
▁دیجور	-8458
▁دیدمش	-8459
▁روایت	-8460
▁روشنش	-8461
▁زمردم	-8462
▁سیماب	-8463
▁غازیش	-8464
▁قهقهه	-8465
▁مدارش	-8466
▁مطلبت	-8467
▁نهفتن	-8468
▁کآییم	-8469
▁کهربا	-8470
▁گفتمی	-8471
▁آشیانی	-8472
▁اخلاقش	-8473
▁العداو	-8474
▁المتین	-8475
▁الوندم	-8476
▁اندازه	-8477
▁اندوهی	-8478
▁انصافت	-8479
▁انعامم	-8480
▁انعکاس	-8481
▁انگشتش	-8482
▁اهتزاز	-8483
▁اوستاد	-8484
▁ایستاد	-8485
▁اینقدر	-8486
▁بآستین	-8487
▁بآفرین	-8488
▁باختنت	-8489
▁بازآید	-8490
▁بازتاب	-8491
▁بازویت	-8492
▁باقبال	-8493
▁بالاتر	-8494
▁بالیده	-8495
▁بایستم	-8496
▁باینجا	-8497
▁ببارید	-8498
▁ببالید	-8499
بو	-8500
قد	-8501
سود	-8502
▁رف	-8503
▁رگ	-8504
▁سق	-8505
▁ضب	-8506
▁چغ	-8507
▁یم	-8508
شربه	-8509
قهای	-8510
نهاد	-8511
▁ازک	-8512
▁افز	-8513
▁انس	-8514
▁درس	-8515
▁دغل	-8516
▁رهز	-8517
▁زوی	-8518
▁ضبط	-8519
▁عصب	-8520
▁قسم	-8521
▁پاش	-8522
▁کسب	-8523
▁آیند	-8524
▁ازلی	-8525
▁الاخ	-8526
▁ببری	-8527
▁بدنب	-8528
▁برسر	-8529
▁برهش	-8530
▁بمقر	-8531
▁بنقد	-8532
▁جستم	-8533
▁حوضش	-8534
▁دهنم	-8535
▁رفاه	-8536
▁شباب	-8537
▁شمعم	-8538
▁عاجز	-8539
▁عالی	-8540
▁فقیر	-8541
▁منبر	-8542
▁نورد	-8543
▁پخته	-8544
▁چاکی	-8545
▁گوشت	-8546
▁یکاد	-8547
▁ازکفر	-8548
▁بسگان	-8549
▁بگوشه	-8550
▁حرفها	-8551
▁خموشی	-8552
▁رفتمی	-8553
▁روبیم	-8554
▁سقایه	-8555
▁شیرها	-8556
▁طریقت	-8557
▁ظلمات	-8558
▁مرتبه	-8559
▁مشربه	-8560
▁مشکبو	-8561
▁میسود	-8562
▁نداده	-8563
▁نسیمش	-8564
▁چغانه	-8565
▁چمانش	-8566
▁کردست	-8567
▁کمندش	-8568
▁یارها	-8569
▁افزوده	-8570
▁انگبین	-8571
▁ببحرین	-8572
▁ببخشود	-8573
▁بترصیع	-8574
▁بتسبیح	-8575
▁بتسدیس	-8576
▁بتغافل	-8577
▁بتوانش	-8578
▁بتکاپو	-8579
▁بتکبیر	-8580
▁بجوشید	-8581
▁بحیرتم	-8582
▁بخامان	-8583
▁بخرابه	-8584
▁بخلعتی	-8585
▁بخلیفه	-8586
▁بخوابت	-8587
▁بخوانم	-8588
▁بدخشان	-8589
▁بدراند	-8590
▁بدرگاه	-8591
▁بدنامی	-8592
▁بدنهاد	-8593
▁بدهقان	-8594
▁بدهنوز	-8595
▁برآرند	-8596
▁برآورم	-8597
▁برانیش	-8598
▁برانیم	-8599
بث	-8600
صل	-8601
مز	-8602
بیش	-8603
ثلی	-8604
سیح	-8605
شنی	-8606
ضای	-8607
گهی	-8608
▁بذ	-8609
▁تظ	-8610
▁چا	-8611
ثلیث	-8612
روزه	-8613
مزاج	-8614
نابی	-8615
وایی	-8616
▁آفت	-8617
▁اصم	-8618
▁تزل	-8619
▁حزن	-8620
▁زرت	-8621
▁ززن	-8622
▁صور	-8623
▁طلس	-8624
▁ممن	-8625
▁ناس	-8626
▁واگ	-8627
▁گری	-8628
▁گور	-8629
اصیان	-8630
راگاه	-8631
▁بخبر	-8632
▁بخلش	-8633
▁بذله	-8634
▁بردت	-8635
▁بعبث	-8636
▁بوصل	-8637
▁بکفش	-8638
▁تظلم	-8639
▁زنوا	-8640
▁سالت	-8641
▁صدره	-8642
▁ضعفم	-8643
▁فگنی	-8644
▁قضای	-8645
▁مجدر	-8646
▁مسیح	-8647
▁مولی	-8648
▁واله	-8649
▁واگذ	-8650
▁کندش	-8651
▁اسبیش	-8652
▁افکار	-8653
▁بانتظ	-8654
▁ببوسم	-8655
▁بتیغم	-8656
▁بخشند	-8657
▁بدگوی	-8658
▁برکان	-8659
▁برکند	-8660
▁تزلزل	-8661
▁جاذبه	-8662
▁جنابی	-8663
▁دارمت	-8664
▁رفتنت	-8665
▁ززنار	-8666
▁طلسمی	-8667
▁عذارش	-8668
▁فرخند	-8669
▁قسمتم	-8670
▁ممنون	-8671
▁نبودی	-8672
▁پارسی	-8673
▁پالان	-8674
▁چشمها	-8675
▁گزینی	-8676
▁آتشگهی	-8677
▁بتثلیث	-8678
▁بدستار	-8679
▁برباید	-8680
▁بربندد	-8681
▁بربندم	-8682
▁برزانی	-8683
▁برسانی	-8684
▁برفتار	-8685
▁برقصیم	-8686
▁برناید	-8687
▁برچیده	-8688
▁برگذشت	-8689
▁برگردد	-8690
▁برگشتن	-8691
▁بریشان	-8692
▁بزنجیر	-8693
▁بستانی	-8694
▁بسپارد	-8695
▁بشاهان	-8696
▁بشمارم	-8697
▁بشیران	-8698
▁بصحرای	-8699
طرب	-8700
عار	-8701
▁دد	-8702
ایند	-8703
راوت	-8704
سیاه	-8705
ششان	-8706
▁ایل	-8707
▁بطر	-8708
▁ثنا	-8709
▁شهل	-8710
▁فرض	-8711
▁فضا	-8712
▁مان	-8713
▁موش	-8714
▁پیس	-8715
▁چاب	-8716
زایند	-8717
شیدمت	-8718
▁بخاش	-8719
▁براد	-8720
▁بردم	-8721
▁بکشم	-8722
▁بکند	-8723
▁توست	-8724
▁رفتش	-8725
▁سرکو	-8726
▁شهنش	-8727
▁فکرم	-8728
▁قالب	-8729
▁ممان	-8730
▁نهیب	-8731
▁چابک	-8732
▁کفار	-8733
▁کناس	-8734
▁آزادم	-8735
▁آغوشی	-8736
▁اشعار	-8737
▁برندی	-8738
▁بطرزی	-8739
▁بنوار	-8740
▁بپایه	-8741
▁تنشان	-8742
▁توایم	-8743
▁ثوابت	-8744
▁خاطرش	-8745
▁داشتش	-8746
▁دیدنت	-8747
▁رسیدش	-8748
▁سودها	-8749
▁شهلای	-8750
▁فتاوی	-8751
▁فصیحی	-8752
▁لخلخه	-8753
▁مشاعل	-8754
▁مشایی	-8755
▁مضراب	-8756
▁مضطرب	-8757
▁نمیرد	-8758
▁پرشور	-8759
▁پرویز	-8760
▁کمندم	-8761
▁کنایت	-8762
▁کنیتش	-8763
▁گنجور	-8764
▁اربعین	-8765
▁المقدس	-8766
▁بخاشاک	-8767
▁برادرم	-8768
▁بصیادی	-8769
▁بضاعتی	-8770
▁بطراوت	-8771
▁بطریقت	-8772
▁بفتراک	-8773
▁بفردای	-8774
▁بفردوس	-8775
▁بفرستی	-8776
▁بفرمای	-8777
▁بفریبد	-8778
▁بقصابی	-8779
▁بمخلوق	-8780
▁بمرادت	-8781
▁بمرتبه	-8782
▁بمردمک	-8783
▁بمردند	-8784
▁بمستان	-8785
▁بمشامی	-8786
▁بمیانه	-8787
▁بمیدان	-8788
▁بنازید	-8789
▁بناقوس	-8790
▁بناپاک	-8791
▁بناچار	-8792
▁بنخجیر	-8793
▁بنشینی	-8794
▁بنهاده	-8795
▁بنگاهی	-8796
▁بهرمند	-8797
▁بودشان	-8798
▁بودموی	-8799
▁ژ	-8800
▁وک	-8801
اشتن	-8802
اشنی	-8803
اهای	-8804
میرم	-8805
نالم	-8806
▁آنچ	-8807
▁برس	-8808
▁بول	-8809
▁خمی	-8810
▁زهز	-8811
▁زیش	-8812
▁سده	-8813
▁شید	-8814
▁قدت	-8815
▁قصب	-8816
▁لحن	-8817
▁نود	-8818
▁ژرف	-8819
امشان	-8820
شانیم	-8821
▁آهنی	-8822
▁اساس	-8823
▁انکی	-8824
▁ایوب	-8825
▁بدلش	-8826
▁بدنی	-8827
▁بعدم	-8828
▁بههم	-8829
▁بیدم	-8830
▁حزین	-8831
▁حلال	-8832
▁خونت	-8833
▁دوام	-8834
▁زخار	-8835
▁زهرم	-8836
▁زیشب	-8837
▁ساکن	-8838
▁سراج	-8839
▁سنین	-8840
▁طعنت	-8841
▁طلوع	-8842
▁غایت	-8843
▁منور	-8844
▁موکب	-8845
▁نعال	-8846
▁وزید	-8847
▁وکیل	-8848
▁آساید	-8849
▁انکیس	-8850
▁بجانش	-8851
▁بدنیا	-8852
▁بمویش	-8853
▁بنوشم	-8854
▁بولای	-8855
▁بچشمت	-8856
▁بگندم	-8857
▁حاصلی	-8858
▁حبیبم	-8859
▁خورند	-8860
▁دبیری	-8861
▁درهای	-8862
▁دلیرم	-8863
▁سطورش	-8864
▁شیدای	-8865
▁ضمیرم	-8866
▁عتابی	-8867
▁قادری	-8868
▁نیارد	-8869
▁هزارم	-8870
▁ونالم	-8871
▁پریدم	-8872
▁چاشنی	-8873
▁گفتنت	-8874
▁گیریم	-8875
▁آبادتر	-8876
▁آنچنان	-8877
▁افشانی	-8878
▁بخشنده	-8879
▁برساحل	-8880
▁بوفراس	-8881
▁بپرسید	-8882
▁بپهلوی	-8883
▁بچشمها	-8884
▁بگرفته	-8885
▁بگسسته	-8886
▁بگشاده	-8887
▁بگلبنی	-8888
▁بگلشنی	-8889
▁بگویند	-8890
▁بگویید	-8891
▁بگیردم	-8892
▁بیازید	-8893
▁بیاورد	-8894
▁بیتابی	-8895
▁بیجاست	-8896
▁بیجهتم	-8897
▁بیخبری	-8898
▁بیدادش	-8899
خن	-8900
لق	-8901
خبر	-8902
دود	-8903
شود	-8904
ویل	-8905
ینش	-8906
▁زز	-8907
▁طو	-8908
ازار	-8909
▁ببن	-8910
▁برک	-8911
▁بقم	-8912
▁توب	-8913
▁دمت	-8914
▁زای	-8915
▁سمی	-8916
▁عفت	-8917
▁فرم	-8918
▁مثل	-8919
▁مرث	-8920
▁منظ	-8921
▁نصب	-8922
▁ونی	-8923
▁بآشی	-8924
▁بساز	-8925
▁بسخن	-8926
▁بسرم	-8927
▁بکرم	-8928
▁بیاض	-8929
▁دبور	-8930
▁دشتم	-8931
▁زآهی	-8932
▁زانم	-8933
▁شفای	-8934
▁شنعت	-8935
▁طوبی	-8936
▁عجبا	-8937
▁لطفم	-8938
▁متقی	-8939
▁معلق	-8940
▁مقصد	-8941
▁منات	-8942
▁نارد	-8943
▁نانی	-8944
▁واقع	-8945
▁ودود	-8946
▁پلنگ	-8947
▁پیلت	-8948
▁کآهی	-8949
▁افگنی	-8950
▁باخبر	-8951
▁ببنیم	-8952
▁بردنم	-8953
▁برسان	-8954
▁بقمار	-8955
▁بیارد	-8956
▁تحویل	-8957
▁توبوا	-8958
▁حواری	-8959
▁خوابی	-8960
▁ریختم	-8961
▁زانمه	-8962
▁زرینه	-8963
▁ززمین	-8964
▁طراری	-8965
▁ظاهرت	-8966
▁فرصتم	-8967
▁مرثیه	-8968
▁منظور	-8969
▁میشود	-8970
▁نهنگی	-8971
▁نگارش	-8972
▁نیاری	-8973
▁ونیاز	-8974
▁پسینش	-8975
▁کسانم	-8976
▁کشتنی	-8977
▁گذاشت	-8978
▁بانباز	-8979
▁ببینید	-8980
▁برکندم	-8981
▁بشورید	-8982
▁بلاییم	-8983
▁بپرهیز	-8984
▁بکاریم	-8985
▁بیدرنگ	-8986
▁بیرجیس	-8987
▁بیزاری	-8988
▁بیقرار	-8989
▁بیلشان	-8990
▁بیمایه	-8991
▁بیمدار	-8992
▁بیندیش	-8993
▁بیکسان	-8994
▁بیگنهی	-8995
▁تدبیرم	-8996
▁تشنگان	-8997
▁تغافلی	-8998
▁تلخکام	-8999
افع	-9000
بوس	-9001
سمن	-9002
طاف	-9003
نها	-9004
لافی	-9005
لبند	-9006
▁ارق	-9007
▁انش	-9008
▁توو	-9009
▁جهل	-9010
▁رگش	-9011
▁فعل	-9012
▁منا	-9013
▁نحی	-9014
▁پود	-9015
▁چگل	-9016
▁یوز	-9017
▁یون	-9018
واستم	-9019
کندگی	-9020
▁اسحق	-9021
▁انشا	-9022
▁بساغ	-9023
▁بمنش	-9024
▁بکشی	-9025
▁بیضا	-9026
▁جگرن	-9027
▁خاند	-9028
▁داعی	-9029
▁دافع	-9030
▁روید	-9031
▁سترگ	-9032
▁سمور	-9033
▁سمین	-9034
▁عملی	-9035
▁غموس	-9036
▁فوجی	-9037
▁قدوم	-9038
▁قدیر	-9039
▁نایم	-9040
▁نحیف	-9041
▁نخله	-9042
▁ندای	-9043
▁ندیم	-9044
▁نظمت	-9045
▁ننهد	-9046
▁نوحم	-9047
▁چاهی	-9048
▁کلیل	-9049
▁کوکو	-9050
▁گوشی	-9051
ستانان	-9052
▁آغازش	-9053
▁ارقمش	-9054
▁الطاف	-9055
▁انباز	-9056
▁بتنها	-9057
▁بجوید	-9058
▁بدریا	-9059
▁بساغر	-9060
▁بهادر	-9061
▁بینای	-9062
▁بینور	-9063
▁تارها	-9064
▁رویین	-9065
▁سپردم	-9066
▁مجهان	-9067
▁محکوم	-9068
▁میرسم	-9069
▁نساید	-9070
▁پاسخی	-9071
▁چمننم	-9072
▁گشودم	-9073
▁یاسمن	-9074
▁بتلافی	-9075
▁بخوانی	-9076
▁بدفتری	-9077
▁بنوازم	-9078
▁تمنایت	-9079
▁تنگدلی	-9080
▁توانست	-9081
▁توانگر	-9082
▁توانیم	-9083
▁تودردی	-9084
▁ثوابست	-9085
▁جانگزا	-9086
▁جاهشان	-9087
▁جستجوی	-9088
▁جلالتش	-9089
▁جواسیس	-9090
▁جگرنات	-9091
▁حرامان	-9092
▁حربایم	-9093
▁حرزشان	-9094
▁حریفند	-9095
▁حمدلله	-9096
▁حکایتی	-9097
▁خاربنی	-9098
▁خاصیتی	-9099
جاع	-9100
عله	-9101
لهم	-9102
یرت	-9103
یلت	-9104
اندت	-9105
ایشی	-9106
جهان	-9107
دارش	-9108
ضلیل	-9109
لهان	-9110
▁بشش	-9111
▁ترس	-9112
▁تره	-9113
▁تله	-9114
▁خاد	-9115
▁داس	-9116
▁رکن	-9117
▁نشت	-9118
▁نصر	-9119
▁کره	-9120
انداز	-9121
اندام	-9122
اییده	-9123
بهاری	-9124
▁برکن	-9125
▁بشکل	-9126
▁ترنج	-9127
▁دهیم	-9128
▁دگرم	-9129
▁رزان	-9130
▁سرکن	-9131
▁شجاع	-9132
▁غنای	-9133
▁قلمش	-9134
▁لبوس	-9135
▁ملهم	-9136
▁مناس	-9137
▁مویش	-9138
▁میرس	-9139
▁هرجا	-9140
▁والا	-9141
▁پیله	-9142
▁کآرد	-9143
▁گردت	-9144
▁گریز	-9145
▁گشتش	-9146
▁آمدیم	-9147
▁بحیلت	-9148
▁بصیرت	-9149
▁بمیری	-9150
▁بگلاب	-9151
▁تضلیل	-9152
▁جوشان	-9153
▁حادثه	-9154
▁دیگرش	-9155
▁راهبر	-9156
▁سراغم	-9157
▁سرانش	-9158
▁عشقرا	-9159
▁عشقست	-9160
▁قمریش	-9161
▁مادری	-9162
▁مشعله	-9163
▁مناسب	-9164
▁نشترم	-9165
▁نیایی	-9166
▁هزارش	-9167
▁پرنده	-9168
▁گردیم	-9169
▁گزینم	-9170
▁گسترد	-9171
▁آموختم	-9172
▁ابلهان	-9173
▁استوار	-9174
▁بشمشیر	-9175
▁بنشسته	-9176
▁بینایی	-9177
▁خالدین	-9178
▁خالشان	-9179
▁خاموشی	-9180
▁خاندان	-9181
▁خاکشان	-9182
▁خاکیان	-9183
▁خاییده	-9184
▁خداییم	-9185
▁خراسان	-9186
▁خرامید	-9187
▁خردسال	-9188
▁خرسوار	-9189
▁خروشان	-9190
▁خریدار	-9191
▁خستگان	-9192
▁خشنودم	-9193
▁خطابخش	-9194
▁خفتمنه	-9195
▁خلوتگه	-9196
▁خنازیر	-9197
▁خندیدم	-9198
▁خواجگی	-9199
نف	-9200
تنب	-9201
غنی	-9202
نیت	-9203
نیس	-9204
پیش	-9205
▁عه	-9206
امنی	-9207
باید	-9208
رادی	-9209
رایش	-9210
سرور	-9211
▁حصر	-9212
▁دکه	-9213
▁رسل	-9214
▁شمر	-9215
▁پرن	-9216
داگرم	-9217
▁اژدر	-9218
▁ببال	-9219
▁بجگر	-9220
▁بکمر	-9221
▁جغدی	-9222
▁جمعی	-9223
▁خرگه	-9224
▁خمار	-9225
▁دویم	-9226
▁زردی	-9227
▁ساید	-9228
▁سروش	-9229
▁صافش	-9230
▁صباح	-9231
▁صلیح	-9232
▁عاید	-9233
▁عهدی	-9234
▁فرقی	-9235
▁قاید	-9236
▁قطار	-9237
▁مصنف	-9238
▁منعت	-9239
▁نامح	-9240
▁نرست	-9241
▁نپیم	-9242
▁هفته	-9243
▁هوسم	-9244
▁هوشش	-9245
▁گلها	-9246
▁یارت	-9247
▁یاور	-9248
▁یاوه	-9249
دیوارش	-9250
▁آمدیش	-9251
▁ازپیش	-9252
▁امنیت	-9253
▁بازان	-9254
▁بامید	-9255
▁بایره	-9256
▁بغرقه	-9257
▁بیاید	-9258
▁بیتاب	-9259
▁تاشان	-9260
▁تجنیس	-9261
▁جنگجو	-9262
▁خیزان	-9263
▁دامیم	-9264
▁زدودی	-9265
▁سپرده	-9266
▁مجتنب	-9267
▁مخلوق	-9268
▁میرند	-9269
▁نبرده	-9270
▁پیکرم	-9271
▁چونکه	-9272
▁کاران	-9273
▁کارگر	-9274
▁کشیشی	-9275
▁گردنت	-9276
▁گوهرت	-9277
▁گویست	-9278
▁گوییا	-9279
▁استبرق	-9280
▁السرور	-9281
▁خواران	-9282
▁خواستن	-9283
▁خوانیم	-9284
▁خواهدم	-9285
▁خواهید	-9286
▁خواهیش	-9287
▁خوایقش	-9288
▁خوردیم	-9289
▁خونبار	-9290
▁خونشان	-9291
▁داشتند	-9292
▁دانسته	-9293
▁دانستی	-9294
▁داوریش	-9295
▁دبیران	-9296
▁دختران	-9297
▁دخترکی	-9298
▁درآمدم	-9299
استم	-9300
انمت	-9301
▁بکد	-9302
▁خیش	-9303
▁طشت	-9304
▁عیس	-9305
▁هدر	-9306
▁چای	-9307
▁کشا	-9308
▁آبله	-9309
▁آتشت	-9310
▁اندی	-9311
▁اولم	-9312
▁بتگر	-9313
▁برجم	-9314
▁بسفر	-9315
▁بنظم	-9316
▁بنوی	-9317
▁بویا	-9318
▁بیشر	-9319
▁بینو	-9320
▁تأمل	-9321
▁جاهی	-9322
▁حقوق	-9323
▁خاکت	-9324
▁دادت	-9325
▁دادر	-9326
▁درمت	-9327
▁رازه	-9328
▁رهین	-9329
▁سموم	-9330
▁شریک	-9331
▁شعاع	-9332
▁مرغک	-9333
▁مسوس	-9334
▁ناهی	-9335
▁نروم	-9336
▁نمیخ	-9337
▁نمیش	-9338
▁پرسد	-9339
▁کوست	-9340
▁گویت	-9341
▁اندرم	-9342
▁اندود	-9343
▁برایت	-9344
▁بناید	-9345
▁بکاری	-9346
▁بکدام	-9347
▁جمالی	-9348
▁حرامت	-9349
▁دادمی	-9350
▁دادیم	-9351
▁داماد	-9352
▁دردسر	-9353
▁رهبان	-9354
▁زابرو	-9355
▁سوادش	-9356
▁شاهنش	-9357
▁عیسوی	-9358
▁غلامت	-9359
▁مداین	-9360
▁مردند	-9361
▁میکال	-9362
▁نهایت	-9363
▁پیاله	-9364
▁کوبان	-9365
▁گفتمت	-9366
▁گمگشت	-9367
▁گویید	-9368
▁گوییش	-9369
▁ارجمند	-9370
▁اعتکاف	-9371
▁امیران	-9372
▁اندیشی	-9373
▁بالایی	-9374
▁بتقدیس	-9375
▁براهیم	-9376
▁بنویسم	-9377
▁بیشرمی	-9378
▁بینوات	-9379
▁حکیمان	-9380
▁دادرسم	-9381
▁دراییم	-9382
▁دردانه	-9383
▁دردشان	-9384
▁دردیست	-9385
▁درمانش	-9386
▁درنگری	-9387
▁درویشی	-9388
▁دریاست	-9389
▁دریوزه	-9390
▁دزدیدی	-9391
▁دستانت	-9392
▁دسترسی	-9393
▁دستگهم	-9394
▁دشمنیت	-9395
▁دعاهای	-9396
▁دلاویز	-9397
▁دلباخت	-9398
▁دلبردن	-9399
لما	-9400
وهل	-9401
ارتی	-9402
ایدت	-9403
زاده	-9404
▁آرش	-9405
▁بکو	-9406
▁تلک	-9407
▁خلت	-9408
▁رخی	-9409
▁رسن	-9410
▁سقر	-9411
▁قدی	-9412
▁مدی	-9413
▁نمر	-9414
▁نوخ	-9415
▁نوک	-9416
▁هلک	-9417
داشان	-9418
▁آهها	-9419
▁آگهت	-9420
▁املم	-9421
▁بامی	-9422
▁بجنگ	-9423
▁بزند	-9424
▁بکور	-9425
▁خوشا	-9426
▁داغت	-9427
▁رطلی	-9428
▁رمال	-9429
▁زریر	-9430
▁سلما	-9431
▁سیاو	-9432
▁ظلیل	-9433
▁فارس	-9434
▁فلکت	-9435
▁مستم	-9436
▁مونس	-9437
▁نوبر	-9438
▁هارب	-9439
▁کاوه	-9440
▁کنمش	-9441
▁گامت	-9442
▁اجابت	-9443
▁امیدم	-9444
▁ایستم	-9445
▁بدوری	-9446
▁بستمت	-9447
▁بکشیم	-9448
▁رسایی	-9449
▁صیدکش	-9450
▁فرستم	-9451
▁فروهل	-9452
▁مدیحت	-9453
▁مرداد	-9454
▁مردمت	-9455
▁مردمی	-9456
▁مردود	-9457
▁مردیم	-9458
▁نمرود	-9459
▁ننهند	-9460
▁پرسیم	-9461
▁کاشته	-9462
▁کایدت	-9463
▁کلاوه	-9464
▁یاوری	-9465
▁استاده	-9466
▁افغانم	-9467
▁بتانست	-9468
▁بجنبید	-9469
▁بشارتی	-9470
▁بندگیش	-9471
▁تاریخش	-9472
▁خواریم	-9473
▁خوششان	-9474
▁دلجویت	-9475
▁دلخواه	-9476
▁دلسوزی	-9477
▁دلنواز	-9478
▁دمبدمش	-9479
▁دمسازی	-9480
▁دوازده	-9481
▁دواییم	-9482
▁دودکان	-9483
▁دیدارت	-9484
▁دیدیاز	-9485
▁رازتان	-9486
▁راهبرم	-9487
▁راهشان	-9488
▁رداشان	-9489
▁ررخامه	-9490
▁رستگان	-9491
▁رسوایی	-9492
▁رسولان	-9493
▁رنجیدی	-9494
▁رنگینی	-9495
▁رهاندم	-9496
▁رهانند	-9497
▁رهروان	-9498
▁رهزنان	-9499
اجر	-9500
تیا	-9501
رهی	-9502
یغم	-9503
تیاز	-9504
دانه	-9505
فرست	-9506
نتاب	-9507
ویدم	-9508
گانت	-9509
▁جزع	-9510
▁جزو	-9511
▁حوت	-9512
▁ختا	-9513
▁سوا	-9514
▁شرا	-9515
▁شهس	-9516
▁ضیم	-9517
▁مجد	-9518
▁نخی	-9519
▁چست	-9520
راخته	-9521
نتابد	-9522
وفنون	-9523
یدگان	-9524
▁آزری	-9525
▁ابدا	-9526
▁بجسم	-9527
▁بمار	-9528
▁بویش	-9529
▁تنان	-9530
▁جزای	-9531
▁خدام	-9532
▁رواج	-9533
▁زدای	-9534
▁سوار	-9535
▁سیمش	-9536
▁شبلی	-9537
▁شموس	-9538
▁شهور	-9539
▁شودت	-9540
▁شگون	-9541
▁ضیغم	-9542
▁فاجر	-9543
▁مرغش	-9544
▁مروت	-9545
▁مشکی	-9546
▁مهرت	-9547
▁مواج	-9548
▁نخری	-9549
▁نخلم	-9550
▁نخلی	-9551
▁نرهی	-9552
▁نروی	-9553
▁نطقش	-9554
▁هستم	-9555
▁پندم	-9556
▁پیرش	-9557
▁کشتم	-9558
▁کنیه	-9559
▁یکره	-9560
▁الرشد	-9561
▁اگرچه	-9562
▁بدامت	-9563
▁توتیا	-9564
▁خطشان	-9565
▁سواقی	-9566
▁شمرده	-9567
▁شهیدم	-9568
▁عطاری	-9569
▁ماهها	-9570
▁مشکلی	-9571
▁ممتاز	-9572
▁مگریز	-9573
▁نخستم	-9574
▁نکشته	-9575
▁هامون	-9576
▁پذیره	-9577
▁پیرار	-9578
▁گیردش	-9579
فرستادم	-9580
▁افسونی	-9581
▁افشاند	-9582
▁امتیاز	-9583
▁بدامنش	-9584
▁بلندتر	-9585
▁بلورین	-9586
▁بیشترک	-9587
▁جانانه	-9588
▁ذوفنون	-9589
▁رهنمای	-9590
▁رهیدند	-9591
▁روحانی	-9592
▁روسیاه	-9593
▁ریاییم	-9594
▁ریختنش	-9595
▁زابروی	-9596
▁زبیمار	-9597
▁زسودای	-9598
▁زعفران	-9599
شنو	-9600
نگار	-9601
▁بتل	-9602
▁تبه	-9603
▁جشن	-9604
▁ریح	-9605
▁ریس	-9606
▁عطر	-9607
▁نقل	-9608
▁هنا	-9609
▁ورع	-9610
▁کآل	-9611
دهاست	-9612
▁آردت	-9613
▁آگین	-9614
▁بارم	-9615
▁بتلخ	-9616
▁بتنم	-9617
▁بجرگ	-9618
▁بجشن	-9619
▁بطحا	-9620
▁بقهر	-9621
▁تابت	-9622
▁خارم	-9623
▁خبرش	-9624
▁دربه	-9625
▁درجم	-9626
▁دزدی	-9627
▁زلال	-9628
▁شنبه	-9629
▁شودم	-9630
▁شوقم	-9631
▁شیره	-9632
▁فتوی	-9633
▁مارش	-9634
▁مشنو	-9635
▁مضمر	-9636
▁نارم	-9637
▁نظری	-9638
▁نظیر	-9639
▁نگهش	-9640
▁چیده	-9641
▁گرمی	-9642
▁آمدنم	-9643
▁ازواج	-9644
▁ازینت	-9645
▁بباغم	-9646
▁بریشم	-9647
▁بسترم	-9648
▁بشویی	-9649
▁بلندت	-9650
▁حضرتت	-9651
▁خسروش	-9652
▁دلیلم	-9653
▁دیارم	-9654
▁ریاست	-9655
▁زاغان	-9656
▁سوادی	-9657
▁شکارم	-9658
▁شیرده	-9659
▁علاوه	-9660
▁فگندم	-9661
▁مردنم	-9662
▁هرروز	-9663
▁وفاتم	-9664
▁چهارم	-9665
▁آرزویش	-9666
▁برگرفت	-9667
▁بزنگار	-9668
▁بستگان	-9669
▁بفرستم	-9670
▁بگسلند	-9671
▁بیمارم	-9672
▁دندانت	-9673
▁روشندل	-9674
▁ریحانی	-9675
▁زمردین	-9676
▁زمسیحا	-9677
▁زنبیلش	-9678
▁زنجبیل	-9679
▁زنجیری	-9680
▁زورمند	-9681
▁زیارتش	-9682
▁زیردست	-9683
▁ساعیان	-9684
▁سامعان	-9685
▁ساکنان	-9686
▁ساکنند	-9687
▁سایبان	-9688
▁ستارها	-9689
▁ستمکشی	-9690
▁سحرگاه	-9691
▁سربلند	-9692
▁سرتاسر	-9693
▁سرشتند	-9694
▁سرپنجه	-9695
▁سرکشان	-9696
▁سرکشته	-9697
▁سرگران	-9698
▁سرگشته	-9699
اتت	-9700
زدد	-9701
سنت	-9702
اردت	-9703
دارو	-9704
زدای	-9705
سیمه	-9706
مشده	-9707
ویدن	-9708
▁اسپ	-9709
▁حیل	-9710
▁سها	-9711
▁شرح	-9712
▁صحر	-9713
▁فرف	-9714
▁لیس	-9715
▁محو	-9716
▁کآس	-9717
چوگان	-9718
یداشت	-9719
▁آهنت	-9720
▁اسبت	-9721
▁بجنت	-9722
▁بخطر	-9723
▁برآش	-9724
▁حرفش	-9725
▁خدات	-9726
▁خداش	-9727
▁داست	-9728
▁دلها	-9729
▁دهنش	-9730
▁رسدت	-9731
▁رسدم	-9732
▁زدیم	-9733
▁زنام	-9734
▁سخره	-9735
▁سپار	-9736
▁شاهو	-9737
▁شکنش	-9738
▁فتور	-9739
▁قلزم	-9740
▁معیل	-9741
▁نیند	-9742
▁همزد	-9743
▁هیکل	-9744
▁وایه	-9745
▁وصفت	-9746
▁وعیش	-9747
▁چرخه	-9748
▁کآری	-9749
▁یهود	-9750
▁احسنت	-9751
▁اسبان	-9752
▁باردت	-9753
▁بدزدد	-9754
▁بردنش	-9755
▁بزمین	-9756
▁بنالم	-9757
▁بنگرد	-9758
▁بهرجا	-9759
▁بهمین	-9760
▁بودنش	-9761
▁بکمین	-9762
▁بیمین	-9763
▁تیرها	-9764
▁تیرگی	-9765
▁حمامم	-9766
▁دعایی	-9767
▁دویدن	-9768
▁دیدنش	-9769
▁روزنت	-9770
▁سروشی	-9771
▁سعایت	-9772
▁شماتت	-9773
▁شمارد	-9774
▁قراری	-9775
▁ماهیش	-9776
▁چنینم	-9777
▁گمشده	-9778
▁آنشاهد	-9779
▁اسپندم	-9780
▁بنشانم	-9781
▁حوریان	-9782
▁خوانین	-9783
▁زچوگان	-9784
▁سزاوار	-9785
▁سفلگان	-9786
▁سلاخان	-9787
▁سلاطین	-9788
▁سلطانم	-9789
▁سنجیدی	-9790
▁سندروس	-9791
▁سنگدلی	-9792
▁سیمابی	-9793
▁شاخساز	-9794
▁شامیان	-9795
▁شانزده	-9796
▁شاهاتا	-9797
▁شاهباز	-9798
▁شاهدان	-9799
اقم	-9800
دلت	-9801
علام	-9802
گاها	-9803
▁بسم	-9804
▁بمه	-9805
▁جنه	-9806
▁حجت	-9807
▁حجر	-9808
▁روض	-9809
▁ظفر	-9810
▁ودل	-9811
▁کجش	-9812
▁آریش	-9813
▁آماج	-9814
▁آمال	-9815
▁باغت	-9816
▁برخم	-9817
▁برگو	-9818
▁بسرو	-9819
▁تیغش	-9820
▁تیغی	-9821
▁حرفم	-9822
▁خورم	-9823
▁رنگی	-9824
▁صدای	-9825
▁قاقم	-9826
▁معده	-9827
▁منبع	-9828
▁نباش	-9829
▁نخلش	-9830
▁نیزه	-9831
▁وحوش	-9832
▁ورند	-9833
▁کشدش	-9834
▁گذرش	-9835
▁یادی	-9836
▁اسامی	-9837
▁اعلام	-9838
▁الحزن	-9839
▁بارگه	-9840
▁بدبین	-9841
▁جامیش	-9842
▁جبینش	-9843
▁حلالت	-9844
▁خدایت	-9845
▁خماری	-9846
▁خوریم	-9847
▁دانیش	-9848
▁دریغم	-9849
▁روضات	-9850
▁صدایی	-9851
▁عصاره	-9852
▁عنانش	-9853
▁غبارش	-9854
▁قاصدم	-9855
▁مشگین	-9856
▁معدلت	-9857
▁میانش	-9858
▁مینای	-9859
▁میگشت	-9860
▁نشانش	-9861
▁نکوست	-9862
▁نیکون	-9863
▁کجاوه	-9864
▁کمینه	-9865
▁گنجها	-9866
▁آوردیش	-9867
▁آوردیم	-9868
▁امروزت	-9869
▁امروزم	-9870
▁دونانش	-9871
▁زمستان	-9872
▁سوگندم	-9873
▁شایسته	-9874
▁شددیار	-9875
▁شراریش	-9876
▁شفاییم	-9877
▁شقیقها	-9878
▁شمارمش	-9879
▁شمارند	-9880
▁شمشیرت	-9881
▁شنفتند	-9882
▁شنفتنی	-9883
▁شهدنوش	-9884
▁شهسوار	-9885
▁شهنامه	-9886
▁شهنشاه	-9887
▁شهیدند	-9888
▁شکایتم	-9889
▁شکرریز	-9890
▁شکستند	-9891
▁شکفتنی	-9892
▁شیرازه	-9893
▁صحرایی	-9894
▁صددانه	-9895
▁صطرلاب	-9896
▁صیدخام	-9897
▁صیدکشی	-9898
▁صیدگاه	-9899
سارش	-9900
▁الی	-9901
▁بما	-9902
▁جمم	-9903
▁ربم	-9904
▁شیب	-9905
▁ملت	-9906
▁واس	-9907
▁ایاغ	-9908
▁باطل	-9909
▁برخش	-9910
▁بسرش	-9911
▁بسیج	-9912
▁بسیل	-9913
▁بفخر	-9914
▁بلال	-9915
▁بملک	-9916
▁تارش	-9917
▁جاری	-9918
▁خارش	-9919
▁خلاص	-9920
▁خوبی	-9921
▁دوشش	-9922
▁رباب	-9923
▁ربای	-9924
▁ربود	-9925
▁رنجی	-9926
▁زربر	-9927
▁زرنگ	-9928
▁زرین	-9929
▁زماه	-9930
▁سالی	-9931
▁سلمی	-9932
▁سودن	-9933
▁سوزش	-9934
▁سیدی	-9935
▁شکرت	-9936
▁عارش	-9937
▁فنون	-9938
▁فکان	-9939
▁مستت	-9940
▁مستش	-9941
▁معشر	-9942
▁معلم	-9943
▁پروا	-9944
▁کلید	-9945
▁گرین	-9946
▁ابروش	-9947
▁الحذر	-9948
▁باشدت	-9949
▁باشدش	-9950
▁بتموز	-9951
▁بسایه	-9952
▁بلایی	-9953
▁بمکتب	-9954
▁بهارش	-9955
▁جمشان	-9956
▁جوادی	-9957
▁خراشی	-9958
▁دارید	-9959
▁دوشین	-9960
▁رنجشم	-9961
▁روزیی	-9962
▁زراهی	-9963
▁سازند	-9964
▁سلاله	-9965
▁سوزها	-9966
▁شکستم	-9967
▁علیهم	-9968
▁مرحمت	-9969
▁مندیل	-9970
▁ناکام	-9971
▁واسطه	-9972
▁وصلست	-9973
▁کنارش	-9974
▁گرداب	-9975
▁ببندند	-9976
▁تابدار	-9977
▁خوارتر	-9978
▁شاهانش	-9979
▁ضیمران	-9980
▁طایران	-9981
▁طبیبان	-9982
▁طرارند	-9983
▁طواویس	-9984
▁طوطیان	-9985
▁طیلسان	-9986
▁ظفرمند	-9987
▁ظلمانی	-9988
▁عاصیان	-9989
▁عروسان	-9990
▁عریانی	-9991
▁عشرتگه	-9992
▁عطاران	-9993
▁عقابان	-9994
▁عقیقها	-9995
▁عیاران	-9996
▁عیارند	-9997
▁عیسویش	-9998
▁غافلان	-9999
اسق	-10000
لتق	-10001
هاش	-10002
▁ضو	-10003
یزدش	-10004
▁بشو	-10005
▁جهد	-10006
▁علت	-10007
▁غنا	-10008
▁یزل	-10009
خندان	-10010
وریوس	-10011
▁آیات	-10012
▁اویس	-10013
▁بختش	-10014
▁بخلت	-10015
▁بعیش	-10016
▁بلعل	-10017
▁بوعد	-10018
▁تواش	-10019
▁توهم	-10020
▁جفات	-10021
▁خلعت	-10022
▁خلقش	-10023
▁ستمم	-10024
▁شناس	-10025
▁شهدا	-10026
▁طلسم	-10027
▁فاسق	-10028
▁فردی	-10029
▁للتق	-10030
▁مسلس	-10031
▁مسوز	-10032
▁میلت	-10033
▁نالی	-10034
▁نفسش	-10035
▁وشاخ	-10036
▁وصلش	-10037
▁پاکش	-10038
▁پرسم	-10039
▁کامل	-10040
▁کسوف	-10041
▁گستا	-10042
▁ببینی	-10043
▁بریزد	-10044
▁بگوهر	-10045
▁بیدلم	-10046
▁بیمهر	-10047
▁بینمش	-10048
▁تفلیس	-10049
▁خستگی	-10050
▁خوانی	-10051
▁خوردت	-10052
▁دادیش	-10053
▁رازها	-10054
▁رشکند	-10055
▁رشکها	-10056
▁رقیبی	-10057
▁زمینم	-10058
▁سارها	-10059
▁سرپشت	-10060
▁فزودی	-10061
▁مسلسل	-10062
▁مشکوی	-10063
▁ملکیت	-10064
▁مکنون	-10065
▁نمردم	-10066
▁ننشست	-10067
▁هیچگه	-10068
▁وصالی	-10069
▁پاکان	-10070
▁پرسدم	-10071
▁پندار	-10072
▁کانجا	-10073
▁گاهان	-10074
▁آشیانش	-10075
▁باصحاب	-10076
▁بیدلیل	-10077
▁خوانند	-10078
▁خواهدت	-10079
▁درخانه	-10080
▁غبارند	-10081
▁غرقابم	-10082
▁غریبان	-10083
▁غلطانم	-10084
▁غمازند	-10085
▁غمخانه	-10086
▁غمزدای	-10087
▁غوغایی	-10088
▁فتادیش	-10089
▁فرادیس	-10090
▁فرارها	-10091
▁فراروش	-10092
▁فردایی	-10093
▁فرزندم	-10094
▁فرستمش	-10095
▁فرستند	-10096
▁فرسوده	-10097
▁فرمایی	-10098
▁فرمودش	-10099
عیون	-10100
▁آوه	-10101
▁ذنب	-10102
▁سکر	-10103
▁صفی	-10104
▁نفی	-10105
▁کثر	-10106
▁آخرت	-10107
▁آفات	-10108
▁بارت	-10109
▁بامش	-10110
▁بجهد	-10111
▁برکش	-10112
▁برگل	-10113
▁بزهد	-10114
▁بسعی	-10115
▁بعدل	-10116
▁بعذر	-10117
▁بمزد	-10118
▁تاکش	-10119
▁خندم	-10120
▁خویی	-10121
▁خیری	-10122
▁درجی	-10123
▁رقصم	-10124
▁سترد	-10125
▁ستوه	-10126
▁سنگی	-10127
▁شاخه	-10128
▁صدفی	-10129
▁عادم	-10130
▁فروغ	-10131
▁قدیم	-10132
▁لحدش	-10133
▁لطفی	-10134
▁مشکو	-10135
▁نکشم	-10136
▁وگرت	-10137
▁چشید	-10138
▁کوری	-10139
▁گشای	-10140
▁گنجم	-10141
▁گندم	-10142
▁آوازی	-10143
▁اخترت	-10144
▁اشارت	-10145
▁بامری	-10146
▁بجفای	-10147
▁بجویی	-10148
▁بشمار	-10149
▁بپرسی	-10150
▁بکشتم	-10151
▁تسبیح	-10152
▁حسرتی	-10153
▁خوردش	-10154
▁داریش	-10155
▁داریم	-10156
▁دهندم	-10157
▁روزنش	-10158
▁ساختم	-10159
▁سپاهش	-10160
▁سیاست	-10161
▁سیاله	-10162
▁شبانی	-10163
▁فروشی	-10164
▁فروکش	-10165
▁لرزدت	-10166
▁نبویی	-10167
▁نهادم	-10168
▁وعالی	-10169
▁پیاپی	-10170
▁کثرتم	-10171
▁گروهی	-10172
▁گلشنم	-10173
▁یوسفم	-10174
▁آرمیدم	-10175
▁امامان	-10176
▁بامیدی	-10177
▁برگیرم	-10178
▁بلندان	-10179
▁بنشستم	-10180
▁بیاران	-10181
▁حرمگاه	-10182
▁درخورش	-10183
▁دلیران	-10184
▁رنجوری	-10185
▁سوختمی	-10186
▁شرمناک	-10187
▁فرنگیس	-10188
▁فروشان	-10189
▁فرونده	-10190
▁فریدون	-10191
▁فزودیش	-10192
▁فشانان	-10193
▁فشاندش	-10194
▁فشاندم	-10195
▁فشانده	-10196
▁فشانیم	-10197
▁فقراست	-10198
▁فقیران	-10199
ترش	-10200
اشتش	-10201
تمام	-10202
▁ابد	-10203
▁زحی	-10204
▁زهم	-10205
▁سهم	-10206
▁لآل	-10207
اریتی	-10208
▁آریم	-10209
▁برهم	-10210
▁بشوی	-10211
▁بشیر	-10212
▁بمشت	-10213
▁بچار	-10214
▁بچون	-10215
▁بچین	-10216
▁تندی	-10217
▁دلقش	-10218
▁دهمش	-10219
▁رندی	-10220
▁زدست	-10221
▁سرها	-10222
▁شترش	-10223
▁شدمش	-10224
▁شعیب	-10225
▁صفات	-10226
▁صفوت	-10227
▁ضلیل	-10228
▁قدحی	-10229
▁قدمش	-10230
▁قصدش	-10231
▁قفلم	-10232
▁قلیل	-10233
▁مویه	-10234
▁میخی	-10235
▁ناقص	-10236
▁کلیم	-10237
▁آنسان	-10238
▁ابالی	-10239
▁اتمام	-10240
▁بدلبر	-10241
▁تأسیس	-10242
▁تاجیک	-10243
▁ترسمش	-10244
▁حرمان	-10245
▁حلولی	-10246
▁خرمنش	-10247
▁داغها	-10248
▁دلتنگ	-10249
▁دینند	-10250
▁روزتر	-10251
▁ریاضی	-10252
▁زیانی	-10253
▁صدبار	-10254
▁علیست	-10255
▁فراقش	-10256
▁فریبی	-10257
▁مغانی	-10258
▁منتفی	-10259
▁مویان	-10260
▁نشنید	-10261
▁نگهند	-10262
▁نیازت	-10263
▁پشمین	-10264
▁کمندی	-10265
▁گذارت	-10266
▁گمانی	-10267
▁افتادش	-10268
▁بدخویی	-10269
▁بزرگیی	-10270
▁بهارها	-10271
▁خدایرا	-10272
▁خوردنم	-10273
▁دلدوزت	-10274
▁دوباره	-10275
▁رخسارم	-10276
▁ریختیم	-10277
▁زندگان	-10278
▁سیمگون	-10279
▁عاریتی	-10280
▁فگندند	-10281
▁فیلقوس	-10282
▁قاصرات	-10283
▁قرارها	-10284
▁قربانی	-10285
▁قطارها	-10286
▁قمریان	-10287
▁لاجورد	-10288
▁لاعلاج	-10289
▁لایعقل	-10290
▁لرزانی	-10291
▁لییمان	-10292
▁مؤمنات	-10293
▁ماخسته	-10294
▁مانداز	-10295
▁ماندنت	-10296
▁ماندند	-10297
▁ماندیم	-10298
▁مانندم	-10299
▁دز	-10300
▁غوص	-10301
▁نحل	-10302
▁بحدی	-10303
▁بحلت	-10304
▁بحمد	-10305
▁بدهم	-10306
▁بستش	-10307
▁بصبح	-10308
▁تلخم	-10309
▁جبار	-10310
▁جودم	-10311
▁ذباب	-10312
▁زدند	-10313
▁سالش	-10314
▁صفرا	-10315
▁فکند	-10316
▁مشعل	-10317
▁پدرش	-10318
▁گداز	-10319
▁اشکال	-10320
▁الطبع	-10321
▁بجانب	-10322
▁بحالی	-10323
▁بروید	-10324
▁بشگون	-10325
▁بهارا	-10326
▁بکعبه	-10327
▁جرمیش	-10328
▁دربار	-10329
▁دیرین	-10330
▁سالار	-10331
▁سرطان	-10332
▁سرکند	-10333
▁سوزدم	-10334
▁شوییش	-10335
▁صفایی	-10336
▁مشامی	-10337
▁مغانه	-10338
▁منزلش	-10339
▁نوشید	-10340
▁وعامی	-10341
▁پارها	-10342
▁کارها	-10343
▁آذرگون	-10344
▁آفتابش	-10345
▁ترسیده	-10346
▁خاوران	-10347
▁خوردند	-10348
▁زنگاری	-10349
▁عالمند	-10350
▁فراخور	-10351
▁ماورای	-10352
▁مبیناد	-10353
▁محتشمی	-10354
▁محجوبه	-10355
▁محمودش	-10356
▁مخدرات	-10357
▁مخورید	-10358
▁مدارید	-10359
▁مردانه	-10360
▁مردشان	-10361
▁مردمان	-10362
▁مرزبان	-10363
▁مرغوله	-10364
▁مرغکان	-10365
▁مریدان	-10366
▁مریضیم	-10367
▁مزمارش	-10368
▁مستجار	-10369
▁مستجیر	-10370
▁مستغنی	-10371
▁مستوری	-10372
▁مسکینی	-10373
▁مشکبوی	-10374
▁مشکبیز	-10375
▁مشکسای	-10376
▁مشکینش	-10377
▁مشکینه	-10378
▁مضمونش	-10379
▁مطربان	-10380
▁معاینه	-10381
▁معشوقی	-10382
▁معصومه	-10383
▁معموری	-10384
▁مغیلان	-10385
▁مفرمای	-10386
▁مقصودت	-10387
▁مقیمان	-10388
▁ملازمت	-10389
▁ملاقات	-10390
▁ملایکش	-10391
▁منزلگه	-10392
▁منصوبه	-10393
▁مهارها	-10394
▁مهرشان	-10395
▁موسویش	-10396
▁مولودش	-10397
▁مکتوبی	-10398
▁مگیرید	-10399
▁میازار	-10400
▁میاموز	-10401
▁میباید	-10402
▁میجویی	-10403
▁میخورد	-10404
▁میدارم	-10405
▁میداشت	-10406
▁میزانش	-10407
▁میزنند	-10408
▁میسوزم	-10409
▁میشمرد	-10410
▁میطپید	-10411
▁میمیرم	-10412
▁مینازد	-10413
▁مینگرم	-10414
▁میچرند	-10415
▁میچیدم	-10416
▁میکردی	-10417
▁میکشتم	-10418
▁میکشتی	-10419
▁میکشیم	-10420
▁میگذرم	-10421
▁میگذشت	-10422
▁میگرید	-10423
▁میگریم	-10424
▁میگسار	-10425
▁میگوید	-10426
▁میگیری	-10427
▁ناآشنا	-10428
▁ناامید	-10429
▁نازاده	-10430
▁ناسفته	-10431
▁ناشکیب	-10432
▁ناصحان	-10433
▁ناصواب	-10434
▁نالیدم	-10435
▁نالیده	-10436
▁نالیدی	-10437
▁نامحرم	-10438
▁ناورده	-10439
▁ناچارم	-10440
▁ناکامی	-10441
▁ناگفتن	-10442
▁نبارند	-10443
▁نباشدت	-10444
▁نبخارد	-10445
▁نبردند	-10446
▁نبردیم	-10447
▁نبندند	-10448
▁نثاریش	-10449
▁نخروشم	-10450
▁نخستین	-10451
▁نخواست	-10452
▁نخواهی	-10453
▁نخورند	-10454
▁نخیزند	-10455
▁ندادند	-10456
▁ندارید	-10457
▁نداشتم	-10458
▁ندانست	-10459
▁ندمیده	-10460
▁ندیمان	-10461
▁نرانند	-10462
▁نرباید	-10463
▁نزهتگه	-10464
▁نسازند	-10465
▁نسیمند	-10466
▁نشاءاش	-10467
▁نشابور	-10468
▁نشاندت	-10469
▁نشاندی	-10470
▁نشانها	-10471
▁نشمرده	-10472
▁نشناسم	-10473
▁نشکسته	-10474
▁نشکیبد	-10475
▁نشینان	-10476
▁نظامیم	-10477
▁نعمانم	-10478
▁نفرستد	-10479
▁نفروشم	-10480
▁نفریبد	-10481
▁نماندش	-10482
▁نمودند	-10483
▁نمکدان	-10484
▁نمیدهد	-10485
▁نمیرسد	-10486
▁نمیروم	-10487
▁نمیشوم	-10488
▁ننشسته	-10489
▁ننشستی	-10490
▁ننماید	-10491
▁ننمودت	-10492
▁ننهاده	-10493
▁ننهفتی	-10494
▁ننویسد	-10495
▁نهادند	-10496
▁نهفتنی	-10497
▁نوازند	-10498
▁نوخطان	-10499
▁نورانی	-10500
▁نوروزی	-10501
▁نومیدش	-10502
▁نویسیم	-10503
▁نپذیرد	-10504
▁نپسندم	-10505
▁نپوشید	-10506
▁نگارها	-10507
▁نگاشتن	-10508
▁نگرفتم	-10509
▁نگرفته	-10510
▁نگشتند	-10511
▁نگفتمت	-10512
▁نگفتنم	-10513
▁نگویدت	-10514
▁نیافتم	-10515
▁نیافته	-10516
▁نیایدم	-10517
▁نیاییم	-10518
▁نیستان	-10519
▁نیستند	-10520
▁نیفتاد	-10521
▁نیلگون	-10522
▁نیکمرد	-10523
▁نیکنام	-10524
▁همرهان	-10525
▁همزمان	-10526
▁همنفسی	-10527
▁همنوای	-10528
▁همچنان	-10529
▁همیگفت	-10530
▁هندوست	-10531
▁هواییم	-10532
▁هوششان	-10533
▁هوشیار	-10534
▁هژبران	-10535
▁وارسته	-10536
▁وارستی	-10537
▁واضحات	-10538
▁واعظان	-10539
▁وامگیر	-10540
▁واپسین	-10541
▁واژگون	-10542
▁واگذار	-10543
▁ورزانی	-10544
▁ولادتش	-10545
▁ویرانی	-10546
▁پافگند	-10547
▁پاکباز	-10548
▁پایانش	-10549
▁پایبوس	-10550
▁پایشان	-10551
▁پراگند	-10552
▁پرستار	-10553
▁پرسیدم	-10554
▁پرسیده	-10555
▁پرسیدی	-10556
▁پروازش	-10557
▁پروازم	-10558
▁پروران	-10559
▁پروردم	-10560
▁پرورشت	-10561
▁پرورید	-10562
▁پشمینه	-10563
▁پندارم	-10564
▁پنهانی	-10565
▁پهلوان	-10566
▁پوستین	-10567
▁پوشیدم	-10568
▁پیداتر	-10569
▁پیداست	-10570
▁پیرایه	-10571
▁پیرهنش	-10572
▁پیشوای	-10573
▁پیشگاه	-10574
▁پیغمبر	-10575
▁پیموده	-10576
▁پیوندم	-10577
▁پیوندی	-10578
▁چارطبع	-10579
▁چاپلوس	-10580
▁چشاندی	-10581
▁چشمانش	-10582
▁چشمانم	-10583
▁چلیپای	-10584
▁چوماهی	-10585
▁چوپرسم	-10586
▁کآرایش	-10587
▁کآسمان	-10588
▁کآشیان	-10589
▁کآفتاب	-10590
▁کآلوده	-10591
▁کآورده	-10592
▁کارهای	-10593
▁کاسرار	-10594
▁کاشفته	-10595
▁کافگند	-10596
▁کاندرو	-10597
▁کبوتری	-10598
▁کردشان	-10599
▁کردگار	-10600
▁کشانرا	-10601
▁کشیدیش	-10602
▁کشیشان	-10603
▁کنعانی	-10604
▁کنیزان	-10605
▁کهغافل	-10606
▁کهکشان	-10607
▁کوهکنش	-10608
▁گاوانش	-10609
▁گداییم	-10610
▁گذارمت	-10611
▁گذاریم	-10612
▁گذاشتم	-10613
▁گذرانی	-10614
▁گذرگاه	-10615
▁گذشتیش	-10616
▁گرداشت	-10617
▁گردیدن	-10618
▁گرفتیم	-10619
▁گستاخم	-10620
▁گشادند	-10621
▁گشایند	-10622
▁گشتگان	-10623
▁گفتشان	-10624
▁گلفشان	-10625
▁گلناری	-10626
▁گلچینی	-10627
▁گمرهان	-10628
▁گنجوری	-10629
▁گهرریز	-10630
▁گوششان	-10631
▁گویاست	-10632
▁گیسوان	-10633
▁گیسویت	-10634
▁یادشان	-10635
▁یادگار	-10636
▁یاوریش	-10637
▁یعقوبم	-10638
▁یهودان	-10639
▁یکباره	-10640
▁یکخانه	-10641
▁یکدسته	-10642
▁یکروزه	-10643
▁آرزومند	-10644
▁آزادشان	-10645
▁آشفتگان	-10646
▁آشیانها	-10647
▁آمدستیم	-10648
▁آمیختند	-10649
▁آمیختیم	-10650
▁آوارگیم	-10651
▁آوازتان	-10652
▁آوازشان	-10653
▁ابراهیم	-10654
▁ارمغانت	-10655
▁ارمغانی	-10656
▁ازمحاسن	-10657
▁استخراج	-10658
▁استدراج	-10659
▁استغفار	-10660
▁استمزاج	-10661
▁اسرافیل	-10662
▁اسماعیل	-10663
▁اشتیاقت	-10664
▁اشکبارش	-10665
▁اضطرابی	-10666
▁افتادمت	-10667
▁افتادگی	-10668
▁افراختی	-10669
▁افریدون	-10670
▁افسرشان	-10671
▁افسونگر	-10672
▁افشانان	-10673
▁افشاندش	-10674
▁افشانده	-10675
▁الاخلاق	-10676
▁الاعادی	-10677
▁الایمان	-10678
▁التعجیل	-10679
▁التفاتش	-10680
▁العداوة	-10681
▁القساوه	-10682
▁النبیین	-10683
▁امتحانش	-10684
▁امتحانی	-10685
▁انباشته	-10686
▁انتظارم	-10687
▁انتقامت	-10688
▁اندامها	-10689
▁اندوختم	-10690
▁انعامند	-10691
▁انگشتها	-10692
▁اوفتادت	-10693
▁اوفتادی	-10694
▁اژدهاوش	-10695
▁اکسیرها	-10696
▁اگرغارت	-10697
▁اینچنین	-10698
▁بآشیانش	-10699
▁بابلیان	-10700
▁بادامها	-10701
▁بازآوری	-10702
▁بازگردد	-10703
▁باضطراب	-10704
▁باغبانا	-10705
▁باغبانش	-10706
▁بافسانه	-10707
▁بالرؤوس	-10708
▁بالعیون	-10709
▁بانتظار	-10710
▁باندازه	-10711
▁بایستمش	-10712
▁ببازویت	-10713
▁بتختگاه	-10714
▁بخرامند	-10715
▁بخشایشی	-10716
▁بخشیدمت	-10717
▁بخوابگه	-10718
▁بخویشتن	-10719
▁بدخوییم	-10720
▁بدرویشی	-10721
▁بدلجویی	-10722
▁بدنبالت	-10723
▁بدوستان	-10724
▁بدگمانم	-10725
▁برآساید	-10726
▁برآشفتم	-10727
▁برابردی	-10728
▁برایشان	-10729
▁برخاستم	-10730
▁برخاستی	-10731
▁بردارند	-10732
▁برداشتم	-10733
▁برقیبان	-10734
▁برنابرم	-10735
▁برنایدم	-10736
▁برنتابد	-10737
▁برندارد	-10738
▁برهنگان	-10739
▁برهگذار	-10740
▁برگردند	-10741
▁برگرفتم	-10742
▁برگرفته	-10743
▁بزرگانه	-10744
▁بستانند	-10745
▁بستگانش	-10746
▁بسرچشمه	-10747
▁بشاگردی	-10748
▁بشتافتی	-10749
▁بشماریم	-10750
▁بشکافند	-10751
▁بعدازین	-10752
▁بعدهاست	-10753
▁بغریبان	-10754
▁بغلامان	-10755
▁بفتراکم	-10756
▁بلقیسان	-10757
▁بمحرومی	-10758
▁بمسکینی	-10759
▁بمشاطگی	-10760
▁بمعموری	-10761
▁بمقیمان	-10762
▁بمنزلگه	-10763
▁بمیخانه	-10764
▁بنامیزد	-10765
▁بناگوشش	-10766
▁بناگوشی	-10767
▁بنشانیم	-10768
▁بهزاران	-10769
▁بهمرهان	-10770
▁بوالعجب	-10771
▁بوتیمار	-10772
▁بودژاله	-10773
▁بوزجمهر	-10774
▁بولایات	-10775
▁بویرانی	-10776
▁بپاخاست	-10777
▁بپاسبان	-10778
▁بپرداخت	-10779
▁بپرهیزی	-10780
▁بپرورده	-10781
▁بپرورمت	-10782
▁بچراگاه	-10783
▁بکاشانه	-10784
▁بگذاریم	-10785
▁بگذراند	-10786
▁بگرداند	-10787
▁بگریبان	-10788
▁بگشایند	-10789
▁بگلرخان	-10790
▁بگمانند	-10791
▁بیخبران	-10792
▁بیدآباد	-10793
▁بیدارها	-10794
▁بیقرارش	-10795
▁بیهوشیم	-10796
▁بیچارگی	-10797
▁بیکلاهی	-10798
▁بیگناهم	-10799
▁بیگنهان	-10800
▁تأثیرها	-10801
▁تاجداری	-10802
▁تدبیرها	-10803
▁ترازخون	-10804
▁تراشیده	-10805
▁تزویرها	-10806
▁تغییرها	-10807
▁تماشاگه	-10808
▁تماشایت	-10809
▁توانایی	-10810
▁جانفزای	-10811
▁جوالهای	-10812
▁جوانبخش	-10813
▁جولانگه	-10814
▁حاتمشان	-10815
▁حاسدانت	-10816
▁حقگزاری	-10817
▁خامششان	-10818
▁خاموشند	-10819
▁خاکسترش	-10820
▁خداوندم	-10821
▁خداوندی	-10822
▁خرامنده	-10823
▁خرامیده	-10824
▁خستگانش	-10825
▁خوابشان	-10826
▁خواستند	-10827
▁خودبینی	-10828
▁خودنقاب	-10829
▁خوشخرام	-10830
▁خوشگوار	-10831
▁خونبهای	-10832
▁خیابانی	-10833
▁دامانان	-10834
▁دانشورش	-10835
▁دانشوری	-10836
▁درختانش	-10837
▁دردآشام	-10838
▁دردمندت	-10839
▁دردمندی	-10840
▁دردکشان	-10841
▁دریاخیز	-10842
▁دستگیری	-10843
▁دلداریت	-10844
▁دلربایی	-10845
▁دلستانی	-10846
▁دلشکسته	-10847
▁دلشکنان	-10848
▁دلفروزم	-10849
▁دماوندم	-10850
▁دوزخیان	-10851
▁دوسترین	-10852
▁دگرانند	-10853
▁ذوالمنن	-10854
▁رازهاست	-10855
▁راهگذار	-10856
▁رستخیزش	-10857
▁رستمشان	-10858
▁رستگاری	-10859
▁رنجاندت	-10860
▁رنجانمت	-10861
▁روزبروز	-10862
▁روزنامه	-10863
▁روزگارش	-10864
▁روزگارم	-10865
▁روستایی	-10866
▁زآتشکده	-10867
▁زاندیشه	-10868
▁زاهدانش	-10869
▁زراعیان	-10870
▁زرافشان	-10871
▁زرفشانم	-10872
▁زنخدانت	-10873
▁زپاسبان	-10874
▁زپیمانه	-10875
▁سازگاری	-10876
▁ستمگران	-10877
▁سحانگیز	-10878
▁سحرورند	-10879
▁سراسیمه	-10880
▁سراپرده	-10881
▁سرخوشان	-10882
▁سرفرازت	-10883
▁سرگشاده	-10884
▁سطرلابش	-10885
▁سلیمانی	-10886
▁سمرقندم	-10887
▁سنجیدند	-10888
▁سوختگان	-10889
▁سوداییم	-10890
▁سپارندم	-10891
▁شاخسارش	-10892
▁شاهدباز	-10893
▁شاهنشهی	-10894
▁شاهوارش	-10895
▁شایستگی	-10896
▁شفاخانه	-10897
▁شمشیرها	-10898
▁شنیدندی	-10899
▁شهرستان	-10900
▁شهریاری	-10901
▁شهیدانت	-10902
▁شهیدانش	-10903
▁شکرخندی	-10904
▁شکرستان	-10905
▁شکرفشان	-10906
▁شیرینیش	-10907
▁شیفتگان	-10908
▁صاحبدلی	-10909
▁صدرنشین	-10910
▁صیادمهر	-10911
▁ضمیراست	-10912
▁عاشقانت	-10913
▁عندلیبا	-10914
▁غلامانت	-10915
▁غمگساری	-10916
▁فادخلوا	-10917
▁فراموشی	-10918
▁فرخندگی	-10919
▁فرستادت	-10920
▁فرستادی	-10921
▁فسونهاش	-10922
▁فشاندند	-10923
▁قاصددلم	-10924
▁قایمقام	-10925
▁قربانیی	-10926
▁قمارباز	-10927
▁قنادیلش	-10928
▁لباسشان	-10929
▁للتقلیل	-10930
▁لوحیهای	-10931
▁محتشمان	-10932
▁مرغزارش	-10933
▁مسکینان	-10934
▁مشاییان	-10935
▁مشکبارش	-10936
▁معزولیش	-10937
▁معشوقان	-10938
▁معلومات	-10939
▁مغناطیس	-10940
▁مقدمشان	-10941
▁ممنونند	-10942
▁مهربانم	-10943
▁مهرورزی	-10944
▁مهرپرور	-10945
▁مهمانان	-10946
▁مهمانیم	-10947
▁مومیایی	-10948
▁مژگانان	-10949
▁میتوانم	-10950
▁میخواهد	-10951
▁میخواهم	-10952
▁میخوردم	-10953
▁میدویدم	-10954
▁میرسیدم	-10955
▁میریزدش	-10956
▁میزبانی	-10957
▁میشمردم	-10958
▁میطلبند	-10959
▁میفشانی	-10960
▁مینالید	-10961
▁مینمودت	-10962
▁میگساری	-10963
▁میگفتمش	-10964
▁ناتمامت	-10965
▁ناشکیبی	-10966
▁نافرجام	-10967
▁ناقوسها	-10968
▁نامحرمی	-10969
▁نامرادی	-10970
▁ناکاسته	-10971
▁ناگزیرم	-10972
▁نبخشیدی	-10973
▁نتوانست	-10974
▁نجنبیدی	-10975
▁نخجیرها	-10976
▁نخوانده	-10977
▁نخواهند	-10978
▁ندادندم	-10979
▁نداشتند	-10980
▁ندانسته	-10981
▁نستانند	-10982
▁نشاندند	-10983
▁نشاندیش	-10984
▁نشماریش	-10985
▁نشناختم	-10986
▁نشناختی	-10987
▁نشکستند	-10988
▁نفاقشان	-10989
▁نفروشند	-10990
▁نفزایند	-10991
▁نلرزیدت	-10992
▁نمکدانت	-10993
▁نمیتوان	-10994
▁نمیخردم	-10995
▁نمیدادم	-10996
▁نمیدادی	-10997
▁نمینالم	-10998
▁نمیپرسد	-10999
▁نواسنجی	-11000
▁نوبهاری	-11001
▁نوشخندت	-11002
▁نوشدارو	-11003
▁نونتیجه	-11004
▁نپسندمت	-11005
▁نگاهبان	-11006
▁نگذارند	-11007
▁نگذاشتم	-11008
▁نگرانند	-11009
▁نگردیدی	-11010
▁نیارستی	-11011
▁نیاموخت	-11012
▁نیاکانت	-11013
▁نیستولی	-11014
▁نیفروزد	-11015
▁نیوشنده	-11016
▁نیکونام	-11017
▁هشیاریت	-11018
▁همدمانش	-11019
▁همزبانش	-11020
▁همزبانم	-11021
▁همسایگی	-11022
▁همصحبتی	-11023
▁همیکردش	-11024
▁وافؤادی	-11025
▁وامانده	-11026
▁واگذارم	-11027
▁وفاداری	-11028
▁پادشاهی	-11029
▁پادشهان	-11030
▁پادشهند	-11031
▁پاکشیده	-11032
▁پاکوبان	-11033
▁پایمالم	-11034
▁پراکندی	-11035
▁پراگندم	-11036
▁پرفتوحش	-11037
▁پرفشانی	-11038
▁پرنیانی	-11039
▁پروبالی	-11040
▁پریشانت	-11041
▁پسندیده	-11042
▁پشیمانی	-11043
▁پنداشتش	-11044
▁پولادین	-11045
▁پیراسته	-11046
▁پیراستی	-11047
▁پیراهنت	-11048
▁پیرمغان	-11049
▁پیشانیم	-11050
▁پیشیمان	-11051
▁پیمانان	-11052
▁پیوستیم	-11053
▁چاپلوسی	-11054
▁چاکرانت	-11055
▁چندانکه	-11056
▁کآسمانی	-11057
▁کارفرما	-11058
▁کارکنان	-11059
▁کافتاده	-11060
▁کافروخت	-11061
▁کاندرین	-11062
▁کبریاست	-11063
▁کریمانه	-11064
▁کشتزارش	-11065
▁کشتگانم	-11066
▁گاهگاهی	-11067
▁گذرگاهی	-11068
▁گرانبها	-11069
▁گردیدنش	-11070
▁گرفتارم	-11071
▁گرفتندش	-11072
▁گریبانم	-11073
▁گستاخیم	-11074
▁گلستانم	-11075
▁گمشدگان	-11076
▁یادگارش	-11077
▁یاراییم	-11078
▁یافتندی	-11079
▁یکدوسال	-11080
▁آرزومندم	-11081
▁آموزگارش	-11082
▁آوازهاست	-11083
▁ابروکمان	-11084
▁ابوالنصر	-11085
▁اخترشناس	-11086
▁ارجمندان	-11087
▁استخوانت	-11088
▁اسلامیان	-11089
▁اشراقیان	-11090
▁افتادشان	-11091
▁افتادگان	-11092
▁افراختمش	-11093
▁افسونگری	-11094
▁افلاسشان	-11095
▁افلاکیان	-11096
▁افگندشان	-11097
▁الحمدلله	-11098
▁امیدگاها	-11099
▁اندامشان	-11100
▁اندیشناک	-11101
▁اوستادان	-11102
▁ایستادگی	-11103
▁ایمانیان	-11104
▁بازخواست	-11105
▁باغبانان	-11106
▁بامدادان	-11107
▁بختیاران	-11108
▁بدلبریها	-11109
▁برانگیزم	-11110
▁برخوردار	-11111
▁برزیگران	-11112
▁برمکیانش	-11113
▁برگمارند	-11114
▁برینجهان	-11115
▁بندگانند	-11116
▁بنواراست	-11117
▁بهمسایگی	-11118
▁بوالعجبی	-11119
▁بودناخلف	-11120
▁بپاخاسته	-11121
▁بیوفایان	-11122
▁بیوفاییت	-11123
▁بیگناهان	-11124
▁تحقیقشان	-11125
▁توانستند	-11126
▁توفیقشان	-11127
▁تیرانداز	-11128
▁جهانداری	-11129
▁جوانمردی	-11130
▁جویباران	-11131
▁خاکساران	-11132
▁خدازردان	-11133
▁خوبرویان	-11134
▁خوردستند	-11135
▁خونبهایی	-11136
▁خونخواره	-11137
▁خونخواری	-11138
▁خونریزتر	-11139
▁دادخواهی	-11140
▁داستانها	-11141
▁داغداران	-11142
▁دانشوران	-11143
▁درافشاند	-11144
▁دردمندان	-11145
▁دوستدارا	-11146
▁دوستدارش	-11147
▁دیدارشان	-11148
▁راخواهیم	-11149
▁رامشگران	-11150
▁زابلیانش	-11151
▁زبردستند	-11152
▁زسرانگشت	-11153
▁زندگانیت	-11154
▁زگریبانم	-11155
▁سرگردانم	-11156
▁سیاووشان	-11157
▁شهانراست	-11158
▁شهریارند	-11159
▁شهید۱۱۹۲	-11160
▁شکرافشان	-11161
▁شکستگانت	-11162
▁صندوقهای	-11163
▁عنبرفشان	-11164
▁فرستادمت	-11165
▁فرفوریوس	-11166
▁فیروزبخت	-11167
▁قدرداریش	-11168
▁قندیلهای	-11169
▁ماهرویان	-11170
▁مهربانیت	-11171
▁میخواستم	-11172
▁میساختند	-11173
▁میشمارمت	-11174
▁میهمانان	-11175
▁میهمانیم	-11176
▁نازنینان	-11177
▁ناقوسشان	-11178
▁نشناختند	-11179
▁نفرستاده	-11180
▁نفرستادی	-11181
▁نمیتوانم	-11182
▁نمیگذارد	-11183
▁نوشخندان	-11184
▁نپیمایدم	-11185
▁نکونامان	-11186
▁نگارستان	-11187
▁نگذاشتند	-11188
▁نیازاریش	-11189
▁نیافریده	-11190
▁نیاموزند	-11191
▁نیاوردیش	-11192
▁نیکبختان	-11193
▁هاروتشان	-11194
▁وانداخته	-11195
▁پاسبانان	-11196
▁پافشارند	-11197
▁پاکدامنی	-11198
▁پاکیزگان	-11199
▁پرافشانم	-11200
▁پراکندگی	-11201
▁پریشانست	-11202
▁پریشانیم	-11203
▁پوشیدستم	-11204
▁چوخورشید	-11205
▁کانباشته	-11206
▁کاینچنین	-11207
▁کماندارت	-11208
▁گلرخساری	-11209
▁گلستانند	-11210
▁گلعذاران	-11211
▁گمگشتگان	-11212
▁گوسفندان	-11213
▁گوشواریش	-11214
▁یونانیان	-11215
▁انوشیروان	-11216
▁بدشنامشان	-11217
▁بدوشیزگان	-11218
▁برافراختم	-11219
▁برافراختی	-11220
▁برافراشته	-11221
▁براندازیم	-11222
▁بفرهمایون	-11223
▁بیاموختند	-11224
▁تماشاییان	-11225
▁تیرافگنان	-11226
▁حریراندام	-11227
▁خدمتگزاری	-11228
▁خودپسندان	-11229
▁خونخوارند	-11230
▁درانداختی	-11231
▁دلباختگان	-11232
▁دوستداریت	-11233
▁روزگاریست	-11234
▁ریسمانهای	-11235
▁سرافراخته	-11236
▁سرافگندگی	-11237
▁سراندازیم	-11238
▁شتابندگان	-11239
▁صیدافگنان	-11240
▁فرستادشان	-11241
▁فریادکنان	-11242
▁میفرستادم	-11243
▁ناجوانمرد	-11244
▁نامهربانی	-11245
▁ندانداگرم	-11246
▁نوسفرانند	-11247
▁نپیندارند	-11248
▁همراهانند	-11249
▁همصحبتانش	-11250
▁هواخواهان	-11251
▁واماندگان	-11252
▁پسندیدگان	-11253
▁باغبانزاده	-11254
▁بخرایخواجه	-11255
▁سرافگندگان	-11256
▁نارپستانان	-11257
▁کالانعامند	-11258
▁افتاددیوارش	-11259
▁امیدواریهای	-11260
▁بگوهرشناسان	-11261
▁محشور۱۱۷۱هق	-11262
۶ه	-11263
▁۵۹	-11264
▁۶۰	-11265
▁۶۱	-11266
▁۶۲	-11267
▁۶۳	-11268
▁۶۴	-11269
▁۶۵	-11270
▁۶۶	-11271
▁۶۷	-11272
▁۶۸	-11273
▁۶۹	-11274
▁۷۰	-11275
▁۷۱	-11276
▁۷۲	-11277
▁۷۳	-11278
▁۷۴	-11279
▁۷۵	-11280
▁۷۶	-11281
▁۷۷	-11282
▁۷۸	-11283
▁۷۹	-11284
▁۸۰	-11285
▁۸۱	-11286
▁۸۲	-11287
▁۸۳	-11288
▁۸۴	-11289
▁۸۵	-11290
▁۸۶	-11291
▁۸۷	-11292
▁۸۸	-11293
▁۸۹	-11294
▁۹۰	-11295
▁۹۱	-11296
▁۹۲	-11297
▁۹۳	-11298
▁۹۴	-11299
▁۹۵	-11300
▁۹۶	-11301
▁۹۷	-11302
▁۹۸	-11303
▁۹۹	-11304
۱۱۸۹	-11305
▁فوت	-11306
▁هین	-11307
▁۱۰۰	-11308
▁۱۰۱	-11309
▁۱۰۲	-11310
▁۱۰۳	-11311
▁۱۰۴	-11312
▁۱۰۵	-11313
▁۱۰۶	-11314
▁۱۰۷	-11315
▁۱۰۸	-11316
▁۱۰۹	-11317
▁۱۱۰	-11318
▁۱۱۱	-11319
▁۱۱۲	-11320
▁۱۱۳	-11321
▁۱۱۴	-11322
▁۱۱۵	-11323
▁۱۱۶	-11324
▁۱۱۷	-11325
▁۱۱۸	-11326
▁۱۲۰	-11327
▁۱۲۱	-11328
▁۱۲۲	-11329
▁۱۲۳	-11330
▁۱۲۴	-11331
▁۱۲۵	-11332
▁۱۲۶	-11333
▁۱۲۷	-11334
▁۱۲۸	-11335
▁۱۲۹	-11336
▁۱۳۰	-11337
▁۱۳۱	-11338
▁۱۳۲	-11339
▁۱۳۳	-11340
▁۱۳۴	-11341
▁۱۳۵	-11342
▁۱۳۶	-11343
▁۱۳۷	-11344
▁۱۳۸	-11345
▁۱۳۹	-11346
▁۱۴۰	-11347
▁۱۴۱	-11348
▁۱۴۲	-11349
▁۱۴۳	-11350
▁۱۴۴	-11351
▁۱۴۵	-11352
▁۱۴۶	-11353
▁۱۴۷	-11354
▁۱۴۸	-11355
▁۱۴۹	-11356
▁۱۵۰	-11357
▁۱۵۱	-11358
▁۱۵۲	-11359
▁۱۵۳	-11360
▁۱۵۴	-11361
▁۱۵۵	-11362
▁۱۵۶	-11363
▁۱۵۷	-11364
▁۱۵۸	-11365
▁۱۵۹	-11366
▁۱۶۰	-11367
▁۱۶۱	-11368
▁۱۶۲	-11369
▁۱۶۳	-11370
▁۱۶۴	-11371
▁۱۶۵	-11372
▁۱۶۶	-11373
▁۱۶۷	-11374
▁۱۶۸	-11375
▁۱۶۹	-11376
▁۱۷۰	-11377
▁۱۷۱	-11378
▁۱۷۲	-11379
▁۱۷۳	-11380
▁۱۷۴	-11381
▁۱۷۵	-11382
▁۱۷۶	-11383
▁۱۷۷	-11384
▁۱۷۸	-11385
▁۱۷۹	-11386
▁۱۸۰	-11387
▁۱۸۱	-11388
▁۱۸۲	-11389
▁۱۸۳	-11390
▁۱۸۴	-11391
▁۱۸۵	-11392
▁کلیات	-11393
أتم	-11394
ادث	-11395
افظ	-11396
حیی	-11397
سین	-11398
فاس	-11399
لکل	-11400
وبت	-11401
کهف	-11402
▁پو	-11403
سامی	-11404
شاعر	-11405
ظامی	-11406
عرکه	-11407
کامی	-11408
گامی	-11409
▁بحث	-11410
▁فوق	-11411
▁قوس	-11412
انامی	-11413
کلامی	-11414
▁الکل	-11415
▁بطبع	-11416
▁بکهف	-11417
▁حافظ	-11418
▁رامی	-11419
▁ریاض	-11420
▁سعدی	-11421
▁سهام	-11422
▁شامی	-11423
▁صریر	-11424
▁طامی	-11425
▁طبعت	-11426
▁عقلم	-11427
▁عیبی	-11428
▁عیشت	-11429
▁فامی	-11430
▁فلکم	-11431
▁قادر	-11432
▁نطاق	-11433
▁نظمش	-11434
▁وزیر	-11435
▁کمیت	-11436
▁یحیی	-11437
▁ازوست	-11438
▁المفر	-11439
▁امامی	-11440
▁انفاس	-11441
▁بادکه	-11442
▁بازگو	-11443
▁بنوبت	-11444
▁بیاری	-11445
▁تحسین	-11446
▁جرأتم	-11447
▁حمامه	-11448
▁حوادث	-11449
▁خوانم	-11450
▁دادار	-11451
▁زمانت	-11452
▁طوطیم	-11453
▁عارفم	-11454
▁فصاحت	-11455
▁مختار	-11456
▁منتظم	-11457
▁منحوس	-11458
▁پاسخش	-11459
▁پسران	-11460
▁گوهرش	-11461
▁بمعرکه	-11462
▁جنتشان	-11463
▁داناست	-11464
▁سخنوری	-11465
▁شاعران	-11466
▁شکستگی	-11467
▁صبحگاه	-11468
▁صبوحیم	-11469
▁هوشدار	-11470
▁پوسیده	-11471
▁الاسامی	-11472
▁الانامی	-11473
▁العظامی	-11474
▁الکلامی	-11475
▁انتظامی	-11476
▁بسرفشان	-11477
▁تیزگامی	-11478
▁روانشان	-11479
▁شادکامی	-11480
▁ناتمامی	-11481
▁نیکنامی	-11482
▁همهشاعر	-11483
▁همکلامی	-11484
▁خوشخرامی	-11485
.»	-11486
ئد	-11487
طع	-11488
۹ه	-11489
ئیم	-11490
بهٔ	-11491
حرا	-11492
فاف	-11493
شبند	-11494
طعات	-11495
۱۱۷۵	-11496
۱۱۷۶	-11497
۱۱۸۳	-11498
۱۱۸۵	-11499
۱۱۸۶	-11500
۱۱۸۸	-11501
۱۱۹۳	-11502
۱۱۹۴	-11503
▁ابن	-11504
▁۱۸۶	-11505
▁۱۸۷	-11506
▁۱۸۸	-11507
▁۱۸۹	-11508
▁۱۹۰	-11509
▁۱۹۱	-11510
▁۱۹۲	-11511
▁۱۹۳	-11512
▁۱۹۴	-11513
▁۱۹۵	-11514
▁۱۹۶	-11515
▁۱۹۷	-11516
▁۱۹۸	-11517
▁۱۹۹	-11518
▁۲۰۰	-11519
▁۲۰۱	-11520
▁۲۰۲	-11521
▁۲۰۳	-11522
▁۲۰۴	-11523
▁۲۰۵	-11524
▁۲۰۶	-11525
▁۲۰۷	-11526
البهٔ	-11527
۱۱۷۶ه	-11528
۱۱۷۹ه	-11529
۱۱۸۶ه	-11530
▁ایضا	-11531
▁خورش	-11532
▁زفاف	-11533
▁هجری	-11534
▁پائی	-11535
▁۱۱۹۰	-11536
▁بصحرا	-11537
▁تعریف	-11538
▁حلقهٔ	-11539
▁رباعی	-11540
▁عقربم	-11541
▁قطعهٔ	-11542
▁لشکری	-11543
▁نامدی	-11544
▁وفائی	-11545
▁یافتی	-11546
▁بیگدلی	-11547
▁نقشبند	-11548
▁اضطرابش	-11549
▁بیوفائی	-11550
▁مطالبهٔ	-11551
▁المقطعات	-11552
▁بدانگونه	-11553
ئر	-11554
دو	-11555
ضد	-11556
غش	-11557
لَ	-11558
هْ	-11559
َر	-11560
ِت	-11561
ِق	-11562
ْع	-11563
▁:	-11564
▁،	-11565
▁؛	-11566
ثار	-11567
حمت	-11568
رار	-11569
رفس	-11570
رمن	-11571
شده	-11572
طوف	-11573
قته	-11574
لمی	-11575
لَی	-11576
ونت	-11577
ونه	-11578
ِهْ	-11579
گهت	-11580
یعم	-11581
▁عَ	-11582
اریت	-11583
اشِق	-11584
الای	-11585
امیر	-11586
ایهٔ	-11587
بازی	-11588
جایی	-11589
ساوس	-11590
غرور	-11591
مردم	-11592
هایش	-11593
پدید	-11594
یرفی	-11595
▁بئر	-11596
▁بزد	-11597
▁حَر	-11598
▁درِ	-11599
▁زمی	-11600
▁زنف	-11601
▁سره	-11602
▁سوق	-11603
▁سیخ	-11604
▁شأن	-11605
▁طبل	-11606
▁عضد	-11607
▁غرق	-11608
▁نرخ	-11609
▁کِت	-11610
اختند	-11611
افگنی	-11612
خلقته	-11613
ستاره	-11614
طوفان	-11615
مرحمت	-11616
نداری	-11617
نگونت	-11618
وایان	-11619
پاکان	-11620
▁آثار	-11621
▁آرمش	-11622
▁آزرم	-11623
▁اخگر	-11624
▁ازمن	-11625
▁الْع	-11626
▁امرد	-11627
▁بمهر	-11628
▁بنقش	-11629
▁بیغش	-11630
▁تازد	-11631
▁جواز	-11632
▁حشرش	-11633
▁خمیر	-11634
▁دشتی	-11635
▁زائد	-11636
▁زحکم	-11637
▁سپید	-11638
▁شبهه	-11639
▁شفاف	-11640
▁شهاب	-11641
▁قائد	-11642
▁لوای	-11643
▁مخفی	-11644
▁مردش	-11645
▁مسند	-11646
▁معجر	-11647
▁منقش	-11648
▁نقاش	-11649
▁نگهد	-11650
▁نیرو	-11651
▁هوست	-11652
▁کبکم	-11653
▁کرفس	-11654
▁آسیای	-11655
▁اشاره	-11656
▁بارگی	-11657
▁بخرده	-11658
▁بخرمن	-11659
▁بخویش	-11660
▁برآیم	-11661
▁برونت	-11662
▁برویش	-11663
▁بیموی	-11664
▁بینان	-11665
▁ترازو	-11666
▁جملهٔ	-11667
▁خداست	-11668
▁خمیده	-11669
▁خندهٔ	-11670
▁دانهٔ	-11671
▁دیلمی	-11672
▁رخنهٔ	-11673
▁روزشن	-11674
▁رکابش	-11675
▁زدانه	-11676
▁ساختی	-11677
▁ستیزد	-11678
▁سربسر	-11679
▁شدخاص	-11680
▁شکوهٔ	-11681
▁صاحبش	-11682
▁صیرفی	-11683
▁ضحکهٔ	-11684
▁طپیده	-11685
▁عَلَی	-11686
▁عیارش	-11687
▁غبغبی	-11688
▁فرسنگ	-11689
▁قامتم	-11690
▁قرارم	-11691
▁لوحان	-11692
▁مایهٔ	-11693
▁محرمی	-11694
▁مطیعم	-11695
▁منزوی	-11696
▁مپذیر	-11697
▁میزنی	-11698
▁نامدت	-11699
▁نباشم	-11700
▁نبودت	-11701
▁نقشها	-11702
▁والای	-11703
▁وزیری	-11704
▁وساوس	-11705
▁پروای	-11706
▁پستهٔ	-11707
▁چشمهٔ	-11708
▁چهرهٔ	-11709
▁کالای	-11710
▁کایزد	-11711
▁کعبهٔ	-11712
▁کودکت	-11713
▁گردنش	-11714
▁گفتهٔ	-11715
▁یکسان	-11716
▁آوردمی	-11717
▁الامیر	-11718
▁القرار	-11719
▁بایوان	-11720
▁بحقیقت	-11721
▁بلرزید	-11722
▁تاختند	-11723
▁تختگاه	-11724
▁تذروان	-11725
▁خدائیم	-11726
▁خواندش	-11727
▁دامگاه	-11728
▁دردِهْ	-11729
▁رهاییت	-11730
▁زینسان	-11731
▁سروران	-11732
▁سوزندش	-11733
▁طریقهٔ	-11734
▁غوغائی	-11735
▁مویشان	-11736
▁ناپدید	-11737
▁نماندی	-11738
▁نکوهشت	-11739
▁نیکوست	-11740
▁هوائیم	-11741
▁هٰذانِ	-11742
▁وارونه	-11743
▁پرغرور	-11744
▁پیچیده	-11745
▁کوهسار	-11746
▁یزدانی	-11747
▁ازمرحمت	-11748
▁اضطرابت	-11749
▁اعتبارش	-11750
▁باستاره	-11751
▁بیوفاتر	-11752
▁حَرامان	-11753
▁خواندند	-11754
▁خوانشان	-11755
▁رامشگری	-11756
▁سرنگونت	-11757
▁شاهانست	-11758
▁شهوتستی	-11759
▁عشقبازی	-11760
▁لشکرگهت	-11761
▁نازارمت	-11762
▁ناپاکان	-11763
▁نقشبندش	-11764
▁نقشهایش	-11765
▁نپسندند	-11766
▁نپنداری	-11767
▁نیفتاده	-11768
▁کابروان	-11769
▁گوشواره	-11770
▁یکبارگی	-11771
▁الْعاشِق	-11772
▁ایوانشان	-11773
▁بوالهوسی	-11774
▁بینوایان	-11775
▁شهریاران	-11776
▁صیدافگنی	-11777
▁نگهداریت	-11778
▁هوسناکان	-11779
▁پرداختند	-11780
اظ	-11781
تخ	-11782
تس	-11783
ثا	-11784
ثی	-11785
جل	-11786
خج	-11787
خد	-11788
دِ	-11789
رط	-11790
سف	-11791
غا	-11792
فز	-11793
نپ	-11794
هب	-11795
هج	-11796
هٰ	-11797
یق	-11798
۰۰	-11799
لج	-11800
مف	-11801
کث	-11802
یء	-11803
یگ	-11804
۱۹	-11805
۲۲	-11806
۵۰	-11807
۶۰	-11808
۷۴	-11809
۹۰	-11810
۹۴	-11811
▁.	-11812
آهی	-11813
أسی	-11814
ابج	-11815
ابع	-11816
ابق	-11817
احب	-11818
اخا	-11819
ازت	-11820
ازش	-11821
ازگ	-11822
اشک	-11823
اطم	-11824
اطه	-11825
اعد	-11826
انف	-11827
اکش	-11828
ایز	-11829
باع	-11830
برآ	-11831
برف	-11832
برو	-11833
بوب	-11834
تخت	-11835
تشک	-11836
تقم	-11837
تنه	-11838
توح	-11839
تول	-11840
تیم	-11841
ثرم	-11842
ثری	-11843
ثقب	-11844
ثیر	-11845
جری	-11846
جفا	-11847
جنگ	-11848
جگی	-11849
حدی	-11850
حست	-11851
حکم	-11852
حیل	-11853
حیم	-11854
ختص	-11855
خرم	-11856
خست	-11857
خشی	-11858
خلا	-11859
خلخ	-11860
خلی	-11861
خود	-11862
دائ	-11863
داش	-11864
داع	-11865
درد	-11866
دری	-11867
دهش	-11868
دهم	-11869
دهٔ	-11870
دیه	-11871
ذرت	-11872
راخ	-11873
راق	-11874
راه	-11875
راو	-11876
ربش	-11877
ربم	-11878
رتت	-11879
رخس	-11880
رخه	-11881
رشک	-11882
رمغ	-11883
رمم	-11884
رمی	-11885
رنج	-11886
رون	-11887
ریی	-11888
زمش	-11889
زنی	-11890
ساب	-11891
ساح	-11892
ساف	-11893
سبی	-11894
سدت	-11895
سیب	-11896
شاط	-11897
شدت	-11898
شدی	-11899
أث	-11900
هه	-11901
پی	-11902
چش	-11903
ارس	-11904
اوش	-11905
اکا	-11906
تلی	-11907
خرت	-11908
خمی	-11909
خوش	-11910
دوش	-11911
ریل	-11912
زیم	-11913
ساج	-11914
ستت	-11915
سفت	-11916
شری	-11917
ششد	-11918
شقب	-11919
شنه	-11920
شوی	-11921
شکا	-11922
شکس	-11923
شکش	-11924
شکم	-11925
شکن	-11926
صبر	-11927
صتش	-11928
صیب	-11929
ضبش	-11930
ضری	-11931
طبی	-11932
طرش	-11933
طلی	-11934
طوق	-11935
طون	-11936
ظری	-11937
ظلی	-11938
ظهر	-11939
عتد	-11940
عذر	-11941
عرب	-11942
عظت	-11943
علا	-11944
عمی	-11945
عنی	-11946
غنا	-11947
فائ	-11948
فاج	-11949
فاو	-11950
فاپ	-11951
فلش	-11952
فکر	-11953
قات	-11954
قتو	-11955
قدس	-11956
قصر	-11957
قضا	-11958
قلا	-11959
لات	-11960
لاد	-11961
لاص	-11962
لاع	-11963
لاغ	-11964
لبر	-11965
لبی	-11966
لزم	-11967
لسر	-11968
لشن	-11969
لعه	-11970
لمت	-11971
لوع	-11972
لول	-11973
لیح	-11974
لیچ	-11975
لیی	-11976
ماد	-11977
مای	-11978
مبر	-11979
متگ	-11980
مدل	-11981
مدن	-11982
مری	-11983
مشد	-11984
مشک	-11985
منش	-11986
منی	-11987
موز	-11988
موش	-11989
مگر	-11990
میخ	-11991
میز	-11992
میم	-11993
میک	-11994
میگ	-11995
میی	-11996
ناز	-11997
ندت	-11998
ندر	-11999
آه	-12000
رز	-12001
فط	-12002
قط	-12003
قو	-12004
مخ	-12005
مق	-12006
مگ	-12007
چل	-12008
گت	-12009
الا	-12010
الف	-12011
الک	-12012
تند	-12013
حال	-12014
خال	-12015
خنه	-12016
ریک	-12017
زال	-12018
شیز	-12019
صلی	-12020
طار	-12021
عال	-12022
علی	-12023
قال	-12024
قلی	-12025
قند	-12026
لار	-12027
لحی	-12028
لیک	-12029
مسی	-12030
نشت	-12031
نهی	-12032
نکه	-12033
نگد	-12034
هاب	-12035
هبر	-12036
هدا	-12037
هرت	-12038
همد	-12039
همن	-12040
همی	-12041
هوش	-12042
وبم	-12043
وزج	-12044
وزی	-12045
وشخ	-12046
وطی	-12047
وعد	-12048
وهر	-12049
وهٔ	-12050
ویخ	-12051
َلَ	-12052
پشت	-12053
پهر	-12054
پیم	-12055
پین	-12056
ژدر	-12057
کاد	-12058
کال	-12059
کاو	-12060
کبی	-12061
کرا	-12062
کرم	-12063
کشد	-12064
کلی	-12065
کنج	-12066
کهت	-12067
کوع	-12068
کیم	-12069
گال	-12070
گوی	-12071
یاب	-12072
یبم	-12073
یبی	-12074
یتت	-12075
یجا	-12076
یرک	-12077
یرگ	-12078
یغی	-12079
یلا	-12080
یمم	-12081
یمگ	-12082
یوش	-12083
یچک	-12084
۱هق	-12085
▁آف	-12086
▁تخ	-12087
▁ثو	-12088
▁جش	-12089
▁دن	-12090
▁ذب	-12091
▁رت	-12092
▁رن	-12093
▁صا	-12094
▁صط	-12095
▁ضر	-12096
▁ظف	-12097
▁ظه	-12098
▁عز	-12099
صع	-12100
ژد	-12101
اجز	-12102
اجه	-12103
الح	-12104
الد	-12105
برا	-12106
جیک	-12107
حام	-12108
حور	-12109
خرا	-12110
خیم	-12111
دبی	-12112
درا	-12113
ذرا	-12114
ذور	-12115
رفت	-12116
رور	-12117
روم	-12118
زلز	-12119
سرا	-12120
شتا	-12121
شتع	-12122
شتگ	-12123
شکب	-12124
طرا	-12125
ظال	-12126
عات	-12127
عضا	-12128
عفم	-12129
فست	-12130
قرا	-12131
لور	-12132
مال	-12133
هرم	-12134
ورآ	-12135
ورز	-12136
ورو	-12137
کیه	-12138
گنج	-12139
یدخ	-12140
یدل	-12141
یور	-12142
▁تذ	-12143
▁حذ	-12144
▁غا	-12145
▁فو	-12146
▁لؤ	-12147
▁لج	-12148
▁لخ	-12149
▁لن	-12150
▁لک	-12151
▁هل	-12152
...ـ	-12153
آلیش	-12154
آمدم	-12155
آنکه	-12156
أمون	-12157
ابخش	-12158
ابرد	-12159
ابست	-12160
ابلی	-12161
ابگه	-12162
احبا	-12163
اددی	-12164
ادرت	-12165
ادرش	-12166
ادمت	-12167
اروب	-12168
اروش	-12169
ازان	-12170
ازند	-12171
ازین	-12172
استن	-12173
اشان	-12174
اصیت	-12175
اعده	-12176
افتم	-12177
افرو	-12178
افور	-12179
اقعه	-12180
التش	-12181
العج	-12182
المن	-12183
الیس	-12184
امری	-12185
اندم	-12186
انرا	-12187
انهٔ	-12188
اهدا	-12189
اهرت	-12190
اهند	-12191
اهین	-12192
اووش	-12193
ایاب	-12194
ایخو	-12195
ایعق	-12196
ایمق	-12197
باری	-12198
بانا	-12199
آث	-12200
بچ	-12201
حَ	-12202
زش	-12203
طب	-12204
گب	-12205
۶۹	-12206
اخت	-12207
الق	-12208
اهب	-12209
اهت	-12210
اهش	-12211
اهگ	-12212
تاه	-12213
تگر	-12214
تگه	-12215
جگر	-12216
ختش	-12217
ختل	-12218
ختگ	-12219
خری	-12220
دشت	-12221
ذرو	-12222
راش	-12223
زشت	-12224
شاب	-12225
شاه	-12226
ششم	-12227
عاش	-12228
عیب	-12229
فاخ	-12230
لسی	-12231
میت	-12232
کاب	-12233
کشت	-12234
گرن	-12235
گرو	-12236
گرچ	-12237
گزا	-12238
یخت	-12239
یگر	-12240
▁دگ	-12241
▁ذر	-12242
▁لش	-12243
▁هف	-12244
▁وم	-12245
▁پخ	-12246
ارگر	-12247
ازوی	-12248
ایست	-12249
بتان	-12250
بدمش	-12251
براه	-12252
بسته	-12253
بشان	-12254
بیدی	-12255
بینش	-12256
تابع	-12257
تازد	-12258
تحان	-12259
تشان	-12260
توبی	-12261
ثمین	-12262
جاجی	-12263
جسته	-12264
جشان	-12265
جهتم	-12266
جوبه	-12267
جگان	-12268
حیاء	-12269
ختار	-12270
ختان	-12271
ختلف	-12272
خدان	-12273
خرده	-12274
خسته	-12275
خشود	-12276
خلخه	-12277
خلقت	-12278
خندت	-12279
خورش	-12280
خیان	-12281
خیزش	-12282
دارا	-12283
دالت	-12284
دامی	-12285
دانی	-12286
دباز	-12287
دبیر	-12288
دسته	-12289
دهوش	-12290
دوزت	-12291
دیست	-12292
ذران	-12293
ذیره	-12294
رابا	-12295
رابش	-12296
راری	-12297
رازخ	-12298
رازو	-12299
اض	-12300
دخ	-12301
دع	-12302
رن	-12303
مع	-12304
ابخ	-12305
ادد	-12306
اپی	-12307
حاد	-12308
خشم	-12309
ردک	-12310
زاد	-12311
سیت	-12312
شاخ	-12313
شتغ	-12314
شدگ	-12315
شمش	-12316
شمم	-12317
شمی	-12318
شوه	-12319
طری	-12320
ظام	-12321
فید	-12322
قدی	-12323
قفا	-12324
لیه	-12325
معر	-12326
نجش	-12327
نهم	-12328
چشم	-12329
چنگ	-12330
ژاد	-12331
گیی	-12332
یره	-12333
▁زف	-12334
▁غص	-12335
▁فح	-12336
▁فز	-12337
▁فش	-12338
▁فط	-12339
▁فع	-12340
▁فغ	-12341
ادار	-12342
ادین	-12343
اماد	-12344
ایدش	-12345
بانم	-12346
بلند	-12347
بیرم	-12348
ختمی	-12349
خشان	-12350
خلوا	-12351
راسی	-12352
رامی	-12353
راند	-12354
رخام	-12355
رداب	-12356
رداد	-12357
ردای	-12358
ردشت	-12359
ردمی	-12360
ردید	-12361
رمید	-12362
ریاد	-12363
ریار	-12364
ریان	-12365
ریبم	-12366
ریده	-12367
ریضت	-12368
ریقت	-12369
ریمت	-12370
زاره	-12371
زانه	-12372
زشان	-12373
زودت	-12374
زیدت	-12375
زیگر	-12376
ساخت	-12377
ساره	-12378
سازش	-12379
سازگ	-12380
سازی	-12381
ساند	-12382
سایل	-12383
سبیح	-12384
ستاخ	-12385
سترم	-12386
ستری	-12387
ستهٔ	-12388
سدیس	-12389
سرده	-12390
سسته	-12391
سشان	-12392
سندت	-12393
سیای	-12394
شاره	-12395
شانت	-12396
شانش	-12397
شانی	-12398
شایش	-12399
شس	-12400
ژر	-12401
۷۳	-12402
ارج	-12403
جوز	-12404
خای	-12405
ردس	-12406
ردو	-12407
زرد	-12408
ستب	-12409
سری	-12410
سنج	-12411
صتم	-12412
صیر	-12413
ضیم	-12414
طیر	-12415
علت	-12416
غار	-12417
فان	-12418
قاد	-12419
لاه	-12420
لست	-12421
لنگ	-12422
مدو	-12423
مشت	-12424
ملا	-12425
ناب	-12426
نفا	-12427
نوز	-12428
چمد	-12429
گیم	-12430
یرا	-12431
یرب	-12432
یرز	-12433
یرس	-12434
یرش	-12435
▁خت	-12436
▁سن	-12437
▁عض	-12438
▁عو	-12439
▁کؤ	-12440
▁کث	-12441
▁کع	-12442
اقبت	-12443
امدم	-12444
ایقش	-12445
ذارد	-12446
ردگی	-12447
رمان	-12448
رنده	-12449
ریای	-12450
ستمم	-12451
سران	-12452
شتاب	-12453
شتاد	-12454
شتند	-12455
شریف	-12456
شستم	-12457
شسته	-12458
شقان	-12459
شقرا	-12460
شمال	-12461
شمان	-12462
شمند	-12463
شمنی	-12464
شمین	-12465
شوار	-12466
شکها	-12467
شکوی	-12468
شکین	-12469
شیزی	-12470
صایش	-12471
صحان	-12472
صرعی	-12473
صواب	-12474
ضاعت	-12475
ضایش	-12476
ضرتت	-12477
ضوان	-12478
طاره	-12479
طاری	-12480
طشان	-12481
عاری	-12482
عامم	-12483
عبان	-12484
عتاب	-12485
عذار	-12486
عریس	-12487
عریف	-12488
عظان	-12489
غدان	-12490
فاتش	-12491
فترا	-12492
فتمی	-12493
فتند	-12494
فتوت	-12495
فتگی	-12496
فرهم	-12497
فریب	-12498
فلیس	-12499
أل	-12500
ؤذ	-12501
اآ	-12502
تع	-12503
جذ	-12504
حث	-12505
حض	-12506
رث	-12507
ر۱	-12508
مظ	-12509
مم	-12510
َل	-12511
ِه	-12512
ژا	-12513
کؤ	-12514
کِ	-12515
یض	-12516
یع	-12517
۰۱	-12518
۵۸	-12519
۶۲	-12520
۶۴	-12521
۶۸	-12522
۷۱	-12523
۷۵	-12524
۷۶	-12525
اشی	-12526
افی	-12527
بام	-12528
ترم	-12529
تلا	-12530
حرگ	-12531
دهق	-12532
ردگ	-12533
زمن	-12534
زند	-12535
سمی	-12536
سیر	-12537
شدم	-12538
قسا	-12539
قشک	-12540
ماش	-12541
نند	-12542
نگل	-12543
همش	-12544
ودخ	-12545
وزش	-12546
چست	-12547
یصر	-12548
▁اظ	-12549
▁اگ	-12550
▁بئ	-12551
انبه	-12552
انید	-12553
انیه	-12554
راشت	-12555
راشد	-12556
ردون	-12557
سیار	-12558
عایی	-12559
فیان	-12560
قابم	-12561
قرار	-12562
قریب	-12563
قوبم	-12564
لافت	-12565
لاقش	-12566
لانت	-12567
لانی	-12568
لاکو	-12569
لبنی	-12570
لوسی	-12571
لگان	-12572
لیان	-12573
لیسا	-12574
لیلا	-12575
مارت	-12576
مارش	-12577
ماری	-12578
ماشا	-12579
مانه	-12580
متگز	-12581
مدار	-12582
مدحش	-12583
مدست	-12584
مدیم	-12585
مرده	-12586
مرغی	-12587
مغان	-12588
منای	-12589
مندت	-12590
مندر	-12591
مندش	-12592
مودت	-12593
مونش	-12594
میای	-12595
میزی	-12596
میلش	-12597
مینم	-12598
مینه	-12599
آخ	-12600
أس	-12601
ؤا	-12602
ؤو	-12603
بض	-12604
ثق	-12605
جث	-12606
حج	-12607
رپ	-12608
صخ	-12609
طش	-12610
لغ	-12611
مث	-12612
نث	-12613
هة	-12614
وء	-12615
پا	-12616
گج	-12617
۱۲	-12618
۲۱	-12619
۲۴	-12620
۲۸	-12621
۲۹	-12622
۳۱	-12623
۳۲	-12624
۳۶	-12625
۳۸	-12626
۴۴	-12627
۴۵	-12628
۵۱	-12629
۵۳	-12630
۵۴	-12631
۵۶	-12632
۷۲	-12633
۹۲	-12634
اتر	-12635
الل	-12636
امگ	-12637
اهو	-12638
اکد	-12639
خوی	-12640
شفت	-12641
طای	-12642
طید	-12643
طین	-12644
ظان	-12645
ظاه	-12646
فیل	-12647
لکی	-12648
هام	-12649
هفت	-12650
هنم	-12651
هوب	-12652
وبر	-12653
پره	-12654
▁آخ	-12655
▁زک	-12656
▁شح	-12657
▁طا	-12658
▁وق	-12659
▁گن	-12660
▁یو	-12661
ابند	-12662
اسان	-12663
اکان	-12664
حسرت	-12665
رمین	-12666
زودش	-12667
ستای	-12668
مارم	-12669
ناری	-12670
ناسم	-12671
ناهم	-12672
نایی	-12673
نتها	-12674
نجان	-12675
نجرت	-12676
نجشم	-12677
نجها	-12678
نداز	-12679
ندتر	-12680
ندوی	-12681
نمان	-12682
نهفت	-12683
نهند	-12684
نوان	-12685
نوای	-12686
نگال	-12687
نگام	-12688
نگاه	-12689
نگست	-12690
نگشت	-12691
نگور	-12692
نگون	-12693
هاره	-12694
هبان	-12695
هشان	-12696
واخو	-12697
وادت	-12698
واره	-12699
آل	-12700
أت	-12701
بف	-12702
بم	-12703
بگ	-12704
تج	-12705
تز	-12706
تض	-12707
تگ	-12708
ثن	-12709
دح	-12710
دغ	-12711
ذل	-12712
زع	-12713
سق	-12714
شص	-12715
ضح	-12716
عق	-12717
غص	-12718
غف	-12719
لذ	-12720
نِ	-12721
نژ	-12722
هت	-12723
هژ	-12724
وظ	-12725
پل	-12726
چگ	-12727
کح	-12728
کپ	-12729
گا	-12730
یپ	-12731
۳۹	-12732
۴۲	-12733
۸۰	-12734
۸۴	-12735
ادخ	-12736
ارض	-12737
اود	-12738
برت	-12739
بست	-12740
بند	-12741
جمل	-12742
حبا	-12743
خفت	-12744
راد	-12745
زاح	-12746
زهت	-12747
سور	-12748
شنت	-12749
صود	-12750
ظیر	-12751
غوش	-12752
قیم	-12753
لعت	-12754
متم	-12755
نما	-12756
هیم	-12757
وزن	-12758
پست	-12759
گلا	-12760
یای	-12761
یدگ	-12762
یرن	-12763
▁اک	-12764
▁حز	-12765
▁چگ	-12766
ادوی	-12767
اکام	-12768
بانش	-12769
برین	-12770
خنده	-12771
ردار	-12772
زونی	-12773
سکین	-12774
شهان	-12775
ضطرا	-12776
لاسی	-12777
لمان	-12778
وازد	-12779
والح	-12780
والف	-12781
والن	-12782
وانب	-12783
وانت	-12784
وانگ	-12785
واهم	-12786
وحان	-12787
وحست	-12788
ودگی	-12789
ودیش	-12790
وراخ	-12791
ورین	-12792
وزان	-12793
وزجم	-12794
وسته	-12795
وشاب	-12796
وشند	-12797
وشنگ	-12798
وشنی	-12799
آد	-12800
تأ	-12801
حذ	-12802
حز	-12803
حف	-12804
حن	-12805
زح	-12806
زک	-12807
سح	-12808
سز	-12809
شح	-12810
صا	-12811
طح	-12812
عس	-12813
فق	-12814
فن	-12815
لؤ	-12816
لح	-12817
مج	-12818
مح	-12819
هف	-12820
وذ	-12821
پن	-12822
چا	-12823
۱۴	-12824
۲۰	-12825
۹۳	-12826
ارز	-12827
افه	-12828
انر	-12829
اهه	-12830
تست	-12831
تین	-12832
خار	-12833
دور	-12834
رمش	-12835
ریه	-12836
زاب	-12837
ستش	-12838
سیم	-12839
شتش	-12840
شکف	-12841
ضور	-12842
عدل	-12843
غای	-12844
قتی	-12845
قله	-12846
مید	-12847
ناط	-12848
نام	-12849
نتخ	-12850
نجه	-12851
نمی	-12852
نگب	-12853
ودا	-12854
وشت	-12855
گام	-12856
گرش	-12857
گنه	-12858
▁بض	-12859
▁حَ	-12860
▁عا	-12861
▁کح	-12862
▁یؤ	-12863
ارگی	-12864
اندا	-12865
انیت	-12866
جاوه	-12867
رسته	-12868
سوده	-12869
شکار	-12870
طانی	-12871
عربی	-12872
قیست	-12873
ماقی	-12874
نجور	-12875
نگرد	-12876
هانم	-12877
هسته	-12878
واند	-12879
وشیز	-12880
وشیم	-12881
وطیم	-12882
وعده	-12883
وفائ	-12884
وقان	-12885
وناب	-12886
ونان	-12887
ونری	-12888
ویخت	-12889
ویدت	-12890
ویزه	-12891
ویشت	-12892
ویشی	-12893
ویین	-12894
َلَی	-12895
ْعاش	-12896
پارد	-12897
پاری	-12898
پرده	-12899
بس	-12900
بص	-12901
تغ	-12902
حص	-12903
حو	-12904
خض	-12905
ذش	-12906
ذو	-12907
ذک	-12908
زق	-12909
شع	-12910
صغ	-12911
صن	-12912
ضم	-12913
عو	-12914
فخ	-12915
فص	-12916
قس	-12917
لز	-12918
مص	-12919
نس	-12920
نع	-12921
نک	-12922
هگ	-12923
وآ	-12924
پخ	-12925
ژه	-12926
۱۳	-12927
۱۵	-12928
ابگ	-12929
ارب	-12930
اکت	-12931
اکس	-12932
اگر	-12933
دند	-12934
رری	-12935
رشد	-12936
سیا	-12937
شمت	-12938
شمن	-12939
صفی	-12940
وام	-12941
وشو	-12942
پاد	-12943
گنی	-12944
یاس	-12945
یاه	-12946
ینگ	-12947
یین	-12948
▁شغ	-12949
▁عت	-12950
▁غض	-12951
ابرم	-12952
ادگر	-12953
اسنج	-12954
خلوق	-12955
ذاری	-12956
راخت	-12957
ریوز	-12958
قیقی	-12959
مدند	-12960
نعان	-12961
واوی	-12962
ونگر	-12963
پسین	-12964
پیدن	-12965
پیده	-12966
چاره	-12967
چینی	-12968
کبیر	-12969
کدان	-12970
کردش	-12971
کرده	-12972
کسان	-12973
کملت	-12974
کیده	-12975
گارم	-12976
گاره	-12977
گرفت	-12978
گرنه	-12979
گریز	-12980
گریم	-12981
گفتت	-12982
گوشی	-12983
گویم	-12984
گیخت	-12985
یاری	-12986
یالی	-12987
یانه	-12988
یدات	-12989
یداف	-12990
یراز	-12991
یراه	-12992
یرند	-12993
یرود	-12994
یروم	-12995
یرون	-12996
یروی	-12997
یرگی	-12998
یرید	-12999
آب	-13000
آذ	-13001
آش	-13002
اث	-13003
اگ	-13004
بآ	-13005
بذ	-13006
جن	-13007
حد	-13008
ذب	-13009
ذق	-13010
رض	-13011
طل	-13012
ظا	-13013
ظت	-13014
لآ	-13015
نح	-13016
هپ	-13017
کز	-13018
کع	-13019
یک	-13020
۳۷	-13021
...	-13022
ؤاد	-13023
ادا	-13024
ادن	-13025
اصی	-13026
انا	-13027
اهل	-13028
بال	-13029
ترا	-13030
تنگ	-13031
جود	-13032
حاک	-13033
حیر	-13034
داز	-13035
ریش	-13036
زیر	-13037
ستق	-13038
سحت	-13039
شاک	-13040
شطه	-13041
فاع	-13042
قبش	-13043
لند	-13044
ندش	-13045
نصر	-13046
نوی	-13047
یرج	-13048
یشم	-13049
ینق	-13050
▁خش	-13051
▁یس	-13052
ادشه	-13053
ارای	-13054
ارگه	-13055
اشقی	-13056
اییش	-13057
بران	-13058
جویت	-13059
حالی	-13060
حترا	-13061
داخت	-13062
ذارش	-13063
زمان	-13064
ستمی	-13065
سیلم	-13066
شادی	-13067
عادت	-13068
فتوی	-13069
فتیم	-13070
قشان	-13071
قیقش	-13072
لبان	-13073
مایه	-13074
مودش	-13075
هسار	-13076
وفای	-13077
کشته	-13078
یدار	-13079
یدید	-13080
یریز	-13081
یرین	-13082
یستی	-13083
یلاج	-13084
یمار	-13085
یمای	-13086
یمین	-13087
ینال	-13088
ینام	-13089
ینای	-13090
ینتش	-13091
ینور	-13092
ینکی	-13093
ینگر	-13094
ینیم	-13095
یچگه	-13096
یگری	-13097
۱۱۷۱	-13098
▁آشت	-13099
آت	-13100
آم	-13101
اچ	-13102
بئ	-13103
جع	-13104
خص	-13105
خی	-13106
دآ	-13107
دک	-13108
د۱	-13109
رج	-13110
زس	-13111
طم	-13112
عج	-13113
غز	-13114
غک	-13115
لد	-13116
نخ	-13117
نل	-13118
نن	-13119
هٔ	-13120
وث	-13121
َی	-13122
چس	-13123
ژگ	-13124
کج	-13125
۱۷	-13126
۴۸	-13127
۹۸	-13128
آذر	-13129
احم	-13130
ارگ	-13131
ازا	-13132
حوش	-13133
دشم	-13134
دگر	-13135
زنگ	-13136
سلی	-13137
ظرف	-13138
عتب	-13139
علم	-13140
فتا	-13141
لبد	-13142
لکت	-13143
لگه	-13144
مست	-13145
میش	-13146
هبت	-13147
هیل	-13148
ودژ	-13149
وزب	-13150
کیش	-13151
یطی	-13152
یلق	-13153
▁عظ	-13154
▁کِ	-13155
امند	-13156
انکه	-13157
ثانی	-13158
حیفه	-13159
زدان	-13160
شقست	-13161
شکری	-13162
شکند	-13163
فاست	-13164
قیرم	-13165
لالم	-13166
ورشت	-13167
ویدا	-13168
ویره	-13169
یروز	-13170
یناز	-13171
▁آسو	-13172
▁آفا	-13173
▁آنه	-13174
▁ابک	-13175
▁ارو	-13176
▁ازن	-13177
▁اسر	-13178
▁اشت	-13179
▁اظه	-13180
▁اعج	-13181
▁اعظ	-13182
▁افر	-13183
▁افش	-13184
▁افک	-13185
▁اقب	-13186
▁اقط	-13187
▁الک	-13188
▁امس	-13189
▁امش	-13190
▁امک	-13191
▁انک	-13192
▁اهر	-13193
▁اکس	-13194
▁ایج	-13195
▁ایض	-13196
▁ایو	-13197
▁ببا	-13198
▁بتق	-13199
حظ	-13200
خب	-13201
خگ	-13202
دب	-13203
زر	-13204
زز	-13205
زغ	-13206
طا	-13207
طغ	-13208
طق	-13209
طی	-13210
ظو	-13211
عَ	-13212
قض	-13213
لل	-13214
لو	-13215
مط	-13216
نچ	-13217
پذ	-13218
چت	-13219
کف	-13220
کژ	-13221
یژ	-13222
۰۶	-13223
اشد	-13224
انگ	-13225
اهر	-13226
اهن	-13227
اکی	-13228
بلت	-13229
جای	-13230
حوک	-13231
داح	-13232
زرم	-13233
سله	-13234
شکل	-13235
شیخ	-13236
ضاب	-13237
غمت	-13238
فاد	-13239
لیر	-13240
مده	-13241
منا	-13242
مهر	-13243
نگن	-13244
هار	-13245
هقه	-13246
ودب	-13247
ودم	-13248
وشب	-13249
پار	-13250
کاف	-13251
▁اض	-13252
▁تگ	-13253
▁جع	-13254
▁حا	-13255
▁شس	-13256
▁عس	-13257
ابجا	-13258
ادند	-13259
اشته	-13260
اهشن	-13261
ایعت	-13262
بایی	-13263
جایت	-13264
ربان	-13265
زاست	-13266
ستمد	-13267
سوان	-13268
شمار	-13269
شکبی	-13270
فایش	-13271
فسان	-13272
میرد	-13273
ندیل	-13274
نشان	-13275
هیدم	-13276
وتست	-13277
گانه	-13278
یزدم	-13279
▁بجش	-13280
▁بجل	-13281
▁بجن	-13282
▁بحس	-13283
▁بخا	-13284
▁بدا	-13285
▁بدب	-13286
▁بدز	-13287
▁بسز	-13288
▁بسع	-13289
▁بسو	-13290
▁بسک	-13291
▁بضا	-13292
▁بطح	-13293
▁بطف	-13294
▁بغد	-13295
▁بمث	-13296
▁بهش	-13297
▁بهل	-13298
▁بهه	-13299
بپ	-13300
بک	-13301
جغ	-13302
رآ	-13303
زب	-13304
سخ	-13305
شط	-13306
عط	-13307
غض	-13308
لث	-13309
لش	-13310
لن	-13311
لپ	-13312
لگ	-13313
هس	-13314
هغ	-13315
هو	-13316
وة	-13317
وص	-13318
چن	-13319
۰۷	-13320
آری	-13321
آست	-13322
آلی	-13323
ازک	-13324
جند	-13325
دفت	-13326
رام	-13327
رنه	-13328
صبح	-13329
صفت	-13330
صید	-13331
صیم	-13332
عنه	-13333
عود	-13334
فرم	-13335
فیر	-13336
قست	-13337
لوت	-13338
مدع	-13339
منم	-13340
وائ	-13341
چمی	-13342
کری	-13343
کنش	-13344
گرت	-13345
یال	-13346
یسی	-13347
یفت	-13348
▁خب	-13349
ازیر	-13350
دمان	-13351
ظاره	-13352
غایی	-13353
لایش	-13354
لیبی	-13355
مایت	-13356
نجبی	-13357
ندرم	-13358
نهای	-13359
هانی	-13360
هرست	-13361
هرور	-13362
وسال	-13363
گاهم	-13364
یرنگ	-13365
▁آهه	-13366
▁الو	-13367
▁بعر	-13368
▁بوز	-13369
▁بوظ	-13370
▁بوق	-13371
▁بپذ	-13372
▁بکا	-13373
▁بکه	-13374
▁بگن	-13375
▁بیج	-13376
▁بیز	-13377
▁بیس	-13378
▁بیط	-13379
▁بیق	-13380
▁بیل	-13381
▁بیو	-13382
▁تأم	-13383
▁تاش	-13384
▁تبس	-13385
▁تحس	-13386
▁تحف	-13387
▁تحک	-13388
▁تعط	-13389
▁تعم	-13390
▁تقد	-13391
▁تقص	-13392
▁توح	-13393
▁توز	-13394
▁تول	-13395
▁توه	-13396
▁توی	-13397
▁تگر	-13398
▁جرأ	-13399
آس	-13400
آف	-13401
اژ	-13402
بز	-13403
تت	-13404
تث	-13405
تح	-13406
تص	-13407
حک	-13408
خط	-13409
دپ	-13410
ذه	-13411
رأ	-13412
زآ	-13413
زص	-13414
زف	-13415
زو	-13416
شغ	-13417
شف	-13418
عن	-13419
غن	-13420
غه	-13421
مؤ	-13422
نر	-13423
هز	-13424
پش	-13425
پو	-13426
چغ	-13427
یآ	-13428
یؤ	-13429
یج	-13430
۰۲	-13431
۸۲	-13432
۸۵	-13433
۹۶	-13434
بدی	-13435
خگر	-13436
رقه	-13437
زگی	-13438
سبت	-13439
صرا	-13440
غها	-13441
قیر	-13442
ماه	-13443
منت	-13444
نیی	-13445
هست	-13446
هنش	-13447
هود	-13448
وشش	-13449
ونی	-13450
▁دق	-13451
▁زگ	-13452
▁فخ	-13453
▁قن	-13454
▁چم	-13455
ذاره	-13456
رفیش	-13457
ستاد	-13458
ظارم	-13459
فایی	-13460
فتار	-13461
لاهی	-13462
نمای	-13463
هوده	-13464
گرید	-13465
یارت	-13466
ینهد	-13467
۱۱۷۹	-13468
▁آمو	-13469
▁اصح	-13470
▁بسق	-13471
▁بلع	-13472
▁بنم	-13473
▁بهز	-13474
▁تلا	-13475
▁جزی	-13476
▁جوا	-13477
▁جیح	-13478
▁حاذ	-13479
▁حام	-13480
▁حاک	-13481
▁حبی	-13482
▁حجا	-13483
▁حرک	-13484
▁حری	-13485
▁حقگ	-13486
▁حوا	-13487
▁حوض	-13488
▁حید	-13489
▁خای	-13490
▁خطب	-13491
▁خفا	-13492
▁داع	-13493
▁داو	-13494
▁دره	-13495
▁دلب	-13496
▁دلخ	-13497
▁دلد	-13498
▁دلس	-13499
آص	-13500
آو	-13501
آگ	-13502
بب	-13503
جف	-13504
دژ	-13505
رش	-13506
رع	-13507
رق	-13508
زگ	-13509
سگ	-13510
شأ	-13511
شِ	-13512
صد	-13513
طپ	-13514
غب	-13515
غت	-13516
فغ	-13517
فک	-13518
لر	-13519
لع	-13520
مض	-13521
هک	-13522
چک	-13523
کخ	-13524
گم	-13525
یخ	-13526
یو	-13527
۳۵	-13528
۴۶	-13529
۷۷	-13530
۸۶	-13531
۸۹	-13532
اغت	-13533
اما	-13534
امر	-13535
این	-13536
برم	-13537
حیا	-13538
راغ	-13539
رشم	-13540
روش	-13541
زمه	-13542
سست	-13543
صای	-13544
ظمت	-13545
عدا	-13546
عرک	-13547
ماج	-13548
مرا	-13549
هلی	-13550
ویب	-13551
گیز	-13552
یدو	-13553
▁شف	-13554
▁شگ	-13555
▁هش	-13556
▁چت	-13557
▁کژ	-13558
اخیم	-13559
الار	-13560
بانت	-13561
ختری	-13562
دشان	-13563
رجام	-13564
ردمت	-13565
ردود	-13566
زرده	-13567
شکلی	-13568
ظارش	-13569
فغان	-13570
وروز	-13571
وستی	-13572
یطان	-13573
▁ترح	-13574
▁درآ	-13575
▁دلن	-13576
▁دله	-13577
▁دلپ	-13578
▁دلگ	-13579
▁دوب	-13580
▁دوت	-13581
▁دوز	-13582
▁دوس	-13583
▁دول	-13584
▁دیل	-13585
▁راد	-13586
▁رشت	-13587
▁رعن	-13588
▁رهر	-13589
▁زآت	-13590
▁زائ	-13591
▁زفا	-13592
▁زلی	-13593
▁ساف	-13594
▁ساو	-13595
▁ساک	-13596
▁سبی	-13597
▁سرآ	-13598
▁سرز	-13599
تل	-13600
ثم	-13601
دز	-13602
دف	-13603
ذی	-13604
زج	-13605
زخ	-13606
سج	-13607
سک	-13608
صم	-13609
ضر	-13610
ضو	-13611
عز	-13612
فو	-13613
فگ	-13614
مو	-13615
مپ	-13616
مژ	-13617
نغ	-13618
چی	-13619
گد	-13620
گو	-13621
یص	-13622
۱۶	-13623
۳۳	-13624
۵۲	-13625
۶۵	-13626
امو	-13627
حین	-13628
ختن	-13629
خنی	-13630
ردا	-13631
ردت	-13632
رشت	-13633
ریر	-13634
ستو	-13635
شای	-13636
شنا	-13637
شند	-13638
شنگ	-13639
صره	-13640
صند	-13641
طبر	-13642
طلس	-13643
طله	-13644
فتو	-13645
فگن	-13646
قبی	-13647
قده	-13648
قفس	-13649
هده	-13650
هند	-13651
واه	-13652
وبه	-13653
ولت	-13654
کوی	-13655
گذر	-13656
یوز	-13657
یون	-13658
▁دج	-13659
▁دخ	-13660
▁دک	-13661
ادکن	-13662
ادید	-13663
ادیم	-13664
اغان	-13665
الاک	-13666
حرمی	-13667
داده	-13668
دایی	-13669
سرتم	-13670
ناست	-13671
وگان	-13672
ویای	-13673
کاری	-13674
یدوی	-13675
▁الج	-13676
▁انف	-13677
▁باق	-13678
▁برا	-13679
▁بگد	-13680
▁جمی	-13681
▁راع	-13682
▁زگر	-13683
▁ساح	-13684
▁سرط	-13685
▁سرن	-13686
▁سرچ	-13687
▁سما	-13688
▁سوگ	-13689
▁سین	-13690
▁شبگ	-13691
▁شدخ	-13692
▁شرک	-13693
▁شعا	-13694
▁شعب	-13695
▁شقی	-13696
▁شنع	-13697
▁شنی	-13698
▁شهب	-13699
غم	-13700
لچ	-13701
وچ	-13702
په	-13703
گف	-13704
۲۶	-13705
ءاش	-13706
اعل	-13707
انب	-13708
انج	-13709
انع	-13710
انن	-13711
انِ	-13712
ایر	-13713
ایو	-13714
ثان	-13715
جان	-13716
جست	-13717
راگ	-13718
رست	-13719
رهٔ	-13720
رکی	-13721
ستخ	-13722
ستد	-13723
ستف	-13724
ستن	-13725
ستک	-13726
سون	-13727
صال	-13728
صان	-13729
ضان	-13730
عرص	-13731
غدی	-13732
فین	-13733
قهر	-13734
لیف	-13735
مدش	-13736
هری	-13737
هید	-13738
ودت	-13739
ونب	-13740
پای	-13741
کست	-13742
یرف	-13743
یمر	-13744
▁جگ	-13745
▁رد	-13746
▁رش	-13747
▁رق	-13748
▁رچ	-13749
▁شج	-13750
▁شص	-13751
▁لذ	-13752
▁نح	-13753
▁نچ	-13754
▁ین	-13755
ارست	-13756
اشای	-13757
الیم	-13758
بانه	-13759
بروی	-13760
بکان	-13761
دلان	-13762
رمنش	-13763
سبان	-13764
شکست	-13765
غانه	-13766
فهان	-13767
ندید	-13768
نیدم	-13769
ودکی	-13770
وریت	-13771
ونند	-13772
پایه	-13773
▁آفر	-13774
▁ازی	-13775
▁ایز	-13776
▁تود	-13777
▁تکب	-13778
▁ذرا	-13779
▁شهو	-13780
▁شکا	-13781
▁شکف	-13782
▁شکو	-13783
▁شگر	-13784
▁صال	-13785
▁صبو	-13786
▁صفت	-13787
▁صهب	-13788
▁صوا	-13789
▁صیر	-13790
▁طار	-13791
▁طاو	-13792
▁طغر	-13793
▁طمق	-13794
▁طوا	-13795
▁عاد	-13796
▁عال	-13797
▁عای	-13798
▁عتا	-13799
ءا	-13800
آز	-13801
آق	-13802
ؤم	-13803
بج	-13804
تق	-13805
ظی	-13806
نق	-13807
۰۳	-13808
۲۳	-13809
آتش	-13810
ارآ	-13811
ارط	-13812
الن	-13813
انز	-13814
انک	-13815
اوه	-13816
بحگ	-13817
حتم	-13818
خدا	-13819
خزن	-13820
دای	-13821
دوس	-13822
ذاب	-13823
ستج	-13824
ستگ	-13825
شاد	-13826
شقم	-13827
شقی	-13828
صار	-13829
ضیغ	-13830
عیم	-13831
عین	-13832
فار	-13833
فتت	-13834
لام	-13835
لید	-13836
مله	-13837
مور	-13838
ندن	-13839
نفت	-13840
هال	-13841
ودپ	-13842
ور۱	-13843
ولا	-13844
وند	-13845
ونق	-13846
ونک	-13847
▁آذ	-13848
▁آگ	-13849
ارده	-13850
البه	-13851
الفت	-13852
امتم	-13853
امده	-13854
بیری	-13855
حیله	-13856
راره	-13857
شتاق	-13858
فتاد	-13859
فتان	-13860
فگند	-13861
لوان	-13862
مننم	-13863
نجاب	-13864
نهار	-13865
ودند	-13866
وسها	-13867
ویید	-13868
یماب	-13869
▁آین	-13870
▁احر	-13871
▁بطل	-13872
▁خلی	-13873
▁خیا	-13874
▁دمس	-13875
▁طرا	-13876
▁عرو	-13877
▁عقا	-13878
▁عمد	-13879
▁عند	-13880
▁غار	-13881
▁غال	-13882
▁غای	-13883
▁غزن	-13884
▁غلت	-13885
▁غمخ	-13886
▁غمز	-13887
▁غمن	-13888
▁غمه	-13889
▁غمگ	-13890
▁غور	-13891
▁غوط	-13892
▁فاط	-13893
▁فان	-13894
▁فتا	-13895
▁فصا	-13896
▁فطر	-13897
▁قائ	-13898
▁قاب	-13899
آی	-13900
خز	-13901
سأ	-13902
عض	-13903
فض	-13904
هش	-13905
کآ	-13906
۰۴	-13907
۳۴	-13908
۴۳	-13909
آنج	-13910
اآن	-13911
ادز	-13912
ادو	-13913
اکو	-13914
بحه	-13915
جین	-13916
حقی	-13917
سیج	-13918
شیش	-13919
صلم	-13920
ضرا	-13921
طام	-13922
عند	-13923
لاو	-13924
لوک	-13925
لین	-13926
مدح	-13927
ملک	-13928
میپ	-13929
نبه	-13930
ندک	-13931
هرپ	-13932
وفت	-13933
ونش	-13934
وین	-13935
پرس	-13936
چرا	-13937
کرش	-13938
گرد	-13939
یمش	-13940
ینج	-13941
ینن	-13942
ینو	-13943
ینچ	-13944
ینک	-13945
یوس	-13946
▁آث	-13947
▁جذ	-13948
▁زق	-13949
▁زچ	-13950
▁شت	-13951
▁قو	-13952
▁وآ	-13953
▁وب	-13954
▁چس	-13955
▁گا	-13956
▁گب	-13957
ارین	-13958
امید	-13959
انای	-13960
اورد	-13961
شانم	-13962
فلان	-13963
نجام	-13964
ندهٔ	-13965
هرری	-13966
ینان	-13967
▁ادی	-13968
▁ازق	-13969
▁تکا	-13970
▁جنی	-13971
▁درب	-13972
▁درخ	-13973
▁رهب	-13974
▁قاد	-13975
▁قال	-13976
▁قام	-13977
▁قان	-13978
▁قای	-13979
▁قبی	-13980
▁قسی	-13981
▁قلا	-13982
▁لؤل	-13983
▁لاب	-13984
▁لاج	-13985
▁لاغ	-13986
▁لای	-13987
▁لحظ	-13988
▁لرز	-13989
▁لول	-13990
▁مأم	-13991
▁مات	-13992
▁ماد	-13993
▁ماس	-13994
▁مبا	-13995
▁مبت	-13996
▁متا	-13997
▁متو	-13998
▁مجر	-13999
بط	-14000
بغ	-14001
جت	-14002
رح	-14003
رک	-14004
لط	-14005
یث	-14006
۱۰	-14007
۴۰	-14008
آرم	-14009
ادک	-14010
ادگ	-14011
ارف	-14012
امش	-14013
تار	-14014
تشی	-14015
جده	-14016
▁	-14017
ا	-14018
ر	-14019
ی	-14020
ن	-14021
د	-14022
و	-14023
م	-14024
ه	-14025
ب	-14026
ت	-14027
ش	-14028
س	-14029
ز	-14030
ک	-14031
ل	-14032
گ	-14033
خ	-14034
ف	-14035
آ	-14036
ع	-14037
چ	-14038
ج	-14039
ح	-14040
ق	-14041
پ	-14042
غ	-14043
ص	-14044
ط	-14045
ذ	-14046
ض	-14047
.	-14048
؟	-14049
ٔ	-14050
»	-14051
«	-14052
ظ	-14053
ژ	-14054
۱	-14055
/	-14056
ث	-14057
،	-14058
!	-14059
۲	-14060
۳	-14061
۴	-14062
۵	-14063
-	-14064
۷	-14065
۶	-14066
۸	-14067
۹	-14068
۰	-14069
أ	-14070
ؤ	-14071
؛	-14072
(	-14073
)	-14074
ء	-14075
:	-14076
ئ	-14077
ة	-14078
ـ	-14079
ٰ	-14080
ِ	-14081
َ	-14082
ْ	-14083
