<unk>	0
<s>	0
</s>	0
▁ب	-0
▁ا	-1
▁د	-2
▁ک	-3
ان	-4
▁م	-5
▁ن	-6
▁آ	-7
▁ر	-8
▁ز	-9
▁گ	-10
ست	-11
▁ت	-12
▁از	-13
▁و	-14
▁خ	-15
▁چ	-16
ار	-17
▁ش	-18
▁س	-19
ین	-20
▁که	-21
▁ه	-22
ند	-23
▁در	-24
ید	-25
▁ج	-26
▁ی	-27
رد	-28
▁پ	-29
▁تو	-30
▁من	-31
فت	-32
وی	-33
ود	-34
اد	-35
ام	-36
▁بر	-37
ون	-38
ای	-39
▁به	-40
یر	-41
▁با	-42
▁آن	-43
▁را	-44
▁ع	-45
▁دل	-46
▁است	-47
▁ف	-48
گر	-49
▁غ	-50
اه	-51
▁هم	-52
▁می	-53
شت	-54
ال	-55
▁ح	-56
وز	-57
▁سر	-58
▁ق	-59
▁گر	-60
وش	-61
▁ای	-62
▁چو	-63
▁ص	-64
را	-65
▁نه	-66
▁چون	-67
▁بی	-68
▁نی	-69
▁تا	-70
▁این	-71
▁ام	-72
▁ل	-73
▁گل	-74
ذر	-75
ور	-76
شم	-77
خت	-78
▁هر	-79
▁گفت	-80
انی	-81
▁شد	-82
اند	-83
▁دو	-84
اری	-85
▁آذر	-86
▁خو	-87
▁چه	-88
▁روز	-89
ری	-90
از	-91
▁بود	-92
▁او	-93
▁پی	-94
▁شب	-95
می	-96
▁کن	-97
▁کس	-98
▁جان	-99
▁کرد	-100
یده	-101
شک	-102
لی	-103
هر	-104
مد	-105
رم	-106
شان	-107
اک	-108
بان	-109
یم	-110
▁یک	-111
▁ط	-112
▁شک	-113
وان	-114
▁بس	-115
نگ	-116
▁بد	-117
اب	-118
▁ند	-119
شد	-120
▁رفت	-121
سته	-122
▁نیست	-123
مان	-124
▁نب	-125
▁غم	-126
فس	-127
▁خود	-128
نه	-129
▁پر	-130
▁نگ	-131
وس	-132
▁غیر	-133
▁خون	-134
▁مرا	-135
▁چشم	-136
شق	-137
▁فر	-138
▁ما	-139
ارم	-140
بر	-141
▁مح	-142
▁آمد	-143
▁بگ	-144
▁همه	-145
▁باد	-146
اف	-147
من	-148
▁اگر	-149
▁بین	-150
▁مر	-151
▁نش	-152
▁کز	-153
یز	-154
نج	-155
که	-156
امی	-157
ایی	-158
فا	-159
ستان	-160
▁بل	-161
▁دگر	-162
نده	-163
▁گرد	-164
▁دست	-165
▁روی	-166
هی	-167
▁یا	-168
شی	-169
▁نا	-170
▁عشق	-171
▁کشت	-172
▁یار	-173
▁لب	-174
اده	-175
فر	-176
▁نام	-177
یدم	-178
هان	-179
ارد	-180
▁ماند	-181
جا	-182
▁آه	-183
▁باغ	-184
کن	-185
اله	-186
▁تر	-187
▁بخ	-188
بی	-189
رف	-190
رده	-191
▁کو	-192
▁بت	-193
له	-194
نی	-195
ویم	-196
▁دی	-197
▁رس	-198
▁خوش	-199
▁نمی	-200
▁کسی	-201
اشت	-202
▁کش	-203
▁کار	-204
هل	-205
اهی	-206
ینه	-207
▁کوی	-208
سر	-209
ستم	-210
ایت	-211
▁آر	-212
▁درد	-213
▁کرده	-214
▁آب	-215
▁ده	-216
▁خاک	-217
ات	-218
▁خل	-219
▁دم	-220
▁دام	-221
▁ال	-222
▁مرغ	-223
▁بب	-224
▁بلب	-225
ده	-226
قی	-227
▁آو	-228
▁باز	-229
سم	-230
▁آت	-231
▁صب	-232
▁کنم	-233
▁خواه	-234
شن	-235
لم	-236
▁بک	-237
▁رو	-238
▁کا	-239
یش	-240
▁بن	-241
▁افت	-242
▁کند	-243
وه	-244
خته	-245
▁مشک	-246
▁ره	-247
▁نم	-248
▁داد	-249
انه	-250
▁جهان	-251
ردم	-252
لک	-253
انم	-254
زار	-255
▁اف	-256
▁نو	-257
▁نک	-258
دا	-259
شته	-260
▁جز	-261
▁اند	-262
نان	-263
▁برد	-264
▁مهر	-265
▁دوست	-266
▁بز	-267
▁کی	-268
▁سرو	-269
▁گوش	-270
دم	-271
چه	-272
▁بج	-273
▁پا	-274
اص	-275
▁گو	-276
▁راه	-277
اج	-278
▁گفتم	-279
اغ	-280
▁آتش	-281
▁دلم	-282
▁قفس	-283
نم	-284
یغ	-285
▁شن	-286
▁ناله	-287
سی	-288
شب	-289
یه	-290
▁خط	-291
▁سو	-292
▁شم	-293
▁سوی	-294
▁رخ	-295
▁یکی	-296
▁زبان	-297
▁نامه	-298
بت	-299
ایه	-300
▁مه	-301
▁کم	-302
▁گذ	-303
▁مگر	-304
▁ازین	-305
وم	-306
الم	-307
فته	-308
▁سپ	-309
▁ها	-310
▁دشم	-311
▁دید	-312
▁شود	-313
گان	-314
▁آید	-315
▁هست	-316
▁وفا	-317
▁امشب	-318
▁دیده	-319
▁نبود	-320
▁سا	-321
▁شه	-322
به	-323
نت	-324
▁حرف	-325
▁صید	-326
▁پیر	-327
▁آنکه	-328
مر	-329
یل	-330
اره	-331
▁مج	-332
▁ماه	-333
▁پای	-334
▁پیش	-335
▁دارد	-336
▁دارم	-337
وت	-338
یند	-339
▁شا	-340
▁دور	-341
▁ولی	-342
قت	-343
ینش	-344
▁عج	-345
▁قد	-346
▁کآ	-347
▁بهر	-348
▁بلبل	-349
▁دانی	-350
وق	-351
افل	-352
وست	-353
▁ری	-354
▁نظ	-355
▁نبا	-356
رس	-357
ارش	-358
است	-359
غان	-360
▁نخ	-361
▁یی	-362
توان	-363
▁آفر	-364
▁گوی	-365
▁آنجا	-366
▁سینه	-367
▁همان	-368
یان	-369
یرم	-370
▁آس	-371
▁زد	-372
▁لی	-373
▁اما	-374
▁اهل	-375
▁شیر	-376
▁آفرینش	-377
جر	-378
ادی	-379
ندم	-380
▁آز	-381
▁سخ	-382
▁شاه	-383
▁چمن	-384
قه	-385
▁بم	-386
▁تن	-387
▁جو	-388
▁رب	-389
▁فت	-390
▁وز	-391
▁برخ	-392
▁فرا	-393
▁میان	-394
▁آستان	-395
ادم	-396
امت	-397
▁زم	-398
▁ور	-399
▁گی	-400
حر	-401
طر	-402
مه	-403
نش	-404
روز	-405
ویش	-406
▁غل	-407
▁وص	-408
ندان	-409
▁تیغ	-410
▁جام	-411
▁دوش	-412
▁زین	-413
▁فلک	-414
▁ناز	-415
▁روزی	-416
زد	-417
شر	-418
گاه	-419
یار	-420
▁زر	-421
▁وی	-422
▁آشی	-423
▁افس	-424
▁برآ	-425
▁بزم	-426
▁صبح	-427
▁چرا	-428
▁باشد	-429
▁نباشد	-430
اش	-431
▁ار	-432
▁صد	-433
▁نق	-434
▁پس	-435
▁آرز	-436
▁بست	-437
▁رشک	-438
▁کشد	-439
▁غافل	-440
▁گرفت	-441
▁گویم	-442
▁امروز	-443
▁نتوان	-444
▁کف	-445
▁بیر	-446
▁نگر	-447
▁بسته	-448
▁سایه	-449
▁هزار	-450
گه	-451
گی	-452
▁ظ	-453
یزد	-454
▁بیا	-455
▁هجر	-456
▁گفتی	-457
اح	-458
الی	-459
▁تم	-460
▁بسر	-461
▁بوی	-462
▁ستم	-463
▁سوز	-464
▁یاد	-465
▁بینم	-466
▁داشت	-467
▁نهان	-468
▁آشیان	-469
یچ	-470
یشه	-471
▁اس	-472
▁نر	-473
▁بال	-474
▁خرا	-475
▁رقی	-476
▁شده	-477
▁عمر	-478
▁همچ	-479
▁کجا	-480
▁امید	-481
▁دیگر	-482
▁کشته	-483
تم	-484
تو	-485
دل	-486
زه	-487
ها	-488
باد	-489
کنم	-490
▁خر	-491
▁مس	-492
▁بمن	-493
▁بیم	-494
▁تنگ	-495
▁رنج	-496
▁رود	-497
▁زان	-498
▁شکر	-499
▁مست	-500
▁نفس	-501
▁چند	-502
▁کام	-503
▁روان	-504
▁شکوه	-505
▁مردم	-506
▁بیرون	-507
▁خواهد	-508
▁نماند	-509
اق	-510
فی	-511
مل	-512
یب	-513
▁آی	-514
▁بپ	-515
▁جا	-516
▁سب	-517
▁لط	-518
▁مع	-519
▁بند	-520
▁خلق	-521
▁شاخ	-522
▁قاص	-523
▁هیچ	-524
▁دشمن	-525
▁رفته	-526
▁مشکل	-527
▁همچو	-528
▁یاری	-529
تر	-530
دی	-531
▁حس	-532
▁بگذ	-533
▁بید	-534
▁تیر	-535
▁جفا	-536
▁حال	-537
▁خدا	-538
▁شهر	-539
▁میک	-540
▁وگر	-541
▁پرو	-542
▁آنچه	-543
▁دیدم	-544
▁شیرین	-545
لس	-546
گند	-547
▁بو	-548
▁قص	-549
▁مد	-550
کنون	-551
▁بخت	-552
▁جای	-553
▁جور	-554
▁حسر	-555
▁زند	-556
▁سود	-557
▁نشن	-558
▁پند	-559
▁پهل	-560
▁گاه	-561
▁بینی	-562
▁خنده	-563
▁اکنون	-564
▁ندارد	-565
عت	-566
لت	-567
فای	-568
یدی	-569
یزم	-570
▁اش	-571
▁جم	-572
▁رح	-573
▁زن	-574
▁دلت	-575
▁دهد	-576
▁سخن	-577
▁شبی	-578
▁فرد	-579
▁مرد	-580
▁گشت	-581
▁گله	-582
▁ترسم	-583
▁دانم	-584
▁فغان	-585
▁نشسته	-586
ره	-587
نین	-588
وری	-589
▁حی	-590
▁دع	-591
▁صی	-592
▁شمع	-593
▁آواز	-594
▁آورد	-595
▁باید	-596
▁ببین	-597
▁بنده	-598
▁سپهر	-599
▁نشان	-600
اس	-601
خر	-602
اتف	-603
▁حرم	-604
▁خام	-605
▁خوی	-606
▁راز	-607
▁زیر	-608
▁شرم	-609
▁نیز	-610
▁حسرت	-611
▁زمان	-612
▁زمین	-613
▁مباد	-614
▁هاتف	-615
▁کنون	-616
▁گریه	-617
▁آسمان	-618
▁مانده	-619
آن	-620
نب	-621
کش	-622
بری	-623
زون	-624
عده	-625
کان	-626
گار	-627
یری	-628
▁گم	-629
یران	-630
▁بنش	-631
▁دار	-632
▁روش	-633
▁سحر	-634
▁سنگ	-635
▁عجب	-636
▁فری	-637
▁لیک	-638
▁نظر	-639
▁وقت	-640
▁پاک	-641
▁آمده	-642
▁باشی	-643
▁داری	-644
▁دامن	-645
▁کشتی	-646
▁گشته	-647
▁آرزوست	-648
هد	-649
هم	-650
▁ذ	-651
▁بع	-652
▁بچ	-653
▁زل	-654
▁نس	-655
▁آری	-656
▁آشن	-657
▁ابر	-658
▁اخت	-659
▁داغ	-660
▁ساز	-661
▁شوق	-662
▁لطف	-663
▁مکن	-664
▁میر	-665
▁وصل	-666
▁بگرد	-667
▁کردی	-668
ثر	-669
ضر	-670
لب	-671
مت	-672
کر	-673
کی	-674
اشق	-675
انش	-676
شتر	-677
ندی	-678
وشم	-679
▁بص	-680
▁بغ	-681
▁گش	-682
امان	-683
▁ازو	-684
▁اول	-685
▁خبر	-686
▁خسر	-687
▁خور	-688
▁طرف	-689
▁منت	-690
▁میگ	-691
▁نگه	-692
▁پاس	-693
▁کنی	-694
▁گلی	-695
▁رقیب	-696
▁فراق	-697
▁نکند	-698
▁کویت	-699
▁گلشن	-700
▁گمان	-701
▁گیرد	-702
▁شکایت	-703
فه	-704
اید	-705
▁اب	-706
▁اح	-707
▁ان	-708
▁بح	-709
▁بش	-710
▁تل	-711
▁ست	-712
▁سی	-713
▁مص	-714
▁کل	-715
▁گد	-716
اریخ	-717
بانی	-718
▁اشک	-719
▁افر	-720
▁بیگ	-721
▁تهی	-722
▁سیم	-723
▁نگذ	-724
▁چین	-725
▁افتد	-726
▁جویم	-727
▁درین	-728
▁زنده	-729
▁فردا	-730
▁لاله	-731
▁چنان	-732
▁گوشه	-733
خو	-734
زل	-735
عی	-736
▁ض	-737
لیل	-738
ویی	-739
یدن	-740
یست	-741
▁حل	-742
▁خج	-743
▁سل	-744
▁عق	-745
▁مش	-746
▁مگ	-747
▁نغ	-748
اخته	-749
ارند	-750
انده	-751
غیار	-752
▁بدل	-753
▁بیش	-754
▁دیر	-755
▁رنگ	-756
▁ریز	-757
▁فرو	-758
▁کاش	-759
▁کنج	-760
▁بودم	-761
▁بیند	-762
▁جوان	-763
▁خواج	-764
▁داده	-765
▁درخت	-766
▁ریخت	-767
▁قاصد	-768
▁وعده	-769
▁گوید	-770
▁گویی	-771
▁گیرم	-772
▁اینکه	-773
▁بنشین	-774
▁ندیدم	-775
▁باغبان	-776
قص	-777
گز	-778
وده	-779
ویت	-780
▁خم	-781
▁قم	-782
▁آرم	-783
▁بگو	-784
▁تنه	-785
▁جدا	-786
▁خار	-787
▁سال	-788
▁گنج	-789
▁اندر	-790
▁باشم	-791
▁جامی	-792
▁صیاد	-793
▁عاشق	-794
▁ماهی	-795
▁چکنم	-796
▁کردم	-797
▁اغیار	-798
▁افتاد	-799
▁تاریخ	-800
▁خواهم	-801
▁رسیده	-802
▁افتاده	-803
▁دوستان	-804
حت	-805
عل	-806
ارت	-807
شید	-808
▁خد	-809
▁عن	-810
▁غر	-811
▁آخر	-812
▁بام	-813
▁بشک	-814
▁خضر	-815
▁دین	-816
▁زده	-817
▁زهر	-818
▁ظلم	-819
▁نال	-820
▁نیک	-821
▁پوش	-822
▁کرم	-823
▁آرند	-824
▁بهشت	-825
▁تنها	-826
▁خراب	-827
▁روشن	-828
▁سیاه	-829
▁عجبی	-830
▁محمل	-831
▁نشین	-832
▁کاین	-833
▁کشتن	-834
▁گوهر	-835
▁افسوس	-836
▁برخیزم	-837
▁روزگار	-838
او	-839
خم	-840
زم	-841
وف	-842
ناه	-843
▁خا	-844
▁قت	-845
▁هو	-846
▁برگ	-847
▁بسی	-848
▁تاب	-849
▁جگر	-850
▁خاص	-851
▁شاد	-852
▁صبا	-853
▁قدر	-854
▁مرگ	-855
▁ملک	-856
▁هوس	-857
▁پرس	-858
▁بتان	-859
▁برده	-860
▁جنان	-861
▁رسید	-862
▁نغمه	-863
▁گردد	-864
▁بلبلی	-865
▁جانان	-866
▁خواجه	-867
▁یاران	-868
▁بگردانی	-869
رخ	-870
وح	-871
ادر	-872
ایش	-873
تاب	-874
ریم	-875
طان	-876
فتم	-877
وار	-878
وال	-879
کند	-880
کین	-881
▁جل	-882
▁شو	-883
▁صح	-884
▁قی	-885
▁کب	-886
▁یع	-887
انند	-888
▁بآن	-889
▁بار	-890
▁برم	-891
▁بره	-892
▁تلخ	-893
▁جود	-894
▁دری	-895
▁دود	-896
▁زلف	-897
▁صبر	-898
▁مید	-899
▁نقش	-900
▁نیم	-901
▁گذر	-902
▁بادا	-903
▁بلند	-904
▁بهار	-905
▁تماش	-906
▁خسرو	-907
▁خورد	-908
▁دریغ	-909
▁فرست	-910
▁لیلی	-911
▁محبت	-912
▁محشر	-913
▁محمد	-914
▁نکرد	-915
▁پرده	-916
▁کیست	-917
▁ایشان	-918
▁بگذشت	-919
تی	-920
در	-921
زن	-922
بار	-923
حان	-924
نون	-925
▁آم	-926
▁تح	-927
▁حر	-928
▁حک	-929
▁سگ	-930
▁شی	-931
▁صف	-932
▁فش	-933
▁مخ	-934
▁مغ	-935
▁نن	-936
▁انت	-937
▁جست	-938
▁حیف	-939
▁رخت	-940
▁زود	-941
▁سرا	-942
▁منع	-943
▁نور	-944
▁کشی	-945
▁بدست	-946
▁برون	-947
▁توام	-948
▁حرفی	-949
▁خانه	-950
▁خلوت	-951
▁دمید	-952
▁سوخت	-953
▁شکست	-954
▁صباح	-955
▁عالم	-956
▁فشان	-957
▁نگاه	-958
▁هرگز	-959
▁پهلو	-960
▁گردن	-961
▁گفتن	-962
▁افروز	-963
▁خوشتر	-964
▁نداشت	-965
▁نگذاشت	-966
اع	-967
ایق	-968
بیب	-969
زان	-970
ساز	-971
عبه	-972
هاد	-973
وزه	-974
گون	-975
▁اد	-976
▁اص	-977
▁جد	-978
▁حج	-979
▁قر	-980
▁مپ	-981
▁نع	-982
▁کج	-983
▁گز	-984
نهان	-985
▁اثر	-986
▁بخل	-987
▁بدگ	-988
▁بوس	-989
▁بیخ	-990
▁خان	-991
▁دهی	-992
▁روم	-993
▁زار	-994
▁شان	-995
▁صاف	-996
▁عدل	-997
▁عهد	-998
▁مین	-999
▁نهد	-1000
▁نوش	-1001
▁های	-1002
▁کشم	-1003
▁گرم	-1004
▁گیر	-1005
▁آزاد	-1006
▁اختر	-1007
▁اوست	-1008
▁باین	-1009
▁بجان	-1010
▁جانم	-1011
▁خاطر	-1012
▁خواب	-1013
▁ساقی	-1014
▁غیرت	-1015
▁فگند	-1016
▁مجلس	-1017
▁منزل	-1018
▁ناید	-1019
▁نبرد	-1020
▁نیمی	-1021
▁ورنه	-1022
▁چشمم	-1023
▁چشمه	-1024
▁چنین	-1025
▁گردم	-1026
▁گرچه	-1027
▁گریم	-1028
▁آورده	-1029
▁برآید	-1030
▁درویش	-1031
▁فریاد	-1032
▁مرغان	-1033
▁مشکین	-1034
▁نبیند	-1035
▁ندیده	-1036
▁برداشت	-1037
▁پاسبان	-1038
بع	-1039
صت	-1040
ول	-1041
▁ث	-1042
احب	-1043
ادت	-1044
ریف	-1045
نگی	-1046
▁آگ	-1047
▁ات	-1048
▁شع	-1049
▁عر	-1050
گنده	-1051
▁انج	-1052
▁بتو	-1053
▁دعا	-1054
▁رسد	-1055
▁شوی	-1056
▁غمت	-1057
▁فکر	-1058
▁لوح	-1059
▁موی	-1060
▁ناو	-1061
▁نشد	-1062
▁وای	-1063
▁آشنا	-1064
▁باده	-1065
▁برای	-1066
▁بیتو	-1067
▁تازه	-1068
▁توان	-1069
▁جفای	-1070
▁حلقه	-1071
▁دیدی	-1072
▁رشته	-1073
▁زاری	-1074
▁شاید	-1075
▁طبیب	-1076
▁عیان	-1077
▁نالم	-1078
▁چیست	-1079
▁کاری	-1080
▁کعبه	-1081
▁افزون	-1082
▁درمان	-1083
▁شنیدم	-1084
▁صباحی	-1085
▁کشیده	-1086
▁بوستان	-1087
▁خواهیم	-1088
▁کاروان	-1089
جی	-1090
عه	-1091
قب	-1092
وغ	-1093
اهد	-1094
ختم	-1095
راب	-1096
ردی	-1097
نچه	-1098
های	-1099
وسف	-1100
▁آل	-1101
▁بف	-1102
▁تب	-1103
▁حم	-1104
▁خس	-1105
▁سج	-1106
▁مل	-1107
▁نز	-1108
یبان	-1109
▁آرا	-1110
▁حسن	-1111
▁رحم	-1112
▁زخم	-1113
▁طلب	-1114
▁عذر	-1115
▁فتد	-1116
▁قلم	-1117
▁منش	-1118
▁نخل	-1119
▁ننش	-1120
▁وین	-1121
▁پدر	-1122
▁چاک	-1123
▁گنه	-1124
▁گهر	-1125
▁یاب	-1126
▁آمدی	-1127
▁ایزد	-1128
▁بخود	-1129
▁بروز	-1130
▁خامه	-1131
▁خویش	-1132
▁دانه	-1133
▁دیار	-1134
▁راست	-1135
▁رفتی	-1136
▁شهید	-1137
▁فروز	-1138
▁مجید	-1139
▁محرم	-1140
▁مرغی	-1141
▁نسیم	-1142
▁گفتا	-1143
▁گناه	-1144
▁بستند	-1145
▁جدایی	-1146
▁ریخته	-1147
▁فرهاد	-1148
▁وگرنه	-1149
▁پرورد	-1150
▁پنهان	-1151
▁کجایی	-1152
▁گردون	-1153
▁پنداری	-1154
اخ	-1155
جد	-1156
زی	-1157
سد	-1158
فل	-1159
گس	-1160
انت	-1161
ایل	-1162
دمت	-1163
سان	-1164
وشی	-1165
▁آغ	-1166
▁تأ	-1167
▁تش	-1168
▁سم	-1169
▁عی	-1170
▁هن	-1171
▁کد	-1172
اهان	-1173
سیمی	-1174
▁آهی	-1175
▁ادب	-1176
▁برو	-1177
▁بشن	-1178
▁بیک	-1179
▁ترک	-1180
▁حشر	-1181
▁خرم	-1182
▁دان	-1183
▁رسم	-1184
▁سرد	-1185
▁سفر	-1186
▁عید	-1187
▁غری	-1188
▁لعل	-1189
▁میخ	-1190
▁همی	-1191
▁پسر	-1192
▁پیغ	-1193
▁چرخ	-1194
▁کان	-1195
▁کین	-1196
▁گرت	-1197
▁انتظ	-1198
▁بخاک	-1199
▁بدام	-1200
▁بوده	-1201
▁بچشم	-1202
▁تمام	-1203
▁خلقی	-1204
▁خوشه	-1205
▁دهند	-1206
▁دیدن	-1207
▁راهی	-1208
▁رفتن	-1209
▁سبزه	-1210
▁صاحب	-1211
▁عنبر	-1212
▁نشست	-1213
▁نگفت	-1214
▁چکند	-1215
▁گاهی	-1216
▁گذرد	-1217
▁گذشت	-1218
▁یافت	-1219
▁یعنی	-1220
▁بگذرد	-1221
▁خواند	-1222
▁دادند	-1223
▁دامان	-1224
▁زمانه	-1225
▁مجنون	-1226
▁مسکین	-1227
▁نسیمی	-1228
▁پهلوی	-1229
▁خورشید	-1230
▁دیگران	-1231
▁میکردم	-1232
▁گریبان	-1233
▁گلستان	-1234
با	-1235
تش	-1236
فش	-1237
کم	-1238
بیل	-1239
حاب	-1240
ریز	-1241
زای	-1242
سند	-1243
فتر	-1244
▁آد	-1245
▁آش	-1246
▁اج	-1247
▁بط	-1248
▁تک	-1249
▁جر	-1250
▁رض	-1251
▁رم	-1252
▁شر	-1253
▁طع	-1254
▁طل	-1255
▁فص	-1256
▁مت	-1257
▁مق	-1258
استه	-1259
انیم	-1260
نبال	-1261
وانه	-1262
وران	-1263
▁آوی	-1264
▁امت	-1265
▁باش	-1266
▁بنا	-1267
▁بگل	-1268
▁تار	-1269
▁درت	-1270
▁دلش	-1271
▁رام	-1272
▁روح	-1273
▁زمن	-1274
▁زنی	-1275
▁سیه	-1276
▁عار	-1277
▁فرخ	-1278
▁فرم	-1279
▁قات	-1280
▁قتل	-1281
▁مطر	-1282
▁منی	-1283
▁ناک	-1284
▁نخو	-1285
▁نظم	-1286
▁هما	-1287
▁پری	-1288
▁پیو	-1289
▁آباد	-1290
▁الله	-1291
▁الهی	-1292
▁ایاز	-1293
▁اینک	-1294
▁بباغ	-1295
▁بسوی	-1296
▁تیره	-1297
▁جامه	-1298
▁جواب	-1299
▁حریف	-1300
▁خالی	-1301
▁خاکش	-1302
▁خونم	-1303
▁خیزد	-1304
▁دردا	-1305
▁دردم	-1306
▁دردی	-1307
▁دوری	-1308
▁رفتم	-1309
▁ریزد	-1310
▁ساده	-1311
▁سرای	-1312
▁سروی	-1313
▁غنچه	-1314
▁فریب	-1315
▁فزون	-1316
▁مغنی	-1317
▁میده	-1318
▁ناقه	-1319
▁نخست	-1320
▁نرگس	-1321
▁نمید	-1322
▁پوست	-1323
▁چراغ	-1324
▁کارم	-1325
▁کتاب	-1326
▁کشید	-1327
▁کنار	-1328
▁کینه	-1329
▁گدای	-1330
▁یوسف	-1331
▁آوردی	-1332
▁آیینه	-1333
▁بودند	-1334
▁خندان	-1335
▁خواست	-1336
▁خونین	-1337
▁دندان	-1338
▁دوستی	-1339
▁ستمگر	-1340
▁سلطان	-1341
▁شکسته	-1342
▁قیامت	-1343
▁ناگاه	-1344
▁ندانم	-1345
▁گفتمش	-1346
▁گویند	-1347
▁بدگمان	-1348
▁برخیزد	-1349
▁رقیبان	-1350
رو	-1351
سه	-1352
صر	-1353
ضی	-1354
قم	-1355
لا	-1356
وب	-1357
کس	-1358
ادش	-1359
اصل	-1360
اقت	-1361
ایم	-1362
باب	-1363
بیر	-1364
ذار	-1365
راز	-1366
عان	-1367
ندد	-1368
ورم	-1369
وید	-1370
گین	-1371
▁تع	-1372
▁تغ	-1373
▁زی	-1374
▁سف	-1375
▁عد	-1376
▁فق	-1377
▁مط	-1378
▁وف	-1379
استم	-1380
▁آگه	-1381
▁آیی	-1382
▁اسم	-1383
▁انگ	-1384
▁بان	-1385
▁بخش	-1386
▁بده	-1387
▁بدی	-1388
▁برب	-1389
▁بزر	-1390
▁بهم	-1391
▁بگر	-1392
▁تخت	-1393
▁تست	-1394
▁جرم	-1395
▁حدی	-1396
▁حیر	-1397
▁خال	-1398
▁خیر	-1399
▁خیل	-1400
▁دلی	-1401
▁ذوق	-1402
▁رخش	-1403
▁زاغ	-1404
▁سرم	-1405
▁سلی	-1406
▁شوخ	-1407
▁طبع	-1408
▁عاق	-1409
▁عقل	-1410
▁غمی	-1411
▁فرز	-1412
▁قدح	-1413
▁لبت	-1414
▁مصر	-1415
▁ناف	-1416
▁نرس	-1417
▁نقد	-1418
▁پشت	-1419
▁پید	-1420
▁گلش	-1421
▁آرام	-1422
▁آزار	-1423
▁آسان	-1424
▁برآو	-1425
▁برند	-1426
▁بصبر	-1427
▁بودی	-1428
▁حاصل	-1429
▁حالم	-1430
▁حسین	-1431
▁خدای	-1432
▁خدمت	-1433
▁خزان	-1434
▁خسته	-1435
▁خفته	-1436
▁دادی	-1437
▁داند	-1438
▁دانش	-1439
▁دفتر	-1440
▁دلبر	-1441
▁دهان	-1442
▁شادم	-1443
▁شاهی	-1444
▁شنید	-1445
▁شهره	-1446
▁شیشه	-1447
▁صحبت	-1448
▁غمین	-1449
▁فرام	-1450
▁قاتل	-1451
▁قمری	-1452
▁مپرس	-1453
▁ناوک	-1454
▁نوشت	-1455
▁نیام	-1456
▁چشمی	-1457
▁کریم	-1458
▁کسان	-1459
▁کشان	-1460
▁کشند	-1461
▁کمند	-1462
▁کنند	-1463
▁گردی	-1464
▁گفتگ	-1465
▁گیتی	-1466
▁احوال	-1467
▁انجمن	-1468
▁بایدش	-1469
▁بیخبر	-1470
▁بیگنه	-1471
▁جوانی	-1472
▁خاموش	-1473
▁دامنت	-1474
▁دربان	-1475
▁دگران	-1476
▁رنگین	-1477
▁ریزند	-1478
▁سراسر	-1479
▁سپارم	-1480
▁شنیده	-1481
▁شکاری	-1482
▁فرستم	-1483
▁قصیده	-1484
▁ناساز	-1485
▁ندانی	-1486
▁نرویم	-1487
▁نشنود	-1488
▁نهانی	-1489
▁پیکان	-1490
▁گدایی	-1491
▁گرفته	-1492
▁گریان	-1493
▁یابند	-1494
▁امتحان	-1495
▁اندیشه	-1496
▁بنشینم	-1497
▁دشمنان	-1498
▁غلامان	-1499
▁مهربان	-1500
▁گرفتار	-1501
جم	-1502
رب	-1503
وا	-1504
وط	-1505
ابت	-1506
ابر	-1507
اتم	-1508
اغر	-1509
بین	-1510
ثوم	-1511
جاج	-1512
داد	-1513
دار	-1514
سار	-1515
ستی	-1516
طره	-1517
مود	-1518
مون	-1519
نجر	-1520
وفا	-1521
▁اخ	-1522
▁بق	-1523
▁جه	-1524
▁سع	-1525
▁طم	-1526
▁غب	-1527
▁مژ	-1528
▁مک	-1529
▁وا	-1530
▁وح	-1531
▁وط	-1532
اختم	-1533
ارها	-1534
ازیم	-1535
شکده	-1536
فتاب	-1537
ندلی	-1538
گونه	-1539
▁آبش	-1540
▁آشک	-1541
▁آیم	-1542
▁افگ	-1543
▁بعد	-1544
▁بفر	-1545
▁بکش	-1546
▁بکف	-1547
▁بیت	-1548
▁تأث	-1549
▁جرس	-1550
▁جوش	-1551
▁جوی	-1552
▁حاج	-1553
▁خلد	-1554
▁دزد	-1555
▁دشت	-1556
▁دهم	-1557
▁رای	-1558
▁رقم	-1559
▁رها	-1560
▁زال	-1561
▁زنج	-1562
▁زنه	-1563
▁سخت	-1564
▁سنب	-1565
▁سهی	-1566
▁سیر	-1567
▁شام	-1568
▁شدم	-1569
▁شیخ	-1570
▁صنم	-1571
▁عود	-1572
▁عین	-1573
▁غرض	-1574
▁غوغ	-1575
▁قدم	-1576
▁قصر	-1577
▁لبم	-1578
▁مگو	-1579
▁ناچ	-1580
▁نشک	-1581
▁نهم	-1582
▁نوح	-1583
▁نوی	-1584
▁هوش	-1585
▁پشم	-1586
▁کاف	-1587
▁کاو	-1588
▁کزو	-1589
▁کهن	-1590
▁کود	-1591
▁آغاز	-1592
▁آموز	-1593
▁آهوی	-1594
▁اسیر	-1595
▁اولی	-1596
▁ببزم	-1597
▁بندد	-1598
▁جورت	-1599
▁جوید	-1600
▁خرام	-1601
▁خنجر	-1602
▁خوان	-1603
▁دسته	-1604
▁رخنه	-1605
▁رستم	-1606
▁رنجش	-1607
▁زاده	-1608
▁ساحت	-1609
▁ساعت	-1610
▁سجده	-1611
▁سفید	-1612
▁غریب	-1613
▁فتاد	-1614
▁فرصت	-1615
▁قتلم	-1616
▁قطره	-1617
▁مایل	-1618
▁مطرب	-1619
▁ندان	-1620
▁نهال	-1621
▁وفای	-1622
▁پرست	-1623
▁پیدا	-1624
▁پیره	-1625
▁چاره	-1626
▁کدام	-1627
▁کمین	-1628
▁کوثر	-1629
▁گذار	-1630
▁گران	-1631
▁آرزوی	-1632
▁افسون	-1633
▁افغان	-1634
▁افگند	-1635
▁برآمد	-1636
▁بسیار	-1637
▁تغافل	-1638
▁تماشا	-1639
▁خواهی	-1640
▁خونبه	-1641
▁دشمنی	-1642
▁دلبری	-1643
▁دیوار	-1644
▁رساند	-1645
▁شکفته	-1646
▁عندلی	-1647
▁غمگین	-1648
▁فتاده	-1649
▁فشاند	-1650
▁فشانم	-1651
▁قاصدی	-1652
▁میگفت	-1653
▁نالان	-1654
▁نشانی	-1655
▁نکرده	-1656
▁همانا	-1657
▁پیامی	-1658
▁پیغام	-1659
▁پیمان	-1660
▁چندان	-1661
▁کلثوم	-1662
▁آشنایی	-1663
▁اسیران	-1664
▁فراموش	-1665
▁نازنین	-1666
▁مهربانی	-1667
خش	-1668
سا	-1669
سل	-1670
ضه	-1671
کب	-1672
یی	-1673
ازد	-1674
ازم	-1675
امه	-1676
اکب	-1677
دان	-1678
ران	-1679
زود	-1680
لیس	-1681
نای	-1682
کار	-1683
یزی	-1684
▁بآ	-1685
▁خن	-1686
▁خی	-1687
▁دا	-1688
▁دف	-1689
▁زغ	-1690
▁عذ	-1691
▁عل	-1692
▁عم	-1693
▁غز	-1694
▁مب	-1695
▁مز	-1696
▁مو	-1697
▁نص	-1698
اریم	-1699
افله	-1700
ایره	-1701
قبال	-1702
یمان	-1703
▁آبی	-1704
▁آدم	-1705
▁آرد	-1706
▁آمی	-1707
▁آیا	-1708
▁ارم	-1709
▁ببر	-1710
▁بجز	-1711
▁بدخ	-1712
▁بصد	-1713
▁بمی	-1714
▁جزا	-1715
▁حور	-1716
▁خجل	-1717
▁خشم	-1718
▁خفت	-1719
▁درش	-1720
▁دلا	-1721
▁دهن	-1722
▁رفی	-1723
▁رقص	-1724
▁زدی	-1725
▁زیب	-1726
▁سبب	-1727
▁سرت	-1728
▁سرگ	-1729
▁سست	-1730
▁سلس	-1731
▁سمن	-1732
▁سهل	-1733
▁صفا	-1734
▁طمع	-1735
▁علم	-1736
▁فاش	-1737
▁فصل	-1738
▁فیر	-1739
▁قصه	-1740
▁مال	-1741
▁محت	-1742
▁مشو	-1743
▁منم	-1744
▁مکش	-1745
▁میم	-1746
▁ناخ	-1747
▁ناد	-1748
▁نار	-1749
▁ننگ	-1750
▁نکه	-1751
▁هفت	-1752
▁هوا	-1753
▁چار	-1754
▁کلک	-1755
▁کوت	-1756
▁کوه	-1757
▁گرگ	-1758
▁گلب	-1759
▁گیس	-1760
وفایی	-1761
▁آنان	-1762
▁آگاه	-1763
▁آگهی	-1764
▁افرا	-1765
▁افسر	-1766
▁باغی	-1767
▁بانگ	-1768
▁براه	-1769
▁برسد	-1770
▁برود	-1771
▁بروی	-1772
▁بسکه	-1773
▁بکسی	-1774
▁بکوی	-1775
▁بگذر	-1776
▁بگوش	-1777
▁تیشه	-1778
▁جایی	-1779
▁جلوه	-1780
▁حیله	-1781
▁خاست	-1782
▁خداو	-1783
▁خوشم	-1784
▁دراز	-1785
▁درون	-1786
▁دروی	-1787
▁دلکش	-1788
▁رحمی	-1789
▁رسته	-1790
▁رسند	-1791
▁رشکم	-1792
▁رویت	-1793
▁زیان	-1794
▁ساغر	-1795
▁سخنی	-1796
▁سراف	-1797
▁سنبل	-1798
▁سویت	-1799
▁شادی	-1800
▁شدند	-1801
▁غلام	-1802
▁فراز	-1803
▁قامت	-1804
▁قفای	-1805
▁لوحی	-1806
▁مادر	-1807
▁مدام	-1808
▁منهم	-1809
▁میوه	-1810
▁نافه	-1811
▁نامی	-1812
▁نمیر	-1813
▁نهاد	-1814
▁نواز	-1815
▁نگار	-1816
▁همدم	-1817
▁همین	-1818
▁هنوز	-1819
▁هوشم	-1820
▁وصال	-1821
▁وفات	-1822
▁پایی	-1823
▁پرتو	-1824
▁چهره	-1825
▁کآمد	-1826
▁کمان	-1827
▁کوزه	-1828
▁گفته	-1829
▁آزرده	-1830
▁آشکار	-1831
▁آفتاب	-1832
▁بجایی	-1833
▁برادر	-1834
▁بیاضی	-1835
▁بیداد	-1836
▁بیدار	-1837
▁بینند	-1838
▁بیوفا	-1839
▁حکایت	-1840
▁خرابه	-1841
▁دشمنت	-1842
▁زنجیر	-1843
▁ستاره	-1844
▁سوخته	-1845
▁عاقبت	-1846
▁غلامی	-1847
▁فاخته	-1848
▁فگنده	-1849
▁ناچار	-1850
▁ندارم	-1851
▁نشاند	-1852
▁نشینی	-1853
▁نگاهی	-1854
▁ویران	-1855
▁چگونه	-1856
▁کاشان	-1857
▁کشیدم	-1858
▁کنعان	-1859
▁کواکب	-1860
▁گذارم	-1861
▁گذشته	-1862
▁گریست	-1863
▁گشاده	-1864
▁آتشکده	-1865
▁آراسته	-1866
▁آستانش	-1867
▁افتادم	-1868
▁حریفان	-1869
▁خواستم	-1870
▁سلیمان	-1871
▁شهیدان	-1872
▁فرستمت	-1873
▁ناسازی	-1874
▁نگذارد	-1875
▁پروانه	-1876
▁گدایان	-1877
▁انداختم	-1878
▁انداخته	-1879
▁بیوفایی	-1880
اط	-1881
بد	-1882
حل	-1883
دس	-1884
ضط	-1885
ظر	-1886
ظه	-1887
قر	-1888
قش	-1889
کت	-1890
کو	-1891
یح	-1892
اشا	-1893
افت	-1894
الت	-1895
ایک	-1896
برد	-1897
بله	-1898
خور	-1899
ذرو	-1900
ستر	-1901
قان	-1902
قوب	-1903
نجه	-1904
وزخ	-1905
گرم	-1906
گری	-1907
▁اق	-1908
▁حق	-1909
▁خص	-1910
▁صل	-1911
▁ضح	-1912
▁عف	-1913
▁قط	-1914
▁قف	-1915
▁مض	-1916
▁نث	-1917
▁نط	-1918
▁یم	-1919
ترسم	-1920
زانی	-1921
عیان	-1922
لمان	-1923
ناهی	-1924
وشان	-1925
چاره	-1926
کشان	-1927
گانی	-1928
گاهی	-1929
یدند	-1930
▁آست	-1931
▁اجل	-1932
▁اعت	-1933
▁افش	-1934
▁الا	-1935
▁بحر	-1936
▁بخر	-1937
▁بدو	-1938
▁برق	-1939
▁بری	-1940
▁بمح	-1941
▁بگش	-1942
▁تاج	-1943
▁جنگ	-1944
▁حجر	-1945
▁حذر	-1946
▁خرس	-1947
▁خشن	-1948
▁خند	-1949
▁خیز	-1950
▁دمی	-1951
▁دوا	-1952
▁دون	-1953
▁رهش	-1954
▁زآن	-1955
▁زاد	-1956
▁زدم	-1957
▁زرد	-1958
▁زنگ	-1959
▁سبز	-1960
▁سعی	-1961
▁شعر	-1962
▁شوم	-1963
▁عیب	-1964
▁غلط	-1965
▁غمش	-1966
▁غمم	-1967
▁قبا	-1968
▁قصد	-1969
▁لال	-1970
▁مدح	-1971
▁مهد	-1972
▁موس	-1973
▁میز	-1974
▁میچ	-1975
▁ناب	-1976
▁نفر	-1977
▁نوم	-1978
▁هشی	-1979
▁هنگ	-1980
▁وام	-1981
▁پرا	-1982
▁چنگ	-1983
▁کوش	-1984
▁گاو	-1985
▁گون	-1986
انیان	-1987
▁آدمی	-1988
▁آمدش	-1989
▁آمدن	-1990
▁آنها	-1991
▁افتم	-1992
▁افرو	-1993
▁امین	-1994
▁ایام	-1995
▁باری	-1996
▁باور	-1997
▁بخیر	-1998
▁بردی	-1999
▁برکه	-2000
▁برین	-2001
▁بشکر	-2002
▁بلکه	-2003
▁بودش	-2004
▁بوسم	-2005
▁بپرس	-2006
▁بکار	-2007
▁بکام	-2008
▁بیاد	-2009
▁بیار	-2010
▁بیدل	-2011
▁تذرو	-2012
▁تربت	-2013
▁تشنه	-2014
▁توبه	-2015
▁جانب	-2016
▁حاتم	-2017
▁حدیث	-2018
▁خاصه	-2019
▁خاکی	-2020
▁خجلت	-2021
▁خرقه	-2022
▁خوار	-2023
▁دامی	-2024
▁درید	-2025
▁دستش	-2026
▁دستم	-2027
▁دستی	-2028
▁دوان	-2029
▁دوشم	-2030
▁رخصت	-2031
▁روزه	-2032
▁روست	-2033
▁زاهد	-2034
▁زهره	-2035
▁ساخت	-2036
▁سازم	-2037
▁سراغ	-2038
▁سزای	-2039
▁شبان	-2040
▁شنفت	-2041
▁طاقت	-2042
▁طعنه	-2043
▁عشقت	-2044
▁غارت	-2045
▁غبار	-2046
▁غرور	-2047
▁فتنه	-2048
▁فرود	-2049
▁محفل	-2050
▁مخزن	-2051
▁مدار	-2052
▁نالد	-2053
▁نامد	-2054
▁ناگه	-2055
▁نداد	-2056
▁نزار	-2057
▁نفسی	-2058
▁ننال	-2059
▁نکنم	-2060
▁نکهت	-2061
▁نگون	-2062
▁هرکه	-2063
▁وادی	-2064
▁پادش	-2065
▁پایه	-2066
▁پرسی	-2067
▁پرور	-2068
▁پسند	-2069
▁پیکی	-2070
▁کآذر	-2071
▁کبوت	-2072
▁کشور	-2073
▁کنان	-2074
▁کوکب	-2075
▁گردش	-2076
▁گویا	-2077
▁یادم	-2078
▁آزاده	-2079
▁آزادی	-2080
▁آسوده	-2081
▁آشفته	-2082
▁آلوده	-2083
▁ابلیس	-2084
▁ابوال	-2085
▁اصحاب	-2086
▁افشان	-2087
▁امیدو	-2088
▁ایران	-2089
▁بالین	-2090
▁برابر	-2091
▁برهمن	-2092
▁بسرای	-2093
▁بشنوم	-2094
▁بشکند	-2095
▁بلبلم	-2096
▁بکویش	-2097
▁تأثیر	-2098
▁تمامی	-2099
▁خجسته	-2100
▁خورده	-2101
▁داشتم	-2102
▁دریده	-2103
▁دمساز	-2104
▁دنبال	-2105
▁دهقان	-2106
▁دیاری	-2107
▁زنهار	-2108
▁ساخته	-2109
▁سرایت	-2110
▁سیمین	-2111
▁فراقت	-2112
▁فشانی	-2113
▁قافله	-2114
▁میکشد	-2115
▁نداند	-2116
▁نهفته	-2117
▁نکردم	-2118
▁نگرفت	-2119
▁نگرید	-2120
▁نگفته	-2121
▁نگوید	-2122
▁همیشه	-2123
▁پرواز	-2124
▁کشتنم	-2125
▁کوتاه	-2126
▁گشاید	-2127
▁گفتند	-2128
▁گفتگو	-2129
▁گلزار	-2130
▁یعقوب	-2131
▁آستانه	-2132
▁آویخته	-2133
▁افروزد	-2134
▁انتظار	-2135
▁بندگان	-2136
▁بیچاره	-2137
▁بیگانه	-2138
▁خونبها	-2139
▁عنبرین	-2140
▁عندلیب	-2141
▁فروزان	-2142
▁مسلمان	-2143
▁میترسم	-2144
▁میخانه	-2145
▁میگویم	-2146
▁ننشیند	-2147
▁اندازیم	-2148
▁برآورده	-2149
▁درویشان	-2150
▁زندگانی	-2151
▁ندانستم	-2152
تا	-2153
جز	-2154
جو	-2155
صف	-2156
صه	-2157
ضا	-2158
ظل	-2159
عا	-2160
کد	-2161
کل	-2162
▁-	-2163
آمد	-2164
اسد	-2165
اوی	-2166
باز	-2167
بور	-2168
جیس	-2169
حرم	-2170
ختر	-2171
داع	-2172
ردد	-2173
رسی	-2174
ریس	-2175
زله	-2176
سوز	-2177
سیس	-2178
شتی	-2179
عیف	-2180
فتد	-2181
فلی	-2182
قاه	-2183
قدس	-2184
قصه	-2185
قوت	-2186
مدا	-2187
میر	-2188
میل	-2189
نام	-2190
ناک	-2191
نجا	-2192
ندل	-2193
واب	-2194
وای	-2195
چین	-2196
گهش	-2197
گیر	-2198
یفه	-2199
ینم	-2200
▁تس	-2201
▁جغ	-2202
▁حو	-2203
▁خض	-2204
▁دش	-2205
▁رط	-2206
▁رک	-2207
▁سه	-2208
▁فس	-2209
▁فل	-2210
▁فی	-2211
▁لح	-2212
▁مأ	-2213
▁مف	-2214
▁نج	-2215
▁نپ	-2216
▁نژ	-2217
▁وس	-2218
▁وه	-2219
▁پل	-2220
▁چل	-2221
▁گس	-2222
▁گه	-2223
ارده	-2224
اریش	-2225
اندی	-2226
خواه	-2227
ردان	-2228
زاری	-2229
ستند	-2230
شنام	-2231
شیدی	-2232
فشان	-2233
ودان	-2234
وفان	-2235
ویان	-2236
گاری	-2237
▁آهم	-2238
▁آهن	-2239
▁آهو	-2240
▁اصف	-2241
▁اضط	-2242
▁الع	-2243
▁الم	-2244
▁باب	-2245
▁بتن	-2246
▁بتک	-2247
▁بخط	-2248
▁بدر	-2249
▁برز	-2250
▁بشم	-2251
▁بغم	-2252
▁بکس	-2253
▁بکم	-2254
▁بیه	-2255
▁خاق	-2256
▁خشک	-2257
▁خطه	-2258
▁خنک	-2259
▁ذکر	-2260
▁راغ	-2261
▁روس	-2262
▁ریا	-2263
▁زغن	-2264
▁زنخ	-2265
▁زنم	-2266
▁سار	-2267
▁سرف	-2268
▁سنج	-2269
▁سوک	-2270
▁سیب	-2271
▁شاع	-2272
▁شدش	-2273
▁شما	-2274
▁شمش	-2275
▁صدر	-2276
▁طاق	-2277
▁طره	-2278
▁طری	-2279
▁طوط	-2280
▁عفو	-2281
▁علی	-2282
▁مجل	-2283
▁مرو	-2284
▁مشت	-2285
▁معش	-2286
▁مند	-2287
▁مهی	-2288
▁مور	-2289
▁نان	-2290
▁ناگ	-2291
▁نتو	-2292
▁نزد	-2293
▁نسر	-2294
▁نعش	-2295
▁نقط	-2296
▁ننه	-2297
▁نوخ	-2298
▁نکو	-2299
▁نیر	-2300
▁نیش	-2301
▁نیل	-2302
▁هند	-2303
▁هین	-2304
▁وطن	-2305
▁پار	-2306
▁پیک	-2307
▁چاه	-2308
▁کآن	-2309
▁کله	-2310
▁کمر	-2311
▁کور	-2312
▁گام	-2313
▁گرش	-2314
▁گره	-2315
▁گلم	-2316
▁یکد	-2317
سمانی	-2318
▁آتشم	-2319
▁آلود	-2320
▁آوری	-2321
▁استخ	-2322
▁امیر	-2323
▁انجم	-2324
▁بادت	-2325
▁بازی	-2326
▁بباد	-2327
▁بخون	-2328
▁بدری	-2329
▁براف	-2330
▁بستر	-2331
▁بستم	-2332
▁بغیر	-2333
▁بمنت	-2334
▁بهتر	-2335
▁بپای	-2336
▁بچمن	-2337
▁بگفت	-2338
▁تکیه	-2339
▁تیغت	-2340
▁جبری	-2341
▁جبین	-2342
▁جرمی	-2343
▁جسته	-2344
▁جمال	-2345
▁جمله	-2346
▁حاجی	-2347
▁حجاج	-2348
▁حجره	-2349
▁حجله	-2350
▁حریم	-2351
▁حکمت	-2352
▁خاصم	-2353
▁خاکم	-2354
▁خرمن	-2355
▁خیال	-2356
▁دروغ	-2357
▁دریا	-2358
▁دستت	-2359
▁دهاد	-2360
▁دولت	-2361
▁دگری	-2362
▁راهم	-2363
▁روزم	-2364
▁روضه	-2365
▁زارم	-2366
▁زنند	-2367
▁زیاد	-2368
▁سازی	-2369
▁ساله	-2370
▁سبیل	-2371
▁سجود	-2372
▁سرشک	-2373
▁سودم	-2374
▁سوزی	-2375
▁سگان	-2376
▁شبها	-2377
▁شراب	-2378
▁شمار	-2379
▁شهری	-2380
▁شکفت	-2381
▁صافی	-2382
▁ضعیف	-2383
▁طلعت	-2384
▁عادت	-2385
▁عبیر	-2386
▁عنان	-2387
▁غزال	-2388
▁قرار	-2389
▁قفسم	-2390
▁لطفت	-2391
▁ماتم	-2392
▁مخور	-2393
▁مرنج	-2394
▁مستی	-2395
▁مسجد	-2396
▁مشام	-2397
▁مشکب	-2398
▁مطلب	-2399
▁مغان	-2400
▁مهان	-2401
▁مکتو	-2402
▁مگوی	-2403
▁میخو	-2404
▁ناتم	-2405
▁نایی	-2406
▁ندهد	-2407
▁نشود	-2408
▁نعیم	-2409
▁نمود	-2410
▁نهفت	-2411
▁نوای	-2412
▁نوبت	-2413
▁نوید	-2414
▁نیاز	-2415
▁نیاو	-2416
▁هوای	-2417
▁وداع	-2418
▁وصلم	-2419
▁پاره	-2420
▁پایت	-2421
▁پیام	-2422
▁پیرم	-2423
▁پیشه	-2424
▁چشمش	-2425
▁کامد	-2426
▁کاند	-2427
▁کشدم	-2428
▁کنشت	-2429
▁کهنه	-2430
▁گفتش	-2431
▁گلبن	-2432
▁گوشم	-2433
▁گیری	-2434
▁یادش	-2435
▁یارب	-2436
▁یارم	-2437
▁آدینه	-2438
▁آزاری	-2439
▁آوازه	-2440
▁ابروی	-2441
▁احباب	-2442
▁استاد	-2443
▁اسیری	-2444
▁اقبال	-2445
▁القصه	-2446
▁امیدی	-2447
▁ایوان	-2448
▁باخته	-2449
▁بجهان	-2450
▁بخرام	-2451
▁بخلوت	-2452
▁بردند	-2453
▁بریده	-2454
▁بسینه	-2455
▁بغداد	-2456
▁بماند	-2457
▁بمیان	-2458
▁بهرام	-2459
▁بگرفت	-2460
▁بیگان	-2461
▁تنگدل	-2462
▁توانم	-2463
▁خرابی	-2464
▁خسروی	-2465
▁خطایی	-2466
▁خواری	-2467
▁خوبان	-2468
▁دایره	-2469
▁دریای	-2470
▁دریغا	-2471
▁دشوار	-2472
▁رخشان	-2473
▁رضوان	-2474
▁رفتند	-2475
▁رفتنم	-2476
▁ریزان	-2477
▁زبانم	-2478
▁زبانی	-2479
▁زلزله	-2480
▁زمانی	-2481
▁زندگی	-2482
▁سلسله	-2483
▁سنگدل	-2484
▁شاهان	-2485
▁شمارم	-2486
▁شنویم	-2487
▁صیادم	-2488
▁طوفان	-2489
▁عاشقی	-2490
▁غلمان	-2491
▁فرزند	-2492
▁فرمان	-2493
▁فیروز	-2494
▁مبادا	-2495
▁محمود	-2496
▁مردان	-2497
▁مضمون	-2498
▁میانه	-2499
▁میدهم	-2500
▁میرود	-2501
▁میروی	-2502
▁ناخوش	-2503
▁نامهر	-2504
▁نرسید	-2505
▁نشینم	-2506
▁نظاره	-2507
▁نهاده	-2508
▁نوشته	-2509
▁نومید	-2510
▁نگویم	-2511
▁نیستم	-2512
▁هجران	-2513
▁هستند	-2514
▁هنگام	-2515
▁پرسند	-2516
▁پروین	-2517
▁پستان	-2518
▁پیراه	-2519
▁پیرهن	-2520
▁پیشتر	-2521
▁پیوند	-2522
▁چارده	-2523
▁کبوتر	-2524
▁کردند	-2525
▁کنارم	-2526
▁گرامی	-2527
▁گردید	-2528
▁گلچین	-2529
▁یاقوت	-2530
▁آسمانم	-2531
▁اختیار	-2532
▁بدنبال	-2533
▁تماشای	-2534
▁خانقاه	-2535
▁خداوند	-2536
▁خرامان	-2537
▁شرمنده	-2538
▁شکایتی	-2539
▁شکرانه	-2540
▁صفاهان	-2541
▁فتادند	-2542
▁فرخنده	-2543
▁میداند	-2544
▁ناتوان	-2545
▁نخواهد	-2546
▁نشنیده	-2547
▁چنانکه	-2548
▁کدامین	-2549
▁کودکان	-2550
▁گرفتند	-2551
تن	-2552
جب	-2553
جه	-2554
حا	-2555
حم	-2556
خل	-2557
خه	-2558
رت	-2559
شا	-2560
ضب	-2561
ضت	-2562
عف	-2563
غر	-2564
قف	-2565
لف	-2566
وج	-2567
پد	-2568
یت	-2569
۱۱	-2570
ؤوس	-2571
ابل	-2572
ادق	-2573
ارا	-2574
ارغ	-2575
الب	-2576
الع	-2577
اهم	-2578
اور	-2579
اکل	-2580
اکم	-2581
تان	-2582
جاد	-2583
جار	-2584
حری	-2585
حیر	-2586
دال	-2587
دلی	-2588
دمی	-2589
ذشت	-2590
ذیر	-2591
راج	-2592
ردن	-2593
رما	-2594
رنگ	-2595
زیز	-2596
شتن	-2597
شرت	-2598
شمه	-2599
شکر	-2600
ضرت	-2601
عفر	-2602
عود	-2603
فاق	-2604
فتح	-2605
فور	-2606
قار	-2607
قدر	-2608
قوس	-2609
لاق	-2610
لاک	-2611
لحت	-2612
ملو	-2613
ملی	-2614
نجد	-2615
همه	-2616
وطه	-2617
وفه	-2618
ونق	-2619
ویس	-2620
کات	-2621
کام	-2622
گهم	-2623
گهی	-2624
▁اط	-2625
▁تت	-2626
▁تد	-2627
▁ته	-2628
▁جن	-2629
▁رع	-2630
▁زخ	-2631
▁زو	-2632
▁سد	-2633
▁سط	-2634
▁شخ	-2635
▁صر	-2636
▁صن	-2637
▁صو	-2638
▁ظل	-2639
▁عص	-2640
▁فد	-2641
▁فض	-2642
▁فن	-2643
▁فگ	-2644
▁لر	-2645
▁لع	-2646
▁لق	-2647
▁وج	-2648
▁وش	-2649
▁ول	-2650
▁پش	-2651
▁کت	-2652
▁کر	-2653
اخیز	-2654
اریت	-2655
اریه	-2656
افلی	-2657
الید	-2658
الیه	-2659
انیش	-2660
اهید	-2661
اووس	-2662
ایون	-2663
باره	-2664
حرای	-2665
خانه	-2666
رانی	-2667
روخت	-2668
رومی	-2669
ریفی	-2670
زبان	-2671
ساری	-2672
شیده	-2673
ظلوم	-2674
ظهار	-2675
قصیر	-2676
مانی	-2677
مهری	-2678
نگان	-2679
نیاد	-2680
وانی	-2681
ومند	-2682
ویند	-2683
پسند	-2684
چشمه	-2685
گارش	-2686
گذار	-2687
گران	-2688
گیرد	-2689
یحون	-2690
▁آسی	-2691
▁آصف	-2692
▁ارغ	-2693
▁الت	-2694
▁الح	-2695
▁ایا	-2696
▁بای	-2697
▁بتر	-2698
▁بتم	-2699
▁بجا	-2700
▁برت	-2701
▁برف	-2702
▁بزن	-2703
▁بسا	-2704
▁بغل	-2705
▁بلا	-2706
▁بلی	-2707
▁بمر	-2708
▁بمس	-2709
▁بپا	-2710
▁بچه	-2711
▁تاک	-2712
▁تمن	-2713
▁تنم	-2714
▁تنی	-2715
▁جاه	-2716
▁جسم	-2717
▁جنت	-2718
▁حکم	-2719
▁ختن	-2720
▁خطا	-2721
▁خطش	-2722
▁خوف	-2723
▁دلب	-2724
▁دلج	-2725
▁دلد	-2726
▁دمد	-2727
▁دیو	-2728
▁رمه	-2729
▁رهم	-2730
▁رهی	-2731
▁روا	-2732
▁روب	-2733
▁ریش	-2734
▁ساک	-2735
▁سبو	-2736
▁سرخ	-2737
▁سرش	-2738
▁سرک	-2739
▁سری	-2740
▁سگت	-2741
▁شبت	-2742
▁شبه	-2743
▁شدی	-2744
▁شری	-2745
▁شست	-2746
▁شهد	-2747
▁شکی	-2748
▁صفه	-2749
▁صلح	-2750
▁صوف	-2751
▁ضعف	-2752
▁طاس	-2753
▁طای	-2754
▁طفل	-2755
▁طوق	-2756
▁ظاه	-2757
▁عجز	-2758
▁عرض	-2759
▁عقد	-2760
▁غصه	-2761
▁غضب	-2762
▁فتح	-2763
▁قفا	-2764
▁قند	-2765
▁قوم	-2766
▁قوی	-2767
▁لات	-2768
▁لاف	-2769
▁لقب	-2770
▁لله	-2771
▁محر	-2772
▁محل	-2773
▁محک	-2774
▁مول	-2775
▁مژه	-2776
▁میط	-2777
▁میل	-2778
▁نرم	-2779
▁نغز	-2780
▁نهی	-2781
▁نکن	-2782
▁نیا	-2783
▁هان	-2784
▁هشت	-2785
▁همت	-2786
▁همر	-2787
▁همن	-2788
▁واق	-2789
▁ویر	-2790
▁پرد	-2791
▁پرم	-2792
▁پنج	-2793
▁چتر	-2794
▁چرد	-2795
▁کآو	-2796
▁کال	-2797
▁کاه	-2798
▁کای	-2799
▁کبر	-2800
▁کفت	-2801
▁کفی	-2802
▁کمی	-2803
▁کیش	-2804
▁گرو	-2805
▁گست	-2806
▁گمر	-2807
▁گمگ	-2808
▁یله	-2809
▁یمن	-2810
امیدی	-2811
توانی	-2812
رفشان	-2813
ستاده	-2814
شدگان	-2815
▁آتشی	-2816
▁آذرت	-2817
▁آذری	-2818
▁آرمت	-2819
▁آغوش	-2820
▁آنکو	-2821
▁آنگه	-2822
▁آهنگ	-2823
▁آیدت	-2824
▁آیین	-2825
▁ابری	-2826
▁احمد	-2827
▁استغ	-2828
▁افگن	-2829
▁الفت	-2830
▁امام	-2831
▁اگرت	-2832
▁بازش	-2833
▁بازگ	-2834
▁بالا	-2835
▁بباز	-2836
▁ببوس	-2837
▁بتخت	-2838
▁بترس	-2839
▁بتیغ	-2840
▁بختی	-2841
▁بدهش	-2842
▁بدوش	-2843
▁بدیع	-2844
▁بران	-2845
▁بردن	-2846
▁برقص	-2847
▁بریم	-2848
▁بزمت	-2849
▁بستی	-2850
▁بشهر	-2851
▁بطرف	-2852
▁بفرد	-2853
▁بلور	-2854
▁بنام	-2855
▁بنان	-2856
▁بندم	-2857
▁بنگر	-2858
▁بهره	-2859
▁بچنگ	-2860
▁بگنج	-2861
▁بیکی	-2862
▁تازی	-2863
▁تبسم	-2864
▁تحفه	-2865
▁تلخی	-2866
▁تنگی	-2867
▁تویی	-2868
▁جلال	-2869
▁جلیل	-2870
▁جویی	-2871
▁حاشا	-2872
▁حامی	-2873
▁حاکم	-2874
▁حجاز	-2875
▁حرمت	-2876
▁حساب	-2877
▁حضرت	-2878
▁خدنگ	-2879
▁خروس	-2880
▁خطبه	-2881
▁خلاف	-2882
▁خلیل	-2883
▁دادم	-2884
▁دادن	-2885
▁دایم	-2886
▁دعوی	-2887
▁دلیل	-2888
▁دماغ	-2889
▁دهدم	-2890
▁دوات	-2891
▁دوزخ	-2892
▁راحت	-2893
▁راهش	-2894
▁رایت	-2895
▁رحمت	-2896
▁رضای	-2897
▁رفیع	-2898
▁رفیق	-2899
▁رنجد	-2900
▁رنجه	-2901
▁روزت	-2902
▁رونق	-2903
▁رویم	-2904
▁رکاب	-2905
▁ریزم	-2906
▁ریزی	-2907
▁زانی	-2908
▁زمزم	-2909
▁زنان	-2910
▁سارش	-2911
▁ستمت	-2912
▁ستمش	-2913
▁سحاب	-2914
▁سحری	-2915
▁سرشت	-2916
▁سرمه	-2917
▁سرکه	-2918
▁سلام	-2919
▁سمند	-2920
▁سودی	-2921
▁سوزد	-2922
▁سوزم	-2923
▁شاخش	-2924
▁شاهد	-2925
▁شتاب	-2926
▁شرمی	-2927
▁شنوم	-2928
▁شهان	-2929
▁شوید	-2930
▁صادق	-2931
▁صندل	-2932
▁صیدی	-2933
▁ضحاک	-2934
▁طفلی	-2935
▁طلبی	-2936
▁ظالم	-2937
▁عباد	-2938
▁عدلش	-2939
▁عروس	-2940
▁عشقم	-2941
▁عقرب	-2942
▁علاج	-2943
▁عمری	-2944
▁عیسی	-2945
▁غماز	-2946
▁غوطه	-2947
▁غوغا	-2948
▁فارغ	-2949
▁فزود	-2950
▁قبله	-2951
▁قطعه	-2952
▁قفسی	-2953
▁قیصر	-2954
▁لازم	-2955
▁لبان	-2956
▁لشکر	-2957
▁ماده	-2958
▁ماست	-2959
▁مباش	-2960
▁محکم	-2961
▁مدعی	-2962
▁مردن	-2963
▁مریز	-2964
▁مسلم	-2965
▁مصری	-2966
▁مفلس	-2967
▁مملو	-2968
▁مکان	-2969
▁میشم	-2970
▁ناخو	-2971
▁نامش	-2972
▁نخفت	-2973
▁ندهی	-2974
▁ندید	-2975
▁نزنم	-2976
▁نشوی	-2977
▁نصیب	-2978
▁نفاق	-2979
▁نفسم	-2980
▁نقشی	-2981
▁نمیگ	-2982
▁نوحه	-2983
▁نژاد	-2984
▁نگهی	-2985
▁نیمه	-2986
▁نیکو	-2987
▁وحشی	-2988
▁وقتی	-2989
▁پاسخ	-2990
▁پاکد	-2991
▁پایم	-2992
▁پرید	-2993
▁پریش	-2994
▁پیری	-2995
▁پیکر	-2996
▁چمنم	-2997
▁چمنی	-2998
▁چندی	-2999
▁چینی	-3000
▁کاسه	-3001
▁کامی	-3002
▁کاکل	-3003
▁کبود	-3004
▁کجات	-3005
▁کفیل	-3006
▁کمال	-3007
▁کوشم	-3008
▁کویش	-3009
▁کیسه	-3010
▁گامی	-3011
▁گذری	-3012
▁گرنه	-3013
▁گزند	-3014
▁گشاد	-3015
▁گشود	-3016
خواهان	-3017
▁آراست	-3018
▁آرایش	-3019
▁آستین	-3020
▁آنگاه	-3021
▁آهنین	-3022
▁آواره	-3023
▁آوردم	-3024
▁آگاهی	-3025
▁اظهار	-3026
▁افتدش	-3027
▁افزود	-3028
▁القدس	-3029
▁انکار	-3030
▁انگار	-3031
▁انگشت	-3032
▁ایجاد	-3033
▁اینان	-3034
▁اینها	-3035
▁بازوی	-3036
▁باشیم	-3037
▁بالای	-3038
▁بایدم	-3039
▁ببیند	-3040
▁ببینم	-3041
▁بتکده	-3042
▁بجنان	-3043
▁بخواب	-3044
▁بدامن	-3045
▁بدنام	-3046
▁بدیده	-3047
▁برآرم	-3048
▁بربست	-3049
▁برجیس	-3050
▁برویت	-3051
▁بزبان	-3052
▁بستان	-3053
▁بعالم	-3054
▁بلبلش	-3055
▁بمحشر	-3056
▁بندگی	-3057
▁بنیاد	-3058
▁بهزار	-3059
▁بوعده	-3060
▁بکویت	-3061
▁بگمان	-3062
▁بیخود	-3063
▁بیمار	-3064
▁ترانه	-3065
▁تقصیر	-3066
▁تواند	-3067
▁جهانی	-3068
▁جوابی	-3069
▁جویند	-3070
▁جیحون	-3071
▁حرکات	-3072
▁حسرتم	-3073
▁حمایت	-3074
▁حیرتم	-3075
▁خشنود	-3076
▁خوردم	-3077
▁خوشخر	-3078
▁خوشدل	-3079
▁دارای	-3080
▁درگاه	-3081
▁درگهش	-3082
▁دشنام	-3083
▁دوریت	-3084
▁دوستد	-3085
▁دوستر	-3086
▁دونان	-3087
▁دیدار	-3088
▁دیوان	-3089
▁دیگری	-3090
▁ربوده	-3091
▁رقصان	-3092
▁رمیده	-3093
▁رندان	-3094
▁رواست	-3095
▁روزنه	-3096
▁روسبی	-3097
▁ریحان	-3098
▁ریختی	-3099
▁زندان	-3100
▁ستاده	-3101
▁ستانی	-3102
▁سوگند	-3103
▁سپاری	-3104
▁شاهین	-3105
▁شنیدن	-3106
▁شکوفه	-3107
▁شیراز	-3108
▁صبحدم	-3109
▁صیادی	-3110
▁طاووس	-3111
▁طبیبم	-3112
▁طریقه	-3113
▁عمارت	-3114
▁عنایت	-3115
▁عینکی	-3116
▁غباری	-3117
▁غوغای	-3118
▁فرشته	-3119
▁قفایت	-3120
▁ماندی	-3121
▁متحیر	-3122
▁محتاج	-3123
▁مستان	-3124
▁مصلحت	-3125
▁مظلوم	-3126
▁معشوق	-3127
▁مپسند	-3128
▁مکتوب	-3129
▁میرفت	-3130
▁میکنم	-3131
▁ناهید	-3132
▁ناکسی	-3133
▁نباشی	-3134
▁نباید	-3135
▁نبردم	-3136
▁نبسته	-3137
▁نداری	-3138
▁نسرین	-3139
▁نشانم	-3140
▁نشاید	-3141
▁نشستم	-3142
▁نشنوی	-3143
▁نشیند	-3144
▁نظامی	-3145
▁ننالد	-3146
▁ننوشم	-3147
▁نهالی	-3148
▁نهانم	-3149
▁نویسم	-3150
▁نگویی	-3151
▁نیارم	-3152
▁نیستش	-3153
▁هشیار	-3154
▁هوایی	-3155
▁هیچکس	-3156
▁وفایت	-3157
▁وفایی	-3158
▁پادشه	-3159
▁پریده	-3160
▁پیاده	-3161
▁پیران	-3162
▁کآنجا	-3163
▁کارند	-3164
▁کافور	-3165
▁کاندر	-3166
▁کاووس	-3167
▁کتابی	-3168
▁کردیش	-3169
▁کشیدن	-3170
▁گذارد	-3171
▁گرانی	-3172
▁گرفتم	-3173
▁گرفتی	-3174
▁گریزد	-3175
▁گسسته	-3176
▁گفتار	-3177
▁گفتنش	-3178
▁گفتیم	-3179
▁گمانش	-3180
▁گناهی	-3181
▁گیسوی	-3182
▁یکبار	-3183
▁یکدگر	-3184
▁آرمیده	-3185
▁آسمانی	-3186
▁آمیخته	-3187
▁اضطراب	-3188
▁افسانه	-3189
▁افگنده	-3190
▁اولیتر	-3191
▁اینهمه	-3192
▁برخاست	-3193
▁برگشته	-3194
▁بیابان	-3195
▁بیدلان	-3196
▁بیماری	-3197
▁بیمهری	-3198
▁بیگناه	-3199
▁جاودان	-3200
▁جبرییل	-3201
▁خاکستر	-3202
▁خرابات	-3203
▁خواسته	-3204
▁خوانده	-3205
▁دلبران	-3206
▁رنجیده	-3207
▁زنارها	-3208
▁ساربان	-3209
▁سرفراز	-3210
▁شرمسار	-3211
▁صوفیان	-3212
▁فرستاد	-3213
▁محرمان	-3214
▁محرومی	-3215
▁مرغزار	-3216
▁میخندد	-3217
▁میدهمش	-3218
▁میگیرد	-3219
▁نالیدن	-3220
▁ناگهان	-3221
▁نتواند	-3222
▁نخواهم	-3223
▁ندارند	-3224
▁ندانند	-3225
▁نشانده	-3226
▁نمیرود	-3227
▁نیامدی	-3228
▁همزبان	-3229
▁پرستان	-3230
▁پرورده	-3231
▁پوشیده	-3232
▁پیراهن	-3233
▁پیغامی	-3234
▁پیمانه	-3235
▁پیوسته	-3236
▁گذارند	-3237
▁گفتگوی	-3238
▁گنجینه	-3239
▁آزادگان	-3240
▁آموزگار	-3241
▁استخوان	-3242
▁افروخته	-3243
▁امیدوار	-3244
▁انتظارش	-3245
▁باغبانی	-3246
▁تماشایی	-3247
▁خواجگان	-3248
▁خورشیدی	-3249
▁دربانان	-3250
▁دشمنانت	-3251
▁دلباخته	-3252
▁دوستانت	-3253
▁فرستادم	-3254
▁فرستاده	-3255
▁ناامیدی	-3256
▁ناتوانی	-3257
▁نمیدانم	-3258
▁نمیدانی	-3259
▁گرفتاری	-3260
▁ابوالفتح	-3261
▁امیدوارم	-3262
▁سرافگنده	-3263
▁مسلمانان	-3264
▁ناخوانده	-3265
▁نامهربان	-3266
اء	-3267
اذ	-3268
حس	-3269
سب	-3270
سس	-3271
شه	-3272
صح	-3273
عث	-3274
عد	-3275
غل	-3276
فع	-3277
مس	-3278
وث	-3279
گش	-3280
یف	-3281
یک	-3282
آید	-3283
آیی	-3284
احل	-3285
اخی	-3286
اطر	-3287
اعظ	-3288
افر	-3289
اقی	-3290
امع	-3291
اوت	-3292
بدم	-3293
بده	-3294
بهه	-3295
بوی	-3296
جرم	-3297
حسن	-3298
حون	-3299
..	-3300
ثل	-3301
حه	-3302
رگ	-3303
زا	-3304
صو	-3305
طو	-3306
فد	-3307
قن	-3308
ما	-3309
پر	-3310
اها	-3311
خاص	-3312
خند	-3313
خون	-3314
دیس	-3315
دین	-3316
رسد	-3317
رعه	-3318
رند	-3319
زلت	-3320
زمه	-3321
سای	-3322
سیع	-3323
شده	-3324
صوم	-3325
طیل	-3326
عتم	-3327
عتی	-3328
عیت	-3329
فشه	-3330
فیر	-3331
فیف	-3332
فیق	-3333
فیل	-3334
قام	-3335
قیس	-3336
لاط	-3337
لند	-3338
ملم	-3339
مند	-3340
موم	-3341
نار	-3342
نجی	-3343
نند	-3344
وتی	-3345
وخت	-3346
ودت	-3347
ودش	-3348
ورش	-3349
ولی	-3350
ونس	-3351
ویز	-3352
ویه	-3353
پاک	-3354
پدم	-3355
ژدم	-3356
کسم	-3357
گرف	-3358
یرت	-3359
یلش	-3360
ینی	-3361
یهو	-3362
۱۱۹	-3363
▁تز	-3364
▁تف	-3365
▁تق	-3366
▁ثم	-3367
▁ثن	-3368
▁حص	-3369
▁دب	-3370
▁رز	-3371
▁شگ	-3372
▁طی	-3373
▁عب	-3374
▁عظ	-3375
▁فا	-3376
▁فه	-3377
▁فک	-3378
▁لآ	-3379
▁نح	-3380
▁وع	-3381
▁چا	-3382
▁چک	-3383
▁یه	-3384
اداش	-3385
ارمت	-3386
اروت	-3387
اطمه	-3388
اقتی	-3389
امند	-3390
امها	-3391
اییم	-3392
بارش	-3393
بتلا	-3394
ختمش	-3395
دیگر	-3396
راکم	-3397
ردند	-3398
رسطو	-3399
بح	-3400
حش	-3401
حق	-3402
ضش	-3403
طا	-3404
ظم	-3405
عم	-3406
غی	-3407
ابی	-3408
جرا	-3409
ذرد	-3410
شدر	-3411
لال	-3412
ورت	-3413
▁جف	-3414
▁صه	-3415
▁لا	-3416
▁مؤ	-3417
▁هق	-3418
راست	-3419
سانی	-3420
سایه	-3421
ستگی	-3422
سرار	-3423
سمین	-3424
سیاب	-3425
سیحا	-3426
شنوم	-3427
صحبت	-3428
عداد	-3429
فعال	-3430
فیعا	-3431
قایق	-3432
قندم	-3433
قیقت	-3434
لیفه	-3435
نیبت	-3436
هایت	-3437
وابت	-3438
وارش	-3439
وانش	-3440
وایب	-3441
وریا	-3442
وریش	-3443
وسفی	-3444
وندم	-3445
وهری	-3446
پیشه	-3447
کینی	-3448
گندم	-3449
یدان	-3450
یدون	-3451
ینند	-3452
یهات	-3453
یهای	-3454
▁آبت	-3455
▁آبن	-3456
▁آور	-3457
▁ابل	-3458
▁ازل	-3459
▁ازم	-3460
▁الص	-3461
▁الط	-3462
▁امس	-3463
▁انب	-3464
▁انص	-3465
▁اهر	-3466
▁باط	-3467
▁باو	-3468
▁بتس	-3469
▁بتل	-3470
▁بحی	-3471
▁برن	-3472
▁بسخ	-3473
▁بشت	-3474
▁بغر	-3475
▁بفت	-3476
▁بمج	-3477
▁بمد	-3478
▁بنو	-3479
▁بیط	-3480
▁تتق	-3481
▁تخم	-3482
▁تفا	-3483
▁تقی	-3484
▁تند	-3485
▁تیز	-3486
▁تیم	-3487
▁جار	-3488
▁جدل	-3489
▁جنب	-3490
▁جیب	-3491
▁حرص	-3492
▁حقه	-3493
▁حمل	-3494
▁خاز	-3495
▁خرد	-3496
▁خری	-3497
▁خسک	-3498
▁خسی	-3499
پس	-3500
ابا	-3501
ابه	-3502
بای	-3503
بیس	-3504
خاب	-3505
رات	-3506
راق	-3507
شکی	-3508
لیم	-3509
نیم	-3510
هری	-3511
▁طب	-3512
▁طر	-3513
اسند	-3514
رمند	-3515
شبند	-3516
چیده	-3517
▁الف	-3518
▁ترش	-3519
▁ترم	-3520
▁تری	-3521
▁خشت	-3522
▁خصم	-3523
▁خطت	-3524
▁خطی	-3525
▁خلف	-3526
▁خلل	-3527
▁درج	-3528
▁درع	-3529
▁درم	-3530
▁درو	-3531
▁دهش	-3532
▁رجا	-3533
▁رخم	-3534
▁رزم	-3535
▁رست	-3536
▁رند	-3537
▁رهت	-3538
▁ریس	-3539
▁ریع	-3540
▁زدن	-3541
▁زدو	-3542
▁زره	-3543
▁زغم	-3544
▁زنش	-3545
▁زهی	-3546
▁زور	-3547
▁ساق	-3548
▁سام	-3549
▁سان	-3550
▁سای	-3551
▁سبق	-3552
▁سخا	-3553
▁سرب	-3554
▁سلط	-3555
▁سمر	-3556
▁سند	-3557
▁سور	-3558
▁سوس	-3559
▁سگی	-3560
▁سید	-3561
▁سیل	-3562
▁شتا	-3563
▁شدت	-3564
▁شدن	-3565
▁شرف	-3566
▁شفا	-3567
▁شنو	-3568
▁شور	-3569
▁صحن	-3570
▁صدق	-3571
▁صرف	-3572
▁طرب	-3573
▁طعن	-3574
▁طپد	-3575
▁طین	-3576
▁ظرف	-3577
▁عاج	-3578
▁عام	-3579
▁عدو	-3580
▁عرش	-3581
▁عرف	-3582
▁عری	-3583
▁عسس	-3584
▁علا	-3585
▁عور	-3586
▁عکس	-3587
▁عیس	-3588
▁عیش	-3589
▁غاز	-3590
▁غبغ	-3591
▁غله	-3592
▁غیب	-3593
▁فال	-3594
▁فخر	-3595
▁فرق	-3596
▁فقر	-3597
▁فهم	-3598
▁فین	-3599
ابق	-3600
افق	-3601
حنه	-3602
رکه	-3603
وشد	-3604
وها	-3605
کشی	-3606
▁زه	-3607
▁مذ	-3608
اشته	-3609
امیس	-3610
فروز	-3611
فسون	-3612
مانش	-3613
نشین	-3614
▁افق	-3615
▁بقا	-3616
▁بنه	-3617
▁ترس	-3618
▁جاب	-3619
▁زبر	-3620
▁زرا	-3621
▁شهی	-3622
▁صلی	-3623
▁فرش	-3624
▁قسم	-3625
▁قضا	-3626
▁قلب	-3627
▁قلت	-3628
▁قلی	-3629
▁قوت	-3630
▁قید	-3631
▁لبش	-3632
▁لبی	-3633
▁لوث	-3634
▁مار	-3635
▁متف	-3636
▁محب	-3637
▁محش	-3638
▁مدا	-3639
▁مرح	-3640
▁مرس	-3641
▁مزد	-3642
▁مطل	-3643
▁معذ	-3644
▁معل	-3645
▁معم	-3646
▁مغز	-3647
▁منط	-3648
▁مهم	-3649
▁میپ	-3650
▁نای	-3651
▁نبی	-3652
▁نجد	-3653
▁نجف	-3654
▁نزه	-3655
▁نصی	-3656
▁نطق	-3657
▁ننم	-3658
▁نوا	-3659
▁هجو	-3660
▁وار	-3661
▁وال	-3662
▁وان	-3663
▁ورد	-3664
▁وصف	-3665
▁پاف	-3666
▁پره	-3667
▁پست	-3668
▁پیت	-3669
▁چهل	-3670
▁چید	-3671
▁کآب	-3672
▁کاج	-3673
▁کاس	-3674
▁کبک	-3675
▁کحل	-3676
▁کرا	-3677
▁کری	-3678
▁کفش	-3679
▁کوس	-3680
▁گدا	-3681
▁گسل	-3682
▁گلت	-3683
▁گلو	-3684
▁گهی	-3685
▁یال	-3686
▁یزد	-3687
اسشان	-3688
الهوس	-3689
اورزی	-3690
توانم	-3691
ریفان	-3692
ساران	-3693
شانند	-3694
عامند	-3695
فتاده	-3696
فتگان	-3697
فسانه	-3698
فشانی	-3699
بیح	-3700
یمت	-3701
پارد	-3702
▁بتی	-3703
▁جاد	-3704
▁جغد	-3705
▁صله	-3706
لاطون	-3707
ناکان	-3708
نمایی	-3709
ویانی	-3710
کلامی	-3711
گیخته	-3712
یزگان	-3713
▁آدمش	-3714
▁آرزو	-3715
▁آسود	-3716
▁آسیب	-3717
▁آمدم	-3718
▁آمیز	-3719
▁آمین	-3720
▁آوار	-3721
▁آورم	-3722
▁آیدم	-3723
▁آینه	-3724
▁ارجم	-3725
▁اسقف	-3726
▁اشکم	-3727
▁اطلس	-3728
▁اندو	-3729
▁اندک	-3730
▁انگی	-3731
▁اگرم	-3732
▁ایمن	-3733
▁باخت	-3734
▁بادش	-3735
▁بادی	-3736
▁بارش	-3737
▁بازو	-3738
▁باعث	-3739
▁باغم	-3740
▁بانی	-3741
▁ببحر	-3742
▁بجام	-3743
▁بجای	-3744
▁بجرم	-3745
▁بجوش	-3746
▁بحشر	-3747
▁بحکم	-3748
▁بخار	-3749
▁بختم	-3750
▁بخشی	-3751
▁بخند	-3752
▁بخیل	-3753
▁بدار	-3754
▁بداغ	-3755
▁بدان	-3756
▁برتر	-3757
▁برفت	-3758
▁برفش	-3759
▁برقی	-3760
▁برگر	-3761
▁برید	-3762
▁بریز	-3763
▁بزرگ	-3764
▁بزلف	-3765
▁بزمش	-3766
▁بزین	-3767
▁بستن	-3768
▁بسقر	-3769
▁بسمل	-3770
▁بشنو	-3771
▁بشوق	-3772
▁بشکن	-3773
▁بصری	-3774
▁بفرم	-3775
▁بقعه	-3776
▁بمشک	-3777
▁بناز	-3778
▁بناگ	-3779
▁بنای	-3780
▁بنظر	-3781
▁بهای	-3782
▁بهیچ	-3783
▁بودت	-3784
▁بوسه	-3785
▁بوفا	-3786
▁بویی	-3787
▁بپاس	-3788
▁بپره	-3789
▁بپهل	-3790
▁بچرخ	-3791
▁بکنج	-3792
▁بگدا	-3793
▁بگلب	-3794
▁بگیر	-3795
▁بیان	-3796
▁بیضه	-3797
▁بیمش	-3798
▁تحمل	-3799
▁ترسا	-3800
▁ترکش	-3801
▁ترکی	-3802
▁تسلی	-3803
▁تیری	-3804
▁تیغم	-3805
▁تیهو	-3806
▁ثنای	-3807
▁جانش	-3808
▁جانی	-3809
▁جبهه	-3810
▁جرعه	-3811
▁جزیل	-3812
▁جستم	-3813
▁جستن	-3814
▁جعفر	-3815
▁جمیل	-3816
▁جنون	-3817
▁جودش	-3818
▁حالی	-3819
▁حجاب	-3820
▁حسنت	-3821
▁حمام	-3822
▁حمدا	-3823
▁حمله	-3824
▁حیرت	-3825
▁حیوه	-3826
▁خاتم	-3827
▁خارا	-3828
▁خاری	-3829
▁خازن	-3830
▁خامی	-3831
▁خروش	-3832
▁خصمی	-3833
▁خضری	-3834
▁خفتم	-3835
▁خفیف	-3836
▁خلاص	-3837
▁خلقت	-3838
▁خندی	-3839
▁داغم	-3840
▁دامت	-3841
▁دامش	-3842
▁دایه	-3843
▁دختر	-3844
▁درشت	-3845
▁درفش	-3846
▁درهم	-3847
▁دعات	-3848
▁دعای	-3849
▁دلشک	-3850
▁دواج	-3851
▁دودی	-3852
▁دورم	-3853
▁دکان	-3854
▁دیری	-3855
▁ذلیل	-3856
▁رازی	-3857
▁رامش	-3858
▁راهب	-3859
▁رسان	-3860
▁رشید	-3861
▁رطبی	-3862
▁رهزن	-3863
▁روند	-3864
▁رویش	-3865
▁ریشه	-3866
▁زارش	-3867
▁زاغی	-3868
▁زانو	-3869
▁زبرد	-3870
▁زبور	-3871
▁زجاج	-3872
▁زرشک	-3873
▁زرکش	-3874
▁زمام	-3875
▁زیار	-3876
▁زیبا	-3877
▁زیرک	-3878
▁ساحل	-3879
▁ساعد	-3880
▁سامی	-3881
▁ساوه	-3882
▁ستمی	-3883
▁سخنم	-3884
▁سدره	-3885
▁سراب	-3886
▁سراپ	-3887
▁سروت	-3888
▁سرکش	-3889
▁سعود	-3890
▁سعید	-3891
▁سماع	-3892
▁سهیل	-3893
▁سودا	-3894
▁سوده	-3895
▁سویش	-3896
▁سپند	-3897
▁شاخی	-3898
▁شاعر	-3899
▁شامی	-3900
▁شایق	-3901
▁شحنه	-3902
▁شرمم	-3903
▁شعله	-3904
▁شمال	-3905
▁شنود	-3906
▁شهوت	-3907
▁شوخی	-3908
▁شکار	-3909
▁شکنج	-3910
▁شکیب	-3911
▁شگرف	-3912
▁شگفت	-3913
▁صبری	-3914
▁صحرا	-3915
▁صرصر	-3916
▁صعود	-3917
▁صیدم	-3918
▁ضمیر	-3919
▁طامع	-3920
▁طایر	-3921
▁طبعش	-3922
▁طبله	-3923
▁طرفی	-3924
▁طلبم	-3925
▁طوطی	-3926
▁ظاهر	-3927
▁ظلمی	-3928
▁عارف	-3929
▁عدیل	-3930
▁عذار	-3931
▁عذرا	-3932
▁عذری	-3933
▁عراق	-3934
▁عزیز	-3935
▁عشرت	-3936
▁عشقی	-3937
▁عظیم	-3938
▁عمدا	-3939
▁عینک	-3940
▁غرقه	-3941
▁غفور	-3942
▁غلتم	-3943
▁غمزه	-3944
▁غیرم	-3945
▁غیری	-3946
▁فراغ	-3947
▁فرقت	-3948
▁فرما	-3949
▁فسون	-3950
▁فصیح	-3951
▁فگار	-3952
▁فیضت	-3953
▁قابل	-3954
▁قباد	-3955
▁قدسی	-3956
▁قدمی	-3957
▁قرآن	-3958
▁قسیس	-3959
▁لحظه	-3960
▁لطفش	-3961
▁لقای	-3962
▁مالم	-3963
▁مانم	-3964
▁ماهت	-3965
▁مایه	-3966
▁مبند	-3967
▁متاع	-3968
▁مجاز	-3969
▁مجال	-3970
▁مجمر	-3971
▁محال	-3972
▁مدحت	-3973
▁مرده	-3974
▁مردی	-3975
▁مرغم	-3976
▁مرهم	-3977
▁مرگش	-3978
▁مرگم	-3979
▁مریم	-3980
▁مزاج	-3981
▁مزار	-3982
▁مستج	-3983
▁مسهل	-3984
▁مشکم	-3985
▁معجز	-3986
▁معطر	-3987
▁معنی	-3988
▁منال	-3989
▁منظر	-3990
▁مهره	-3991
▁مهری	-3992
▁موزه	-3993
▁موسی	-3994
▁مویت	-3995
▁مژده	-3996
▁مگرد	-3997
▁مگیر	-3998
▁میرم	-3999
▁مینا	-4000
▁میگر	-4001
▁نازش	-4002
▁نازک	-4003
▁نامت	-4004
▁ناکس	-4005
▁نبرم	-4006
▁ندهم	-4007
▁نرود	-4008
▁نزند	-4009
▁نسخه	-4010
▁نشوم	-4011
▁نعشم	-4012
▁نعمت	-4013
▁نماز	-4014
▁نوشد	-4015
▁نوشی	-4016
▁نکشت	-4017
▁نکنی	-4018
▁نکوه	-4019
▁نگرم	-4020
▁نگری	-4021
▁نگشت	-4022
▁نگین	-4023
▁نیلی	-4024
▁هادی	-4025
▁هجرم	-4026
▁هرکس	-4027
▁همتش	-4028
▁همسر	-4029
▁هیزم	-4030
▁واعظ	-4031
▁والی	-4032
▁وجود	-4033
▁وحید	-4034
▁وزان	-4035
▁وسیع	-4036
▁وصلت	-4037
▁وطنم	-4038
▁وفاد	-4039
▁پنجه	-4040
▁پندی	-4041
▁پوشد	-4042
▁پیرو	-4043
▁پیشت	-4044
▁چشمت	-4045
▁چندم	-4046
▁چهار	-4047
▁چکار	-4048
▁کآخر	-4049
▁کآرم	-4050
▁کآشی	-4051
▁کآید	-4052
▁کابر	-4053
▁کارش	-4054
▁کافر	-4055
▁کاهی	-4056
▁کباب	-4057
▁کران	-4058
▁کرمت	-4059
▁کسری	-4060
▁کسوت	-4061
▁کلام	-4062
▁کلاه	-4063
▁کلبه	-4064
▁کمتر	-4065
▁کندن	-4066
▁کنمت	-4067
▁کوفی	-4068
▁کوچه	-4069
▁کویی	-4070
▁کژدم	-4071
▁گاوی	-4072
▁گروه	-4073
▁گزاف	-4074
▁گشتم	-4075
▁گشتی	-4076
▁گلاب	-4077
▁گنجی	-4078
▁گواه	-4079
▁گوسف	-4080
▁گوشش	-4081
▁گونه	-4082
▁یابم	-4083
▁یارا	-4084
▁یارش	-4085
▁یمین	-4086
▁یکان	-4087
▁یکدل	-4088
امانان	-4089
▁آبادی	-4090
▁آبنوس	-4091
▁آرندم	-4092
▁آنقدر	-4093
▁آنگهی	-4094
▁آهوان	-4095
▁آوازش	-4096
▁آویزه	-4097
▁ابدال	-4098
▁اخترم	-4099
▁اخلاق	-4100
▁اخوان	-4101
▁ادریس	-4102
▁ارباب	-4103
▁ارسطو	-4104
▁اسیرم	-4105
▁اشجار	-4106
▁افسار	-4107
▁افشار	-4108
▁افلاک	-4109
▁اقامت	-4110
▁التفا	-4111
▁امیری	-4112
▁انداز	-4113
▁اندوه	-4114
▁انصاف	-4115
▁انوری	-4116
▁اهرمن	-4117
▁ایمان	-4118
▁باختر	-4119
▁باران	-4120
▁بالله	-4121
▁باورم	-4122
▁ببامی	-4123
▁ببستر	-4124
▁بجایش	-4125
▁بخاطر	-4126
▁بدخوی	-4127
▁بدستش	-4128
▁بدوزخ	-4129
▁بدوست	-4130
▁برخیز	-4131
▁بردار	-4132
▁برزین	-4133
▁برویم	-4134
▁بزاری	-4135
▁بسویت	-4136
▁بششدر	-4137
▁بشنوی	-4138
▁بشکنم	-4139
▁بشیرم	-4140
▁بعاشق	-4141
▁بفرست	-4142
▁بفسون	-4143
▁بفغان	-4144
▁بلقیس	-4145
▁بمردم	-4146
▁بمسجد	-4147
▁بمنزل	-4148
▁بمیرم	-4149
▁بناله	-4150
▁بندند	-4151
▁بنفشه	-4152
▁بهارم	-4153
▁بهانه	-4154
▁بهشتم	-4155
▁بوالع	-4156
▁بودیم	-4157
▁بوریا	-4158
▁بوسند	-4159
▁بپذیر	-4160
▁بگردن	-4161
▁بگوشم	-4162
▁بگویی	-4163
▁بیتاب	-4164
▁بیخته	-4165
▁بیرحم	-4166
▁بیشتر	-4167
▁بینید	-4168
▁بینیم	-4169
▁بیهوش	-4170
▁بیکسی	-4171
▁تاراج	-4172
▁تحلیل	-4173
▁تشنگی	-4174
▁تعمیر	-4175
▁تلبیس	-4176
▁تمنای	-4177
▁توانا	-4178
▁توفیق	-4179
▁جفایت	-4180
▁جمشید	-4181
▁جنایت	-4182
▁جنیبت	-4183
▁جوشید	-4184
▁حدیثی	-4185
▁حرامی	-4186
▁حرفیش	-4187
▁حلاوت	-4188
▁حمامی	-4189
▁حوران	-4190
▁خارجی	-4191
▁خاسته	-4192
▁خاقان	-4193
▁خانقه	-4194
▁خدنگی	-4195
▁خرابت	-4196
▁خطاست	-4197
▁خلایق	-4198
▁خندید	-4199
▁خوایق	-4200
▁خوردی	-4201
▁خونخو	-4202
▁دادگر	-4203
▁دارند	-4204
▁درآمد	-4205
▁درختش	-4206
▁درخور	-4207
▁دروغی	-4208
▁دستان	-4209
▁دستور	-4210
▁دعایت	-4211
▁دلدوز	-4212
▁دلشان	-4213
▁دلیری	-4214
▁دمادم	-4215
▁دمبدم	-4216
▁دوستت	-4217
▁دویدم	-4218
▁دیدند	-4219
▁ذوایب	-4220
▁رانده	-4221
▁راهزن	-4222
▁رسیدی	-4223
▁رعایت	-4224
▁رفتنش	-4225
▁رفتیم	-4226
▁رنجید	-4227
▁رهایی	-4228
▁روانه	-4229
▁روباه	-4230
▁روزان	-4231
▁روشنی	-4232
▁ریختن	-4233
▁ریزمت	-4234
▁زانوی	-4235
▁زبانه	-4236
▁زلالی	-4237
▁زمزمه	-4238
▁زنبیل	-4239
▁زیشان	-4240
▁سرآمد	-4241
▁سراغت	-4242
▁سرایی	-4243
▁سرشان	-4244
▁سرشته	-4245
▁سروها	-4246
▁سرکشد	-4247
▁سرکنم	-4248
▁سنگین	-4249
▁سوختن	-4250
▁سوختی	-4251
▁سوزان	-4252
▁سپهری	-4253
▁سیاهش	-4254
▁شاهیش	-4255
▁شفیعا	-4256
▁شماری	-4257
▁شمایل	-4258
▁شمشاد	-4259
▁شناسد	-4260
▁شنفتم	-4261
▁شهباز	-4262
▁شهیدی	-4263
▁شکارش	-4264
▁شکستن	-4265
▁شکنجه	-4266
▁شیطان	-4267
▁صباحت	-4268
▁صحرای	-4269
▁ظریفی	-4270
▁عاشقم	-4271
▁عدویت	-4272
▁عذاری	-4273
▁عقربم	-4274
▁غافلی	-4275
▁غالیه	-4276
▁غرامت	-4277
▁غریبم	-4278
▁غریبی	-4279
▁غزالی	-4280
▁غلطان	-4281
▁غیرتم	-4282
▁فاطمه	-4283
▁فدایت	-4284
▁فراقم	-4285
▁فرستی	-4286
▁فروشد	-4287
▁فضایش	-4288
▁فغانش	-4289
▁فقیرم	-4290
▁فقیری	-4291
▁لبریز	-4292
▁مأموم	-4293
▁مأمون	-4294
▁ماجرا	-4295
▁مادرت	-4296
▁مانند	-4297
▁مبتلا	-4298
▁مجلست	-4299
▁محابا	-4300
▁محتشم	-4301
▁محروم	-4302
▁محزون	-4303
▁محملش	-4304
▁محملم	-4305
▁مدامی	-4306
▁مرادش	-4307
▁مرادم	-4308
▁مردمش	-4309
▁مزارم	-4310
▁مزرعه	-4311
▁مستند	-4312
▁مستور	-4313
▁مسیحا	-4314
▁مشامم	-4315
▁مشحون	-4316
▁معصوم	-4317
▁مقامی	-4318
▁ملامت	-4319
▁ملایک	-4320
▁منزلت	-4321
▁منشین	-4322
▁مهمان	-4323
▁مژگان	-4324
▁مگذار	-4325
▁میبرد	-4326
▁میبری	-4327
▁میخور	-4328
▁میدان	-4329
▁میدهد	-4330
▁میدهی	-4331
▁میدید	-4332
▁میرسد	-4333
▁میزند	-4334
▁میچکد	-4335
▁میکده	-4336
▁میکرد	-4337
▁میکند	-4338
▁نادان	-4339
▁ناقوس	-4340
▁نایدت	-4341
▁نبوده	-4342
▁نثارش	-4343
▁نثاری	-4344
▁نخندد	-4345
▁ندیدی	-4346
▁نرنجی	-4347
▁نزدیک	-4348
▁نسازد	-4349
▁نشانه	-4350
▁نشنوم	-4351
▁نصیحت	-4352
▁نفرست	-4353
▁ننگرد	-4354
▁نهادی	-4355
▁نوازش	-4356
▁نوایی	-4357
▁نوروز	-4358
▁نوشتن	-4359
▁نگاری	-4360
▁نگاهم	-4361
▁نگران	-4362
▁نگردد	-4363
▁نگردی	-4364
▁نگریم	-4365
▁نگشته	-4366
▁نگفتم	-4367
▁نگفتی	-4368
▁نیافت	-4369
▁نیامد	-4370
▁نیرنگ	-4371
▁نیروی	-4372
▁نیستی	-4373
▁نیفتد	-4374
▁هاروت	-4375
▁هزارت	-4376
▁هستیش	-4377
▁همنفس	-4378
▁هنوزش	-4379
▁هیهات	-4380
▁واقعه	-4381
▁ولایت	-4382
▁پاگاه	-4383
▁پایان	-4384
▁پروری	-4385
▁پوشید	-4386
▁پیامت	-4387
▁پیریم	-4388
▁چراغی	-4389
▁چوگان	-4390
▁کآدمی	-4391
▁کدامت	-4392
▁کشتیش	-4393
▁کشوری	-4394
▁کنندم	-4395
▁کوهکن	-4396
▁کیوان	-4397
▁گذارش	-4398
▁گذاری	-4399
▁گذران	-4400
▁گریزم	-4401
▁گزیدم	-4402
▁گفتنم	-4403
▁گلبنی	-4404
▁گلرنگ	-4405
▁گلشنت	-4406
▁گلگون	-4407
▁گمانت	-4408
▁گمانم	-4409
▁گمراه	-4410
▁گوارا	-4411
▁گواهی	-4412
▁گوهری	-4413
▁گویمت	-4414
▁گوییم	-4415
▁گیرند	-4416
▁یافته	-4417
▁یوسفی	-4418
▁یکایک	-4419
اندازیم	-4420
▁آستانت	-4421
▁آستانی	-4422
▁آشیانم	-4423
▁آوازان	-4424
▁اختران	-4425
▁ارزانی	-4426
▁ارغوان	-4427
▁ارمغان	-4428
▁استغفر	-4429
▁اصفهان	-4430
▁افروخت	-4431
▁افزونی	-4432
▁افسونت	-4433
▁افگندم	-4434
▁انتخاب	-4435
▁انفعال	-4436
▁بارگاه	-4437
▁بایشان	-4438
▁ببوسید	-4439
▁ببینیم	-4440
▁بتاریخ	-4441
▁بتخانه	-4442
▁بتماشا	-4443
▁بدامان	-4444
▁بدخوست	-4445
▁بدریای	-4446
▁بدگویی	-4447
▁بدیگری	-4448
▁برآورد	-4449
▁برخیزی	-4450
▁برومند	-4451
▁بزرگان	-4452
▁بسیاری	-4453
▁بمحراب	-4454
▁بناگاه	-4455
▁بگلزار	-4456
▁بیدادم	-4457
▁بیهوده	-4458
▁بیگنهم	-4459
▁تأثیری	-4460
▁تفاوتی	-4461
▁تنگنای	-4462
▁جانسوز	-4463
▁جوانان	-4464
▁جویبار	-4465
▁حیرانم	-4466
▁خاقانی	-4467
▁خاکدان	-4468
▁خرسندم	-4469
▁خرسندی	-4470
▁خندانت	-4471
▁خوانان	-4472
▁خواندم	-4473
▁خواهند	-4474
▁خوشبوی	-4475
▁خونابه	-4476
▁خونریز	-4477
▁داستان	-4478
▁دامانش	-4479
▁دانستم	-4480
▁درختان	-4481
▁دردمند	-4482
▁درمانم	-4483
▁دلتنگی	-4484
▁دلجویی	-4485
▁دلپسند	-4486
▁دوستیت	-4487
▁دوششان	-4488
▁دیوانه	-4489
▁راعیان	-4490
▁رخشنده	-4491
▁رسانده	-4492
▁ریختند	-4493
▁زاهدان	-4494
▁زنخدان	-4495
▁ستمگری	-4496
▁سرچشمه	-4497
▁سرگذشت	-4498
▁سلسبیل	-4499
▁سپارمت	-4500
▁شتابان	-4501
▁عاشقان	-4502
▁غارتگر	-4503
▁غزالان	-4504
▁فرداست	-4505
▁فرزندی	-4506
▁فلاطون	-4507
▁فهمیده	-4508
▁فیروزه	-4509
▁مفلسان	-4510
▁مهوشان	-4511
▁میدیدم	-4512
▁میشنوم	-4513
▁میطپدم	-4514
▁مینالم	-4515
▁مینمود	-4516
▁میگذرد	-4517
▁نابسته	-4518
▁ناتمام	-4519
▁نادیدن	-4520
▁نادیده	-4521
▁نامحرم	-4522
▁نتوانم	-4523
▁نداریم	-4524
▁نداشته	-4525
▁نرسیده	-4526
▁نشستند	-4527
▁نشنیدم	-4528
▁نشکفته	-4529
▁نقشبند	-4530
▁نقشهای	-4531
▁نمانده	-4532
▁نمیکند	-4533
▁نمیکنم	-4534
▁نوامیس	-4535
▁نویسند	-4536
▁نکویان	-4537
▁نگویند	-4538
▁نیامده	-4539
▁همایون	-4540
▁همراهی	-4541
▁همسایه	-4542
▁همصحبت	-4543
▁همنشین	-4544
▁هوشمند	-4545
▁هیچکسم	-4546
▁ویرانه	-4547
▁پریدند	-4548
▁پریشان	-4549
▁پشیمان	-4550
▁پهلویت	-4551
▁کامروز	-4552
▁کشیدند	-4553
▁گلزاری	-4554
▁گمگشته	-4555
▁یاسمین	-4556
▁یکدیگر	-4557
▁استعداد	-4558
▁اصفاهان	-4559
▁افراخته	-4560
▁انگیخته	-4561
▁ایستاده	-4562
▁بباغبان	-4563
▁بحریفان	-4564
▁بدریوزه	-4565
▁بدگمانی	-4566
▁برداشتی	-4567
▁بنشانند	-4568
▁بوالهوس	-4569
▁بگلستان	-4570
▁بگنجینه	-4571
▁بیدلانت	-4572
▁بیطاقتی	-4573
▁بینهایت	-4574
▁بیگانگی	-4575
▁بیگناهی	-4576
▁جفاپیشه	-4577
▁جهانگیر	-4578
▁جهانیان	-4579
▁دلشدگان	-4580
▁رهنمایی	-4581
▁ریختندی	-4582
▁سالهاست	-4583
▁ستمکشان	-4584
▁سخنوران	-4585
▁سرافراز	-4586
▁سلطانان	-4587
▁شرمساری	-4588
▁صبحگاهی	-4589
▁عندلیبی	-4590
▁فراموشش	-4591
▁فرستادن	-4592
▁مسلمانی	-4593
▁نامردان	-4594
▁نشناخته	-4595
▁نشناسند	-4596
▁نمیگویم	-4597
▁ننشینند	-4598
▁نوخاسته	-4599
▁نیاورده	-4600
▁پاسبانش	-4601
▁پاسبانی	-4602
▁پریشانی	-4603
▁پندارند	-4604
▁کاروانم	-4605
▁کاروانی	-4606
▁کامرانی	-4607
▁کاویانی	-4608
▁کشاورزی	-4609
▁گردنشان	-4610
▁افراسیاب	-4611
▁امیدواری	-4612
▁برافروخت	-4613
▁برفشانده	-4614
▁بیگانگان	-4615
▁فیروزمند	-4616
▁میگساران	-4617
▁هوشمندان	-4618
▁برانگیخته	-4619
▁بیخبرانند	-4620
▁دادخواهان	-4621
▁ناسازگاری	-4622
▁پاکدامانان	-4623
اذق	-4624
بخش	-4625
جیک	-4626
زیت	-4627
سلد	-4628
سوا	-4629
صوص	-4630
غرض	-4631
قسا	-4632
نحه	-4633
نظر	-4634
وبد	-4635
یکل	-4636
۱۱۷	-4637
▁..	-4638
آنکس	-4639
اطین	-4640
افتی	-4641
افیت	-4642
انتظ	-4643
اویه	-4644
اگرم	-4645
باخت	-4646
بازی	-4647
بردن	-4648
بینی	-4649
تراز	-4650
جمهر	-4651
جمیل	-4652
خلوا	-4653
دانت	-4654
رؤوس	-4655
سلند	-4656
شاوه	-4657
صحاب	-4658
صوبه	-4659
عرکه	-4660
غرای	-4661
فرما	-4662
فزای	-4663
فلسم	-4664
قبول	-4665
قدیس	-4666
لناک	-4667
نگری	-4668
وابی	-4669
وختم	-4670
ورزی	-4671
وزخش	-4672
پرسد	-4673
پرور	-4674
کامش	-4675
کیسه	-4676
یربد	-4677
۱۱۷۱	-4678
۱۱۹۲	-4679
۱۱۹۵	-4680
▁...	-4681
▁اجم	-4682
▁اقط	-4683
▁بقب	-4684
▁تجم	-4685
▁تدب	-4686
▁جهت	-4687
▁حما	-4688
▁حوص	-4689
▁خسش	-4690
▁رزق	-4691
▁رطب	-4692
▁رکو	-4693
▁شخص	-4694
▁طعم	-4695
▁طلو	-4696
▁عصف	-4697
▁فضا	-4698
▁فضل	-4699
ادتش	-4700
بعین	-4701
نگیس	-4702
ولاد	-4703
ولان	-4704
ولوی	-4705
▁عرب	-4706
▁فلز	-4707
▁فوج	-4708
▁قرن	-4709
▁قطع	-4710
▁لآل	-4711
▁لجه	-4712
▁لخل	-4713
▁لعب	-4714
▁مثل	-4715
▁ممس	-4716
▁مکت	-4717
▁نزع	-4718
▁نطع	-4719
▁نپس	-4720
▁هنر	-4721
▁واژ	-4722
▁وقف	-4723
▁چاپ	-4724
▁کرب	-4725
▁ینم	-4726
اختمش	-4727
اخلاق	-4728
ادیلش	-4729
الحسن	-4730
اوانش	-4731
اکانت	-4732
ختران	-4733
خشنده	-4734
خشیدی	-4735
رافیل	-4736
رخامه	-4737
رورده	-4738
رویان	-4739
سایگی	-4740
سلامت	-4741
سندند	-4742
سپارد	-4743
شاندی	-4744
ضاعتی	-4745
ضطراب	-4746
عتماد	-4747
فروزم	-4748
فشانم	-4749
قرارش	-4750
قساوه	-4751
قصودت	-4752
قیمان	-4753
واویس	-4754
وختمی	-4755
ورمند	-4756
وقهای	-4757
پاکان	-4758
گساری	-4759
گشایی	-4760
گیریم	-4761
یلسان	-4762
یلقوس	-4763
۱۱۷۱ه	-4764
▁آخور	-4765
▁آذار	-4766
▁آشفت	-4767
▁آگهت	-4768
▁ابکم	-4769
▁اجرا	-4770
▁ادبش	-4771
▁اردی	-4772
▁اسحق	-4773
▁اطرف	-4774
▁امتح	-4775
▁اویس	-4776
▁ایما	-4777
▁ایوب	-4778
▁بآشی	-4779
▁بآفر	-4780
▁ببخش	-4781
▁بجرگ	-4782
▁بجزع	-4783
▁برجد	-4784
▁برجم	-4785
▁برجی	-4786
▁برزی	-4787
▁بشمش	-4788
▁بصبح	-4789
▁بطبع	-4790
▁بطپد	-4791
▁بعجب	-4792
▁بغلط	-4793
▁بفرق	-4794
▁بفعل	-4795
▁بفلک	-4796
▁بمثل	-4797
▁بمکت	-4798
▁بنقش	-4799
اعر	-4800
یتی	-4801
تیاز	-4802
شاعر	-4803
▁اصط	-4804
▁اصل	-4805
▁حرز	-4806
▁سگم	-4807
▁شغل	-4808
▁صحف	-4809
▁قاع	-4810
▁قیس	-4811
▁مخد	-4812
▁مخل	-4813
▁ننو	-4814
▁وسو	-4815
اعیان	-4816
زانوی	-4817
▁آماج	-4818
▁آمال	-4819
▁ادبی	-4820
▁اصطب	-4821
▁برمک	-4822
▁برهش	-4823
▁بوبد	-4824
▁بپاخ	-4825
▁بکرت	-4826
▁بکفش	-4827
▁بگرو	-4828
▁بیکل	-4829
▁تحقی	-4830
▁تحکم	-4831
▁ترحم	-4832
▁ترکت	-4833
▁تلاط	-4834
▁تنعم	-4835
▁توکل	-4836
▁تیزگ	-4837
▁ثمین	-4838
▁جبار	-4839
▁جرمم	-4840
▁جغدم	-4841
▁جلاد	-4842
▁جنبش	-4843
▁جنبم	-4844
▁جوشش	-4845
▁جیفه	-4846
▁حاجت	-4847
▁حاذق	-4848
▁حبیب	-4849
▁حصار	-4850
▁حلوا	-4851
▁حوضش	-4852
▁خالق	-4853
▁خصمت	-4854
▁خناز	-4855
▁خنوس	-4856
▁خیاب	-4857
▁دانا	-4858
▁دبور	-4859
▁دبیر	-4860
▁درجی	-4861
▁دشتم	-4862
▁دلرب	-4863
▁دلقش	-4864
▁دوتا	-4865
▁دودش	-4866
▁دوسه	-4867
▁رامم	-4868
▁رحمش	-4869
▁رسدت	-4870
▁رضات	-4871
▁رطبش	-4872
▁رعیت	-4873
▁رمید	-4874
▁زردی	-4875
▁زعفر	-4876
▁زلفش	-4877
▁زهاد	-4878
▁زورآ	-4879
▁زوفا	-4880
▁زیبد	-4881
▁زیور	-4882
▁سابق	-4883
▁ساکن	-4884
▁سختی	-4885
▁سردی	-4886
▁سرما	-4887
▁سرگش	-4888
▁سلاخ	-4889
▁سلیم	-4890
▁سندس	-4891
▁شانز	-4892
▁شرار	-4893
▁شرکت	-4894
▁شعار	-4895
▁شکفد	-4896
▁شیوه	-4897
▁صریر	-4898
▁صفوت	-4899
بزم	-4900
علش	-4901
وحش	-4902
اوود	-4903
خمور	-4904
رخان	-4905
هایش	-4906
والف	-4907
کندر	-4908
▁اعل	-4909
▁عزم	-4910
▁غرق	-4911
▁موف	-4912
ادران	-4913
فتوحش	-4914
ورشید	-4915
▁بامد	-4916
▁تلخم	-4917
▁حربا	-4918
▁خموش	-4919
▁دینی	-4920
▁سالش	-4921
▁سیاو	-4922
▁صلای	-4923
▁صلحی	-4924
▁صلوه	-4925
▁صلیب	-4926
▁صنمی	-4927
▁صورت	-4928
▁صوفی	-4929
▁ضحکه	-4930
▁ضعفم	-4931
▁طالع	-4932
▁طبعت	-4933
▁طبلک	-4934
▁طعنت	-4935
▁طلوع	-4936
▁طیور	-4937
▁ظرفی	-4938
▁ظلمت	-4939
▁عارت	-4940
▁عارض	-4941
▁عاقل	-4942
▁عامل	-4943
▁عبور	-4944
▁عرصه	-4945
▁عزای	-4946
▁عصای	-4947
▁عفوت	-4948
▁عقول	-4949
▁علقه	-4950
▁عناب	-4951
▁عناد	-4952
▁غازی	-4953
▁غبغب	-4954
▁غضبش	-4955
▁فاسد	-4956
▁فزای	-4957
▁فصاح	-4958
▁فقیر	-4959
▁فلان	-4960
▁فلوس	-4961
▁فنای	-4962
▁فهمی	-4963
▁فکلی	-4964
▁فگنم	-4965
▁قاعد	-4966
▁قالب	-4967
▁قرین	-4968
▁قصدش	-4969
▁قفلم	-4970
▁قیمت	-4971
▁لآلی	-4972
▁لاوه	-4973
▁لایق	-4974
▁لجاج	-4975
▁لرزد	-4976
▁لطیف	-4977
▁متقی	-4978
▁متهم	-4979
▁محجو	-4980
▁مداح	-4981
▁مرکب	-4982
▁مشعل	-4983
▁مضطر	-4984
▁مقدس	-4985
▁ملال	-4986
▁منبع	-4987
▁منجم	-4988
▁منطق	-4989
▁منعم	-4990
▁منقش	-4991
▁موجب	-4992
▁موفق	-4993
▁مولد	-4994
▁ناخن	-4995
▁نارپ	-4996
▁نجنب	-4997
▁نحوس	-4998
▁نشاط	-4999
اعی	-5000
گزا	-5001
جهتم	-5002
زلزل	-5003
زوده	-5004
ضلیل	-5005
عیون	-5006
▁بقص	-5007
▁ضیغ	-5008
▁عقا	-5009
▁فاض	-5010
▁مشا	-5011
▁مصح	-5012
▁مصی	-5013
▁هزل	-5014
▁کلا	-5015
▁کلف	-5016
احلیل	-5017
خوانی	-5018
مارند	-5019
گزیده	-5020
▁ببرت	-5021
▁برگش	-5022
▁بقصر	-5023
▁بیشه	-5024
▁تقدم	-5025
▁تکلم	-5026
▁جمعی	-5027
▁خجلم	-5028
▁خجند	-5029
▁زیست	-5030
▁سلمی	-5031
▁سهام	-5032
▁سیمر	-5033
▁ضلیل	-5034
▁ضیغم	-5035
▁قدرت	-5036
▁قلیل	-5037
▁مشای	-5038
▁مصحف	-5039
▁مصفی	-5040
▁معلق	-5041
▁مویی	-5042
▁ناگز	-5043
▁نفتد	-5044
▁نقطه	-5045
▁نمکد	-5046
▁ننهد	-5047
▁ننهی	-5048
▁نوحم	-5049
▁نویس	-5050
▁نگشا	-5051
▁هایش	-5052
▁هلاک	-5053
▁هنگی	-5054
▁هوات	-5055
▁هوسن	-5056
▁هوشش	-5057
▁هوشی	-5058
▁هیکل	-5059
▁وامق	-5060
▁واپس	-5061
▁وحوش	-5062
▁وطنی	-5063
▁پارس	-5064
▁پدرش	-5065
▁پرسش	-5066
▁پشمی	-5067
▁پشیم	-5068
▁پناه	-5069
▁پوشش	-5070
▁پوید	-5071
▁چاپل	-5072
▁چسان	-5073
▁چشید	-5074
▁چنار	-5075
▁چوپر	-5076
▁چکاو	-5077
▁کؤوس	-5078
▁کاهل	-5079
▁کرسی	-5080
▁کرفس	-5081
▁کروی	-5082
▁کسوف	-5083
▁کلکم	-5084
▁کلید	-5085
▁کمیت	-5086
▁کوته	-5087
▁کوشی	-5088
▁کوهش	-5089
▁گذرش	-5090
▁گزای	-5091
▁گسست	-5092
▁گلرخ	-5093
▁گنجم	-5094
▁گهرم	-5095
▁گیسو	-5096
▁یؤوس	-5097
▁یونس	-5098
▁۱۱۹۵	-5099
▁ضر	-5100
باید	-5101
تیجه	-5102
روشم	-5103
طرتا	-5104
متاز	-5105
ورمت	-5106
▁ابد	-5107
▁احس	-5108
▁بحل	-5109
▁بشا	-5110
▁ثنا	-5111
▁سکر	-5112
▁ضرر	-5113
رورمت	-5114
▁احتم	-5115
▁اختص	-5116
▁اشتی	-5117
▁بحدی	-5118
▁بحلت	-5119
▁بحمد	-5120
▁بشاه	-5121
▁بشاگ	-5122
▁بشیر	-5123
▁بغمت	-5124
▁بچار	-5125
▁بچرا	-5126
▁تندی	-5127
▁حواد	-5128
▁داغت	-5129
▁درمت	-5130
▁دهمت	-5131
▁سازد	-5132
▁سترد	-5133
▁سحرم	-5134
▁شوقم	-5135
▁قاید	-5136
▁قفست	-5137
▁قندی	-5138
▁مونس	-5139
▁نسزد	-5140
▁نسود	-5141
▁نوشم	-5142
▁هندو	-5143
▁چرخه	-5144
▁گشای	-5145
▁گلکی	-5146
ادخلوا	-5147
اسدانت	-5148
افریده	-5149
الهنگی	-5150
اهانند	-5151
ایستگی	-5152
برویان	-5153
خواهیم	-5154
رفشانم	-5155
لاسشان	-5156
مانهای	-5157
مانیان	-5158
نادیلش	-5159
همانیم	-5160
وزجمهر	-5161
ولادین	-5162
ونتیجه	-5163
▁آبدار	-5164
▁آرمین	-5165
▁آزردن	-5166
▁آسایش	-5167
▁آسیای	-5168
▁آمیخت	-5169
▁آوریت	-5170
▁آگاهم	-5171
▁آگندم	-5172
▁ابالی	-5173
▁ابلهی	-5174
▁اجابت	-5175
▁اجلال	-5176
▁اجماع	-5177
▁اجنحه	-5178
▁احسنت	-5179
▁اختری	-5180
▁اخیار	-5181
▁ارایک	-5182
▁ارزان	-5183
▁ازمشر	-5184
▁اسرار	-5185
▁اسماع	-5186
▁اشکال	-5187
▁افکار	-5188
▁اقطاع	-5189
▁اقلیم	-5190
▁الحال	-5191
▁الحرم	-5192
▁الحزن	-5193
▁الحمد	-5194
▁الصبح	-5195
▁الطاف	-5196
▁الطبع	-5197
▁العدا	-5198
▁العهد	-5199
اسب	-5200
اسط	-5201
اسق	-5202
هدش	-5203
اسطه	-5204
بریه	-5205
تماس	-5206
ساحل	-5207
شناس	-5208
نبید	-5209
هدار	-5210
گیری	-5211
▁بعب	-5212
▁ذات	-5213
▁ذنب	-5214
▁سهم	-5215
▁مصن	-5216
اسامی	-5217
بریها	-5218
▁بدهم	-5219
▁برکش	-5220
▁بزهد	-5221
▁بعبث	-5222
▁بعدل	-5223
▁بعذر	-5224
▁بعهد	-5225
▁تاکش	-5226
▁تبری	-5227
▁توهم	-5228
▁خویی	-5229
▁روشی	-5230
▁زهدش	-5231
▁سفله	-5232
▁سنگی	-5233
▁فاسق	-5234
▁فکان	-5235
▁قلمش	-5236
▁مصنف	-5237
▁ملای	-5238
▁نزهت	-5239
▁پاکش	-5240
▁پاکی	-5241
▁پلنگ	-5242
▁گداز	-5243
یرانند	-5244
▁آخرین	-5245
▁آسایم	-5246
▁الغرض	-5247
▁المفر	-5248
▁امارت	-5249
▁امساک	-5250
▁انبار	-5251
▁انسان	-5252
▁انگور	-5253
▁اولین	-5254
▁ایمنم	-5255
▁بآنکه	-5256
▁بارها	-5257
▁باطله	-5258
▁بامری	-5259
▁بانتظ	-5260
▁بانوی	-5261
▁بانیش	-5262
▁باورت	-5263
▁بباغم	-5264
▁بباغی	-5265
▁بباید	-5266
▁ببرید	-5267
▁ببندد	-5268
▁ببنیم	-5269
▁بتیغم	-5270
▁بجبین	-5271
▁بجویی	-5272
▁بحالی	-5273
▁بحلند	-5274
▁بخدمت	-5275
▁بخزان	-5276
▁بخشای	-5277
▁بدلبر	-5278
▁بدهند	-5279
▁برزده	-5280
▁برقفا	-5281
▁بریدن	-5282
▁برینج	-5283
▁بزرگی	-5284
▁بسازد	-5285
▁بسزای	-5286
▁بسنجد	-5287
▁بسکین	-5288
▁بشاخی	-5289
▁بشنفت	-5290
▁بشگون	-5291
▁بعداز	-5292
▁بغرقه	-5293
▁بفترا	-5294
▁بفردا	-5295
▁بفرقش	-5296
▁بفرهم	-5297
▁بفروش	-5298
▁بلاها	-5299
فلت	-5300
لتق	-5301
لسل	-5302
▁ضو	-5303
الحش	-5304
العت	-5305
فوری	-5306
قیفه	-5307
لسمی	-5308
کندی	-5309
▁ابع	-5310
▁اخل	-5311
▁بآی	-5312
▁جمع	-5313
▁رحل	-5314
▁زنف	-5315
▁علت	-5316
فایان	-5317
▁اشرا	-5318
▁انار	-5319
▁بترک	-5320
▁بختش	-5321
▁بخلت	-5322
▁بمقر	-5323
▁جورش	-5324
▁خوری	-5325
▁دعاه	-5326
▁دعوت	-5327
▁دهدت	-5328
▁رحیل	-5329
▁زنام	-5330
▁سخره	-5331
▁سودن	-5332
▁غفلت	-5333
▁قدمت	-5334
▁للتق	-5335
▁نشنا	-5336
▁همره	-5337
▁وجای	-5338
▁پافش	-5339
▁کوری	-5340
▁یکره	-5341
فوریوس	-5342
وفایان	-5343
▁آگهان	-5344
▁ابعاد	-5345
▁اخلاص	-5346
▁بآیین	-5347
▁بایره	-5348
▁بدوری	-5349
▁بلندت	-5350
▁بمجلس	-5351
▁بمدعا	-5352
▁بمرغی	-5353
▁بمستی	-5354
▁بمنعم	-5355
▁بنامه	-5356
▁بناگه	-5357
▁بنمود	-5358
▁بنویس	-5359
▁بنگرم	-5360
▁بهلال	-5361
▁بهمین	-5362
▁بهیچم	-5363
▁بوسمت	-5364
▁بپرسش	-5365
▁بپرسی	-5366
▁بپهلو	-5367
▁بپوشم	-5368
▁بچشمش	-5369
▁بکسیت	-5370
▁بکشیم	-5371
▁بکمین	-5372
▁بکینم	-5373
▁بگریه	-5374
▁بگشای	-5375
▁بگفتش	-5376
▁بگلبن	-5377
▁بگوید	-5378
▁بیخطر	-5379
▁تأملی	-5380
▁تاجیک	-5381
▁تباهی	-5382
▁تبریز	-5383
▁تتارش	-5384
▁تحمیل	-5385
▁تدبیر	-5386
▁تدریس	-5387
▁تربتم	-5388
▁ترکان	-5389
▁تشویش	-5390
▁تعالی	-5391
▁تفلیس	-5392
▁تمکین	-5393
▁تهلیل	-5394
▁تکبیر	-5395
▁تکفیر	-5396
▁تیماج	-5397
▁ثنایت	-5398
▁ثوابی	-5399
اقم	-5400
ترش	-5401
شحه	-5402
هدی	-5403
اهدی	-5404
صحان	-5405
یرفی	-5406
▁انق	-5407
▁ثقی	-5408
▁حجت	-5409
▁شرح	-5410
▁شیب	-5411
▁صفی	-5412
▁معا	-5413
▁معج	-5414
▁آیات	-5415
▁انقل	-5416
▁بآست	-5417
▁بجیب	-5418
▁بندگ	-5419
▁بندی	-5420
▁بپاک	-5421
▁بیدآ	-5422
▁تیرش	-5423
▁ثقیل	-5424
▁جفات	-5425
▁خلقش	-5426
▁رشحه	-5427
▁شاخس	-5428
▁شترش	-5429
▁صدفی	-5430
▁صنمش	-5431
▁صولت	-5432
▁عهدی	-5433
▁عیشت	-5434
▁فردی	-5435
▁قاقم	-5436
▁لطفی	-5437
▁لوحش	-5438
▁معده	-5439
▁معشر	-5440
▁معلم	-5441
▁میکش	-5442
▁نشیب	-5443
▁نهیب	-5444
▁وصلش	-5445
▁وگرت	-5446
ایمقام	-5447
▁اعیان	-5448
▁اولاد	-5449
▁بجورم	-5450
▁بسخاء	-5451
▁بهشتی	-5452
▁بیدلم	-5453
▁تیرگی	-5454
▁جابجا	-5455
▁جادوی	-5456
▁جاروب	-5457
▁جاریه	-5458
▁جامیس	-5459
▁جامیش	-5460
▁جبریل	-5461
▁جستمت	-5462
▁جغدند	-5463
▁جلادت	-5464
▁جمالت	-5465
▁جمشان	-5466
▁جمعیت	-5467
▁جمیلش	-5468
▁جوشان	-5469
▁جویدش	-5470
▁جوییم	-5471
▁جگران	-5472
▁حاتمش	-5473
▁حریفی	-5474
▁حسابت	-5475
▁حسرتی	-5476
▁حسنین	-5477
▁حصیری	-5478
▁حضرتت	-5479
▁حلالت	-5480
▁حوادث	-5481
▁حیران	-5482
▁حیوان	-5483
▁خاستی	-5484
▁خاصیت	-5485
▁خجلتی	-5486
▁خجلند	-5487
▁خدایت	-5488
▁خرمنت	-5489
▁خروسش	-5490
▁خرگهم	-5491
▁خریدن	-5492
▁خزانف	-5493
▁خسروش	-5494
▁خفتان	-5495
▁خلافت	-5496
▁خندند	-5497
▁خودخو	-5498
▁خودپس	-5499
أتم	-5500
گشا	-5501
تمام	-5502
ریها	-5503
سالی	-5504
▁اسف	-5505
▁اسپ	-5506
▁اشع	-5507
▁بشو	-5508
▁زقن	-5509
▁عبد	-5510
▁مسج	-5511
امالی	-5512
اوندم	-5513
زهاست	-5514
▁ابرو	-5515
▁اسبت	-5516
▁اسبی	-5517
▁بسرش	-5518
▁بقفس	-5519
▁بلعل	-5520
▁ثانی	-5521
▁خراج	-5522
▁خرید	-5523
▁رنجی	-5524
▁سالی	-5525
▁ستمم	-5526
▁سردت	-5527
▁سرها	-5528
▁شکرت	-5529
▁ظلمه	-5530
▁عمرش	-5531
▁فنون	-5532
▁مسوس	-5533
▁میلت	-5534
▁نالی	-5535
▁نرست	-5536
▁نفسش	-5537
▁نورش	-5538
▁هلال	-5539
▁گلها	-5540
افریها	-5541
▁اتمام	-5542
▁اسامی	-5543
▁اسبیش	-5544
▁اشعار	-5545
▁ببهای	-5546
▁بکشتن	-5547
▁بیمهر	-5548
▁بیموی	-5549
▁بینمت	-5550
▁بینمش	-5551
▁توایم	-5552
▁جرأتم	-5553
▁جفایش	-5554
▁خراشی	-5555
▁خریده	-5556
▁خوردش	-5557
▁خوریم	-5558
▁خیالی	-5559
▁خیزان	-5560
▁خیزدم	-5561
▁داریش	-5562
▁داریم	-5563
▁داوود	-5564
▁دبیری	-5565
▁درآیی	-5566
▁درهای	-5567
▁دروغم	-5568
▁درگهم	-5569
▁دلتنگ	-5570
▁دلخون	-5571
▁دلدار	-5572
▁دلسوز	-5573
▁دلگشا	-5574
▁دهانم	-5575
▁دهندش	-5576
▁دوزخش	-5577
▁دیدمت	-5578
▁دیدمش	-5579
▁دیرین	-5580
▁ذوالف	-5581
▁رامین	-5582
▁راندی	-5583
▁رایان	-5584
▁رایتت	-5585
▁رباید	-5586
▁رستمش	-5587
▁رسیدن	-5588
▁رقیبی	-5589
▁رمیدی	-5590
▁رنجشم	-5591
▁رهبری	-5592
▁روبیم	-5593
▁روزتر	-5594
▁روستا	-5595
▁رکعبه	-5596
▁ریاضی	-5597
▁ریزدت	-5598
▁زاریم	-5599
آسا	-5600
احم	-5601
زدد	-5602
زگی	-5603
هاش	-5604
احین	-5605
بالی	-5606
ختگی	-5607
نامه	-5608
کردی	-5609
گاها	-5610
یرتم	-5611
یزدش	-5612
▁حیض	-5613
▁زرت	-5614
▁زرق	-5615
▁صدف	-5616
▁غلت	-5617
▁کفن	-5618
تشکده	-5619
یارند	-5620
▁برآش	-5621
▁بستش	-5622
▁بعیش	-5623
▁بناق	-5624
▁تواش	-5625
▁تیغش	-5626
▁دوشش	-5627
▁رازد	-5628
▁زربر	-5629
▁زرنگ	-5630
▁زریر	-5631
▁زرین	-5632
▁سمور	-5633
▁صدای	-5634
▁غلتد	-5635
▁غمزد	-5636
▁فلکم	-5637
▁فگنی	-5638
▁ملاز	-5639
▁مکرم	-5640
▁ندزد	-5641
▁نزدم	-5642
▁هجرت	-5643
▁همزد	-5644
▁کشدش	-5645
آتشکده	-5646
وشیهای	-5647
▁آویزم	-5648
▁اسبان	-5649
▁اضطرا	-5650
▁باشدش	-5651
▁باشدم	-5652
▁باغها	-5653
▁بدزدد	-5654
▁بریزد	-5655
▁بیاید	-5656
▁بینوا	-5657
▁تازگی	-5658
▁تزاحم	-5659
▁جنابی	-5660
▁رشکند	-5661
▁روزیی	-5662
▁زاهدی	-5663
▁زدیدن	-5664
▁زراهی	-5665
▁زمزمش	-5666
▁زنهاد	-5667
▁زنیفه	-5668
▁زکامش	-5669
▁زیارت	-5670
▁ساختی	-5671
▁سافله	-5672
▁سالار	-5673
▁سامری	-5674
▁سبحان	-5675
▁سرشکم	-5676
▁سرطان	-5677
▁سرمست	-5678
▁سروشی	-5679
▁سرکند	-5680
▁سرگرد	-5681
▁سطورش	-5682
▁سلاله	-5683
▁سمندش	-5684
▁سوادش	-5685
▁سواقی	-5686
▁سودای	-5687
▁سوزند	-5688
▁سیاست	-5689
▁سیاهم	-5690
▁سیاهی	-5691
▁سیمرغ	-5692
▁سیهند	-5693
▁شاعری	-5694
▁شبگون	-5695
▁شدخاص	-5696
▁شریان	-5697
▁شعبان	-5698
▁شفاعت	-5699
بوا	-5700
خطر	-5701
زنش	-5702
قهه	-5703
ارتی	-5704
حرام	-5705
خلوق	-5706
رانت	-5707
شرمی	-5708
قامت	-5709
نشاه	-5710
هقهه	-5711
▁انش	-5712
▁بمش	-5713
▁تفح	-5714
▁جوا	-5715
▁ربم	-5716
▁سخط	-5717
▁صحر	-5718
▁ورز	-5719
▁ورع	-5720
▁ورق	-5721
▁وزن	-5722
▁گیا	-5723
ارندم	-5724
انندم	-5725
ستادم	-5726
▁آزرد	-5727
▁اختی	-5728
▁انشا	-5729
▁برخش	-5730
▁برخم	-5731
▁بسرو	-5732
▁بماه	-5733
▁بمرد	-5734
▁بمهر	-5735
▁تفحص	-5736
▁جواز	-5737
▁خندم	-5738
▁ذباب	-5739
▁رباب	-5740
▁ربای	-5741
▁زماه	-5742
▁عادم	-5743
▁فتور	-5744
▁مقدم	-5745
▁مپوش	-5746
▁نظمش	-5747
▁پندم	-5748
▁گندم	-5749
▁بخویش	-5750
▁برخرد	-5751
▁بمجمل	-5752
▁بودنش	-5753
▁بگشاد	-5754
▁توبوا	-5755
▁جانها	-5756
▁دلیلم	-5757
▁دهندم	-5758
▁روزنش	-5759
▁سخنان	-5760
▁سرزنش	-5761
▁شاهنش	-5762
▁شقایق	-5763
▁شمردن	-5764
▁شمشیر	-5765
▁شنقار	-5766
▁شهانت	-5767
▁شکافت	-5768
▁شکنند	-5769
▁شیرده	-5770
▁صاحبا	-5771
▁صالحش	-5772
▁صحیفه	-5773
▁صدایی	-5774
▁صدبار	-5775
▁صنعان	-5776
▁صنمان	-5777
▁صواحب	-5778
▁صیدکش	-5779
▁صیدگه	-5780
▁طالعت	-5781
▁طریقت	-5782
▁طغرای	-5783
▁طفلان	-5784
▁طلبید	-5785
▁طلعتم	-5786
▁طوطیم	-5787
▁عارضت	-5788
▁عالیه	-5789
▁عبیرم	-5790
▁عدالت	-5791
▁عریان	-5792
▁عصاره	-5793
▁عصایش	-5794
▁عصفور	-5795
▁عقربش	-5796
▁علامت	-5797
▁علاوه	-5798
▁علایق	-5799
رسه	-5800
▁ضم	-5801
ادیس	-5802
بینش	-5803
خندی	-5804
ذیرم	-5805
رادی	-5806
غافل	-5807
فتمش	-5808
کندم	-5809
▁زدش	-5810
▁سلخ	-5811
▁قدی	-5812
▁لیس	-5813
▁کآس	-5814
▁کجر	-5815
باشته	-5816
فرمند	-5817
گزاری	-5818
▁اعتک	-5819
▁بدهن	-5820
▁برزق	-5821
▁بعجز	-5822
▁تارش	-5823
▁خارش	-5824
▁رحمن	-5825
▁زدای	-5826
▁شوکت	-5827
▁شیره	-5828
▁قدرد	-5829
▁قدری	-5830
▁مواج	-5831
▁نایم	-5832
▁نباش	-5833
▁نخری	-5834
▁نخلی	-5835
▁نظری	-5836
▁نظیر	-5837
▁هوست	-5838
▁پرسد	-5839
▁کآری	-5840
▁کابل	-5841
▁گویت	-5842
▁یادی	-5843
استانی	-5844
▁اشارت	-5845
▁اشخاص	-5846
▁الدین	-5847
▁بحیله	-5848
▁بهارش	-5849
▁بهرجا	-5850
▁جبینش	-5851
▁جفاجو	-5852
▁خستگی	-5853
▁خفتنی	-5854
▁دانیش	-5855
▁سامان	-5856
▁شعبده	-5857
▁ضمیرم	-5858
▁علیهم	-5859
▁عنادل	-5860
▁عنانم	-5861
▁عیاری	-5862
▁غازیش	-5863
▁غبارش	-5864
▁غشاوه	-5865
▁غلامت	-5866
▁غلطید	-5867
▁غمازی	-5868
▁غمهای	-5869
▁غوانی	-5870
▁فاضلی	-5871
▁فایده	-5872
▁فتادی	-5873
▁فراتر	-5874
▁فرازی	-5875
▁فرزین	-5876
▁فروشم	-5877
▁فریبی	-5878
▁فسانه	-5879
▁فصاحت	-5880
▁فصیحی	-5881
▁فکلیت	-5882
▁فگندش	-5883
▁فگندم	-5884
▁قاتلم	-5885
▁قاصدا	-5886
▁قاصدد	-5887
▁قاصدم	-5888
▁قدریت	-5889
▁قسمتم	-5890
▁قمریش	-5891
▁قندیل	-5892
▁لاتقم	-5893
▁لبالب	-5894
▁لخلخه	-5895
▁لرزان	-5896
▁لطیفه	-5897
▁لوحان	-5898
▁لولوی	-5899
بول	-5900
تبه	-5901
جیل	-5902
خیل	-5903
دیل	-5904
مرز	-5905
کیل	-5906
اخیم	-5907
عجیل	-5908
لبند	-5909
واره	-5910
وتیم	-5911
پیدن	-5912
ژگان	-5913
گانت	-5914
یلاج	-5915
یلان	-5916
▁حیل	-5917
▁زمر	-5918
▁ساو	-5919
▁سپر	-5920
▁قمر	-5921
▁لحد	-5922
شتگان	-5923
▁آمرز	-5924
▁آهنت	-5925
▁آیدش	-5926
▁اویی	-5927
▁بجنت	-5928
▁بربط	-5929
▁برنت	-5930
▁بهمر	-5931
▁حرفش	-5932
▁حرفم	-5933
▁دخیل	-5934
▁دربه	-5935
▁رحیم	-5936
▁رزان	-5937
▁رواق	-5938
▁زمره	-5939
▁سپرد	-5940
▁شعری	-5941
▁شنبه	-5942
▁شهور	-5943
▁صهبا	-5944
▁صیدش	-5945
▁غالب	-5946
▁قبول	-5947
▁لحدش	-5948
▁ماهش	-5949
▁مجان	-5950
▁محنت	-5951
▁مروت	-5952
▁مکتب	-5953
▁میگز	-5954
▁نگهش	-5955
▁وکیل	-5956
▁گربه	-5957
وتیمار	-5958
▁آزمون	-5959
▁امشبم	-5960
▁بآنجا	-5961
▁بنایش	-5962
▁بیاضش	-5963
▁تبدیل	-5964
▁ثانیش	-5965
▁دشمنش	-5966
▁دعایی	-5967
▁دویدن	-5968
▁دیدنت	-5969
▁رواقش	-5970
▁روزنت	-5971
▁زمانت	-5972
▁ساوجی	-5973
▁سواره	-5974
▁سپرده	-5975
▁شهیدم	-5976
▁طپیدن	-5977
▁عافیت	-5978
▁مادرش	-5979
▁ماهیش	-5980
▁مباهی	-5981
▁متفرد	-5982
▁متفکر	-5983
▁متهمش	-5984
▁مجلسم	-5985
▁مجلسی	-5986
▁محترم	-5987
▁محراب	-5988
▁محرمش	-5989
▁محرمی	-5990
▁محشور	-5991
▁محلول	-5992
▁محکوم	-5993
▁مخصوص	-5994
▁مخلوق	-5995
▁مخمور	-5996
▁مخواه	-5997
▁مداین	-5998
▁مدرسه	-5999
ثیه	-6000
شوم	-6001
عتش	-6002
قنم	-6003
آوری	-6004
افیه	-6005
سفته	-6006
قایه	-6007
ومات	-6008
▁بشب	-6009
▁خطر	-6010
▁رخی	-6011
▁گسی	-6012
ینالم	-6013
▁ایاغ	-6014
▁بتنم	-6015
▁بسیل	-6016
▁بطرا	-6017
▁بنظم	-6018
▁حریر	-6019
▁خبرش	-6020
▁خدام	-6021
▁ذقنم	-6022
▁رحمه	-6023
▁رخان	-6024
▁رمال	-6025
▁زخطا	-6026
▁سفره	-6027
▁سپاه	-6028
▁سیمش	-6029
▁شمرد	-6030
▁شموس	-6031
▁عذاب	-6032
▁عقلی	-6033
▁فرسی	-6034
▁مگرم	-6035
▁هرشب	-6036
▁هفته	-6037
▁وایه	-6038
▁پنچه	-6039
▁کنیه	-6040
▁گسیل	-6041
▁ازینت	-6042
▁بابلی	-6043
▁بادیه	-6044
▁بتلاف	-6045
▁بجوید	-6046
▁بخشند	-6047
▁بردنم	-6048
▁بسایه	-6049
▁بنالم	-6050
▁خطشان	-6051
▁خمارم	-6052
▁زبانش	-6053
▁سقایه	-6054
▁سپاهش	-6055
▁شمرده	-6056
▁صیرفی	-6057
▁قافیه	-6058
▁قفسند	-6059
▁مرادت	-6060
▁مرثیه	-6061
▁مرحبا	-6062
▁مرحله	-6063
▁مرداد	-6064
▁مردمی	-6065
▁مردنم	-6066
▁مردود	-6067
▁مرساد	-6068
▁مسافر	-6069
▁مستحق	-6070
▁مسجدی	-6071
▁مسلسل	-6072
▁مشکبو	-6073
▁مشگین	-6074
▁مصرعی	-6075
▁مصیبت	-6076
▁مطابق	-6077
▁مطربه	-6078
▁مطلبت	-6079
▁مطلقه	-6080
▁معذور	-6081
▁معراج	-6082
▁معرکه	-6083
▁معمور	-6084
▁مغانه	-6085
▁مفلسم	-6086
▁مقدار	-6087
▁ملالم	-6088
▁ملکیت	-6089
▁ممتاز	-6090
▁مناسب	-6091
▁منافق	-6092
▁منتفی	-6093
▁منزلش	-6094
▁منطفی	-6095
▁مهانت	-6096
▁مهوشی	-6097
▁موافق	-6098
▁موسمی	-6099
اجر	-6100
باج	-6101
بچه	-6102
تاج	-6103
حیی	-6104
خدا	-6105
زاج	-6106
واج	-6107
زارش	-6108
غانم	-6109
مردی	-6110
مزاج	-6111
گنان	-6112
▁آیه	-6113
▁بجل	-6114
▁بجو	-6115
▁تلک	-6116
▁جزع	-6117
▁جزو	-6118
▁داج	-6119
▁ردا	-6120
▁سگش	-6121
▁موج	-6122
▁هاش	-6123
▁هلک	-6124
راشته	-6125
▁بترص	-6126
▁بجسم	-6127
▁بجشن	-6128
▁بجنگ	-6129
▁بجگر	-6130
▁برخو	-6131
▁بردت	-6132
▁بزان	-6133
▁بزیر	-6134
▁بسخن	-6135
▁بمار	-6136
▁تعلم	-6137
▁تنان	-6138
▁جودت	-6139
▁خبری	-6140
▁رسدم	-6141
▁رواج	-6142
▁شادک	-6143
▁فاجر	-6144
▁فکرم	-6145
▁مهرت	-6146
▁میمز	-6147
▁نتاج	-6148
▁نرهی	-6149
▁نفیر	-6150
▁نوذر	-6151
▁نکشد	-6152
▁نکشم	-6153
▁نکور	-6154
▁هستی	-6155
▁کیان	-6156
▁کیمی	-6157
▁یابد	-6158
▁یحیی	-6159
افگنان	-6160
دیوارش	-6161
فرانند	-6162
▁آمدنش	-6163
▁افتدم	-6164
▁افواج	-6165
▁افگنی	-6166
▁اندود	-6167
▁اندوز	-6168
▁اندیش	-6169
▁بترصی	-6170
▁بجلوه	-6171
▁بزانو	-6172
▁بهادر	-6173
▁خوانم	-6174
▁دیباج	-6175
▁زنگاه	-6176
▁ستمکش	-6177
▁سمرشد	-6178
▁فراغت	-6179
▁محفلش	-6180
▁مغبچه	-6181
▁مویان	-6182
▁مکرمت	-6183
▁مگریز	-6184
▁میآیی	-6185
▁میدمد	-6186
▁میرزا	-6187
▁میرسم	-6188
▁میرند	-6189
▁میمرد	-6190
▁مینای	-6191
▁مینهی	-6192
▁میکشت	-6193
▁میکشم	-6194
▁نازند	-6195
▁نامحر	-6196
▁ناورد	-6197
▁ناووس	-6198
▁ناوکی	-6199
پیش	-6200
یشب	-6201
خردم	-6202
سوزم	-6203
شیشه	-6204
غانه	-6205
یردم	-6206
▁بکد	-6207
▁بکر	-6208
▁بکی	-6209
▁خیش	-6210
▁روض	-6211
▁سبک	-6212
▁مؤذ	-6213
▁نمر	-6214
راخته	-6215
ردمند	-6216
▁آشام	-6217
▁آلای	-6218
▁آگین	-6219
▁اخگر	-6220
▁ازوف	-6221
▁بکشت	-6222
▁بکشد	-6223
▁بکور	-6224
▁تخته	-6225
▁تزوی	-6226
▁خسوف	-6227
▁دادر	-6228
▁دادش	-6229
▁رهین	-6230
▁زدند	-6231
▁زیشب	-6232
▁شانه	-6233
▁قیام	-6234
▁لیکن	-6235
▁مؤذن	-6236
▁مشکی	-6237
▁نمون	-6238
▁پایب	-6239
▁پلاس	-6240
▁کاوه	-6241
▁کندش	-6242
▁کندی	-6243
▁گامت	-6244
▁آمدنم	-6245
▁آمدیش	-6246
▁ازپیش	-6247
▁ایازش	-6248
▁بخلاف	-6249
▁بشیشه	-6250
▁بکدام	-6251
▁بکربر	-6252
▁بگناه	-6253
▁تزویج	-6254
▁حرامت	-6255
▁خداست	-6256
▁دادیش	-6257
▁دعاست	-6258
▁رهاند	-6259
▁رهبان	-6260
▁روضات	-6261
▁رونده	-6262
▁شبانه	-6263
▁عذارش	-6264
▁لآلیش	-6265
▁ماسوا	-6266
▁مشتغل	-6267
▁مشکلی	-6268
▁مشکوی	-6269
▁ناکام	-6270
▁نایره	-6271
▁نبردش	-6272
▁نبندد	-6273
▁نبودش	-6274
▁نبویی	-6275
▁نبینم	-6276
▁نجویم	-6277
▁نخورد	-6278
▁نخورم	-6279
▁نخوری	-6280
▁نرسند	-6281
▁نرنجد	-6282
▁نزاده	-6283
▁نزاید	-6284
▁نزهتش	-6285
▁نسفته	-6286
▁نسوخت	-6287
▁نسیمش	-6288
▁نشانش	-6289
▁نشستن	-6290
▁نشکفت	-6291
▁نشکفد	-6292
▁نشکند	-6293
▁نصیبم	-6294
▁نعمان	-6295
▁نفروش	-6296
▁نفسان	-6297
▁نفسند	-6298
▁نقشها	-6299
آشن	-6300
اتت	-6301
حات	-6302
دها	-6303
شنو	-6304
نات	-6305
آشنا	-6306
جاجی	-6307
ضحات	-6308
ویسم	-6309
ژدها	-6310
▁آوه	-6311
▁الث	-6312
▁الر	-6313
▁الن	-6314
▁ببخ	-6315
▁ببه	-6316
▁جشن	-6317
▁خلت	-6318
▁خلط	-6319
▁سده	-6320
▁فات	-6321
▁مدع	-6322
▁نخی	-6323
▁نقی	-6324
▁آتشت	-6325
▁الان	-6326
▁املم	-6327
▁بازم	-6328
▁بالم	-6329
▁ببار	-6330
▁ببال	-6331
▁ببام	-6332
▁ببرد	-6333
▁برسم	-6334
▁بکمر	-6335
▁بگشا	-6336
▁تحوی	-6337
▁خاکت	-6338
▁خلطت	-6339
▁خمار	-6340
▁دامم	-6341
▁دهیم	-6342
▁شهدا	-6343
▁صبوح	-6344
▁فاتح	-6345
▁مرغو	-6346
▁مشنو	-6347
▁منعت	-6348
▁نصره	-6349
▁نعلش	-6350
▁ننوی	-6351
▁پرسم	-6352
▁چاکی	-6353
▁کنمش	-6354
▁آوردت	-6355
▁الثغر	-6356
▁الرشد	-6357
▁النبی	-6358
▁اژدها	-6359
▁ببخشد	-6360
▁ببهشت	-6361
▁بدولت	-6362
▁بزمین	-6363
▁تحویل	-6364
▁تعطیل	-6365
▁حمامه	-6366
▁خرامی	-6367
▁خموشم	-6368
▁دامیم	-6369
▁دمیده	-6370
▁زجاجی	-6371
▁سقیفه	-6372
▁سپردن	-6373
▁شماتت	-6374
▁مدعای	-6375
▁مفرما	-6376
▁نازان	-6377
▁نقشکی	-6378
▁نقیبی	-6379
▁نماید	-6380
▁نمایی	-6381
▁نمردم	-6382
▁نمرود	-6383
▁نمیده	-6384
▁نمیگذ	-6385
▁ننالم	-6386
▁ننشست	-6387
▁ننهند	-6388
▁ننگرم	-6389
▁نهادا	-6390
▁نهادم	-6391
▁نهالت	-6392
▁نهفتی	-6393
▁نهنگی	-6394
▁نوخیز	-6395
▁نوذری	-6396
▁نوشتم	-6397
▁نوشتی	-6398
▁نوشید	-6399
زر	-6400
اسر	-6401
جده	-6402
خسر	-6403
غول	-6404
فاه	-6405
نگر	-6406
▁فغ	-6407
خسرو	-6408
سرور	-6409
ششان	-6410
ظیفه	-6411
گیزم	-6412
▁دلق	-6413
▁شبق	-6414
▁همد	-6415
▁پرن	-6416
شمنان	-6417
▁آبله	-6418
▁آرای	-6419
▁آریش	-6420
▁آیمت	-6421
▁ازمح	-6422
▁ببوی	-6423
▁بمدح	-6424
▁جهاد	-6425
▁دردت	-6426
▁دردش	-6427
▁دلیر	-6428
▁رفاه	-6429
▁شدزر	-6430
▁ظلیل	-6431
▁علمت	-6432
▁عیدی	-6433
▁قدمش	-6434
▁لنگر	-6435
▁منات	-6436
▁نژند	-6437
▁هستم	-6438
▁کناس	-6439
▁یکسر	-6440
▁احسان	-6441
▁اشاره	-6442
▁الحان	-6443
▁المنه	-6444
▁ایستم	-6445
▁بدامت	-6446
▁برایت	-6447
▁بسجده	-6448
▁جوابم	-6449
▁دردام	-6450
▁دوایت	-6451
▁روشنش	-6452
▁طاقتی	-6453
▁فتادم	-6454
▁فغانی	-6455
▁مشغول	-6456
▁مپذیر	-6457
▁مگیرم	-6458
▁نرسته	-6459
▁نوشیر	-6460
▁نپرسد	-6461
▁نپیند	-6462
▁نچیده	-6463
▁نکشته	-6464
▁نکنند	-6465
▁نکهتی	-6466
▁نکوست	-6467
▁نکوهش	-6468
▁نکویی	-6469
▁نگنجد	-6470
▁نگهند	-6471
▁نگیرم	-6472
▁نیازت	-6473
▁نیسان	-6474
▁نیفتم	-6475
▁هزاری	-6476
▁هستیم	-6477
▁هماها	-6478
▁همبزم	-6479
▁همچون	-6480
▁هوایش	-6481
▁هوشنگ	-6482
▁هیلاج	-6483
▁هیچگه	-6484
▁واعظت	-6485
▁والله	-6486
▁وسایل	-6487
▁وسواس	-6488
▁وصالی	-6489
▁وعامی	-6490
▁وفاتم	-6491
▁ونهان	-6492
▁پاداش	-6493
▁پارسا	-6494
▁پاسخش	-6495
▁پاسخی	-6496
▁پاکان	-6497
▁پذیرم	-6498
▁پرخطر	-6499
سو	-6500
ابد	-6501
تای	-6502
جبی	-6503
عون	-6504
کون	-6505
▁صم	-6506
▁ضب	-6507
▁ون	-6508
ادگی	-6509
ارون	-6510
ازار	-6511
اشتی	-6512
افته	-6513
امون	-6514
ایای	-6515
دارا	-6516
زنند	-6517
طارد	-6518
قشان	-6519
ناست	-6520
ونین	-6521
▁باخ	-6522
▁تحس	-6523
▁تحص	-6524
▁زای	-6525
▁شهش	-6526
▁ضبط	-6527
▁غزل	-6528
▁غزن	-6529
▁چکد	-6530
▁کفر	-6531
▁یون	-6532
فروزد	-6533
▁اشکی	-6534
▁باقی	-6535
▁بتاب	-6536
▁داعی	-6537
▁درجم	-6538
▁دزدی	-6539
▁رکوع	-6540
▁سکون	-6541
▁فهمد	-6542
▁فکرش	-6543
▁مجوس	-6544
▁میرس	-6545
▁میفر	-6546
▁نظام	-6547
▁کوفه	-6548
▁یکسو	-6549
ستادگی	-6550
▁استغف	-6551
▁باخبر	-6552
▁بشتاب	-6553
▁بشمار	-6554
▁تحسین	-6555
▁تحصیل	-6556
▁دلهای	-6557
▁دیبای	-6558
▁سپردی	-6559
▁شادان	-6560
▁عطارد	-6561
▁غزنوی	-6562
▁غناست	-6563
▁قارون	-6564
▁مقبول	-6565
▁ملعون	-6566
▁مینام	-6567
▁نبودی	-6568
▁ندادن	-6569
▁ونالم	-6570
▁پردگی	-6571
▁پرسید	-6572
▁پرسیم	-6573
▁پرهیز	-6574
▁پرویز	-6575
▁پسران	-6576
▁پسندت	-6577
▁پسینش	-6578
▁پشمین	-6579
▁پندار	-6580
▁پیرار	-6581
▁پیوست	-6582
▁چشیده	-6583
▁چغانه	-6584
▁چمننم	-6585
▁چنینم	-6586
▁چوخور	-6587
▁چونکه	-6588
▁چکیده	-6589
▁کآنچه	-6590
▁کآواز	-6591
▁کآورد	-6592
▁کآیمت	-6593
▁کاشته	-6594
▁کاشکی	-6595
▁کافتد	-6596
▁کالان	-6597
▁کالبد	-6598
▁کامشب	-6599
غش	-6600
دود	-6601
لدا	-6602
لله	-6603
ودی	-6604
▁آق	-6605
▁غی	-6606
امین	-6607
ایات	-6608
مدوح	-6609
منون	-6610
▁آقا	-6611
▁توس	-6612
▁سمی	-6613
▁طرح	-6614
▁عجم	-6615
▁عطا	-6616
▁مسأ	-6617
▁مقت	-6618
▁منح	-6619
▁پود	-6620
▁پوس	-6621
بیبان	-6622
عتابت	-6623
لایات	-6624
▁باطن	-6625
▁بزخم	-6626
▁بمال	-6627
▁بوسد	-6628
▁بیغش	-6629
▁خرگه	-6630
▁درست	-6631
▁درود	-6632
▁رایق	-6633
▁زخمی	-6634
▁ساری	-6635
▁شامل	-6636
▁شاها	-6637
▁عجبا	-6638
▁عمرت	-6639
▁غیور	-6640
▁مقیم	-6641
▁ودود	-6642
▁کآهی	-6643
▁یلدا	-6644
منونند	-6645
▁آرایی	-6646
▁ازوست	-6647
▁الصنم	-6648
▁بازگو	-6649
▁تضلیل	-6650
▁توسنش	-6651
▁دامنش	-6652
▁دیارم	-6653
▁ریشان	-6654
▁زدودی	-6655
▁شریفه	-6656
▁فرمود	-6657
▁قیصرت	-6658
▁مسأله	-6659
▁مضطرب	-6660
▁مقتول	-6661
▁مقیمش	-6662
▁ممدوح	-6663
▁منحوس	-6664
▁مندیل	-6665
▁نوازی	-6666
▁نگارش	-6667
▁والیس	-6668
▁پاطیل	-6669
▁پسندم	-6670
▁کاران	-6671
▁کارها	-6672
▁کایزد	-6673
▁کبابت	-6674
▁کجاست	-6675
▁کجاوه	-6676
▁کدخدا	-6677
▁کربلا	-6678
▁کردمت	-6679
▁کشیدی	-6680
▁کفایت	-6681
▁کلاوه	-6682
▁کمندش	-6683
▁کمندی	-6684
▁کمینه	-6685
▁کنارش	-6686
▁کنیتش	-6687
▁کوثرش	-6688
▁کودکی	-6689
▁کونین	-6690
▁کوهست	-6691
▁کیستی	-6692
▁گاهان	-6693
▁گدازد	-6694
▁گذارت	-6695
▁گذاشت	-6696
▁گردنش	-6697
▁گردنم	-6698
▁گرگان	-6699
خا	-6700
حید	-6701
زید	-6702
زین	-6703
ظلم	-6704
قین	-6705
نظل	-6706
▁جی	-6707
▁هد	-6708
▁هٰ	-6709
▁پد	-6710
▁پن	-6711
ردست	-6712
رزید	-6713
ساوس	-6714
شکیب	-6715
لیخا	-6716
منات	-6717
▁بحث	-6718
▁بعر	-6719
▁تمث	-6720
▁تگر	-6721
▁ثمر	-6722
▁دیج	-6723
▁سطح	-6724
▁شنا	-6725
▁شین	-6726
▁عقی	-6727
▁قدت	-6728
▁موز	-6729
▁نرد	-6730
▁هٰذ	-6731
▁پرش	-6732
▁کید	-6733
امشان	-6734
رزیدت	-6735
▁انبی	-6736
▁انفا	-6737
▁بدشت	-6738
▁بدیر	-6739
▁بعرض	-6740
▁بمنش	-6741
▁بکرم	-6742
▁تظلم	-6743
▁تگرگ	-6744
▁جگرم	-6745
▁حرام	-6746
▁حنظل	-6747
▁خروج	-6748
▁سازش	-6749
▁شباب	-6750
▁شرمش	-6751
▁شریک	-6752
▁عربی	-6753
▁غمام	-6754
▁قدیر	-6755
▁نحیف	-6756
▁پدید	-6757
▁پنبه	-6758
▁یقین	-6759
اندگان	-6760
لرزیدت	-6761
▁آموزت	-6762
▁انبیا	-6763
▁انفاس	-6764
▁بودمی	-6765
▁بگذار	-6766
▁تارها	-6767
▁تمثال	-6768
▁توحید	-6769
▁توزین	-6770
▁حرفها	-6771
▁دارمت	-6772
▁دیجور	-6773
▁زلیخا	-6774
▁سپارد	-6775
▁شناسی	-6776
▁عقیقی	-6777
▁غمامش	-6778
▁فروخت	-6779
▁فریبش	-6780
▁موزون	-6781
▁نشستی	-6782
▁نهایت	-6783
▁هدایت	-6784
▁هزارش	-6785
▁هٰذان	-6786
▁هیربد	-6787
▁وساوس	-6788
▁گریزی	-6789
▁گزینم	-6790
▁گسترد	-6791
▁گشادی	-6792
▁گشایم	-6793
▁گشودم	-6794
▁گشوده	-6795
▁گفتمت	-6796
▁گلشنی	-6797
▁گلنار	-6798
▁گمانی	-6799
چو	-6800
▁ژ	-6801
راس	-6802
▁سز	-6803
▁شط	-6804
ازده	-6805
اعده	-6806
لیچه	-6807
هلای	-6808
ژاله	-6809
▁خلی	-6810
▁رچو	-6811
▁رکن	-6812
▁عمل	-6813
▁فتم	-6814
▁ومه	-6815
▁ژرف	-6816
ستاره	-6817
لیانش	-6818
▁...ـ	-6819
▁بخشد	-6820
▁تابی	-6821
▁جرسم	-6822
▁حرمش	-6823
▁حلال	-6824
▁خرده	-6825
▁شنوی	-6826
▁صبرم	-6827
▁صنما	-6828
▁عبوس	-6829
▁عقلم	-6830
▁عیبت	-6831
▁عیبی	-6832
▁مقام	-6833
▁نطاق	-6834
▁هراس	-6835
▁گریز	-6836
▁گیاه	-6837
▁آهسته	-6838
▁بطفلی	-6839
▁بیزار	-6840
▁تنشان	-6841
▁جانور	-6842
▁خاطرش	-6843
▁خرامد	-6844
▁خلیلی	-6845
▁دلیرم	-6846
▁سرگرم	-6847
▁سزاست	-6848
▁شهلای	-6849
▁عارفی	-6850
▁فروزی	-6851
▁قاعده	-6852
▁قرارش	-6853
▁ماریه	-6854
▁منتظم	-6855
▁میروم	-6856
▁پرورش	-6857
▁کردمی	-6858
▁کشاند	-6859
▁کلیچه	-6860
▁گفتنت	-6861
▁گمشده	-6862
▁گناهش	-6863
▁گناهم	-6864
▁گنجها	-6865
▁گوهرش	-6866
▁گویدت	-6867
▁گویید	-6868
▁گوییش	-6869
▁گیردش	-6870
▁گیرمش	-6871
▁گیریم	-6872
▁گیلان	-6873
▁یارها	-6874
▁یماقی	-6875
▁یمانش	-6876
▁یمانی	-6877
▁یکتای	-6878
▁یکسان	-6879
▁یکنظر	-6880
ابلیانش	-6881
انداخته	-6882
باختگان	-6883
شنامشان	-6884
ندوقهای	-6885
پسندیده	-6886
▁آبادتر	-6887
▁آتشگهی	-6888
▁آرایان	-6889
▁آرزویش	-6890
▁آرمیدم	-6891
▁آزردنم	-6892
▁آستانم	-6893
▁آشفتگی	-6894
▁آشناست	-6895
▁آشکارا	-6896
▁آشکارش	-6897
▁آشیانش	-6898
▁آشیانه	-6899
هن	-6900
شاد	-6901
ضای	-6902
غیر	-6903
مدی	-6904
نیس	-6905
▁جذ	-6906
▁زح	-6907
▁شش	-6908
▁چر	-6909
▁یغ	-6910
ادرم	-6911
جنیس	-6912
ردار	-6913
سلام	-6914
ندگی	-6915
نهار	-6916
وانم	-6917
▁ازی	-6918
▁باک	-6919
▁تود	-6920
▁جهل	-6921
▁خاد	-6922
▁شکم	-6923
▁صور	-6924
▁عاد	-6925
▁قفل	-6926
▁منظ	-6927
▁نقل	-6928
▁نوس	-6929
▁وحد	-6930
▁پهن	-6931
▁چست	-6932
▁استد	-6933
▁انکی	-6934
▁بدرد	-6935
▁بدلی	-6936
▁بقای	-6937
▁بندت	-6938
▁جذبه	-6939
▁جرسی	-6940
▁دشتش	-6941
▁دهنم	-6942
▁رقصم	-6943
▁ریزه	-6944
▁زحمت	-6945
▁سوسن	-6946
▁شبهه	-6947
▁صغیر	-6948
▁طفیل	-6949
▁قضای	-6950
▁قیدی	-6951
▁مرغش	-6952
▁هاله	-6953
▁وحدت	-6954
▁یغما	-6955
▁آرامش	-6956
▁انهار	-6957
▁انکیس	-6958
▁بازخو	-6959
▁بجانش	-6960
▁برسان	-6961
▁تجنیس	-6962
▁جرمیش	-6963
▁جواله	-6964
▁حجابت	-6965
▁خجالت	-6966
▁رفتنت	-6967
▁سرمدی	-6968
▁طینتش	-6969
▁عادلی	-6970
▁فطرتا	-6971
▁محملی	-6972
▁مرتبه	-6973
▁منظور	-6974
▁میچمد	-6975
▁نازکت	-6976
▁ناشاد	-6977
▁نیارد	-6978
▁چرنده	-6979
▁کاسیر	-6980
▁گردنت	-6981
▁گریند	-6982
▁آفریدن	-6983
▁آلایشم	-6984
▁آلودگی	-6985
▁آمدستی	-6986
▁آنانکه	-6987
▁ابرآسا	-6988
▁ابروان	-6989
▁ابلهان	-6990
▁ابوالن	-6991
▁احتراز	-6992
▁احتمال	-6993
▁اختصاص	-6994
▁اخلاقش	-6995
▁ارجمند	-6996
▁ارغنون	-6997
▁اروندم	-6998
▁ازقندم	-6999
یا	-7000
ثان	-7001
فوس	-7002
▁شف	-7003
▁وب	-7004
▁ازک	-7005
▁الی	-7006
▁اید	-7007
▁باج	-7008
▁بکا	-7009
▁درس	-7010
▁شمر	-7011
▁شیء	-7012
▁صحو	-7013
▁طوس	-7014
▁فوق	-7015
▁مبر	-7016
▁نسل	-7017
▁بارت	-7018
▁بالی	-7019
▁بعدم	-7020
▁بیوز	-7021
▁خارم	-7022
▁خدات	-7023
▁دوال	-7024
▁سالت	-7025
▁شفاف	-7026
▁شمعی	-7027
▁لبوس	-7028
▁نفوس	-7029
▁هنرت	-7030
▁وبلب	-7031
▁آویخت	-7032
▁ازکفر	-7033
▁امامی	-7034
▁اوثان	-7035
▁برکان	-7036
▁تناهی	-7037
▁خطیبی	-7038
▁خوابی	-7039
▁دارید	-7040
▁رسیدش	-7041
▁شتابی	-7042
▁صبوری	-7043
▁عارفم	-7044
▁عرفان	-7045
▁غبغبی	-7046
▁فرخنه	-7047
▁فریبم	-7048
▁قراری	-7049
▁ماهشن	-7050
▁مشایی	-7051
▁مغانش	-7052
▁نخستت	-7053
▁نخوان	-7054
▁وبلبل	-7055
▁وفاتش	-7056
▁کانجا	-7057
▁یافتم	-7058
▁ازمحاس	-7059
▁ازمشرق	-7060
▁ازیشان	-7061
▁استران	-7062
▁استوار	-7063
▁اسفندم	-7064
▁اسپندم	-7065
▁اسیریم	-7066
▁اشراقی	-7067
▁اعتبار	-7068
▁اعتدال	-7069
▁اعتماد	-7070
▁افراشت	-7071
▁افروزی	-7072
▁افزودت	-7073
▁افزوده	-7074
▁افسرده	-7075
▁افسونی	-7076
▁افشاند	-7077
▁افشانی	-7078
▁افغانم	-7079
▁افگنان	-7080
▁افگندی	-7081
▁البریه	-7082
▁التفات	-7083
▁الجمیل	-7084
▁الحرام	-7085
▁السرور	-7086
▁العاشق	-7087
▁المقدس	-7088
▁الوندم	-7089
▁امامان	-7090
▁امروزت	-7091
▁امروزش	-7092
▁انتقام	-7093
▁انجمنم	-7094
▁اندازه	-7095
▁اندرین	-7096
▁اندوهی	-7097
▁انسانی	-7098
▁انقلاب	-7099
شش	-7100
وة	-7101
شنی	-7102
هبت	-7103
وشش	-7104
▁اع	-7105
▁دز	-7106
▁زا	-7107
▁اجر	-7108
▁اصم	-7109
▁بدم	-7110
▁بکه	-7111
▁ترا	-7112
▁رلف	-7113
▁زخط	-7114
▁زشش	-7115
▁زوی	-7116
▁سوء	-7117
▁شبا	-7118
▁شرا	-7119
▁مله	-7120
▁میت	-7121
▁نشأ	-7122
ستانی	-7123
▁آیند	-7124
▁احتی	-7125
▁ارزد	-7126
▁ازنگ	-7127
▁اعمی	-7128
▁بساز	-7129
▁بمشت	-7130
▁بوجد	-7131
▁بوزه	-7132
▁بچاک	-7133
▁بکهف	-7134
▁بگوی	-7135
▁تقری	-7136
▁حیات	-7137
▁رهند	-7138
▁زبده	-7139
▁زهرم	-7140
▁زیبش	-7141
▁شودش	-7142
▁قدوم	-7143
▁ماهم	-7144
▁محلل	-7145
▁مصرع	-7146
▁ملهم	-7147
▁نشأه	-7148
▁وسعت	-7149
▁کاود	-7150
▁یسار	-7151
ستانان	-7152
شماریش	-7153
▁آرزوم	-7154
▁آزادم	-7155
▁بتموز	-7156
▁بعشرت	-7157
▁بفرما	-7158
▁بودنه	-7159
▁تراکم	-7160
▁تقریب	-7161
▁خلیفه	-7162
▁رفتمی	-7163
▁سریشم	-7164
▁صافدل	-7165
▁فروغی	-7166
▁فلانی	-7167
▁مذهبت	-7168
▁پختگی	-7169
▁کارکن	-7170
▁گردیم	-7171
▁گویان	-7172
▁یاریت	-7173
▁احتیاج	-7174
▁السلام	-7175
▁انگبین	-7176
▁اوستاد	-7177
▁اینقدر	-7178
▁بآستین	-7179
▁بآفرین	-7180
▁باختنت	-7181
▁بازآید	-7182
▁بازاری	-7183
▁بازتاب	-7184
▁باصحاب	-7185
▁بالایی	-7186
▁بالیده	-7187
▁بامداد	-7188
▁بامیدی	-7189
▁بانباز	-7190
▁بایستم	-7191
▁ببارید	-7192
▁ببازار	-7193
▁بترصیع	-7194
▁بتسبیح	-7195
▁بتسدیس	-7196
▁بتغافل	-7197
▁بتکبیر	-7198
▁بجنبید	-7199
قع	-7200
گل	-7201
فتی	-7202
گیز	-7203
▁رج	-7204
▁هژ	-7205
اراج	-7206
بران	-7207
▁انس	-7208
▁رهد	-7209
▁عفت	-7210
▁متو	-7211
▁مجو	-7212
▁نحل	-7213
▁پاش	-7214
▁پیچ	-7215
▁چگل	-7216
▁کمش	-7217
▁یوز	-7218
▁آزری	-7219
▁العظ	-7220
▁بهات	-7221
▁جلوس	-7222
▁رجال	-7223
▁ستمد	-7224
▁سنین	-7225
▁شسته	-7226
▁طامی	-7227
▁عذرت	-7228
▁فایق	-7229
▁مرقع	-7230
▁منبر	-7231
▁نظمت	-7232
▁کاهد	-7233
▁کبیر	-7234
▁گوشت	-7235
▁آمیزت	-7236
▁اندکی	-7237
▁برهنه	-7238
▁بمکتب	-7239
▁تافتی	-7240
▁تحملی	-7241
▁تشریف	-7242
▁تعریس	-7243
▁جهاند	-7244
▁خموشی	-7245
▁دادار	-7246
▁دویده	-7247
▁رحیلش	-7248
▁ریزدم	-7249
▁زاویه	-7250
▁سعایت	-7251
▁سیماب	-7252
▁صولتش	-7253
▁متوحش	-7254
▁مدارش	-7255
▁مصاحب	-7256
▁نشنید	-7257
▁نگارا	-7258
▁نگسلد	-7259
▁پیاله	-7260
▁کبکان	-7261
▁گذشتم	-7262
▁گزینی	-7263
ورانگیز	-7264
▁اعتکاف	-7265
▁امتیاز	-7266
▁بتاراج	-7267
▁بحقیقت	-7268
▁بحیرتم	-7269
▁بخشنده	-7270
▁بخشیدم	-7271
▁بخلعتی	-7272
▁بخلوتی	-7273
▁بخلیفه	-7274
▁بخندید	-7275
▁بخوابت	-7276
▁بخوانم	-7277
▁بدامنش	-7278
▁بدخشان	-7279
▁بدرگهش	-7280
▁برآرند	-7281
▁برآورم	-7282
▁برانیش	-7283
▁بربسته	-7284
▁بربندم	-7285
▁برزانی	-7286
▁برساحل	-7287
▁برسانی	-7288
▁برفتار	-7289
▁برناید	-7290
▁بروادت	-7291
▁برچیده	-7292
▁برکندم	-7293
▁برگردد	-7294
▁برگشتن	-7295
▁برگیرم	-7296
▁بریدند	-7297
▁بریشان	-7298
▁بسپارد	-7299
سق	-7300
طی	-7301
هت	-7302
وض	-7303
وک	-7304
صتم	-7305
هتز	-7306
وات	-7307
یطی	-7308
افتر	-7309
زیاد	-7310
▁امن	-7311
▁داس	-7312
▁دلن	-7313
▁رطل	-7314
▁عوض	-7315
▁فزا	-7316
▁قصب	-7317
▁قطب	-7318
▁محو	-7319
▁گری	-7320
هانند	-7321
هتزاز	-7322
▁باسق	-7323
▁توست	-7324
▁جاری	-7325
▁خشمت	-7326
▁خیری	-7327
▁دلنو	-7328
▁دهنی	-7329
▁سروش	-7330
▁سستی	-7331
▁سمین	-7332
▁ضحوک	-7333
▁عامت	-7334
▁غلای	-7335
▁قعود	-7336
▁مانی	-7337
▁مخفی	-7338
▁مشکن	-7339
▁موبد	-7340
▁وسوس	-7341
▁پاکو	-7342
▁پخته	-7343
▁کآرد	-7344
▁کلان	-7345
▁آشنات	-7346
▁اخترت	-7347
▁باربد	-7348
▁بحالم	-7349
▁بصیرت	-7350
▁تلاطم	-7351
▁جلالت	-7352
▁حقایق	-7353
▁دقایق	-7354
▁رسیدم	-7355
▁روایت	-7356
▁زرگری	-7357
▁صافتر	-7358
▁صهبای	-7359
▁طبیبش	-7360
▁عیارش	-7361
▁غلتان	-7362
▁فرصتم	-7363
▁قهقهه	-7364
▁محیطی	-7365
▁مشاعل	-7366
▁نساید	-7367
▁وسوسه	-7368
▁گیاهی	-7369
▁یزدان	-7370
▁اهتزاز	-7371
▁ببالید	-7372
▁بتقدیس	-7373
▁بشارتی	-7374
▁بشمارم	-7375
▁بشمشیر	-7376
▁بشیران	-7377
▁بصحرای	-7378
▁بضاعتی	-7379
▁بطراوت	-7380
▁بعتابت	-7381
▁بفتراک	-7382
▁بفردای	-7383
▁بفردوس	-7384
▁بفرستم	-7385
▁بفرمای	-7386
▁بلندتر	-7387
▁بلورین	-7388
▁بمخلوق	-7389
▁بمرادت	-7390
▁بمشامی	-7391
▁بمژگان	-7392
▁بمیانه	-7393
▁بمیدان	-7394
▁بناقوس	-7395
▁بناپاک	-7396
▁بنشستم	-7397
▁بنشسته	-7398
▁بنشیند	-7399
أس	-7400
ؤل	-7401
سخ	-7402
گن	-7403
ؤلؤ	-7404
یرد	-7405
▁حب	-7406
ابله	-7407
انون	-7408
نیفه	-7409
▁بمه	-7410
▁حاش	-7411
▁حبذ	-7412
▁رأس	-7413
▁رهر	-7414
▁شرر	-7415
▁شرط	-7416
▁نثر	-7417
▁چهی	-7418
▁اوفت	-7419
▁بابل	-7420
▁بارم	-7421
▁باره	-7422
▁بغار	-7423
▁جزیه	-7424
▁حبذا	-7425
▁خندد	-7426
▁سترگ	-7427
▁سرکو	-7428
▁سطبر	-7429
▁سعدی	-7430
▁شمعم	-7431
▁شهند	-7432
▁عذرم	-7433
▁عیدم	-7434
▁فدای	-7435
▁فرسخ	-7436
▁لؤلؤ	-7437
▁میزد	-7438
▁نارم	-7439
▁نرسد	-7440
▁نهشت	-7441
▁هشته	-7442
▁هوسم	-7443
▁وزید	-7444
▁پرنم	-7445
▁چامه	-7446
▁کاست	-7447
▁یالش	-7448
▁آزادش	-7449
▁ارزیز	-7450
▁ازواج	-7451
▁انباز	-7452
▁بساحل	-7453
▁بغارت	-7454
▁جغدان	-7455
▁جوابت	-7456
▁حنیفه	-7457
▁راغها	-7458
▁رفتنی	-7459
▁سحرور	-7460
▁غمیگن	-7461
▁قابله	-7462
▁قانون	-7463
▁لاتنم	-7464
▁منبری	-7465
▁ندزدش	-7466
▁نگیرد	-7467
▁کناری	-7468
▁برادرم	-7469
▁براهیم	-7470
▁بنشینی	-7471
▁بنوازم	-7472
▁بنویسم	-7473
▁بهاران	-7474
▁بهامون	-7475
▁بهرمند	-7476
▁بهشتاد	-7477
▁بوظیفه	-7478
▁بپاداش	-7479
▁بپرهیز	-7480
▁بچشمها	-7481
▁بکاشان	-7482
▁بگداخت	-7483
▁بگریزی	-7484
▁بگشاده	-7485
▁بگشاید	-7486
▁بگلشنی	-7487
▁بگیردم	-7488
▁بیاران	-7489
▁بیتابی	-7490
▁بیجهتم	-7491
▁بیخبری	-7492
▁بیدادت	-7493
▁بیداری	-7494
▁بیدرنگ	-7495
▁بیدلیل	-7496
▁بیرجیس	-7497
▁بیشترک	-7498
▁بیشرمی	-7499
گم	-7500
برق	-7501
ضور	-7502
گیم	-7503
▁اث	-7504
▁دج	-7505
▁دد	-7506
▁مظ	-7507
ؤادی	-7508
اشتن	-7509
بروی	-7510
مدار	-7511
▁ایل	-7512
▁ترف	-7513
▁حصر	-7514
▁سره	-7515
▁فرج	-7516
▁قبی	-7517
▁مزن	-7518
▁ونی	-7519
▁پیس	-7520
▁کیس	-7521
اعادی	-7522
▁ابدا	-7523
▁اثری	-7524
▁ازمن	-7525
▁بدلش	-7526
▁بدلم	-7527
▁بزنگ	-7528
▁بغری	-7529
▁بیسر	-7530
▁ترنج	-7531
▁توبر	-7532
▁حضور	-7533
▁خاره	-7534
▁دجله	-7535
▁دلند	-7536
▁دگرت	-7537
▁راضی	-7538
▁زلفت	-7539
▁سرخی	-7540
▁سیدی	-7541
▁طرفه	-7542
▁مظهر	-7543
▁مقار	-7544
▁میام	-7545
▁میرد	-7546
▁نقاش	-7547
▁نگذر	-7548
▁چاهی	-7549
▁یکاد	-7550
افؤادی	-7551
▁آبروی	-7552
▁اینجا	-7553
▁بفراز	-7554
▁بمرگم	-7555
▁تجملی	-7556
▁توبره	-7557
▁خاکست	-7558
▁سپردم	-7559
▁شمعها	-7560
▁ظلمات	-7561
▁قبیله	-7562
▁لیلیش	-7563
▁مقارن	-7564
▁منمای	-7565
▁نموده	-7566
▁نمیرد	-7567
▁نهفتن	-7568
▁نگذرم	-7569
▁والای	-7570
▁وزیده	-7571
▁وفایم	-7572
▁ونیاز	-7573
▁پرسدم	-7574
▁گوییا	-7575
▁آشیانی	-7576
▁استبرق	-7577
▁باختمش	-7578
▁بزنگار	-7579
▁بفرمان	-7580
▁بودشان	-7581
▁بگلبنی	-7582
▁بیمارم	-7583
▁بیمدار	-7584
▁بیندیش	-7585
▁بینوات	-7586
▁بیگنهی	-7587
▁تابدار	-7588
▁تابنده	-7589
▁تاریخش	-7590
▁تدبیرم	-7591
▁ترسیده	-7592
▁ترکتاز	-7593
▁تشنگان	-7594
▁تغافلی	-7595
▁تلخکام	-7596
▁تمنایت	-7597
▁تنهایی	-7598
▁تنگدلی	-7599
الف	-7600
لزم	-7601
هنگ	-7602
یها	-7603
▁کچ	-7604
بروز	-7605
خندت	-7606
ردیش	-7607
گفتم	-7608
▁بسؤ	-7609
▁بصر	-7610
▁بکن	-7611
▁بیل	-7612
▁تشت	-7613
▁توو	-7614
▁جرا	-7615
▁دنی	-7616
▁رسن	-7617
▁رگش	-7618
▁سرپ	-7619
▁عال	-7620
▁نهر	-7621
▁چال	-7622
▁چوب	-7623
▁گبر	-7624
▁بتگر	-7625
▁بمحر	-7626
▁حلاج	-7627
▁داود	-7628
▁رامی	-7629
▁علمش	-7630
▁فسوس	-7631
▁قلزم	-7632
▁لعلت	-7633
▁ممسک	-7634
▁نیوش	-7635
▁پیاز	-7636
▁کلیل	-7637
▁کچلی	-7638
▁گردت	-7639
▁آغازش	-7640
▁بآهنگ	-7641
▁بحیاء	-7642
▁بسؤال	-7643
▁بمحرو	-7644
▁بگوشه	-7645
▁تأسیس	-7646
▁تعلیم	-7647
▁حلولی	-7648
▁دوستش	-7649
▁سروری	-7650
▁سعادت	-7651
▁عالمی	-7652
▁مخالف	-7653
▁موران	-7654
▁میآید	-7655
▁میزنی	-7656
▁میکال	-7657
▁وشامی	-7658
▁پرنده	-7659
▁پویند	-7660
▁پیرزن	-7661
▁چالاک	-7662
▁برفتند	-7663
▁بنازید	-7664
▁بنهاده	-7665
▁بکناری	-7666
▁بیلشان	-7667
▁توانست	-7668
▁توانگر	-7669
▁توانیم	-7670
▁تودردی	-7671
▁جادویی	-7672
▁جانانم	-7673
▁جانگزا	-7674
▁جاهشان	-7675
▁جداییش	-7676
▁جلالتش	-7677
▁جمشیدی	-7678
▁جنتشان	-7679
▁جهانند	-7680
▁جواسیس	-7681
▁جگرنات	-7682
▁حرزشان	-7683
▁حرمگاه	-7684
▁حریفند	-7685
▁حوریان	-7686
▁حکایتی	-7687
▁خاصیتی	-7688
▁خالدین	-7689
▁خالشان	-7690
▁خاموشش	-7691
▁خاموشی	-7692
▁خاوران	-7693
▁خاکشان	-7694
▁خاکیان	-7695
▁خرامید	-7696
▁خردمند	-7697
▁خروشان	-7698
▁خسروان	-7699
ثلی	-7700
جوی	-7701
شرم	-7702
هور	-7703
کشم	-7704
ثلیث	-7705
ختار	-7706
عانی	-7707
فتری	-7708
نجرف	-7709
وایی	-7710
یانش	-7711
▁امر	-7712
▁امش	-7713
▁طشت	-7714
▁عصر	-7715
▁نرخ	-7716
▁نمک	-7717
اندان	-7718
▁اینم	-7719
▁بامت	-7720
▁برگی	-7721
▁تنیم	-7722
▁تیرم	-7723
▁جامم	-7724
▁حشرم	-7725
▁خضاب	-7726
▁خوشی	-7727
▁دلال	-7728
▁دوای	-7729
▁راند	-7730
▁زمرد	-7731
▁سبوس	-7732
▁سخای	-7733
▁سراج	-7734
▁سرود	-7735
▁سواد	-7736
▁شوند	-7737
▁صبحت	-7738
▁صلیح	-7739
▁ظهور	-7740
▁عنبی	-7741
▁غنای	-7742
▁فتوت	-7743
▁قادر	-7744
▁معاذ	-7745
▁منور	-7746
▁نخیز	-7747
▁نروم	-7748
▁نساج	-7749
▁پسته	-7750
▁پیلت	-7751
▁آمدیم	-7752
▁ابراه	-7753
▁امرای	-7754
▁امشبی	-7755
▁امیدم	-7756
▁بدانش	-7757
▁بکارش	-7758
▁بکشتی	-7759
▁خرسند	-7760
▁خلقته	-7761
▁دلکشم	-7762
▁روانم	-7763
▁زردشت	-7764
▁ساختم	-7765
▁شاهات	-7766
▁شعاعی	-7767
▁شنجرف	-7768
▁لقمان	-7769
▁مختار	-7770
▁مرسله	-7771
▁معالی	-7772
▁معشری	-7773
▁میگرد	-7774
▁ننگری	-7775
▁نژادا	-7776
▁نگیری	-7777
▁واسطه	-7778
▁کآسان	-7779
▁کاسته	-7780
▁کجایت	-7781
▁کودکت	-7782
▁آسمانش	-7783
▁بتثلیث	-7784
▁بدفتری	-7785
▁جستجوی	-7786
▁خاندان	-7787
▁خشنودم	-7788
▁خفتمنه	-7789
▁خلقتنی	-7790
▁خلوتگه	-7791
▁خنازیر	-7792
▁خندیدم	-7793
▁خوارتر	-7794
▁خواریم	-7795
▁خواستن	-7796
▁خواستی	-7797
▁خواندی	-7798
▁خوانیم	-7799
حمی	-7800
جاست	-7801
میده	-7802
وزند	-7803
▁بیع	-7804
▁جلد	-7805
▁خمی	-7806
▁دیت	-7807
▁زمی	-7808
▁شبم	-7809
▁چها	-7810
▁چهر	-7811
▁کسش	-7812
▁کفم	-7813
▁بحال	-7814
▁براز	-7815
▁برنا	-7816
▁بشاخ	-7817
▁بنال	-7818
▁بویش	-7819
▁تباه	-7820
▁جانت	-7821
▁خودی	-7822
▁خوست	-7823
▁خیزم	-7824
▁روزش	-7825
▁شودم	-7826
▁فلکت	-7827
▁قمار	-7828
▁موسم	-7829
▁مومی	-7830
▁نباز	-7831
▁نمار	-7832
▁هرمس	-7833
▁هفتم	-7834
▁واقف	-7835
▁چیده	-7836
▁کردت	-7837
▁کشمت	-7838
▁کودک	-7839
▁گامش	-7840
▁گنده	-7841
▁یاوه	-7842
▁الاسم	-7843
▁برندی	-7844
▁برونم	-7845
▁بساغر	-7846
▁بستیم	-7847
▁بهاری	-7848
▁بیاری	-7849
▁بیمین	-7850
▁ترحمی	-7851
▁جفاست	-7852
▁جوییش	-7853
▁خنجرت	-7854
▁سوزدم	-7855
▁قرارت	-7856
▁منقار	-7857
▁نخستش	-7858
▁نستان	-7859
▁نمارق	-7860
▁پرخون	-7861
▁چشمها	-7862
▁کاسان	-7863
▁کردار	-7864
▁گفتمی	-7865
▁گوهرت	-7866
▁آگاهیت	-7867
▁بازگشت	-7868
▁بدخویی	-7869
▁برقصیم	-7870
▁بیجاست	-7871
▁بیکسان	-7872
▁خوانین	-7873
▁خواهدت	-7874
▁خواهدم	-7875
▁خواهید	-7876
▁خوایقش	-7877
▁خوردنم	-7878
▁خوششان	-7879
▁خونبار	-7880
▁خونشان	-7881
▁خویشتن	-7882
▁دادرسم	-7883
▁داشتند	-7884
▁داعیان	-7885
▁داغدار	-7886
▁داناست	-7887
▁دانستی	-7888
▁داوریش	-7889
▁دبیران	-7890
▁دختران	-7891
▁دخترکی	-7892
▁درآمدم	-7893
▁درخورش	-7894
▁درمانش	-7895
▁درنگری	-7896
▁درویشی	-7897
▁درگاهی	-7898
▁دریاست	-7899
برگ	-7900
رمر	-7901
رمن	-7902
ییم	-7903
▁شأ	-7904
▁چی	-7905
لیمی	-7906
▁آنک	-7907
▁تلف	-7908
▁دهر	-7909
▁ذقن	-7910
▁رجز	-7911
▁رضا	-7912
▁رمد	-7913
▁شأن	-7914
▁هنا	-7915
▁واز	-7916
▁چمد	-7917
ایمان	-7918
▁افتی	-7919
▁بخلق	-7920
▁بقهر	-7921
▁بههم	-7922
▁تأمل	-7923
▁حاجب	-7924
▁حجال	-7925
▁دویم	-7926
▁زخمم	-7927
▁شبلی	-7928
▁شکنی	-7929
▁طمعت	-7930
▁مدان	-7931
▁مذاق	-7932
▁مرمر	-7933
▁مهرش	-7934
▁مینو	-7935
▁وشوی	-7936
▁چشان	-7937
▁کشتگ	-7938
▁کنیم	-7939
▁یهود	-7940
▁آماده	-7941
▁اگرچه	-7942
▁بتیرم	-7943
▁بجامی	-7944
▁بخرمن	-7945
▁تابان	-7946
▁تسنیم	-7947
▁حقیقت	-7948
▁حواری	-7949
▁حوصله	-7950
▁حیرتی	-7951
▁خلاصه	-7952
▁دادنش	-7953
▁زانیه	-7954
▁سجودت	-7955
▁سنبلی	-7956
▁شادیم	-7957
▁شنفته	-7958
▁شویدش	-7959
▁طلسمی	-7960
▁فتاوی	-7961
▁مشتاق	-7962
▁منشان	-7963
▁نگاهش	-7964
▁ورزیم	-7965
▁چشمان	-7966
▁کآییم	-7967
▁گلبرگ	-7968
▁آموختم	-7969
▁اربعین	-7970
▁اقلیمی	-7971
▁التماس	-7972
▁بتوانش	-7973
▁بخامان	-7974
▁بخشایش	-7975
▁بمردند	-7976
▁بمعرکه	-7977
▁بندگیش	-7978
▁جوانیت	-7979
▁دزدیدی	-7980
▁دستانت	-7981
▁دسترسی	-7982
▁دستگهم	-7983
▁دشمنیت	-7984
▁دعاهای	-7985
▁دلاویز	-7986
▁دلبردن	-7987
▁دلجویت	-7988
▁دلخواه	-7989
▁دلدوزت	-7990
▁دلسوزی	-7991
▁دلنواز	-7992
▁دمبدمش	-7993
▁دمسازش	-7994
▁دندانت	-7995
▁دوازده	-7996
▁دوباره	-7997
▁دودکان	-7998
▁دوستیش	-7999
ابک	-8000
بها	-8001
ابست	-8002
خسته	-8003
ویدم	-8004
▁آنم	-8005
▁بدن	-8006
▁بنگ	-8007
▁حسد	-8008
▁خنگ	-8009
▁سقر	-8010
▁شاب	-8011
▁شکن	-8012
▁طوی	-8013
▁غنج	-8014
▁فعل	-8015
کنامی	-8016
▁اشتر	-8017
▁بحسب	-8018
▁بسان	-8019
▁بسرا	-8020
▁بسوز	-8021
▁ترنم	-8022
▁حباب	-8023
▁خویت	-8024
▁دراج	-8025
▁دمان	-8026
▁زوال	-8027
▁سالک	-8028
▁ساید	-8029
▁شکور	-8030
▁عارش	-8031
▁عقده	-8032
▁غموس	-8033
▁قیوم	-8034
▁لعلی	-8035
▁مصور	-8036
▁مکشد	-8037
▁میشد	-8038
▁ناهی	-8039
▁ندای	-8040
▁نرفت	-8041
▁نطقش	-8042
▁نفور	-8043
▁نگرد	-8044
▁پیشم	-8045
▁چابک	-8046
▁گوشی	-8047
▁یمان	-8048
۱۱۷۱هق	-8049
▁آورمش	-8050
▁اصنام	-8051
▁اعتلا	-8052
▁برآری	-8053
▁بقبله	-8054
▁بگویش	-8055
▁بیدوا	-8056
▁تبسمت	-8057
▁تزلزل	-8058
▁ثوابت	-8059
▁جمالی	-8060
▁دیروز	-8061
▁زمینم	-8062
▁طبیبا	-8063
▁طویله	-8064
▁عاریه	-8065
▁فزونی	-8066
▁مندرس	-8067
▁نالیم	-8068
▁ننوشی	-8069
▁پابست	-8070
▁کوبان	-8071
▁بدیوان	-8072
▁بنگاری	-8073
▁بگسلند	-8074
▁دمسازی	-8075
▁دونانش	-8076
▁دیدارت	-8077
▁دیدستم	-8078
▁دیدیاز	-8079
▁رازتان	-8080
▁راهبرم	-8081
▁رداشان	-8082
▁ررخامه	-8083
▁رسانید	-8084
▁رسوایی	-8085
▁رسولان	-8086
▁رعایای	-8087
▁رنجانم	-8088
▁رنجوری	-8089
▁رنجیدی	-8090
▁رنگینی	-8091
▁رهانند	-8092
▁رهروان	-8093
▁رهیدند	-8094
▁روستای	-8095
▁روشندل	-8096
▁ریاحین	-8097
▁ریختنش	-8098
▁ریشخند	-8099
افظ	-8100
روس	-8101
افند	-8102
برند	-8103
▁آفت	-8104
▁جنه	-8105
▁ختم	-8106
▁خسم	-8107
▁سلک	-8108
▁شمن	-8109
▁قوس	-8110
▁پنه	-8111
کندگی	-8112
▁آشتی	-8113
▁بتلخ	-8114
▁بجفا	-8115
▁بسنگ	-8116
▁بطحا	-8117
▁بنسب	-8118
▁تنفس	-8119
▁تیمم	-8120
▁حافظ	-8121
▁حسنی	-8122
▁خونی	-8123
▁خیره	-8124
▁داور	-8125
▁سموم	-8126
▁سیما	-8127
▁شیار	-8128
▁طارم	-8129
▁فرار	-8130
▁فرید	-8131
▁لطفم	-8132
▁منعش	-8133
▁هیچش	-8134
▁پویه	-8135
▁چارم	-8136
▁کندم	-8137
▁آزارم	-8138
▁آمدند	-8139
▁اعلام	-8140
▁امسال	-8141
▁بجانب	-8142
▁بنوبت	-8143
▁بپایه	-8144
▁تسبیح	-8145
▁توانی	-8146
▁تکاور	-8147
▁جوادی	-8148
▁خضریم	-8149
▁خوشیم	-8150
▁دامنم	-8151
▁دورتر	-8152
▁زرینه	-8153
▁زنندش	-8154
▁زودتر	-8155
▁سوادی	-8156
▁شکارم	-8157
▁لحیان	-8158
▁ماندن	-8159
▁مراست	-8160
▁معجزه	-8161
▁نبودم	-8162
▁ندامت	-8163
▁نزادی	-8164
▁نمکین	-8165
▁چراست	-8166
▁چهارم	-8167
▁اسکندر	-8168
▁الامین	-8169
▁بازویت	-8170
▁بتلافی	-8171
▁حرامان	-8172
▁زادگان	-8173
▁زبردست	-8174
▁زعفران	-8175
▁زمردین	-8176
▁زنبیلش	-8177
▁زنجبیل	-8178
▁زنگاری	-8179
▁زورآور	-8180
▁زورمند	-8181
▁زیارتش	-8182
▁زیبایی	-8183
▁زیردست	-8184
▁ساعیان	-8185
▁سامعان	-8186
▁ساکنان	-8187
▁ساکنند	-8188
▁ستمکشی	-8189
▁سخنوری	-8190
▁سراپای	-8191
▁سربلند	-8192
▁سرتاسر	-8193
▁سرفگند	-8194
▁سروران	-8195
▁سرپنجه	-8196
▁سرکشان	-8197
▁سرکشته	-8198
▁سرگران	-8199
جاع	-8200
سمن	-8201
نجم	-8202
▁آوخ	-8203
▁بطن	-8204
▁فیض	-8205
ندگان	-8206
▁امرد	-8207
▁بامی	-8208
▁ببند	-8209
▁بسفر	-8210
▁بشکل	-8211
▁بغمم	-8212
▁بلید	-8213
▁بینش	-8214
▁تاری	-8215
▁توشه	-8216
▁دستک	-8217
▁دوام	-8218
▁دگرم	-8219
▁رسمم	-8220
▁رویی	-8221
▁ریاض	-8222
▁ستان	-8223
▁سویم	-8224
▁شاهش	-8225
▁شجاع	-8226
▁شیون	-8227
▁طراز	-8228
▁عامی	-8229
▁عدوی	-8230
▁فامی	-8231
▁مراد	-8232
▁مطوق	-8233
▁معذب	-8234
▁معیل	-8235
▁نارد	-8236
▁هشتم	-8237
▁پلید	-8238
▁چاکم	-8239
▁کشتم	-8240
▁کفنش	-8241
▁کنده	-8242
▁گزین	-8243
▁آوازی	-8244
▁بادکه	-8245
▁بصورت	-8246
▁بنوشم	-8247
▁بکامم	-8248
▁بگلاب	-8249
▁بینان	-8250
▁بینور	-8251
▁حکمتا	-8252
▁خرامت	-8253
▁خوردت	-8254
▁درختی	-8255
▁ساغرت	-8256
▁سردیش	-8257
▁ظاهرت	-8258
▁عاقله	-8259
▁قرارم	-8260
▁ماندم	-8261
▁مکینی	-8262
▁میپرد	-8263
▁نافله	-8264
▁پریدم	-8265
▁کسانم	-8266
▁کمندم	-8267
▁گنجور	-8268
▁یاسمن	-8269
▁امیران	-8270
▁باقبال	-8271
▁بشاهان	-8272
▁بنالید	-8273
▁بپهلوی	-8274
▁بیمایه	-8275
▁بینایی	-8276
▁خودکام	-8277
▁روحانی	-8278
▁زمستان	-8279
▁سرگشته	-8280
▁سلاخان	-8281
▁سلاطین	-8282
▁سلطانم	-8283
▁سلطانی	-8284
▁سندروس	-8285
▁سنگدلی	-8286
▁سوختمی	-8287
▁سوگندم	-8288
▁سپارند	-8289
▁سپهدار	-8290
▁سیمابی	-8291
▁شاعران	-8292
▁شامیان	-8293
▁شانزده	-8294
▁شاهاتا	-8295
▁شاهانش	-8296
▁شاهدان	-8297
▁شبانگه	-8298
▁شبستان	-8299
نیا	-8300
نیت	-8301
امنی	-8302
لهای	-8303
▁بسم	-8304
▁تبی	-8305
▁تره	-8306
▁تله	-8307
▁رسل	-8308
▁غنی	-8309
▁قهر	-8310
▁ویس	-8311
▁چای	-8312
▁آهنی	-8313
▁اولم	-8314
▁بابی	-8315
▁باغت	-8316
▁بخبر	-8317
▁بخشم	-8318
▁بدعا	-8319
▁بیاض	-8320
▁خوشا	-8321
▁زاید	-8322
▁سرکن	-8323
▁شودت	-8324
▁شگون	-8325
▁صدره	-8326
▁عاید	-8327
▁عروج	-8328
▁فرات	-8329
▁مویش	-8330
▁ناوه	-8331
▁هرجا	-8332
▁وعیش	-8333
▁کسیت	-8334
▁کوست	-8335
▁آتشین	-8336
▁آشنای	-8337
▁امنیت	-8338
▁ایزدی	-8339
▁بتانی	-8340
▁بجانم	-8341
▁بخرده	-8342
▁بخلاق	-8343
▁بخنده	-8344
▁بدنیا	-8345
▁بپایت	-8346
▁تعزیت	-8347
▁خوشاب	-8348
▁راهبر	-8349
▁زیرکی	-8350
▁سپهرش	-8351
▁عالمش	-8352
▁عیسوی	-8353
▁فردوس	-8354
▁محشری	-8355
▁مشامی	-8356
▁ناشده	-8357
▁نبرده	-8358
▁نیاری	-8359
▁وآنکس	-8360
▁کالای	-8361
▁کریمی	-8362
▁کشتنی	-8363
▁کشیشی	-8364
▁گدایش	-8365
▁گفتنی	-8366
▁اصطبلت	-8367
▁راهشان	-8368
▁شرمناک	-8369
▁شمارمش	-8370
▁شمارند	-8371
▁شمشیرت	-8372
▁شنفتنی	-8373
▁شهنشاه	-8374
▁شهیدند	-8375
▁شکایتم	-8376
▁شکرریز	-8377
▁شکستند	-8378
▁شکستگی	-8379
▁شکفتنی	-8380
▁شکفتگی	-8381
▁شیرازه	-8382
▁شیرویه	-8383
▁صبحدمی	-8384
▁صبحگاه	-8385
▁صبوحیم	-8386
▁صحرایی	-8387
▁صیدکشی	-8388
▁ضعیفان	-8389
▁طایران	-8390
▁طبیبان	-8391
▁طرارند	-8392
▁طواویس	-8393
▁طوطیان	-8394
▁طیلسان	-8395
▁ظفرمند	-8396
▁ظلمانی	-8397
▁عروسان	-8398
▁عریانی	-8399
▁عشرتگه	-8400
▁عقابان	-8401
▁عیارند	-8402
▁عیسویش	-8403
▁غافلان	-8404
▁غبارند	-8405
▁غریبان	-8406
▁غلطانم	-8407
▁غمازند	-8408
▁غمخانه	-8409
▁غمزدای	-8410
▁غوغایی	-8411
▁فراخور	-8412
▁فرادیس	-8413
▁فردایی	-8414
▁فرزندم	-8415
▁فرستمش	-8416
▁فرستند	-8417
▁فرستیش	-8418
▁فرمایی	-8419
▁فرمودش	-8420
▁فرنگیس	-8421
▁فرونده	-8422
▁فریدون	-8423
▁فشانان	-8424
▁فشاندم	-8425
▁فشانده	-8426
▁فشانیم	-8427
▁فقراست	-8428
▁فیلقوس	-8429
▁قاصرات	-8430
▁قربانی	-8431
▁قلتبان	-8432
▁قمریان	-8433
▁لرزانی	-8434
▁لعلشان	-8435
▁لییمان	-8436
▁مؤمنات	-8437
▁ماخسته	-8438
▁مانداز	-8439
▁ماندنت	-8440
▁ماندیم	-8441
▁مانندم	-8442
▁مجانین	-8443
▁محتشمی	-8444
▁محجوبه	-8445
▁مخدرات	-8446
▁مردمان	-8447
▁مردگان	-8448
▁مرغوله	-8449
▁مرغکان	-8450
▁مرنجان	-8451
▁مریدان	-8452
▁مستجاب	-8453
▁مستجار	-8454
▁مستجیر	-8455
▁مسکینی	-8456
▁مشکبوی	-8457
▁مشکبیز	-8458
▁مشکسای	-8459
▁مشکینش	-8460
▁مشکینه	-8461
▁مضمونش	-8462
▁مطربان	-8463
▁معاینه	-8464
▁معصومه	-8465
▁معموری	-8466
▁مقصودت	-8467
▁مقیمان	-8468
▁ملازمت	-8469
▁ملایکش	-8470
▁منتهای	-8471
▁منزلتا	-8472
▁منصوبه	-8473
▁مهرشان	-8474
▁موسویش	-8475
▁مولایی	-8476
▁مولودش	-8477
▁مویشان	-8478
▁مکتوبی	-8479
▁مگردان	-8480
▁مگیرید	-8481
▁میازار	-8482
▁میاموز	-8483
▁میبرند	-8484
▁میدارم	-8485
▁میداشت	-8486
▁میدانم	-8487
▁میدهدم	-8488
▁میرسدت	-8489
▁میزانش	-8490
▁میزنند	-8491
▁میسوزم	-8492
▁میشمرد	-8493
▁میمیرم	-8494
▁مینازد	-8495
▁مینگرم	-8496
▁میپرسی	-8497
▁میچرند	-8498
▁میچیدم	-8499
▁میکردی	-8500
▁میکشان	-8501
▁میکشتم	-8502
▁میکشتی	-8503
▁میکشیم	-8504
▁میگذشت	-8505
▁میگرید	-8506
▁میگوید	-8507
▁ناآشنا	-8508
▁ناخوشی	-8509
▁نازاده	-8510
▁ناسفته	-8511
▁ناشکیب	-8512
▁ناصحان	-8513
▁نالیدم	-8514
▁ناورده	-8515
▁ناچارم	-8516
▁ناکامی	-8517
▁ناکرده	-8518
▁ناگفته	-8519
▁نبارند	-8520
▁نباشدت	-8521
▁نبردند	-8522
▁نبردیم	-8523
▁نتوانی	-8524
▁نثاریش	-8525
▁نخروشم	-8526
▁نخستین	-8527
▁نخیزند	-8528
▁نداشتم	-8529
▁ندمیده	-8530
▁ندیمان	-8531
▁نرانند	-8532
▁نرباید	-8533
▁نزهتگه	-8534
▁نستانم	-8535
▁نسیمند	-8536
▁نشاندت	-8537
▁نشاندی	-8538
▁نشناسم	-8539
▁نشنیدی	-8540
▁نشکسته	-8541
▁نشینان	-8542
▁نشینند	-8543
▁نظامیم	-8544
▁نعمانم	-8545
▁نفرستد	-8546
▁نفروشم	-8547
▁نماندی	-8548
▁نمودند	-8549
▁نمیداد	-8550
▁نمیدهد	-8551
▁نمیرسد	-8552
▁نمیروم	-8553
▁نمیشوم	-8554
▁ننالید	-8555
▁ننشسته	-8556
▁ننشستی	-8557
▁ننماید	-8558
▁ننمودت	-8559
▁ننهاده	-8560
▁ننوشته	-8561
▁ننویسد	-8562
▁نهفتنی	-8563
▁نوازند	-8564
▁نوخطان	-8565
▁نورانی	-8566
▁نوروزی	-8567
▁نومیدش	-8568
▁نوکیسه	-8569
▁نویسیم	-8570
▁نپسندم	-8571
▁نکوهشت	-8572
▁نگارین	-8573
▁نگاشتن	-8574
▁نگرفتم	-8575
▁نگرفته	-8576
▁نگفتمت	-8577
▁نگفتنم	-8578
▁نگفتیم	-8579
▁نگویدت	-8580
▁نیافتم	-8581
▁نیافته	-8582
▁نیایدم	-8583
▁نیاییم	-8584
▁نیستند	-8585
▁نیکوست	-8586
▁هزاران	-8587
▁هشیاری	-8588
▁همنفسی	-8589
▁همنوای	-8590
▁همچنان	-8591
▁هندوست	-8592
▁هنگامه	-8593
▁هوشدار	-8594
▁هوششان	-8595
▁هوشیار	-8596
▁هولناک	-8597
▁هژبران	-8598
▁وارستی	-8599
▁واضحات	-8600
▁واعظان	-8601
▁وامگیر	-8602
▁واژگون	-8603
▁واگذار	-8604
▁ورزانی	-8605
▁وفادار	-8606
▁ولادتش	-8607
▁ویرانی	-8608
▁پادشاه	-8609
▁پافگند	-8610
▁پایانش	-8611
▁پایبوس	-8612
▁پایمال	-8613
▁پراگند	-8614
▁پرستار	-8615
▁پرسیدم	-8616
▁پرسیده	-8617
▁پرسیدی	-8618
▁پرفشان	-8619
▁پروازش	-8620
▁پروازم	-8621
▁پروردم	-8622
▁پرورشت	-8623
▁پشمینه	-8624
▁پلنگان	-8625
▁پندارم	-8626
▁پنهانی	-8627
▁پهلوان	-8628
▁پوستین	-8629
▁پوسیده	-8630
▁پوشیدم	-8631
▁پوشیدی	-8632
▁پیداست	-8633
▁پیرانه	-8634
▁پیرایه	-8635
▁پیرهنم	-8636
▁پیرهنی	-8637
▁پیشوای	-8638
▁پیغامش	-8639
▁پیوندم	-8640
▁پیوندی	-8641
▁پیکانت	-8642
▁چاپلوس	-8643
▁چشاندی	-8644
▁چوپرسم	-8645
▁چیدستم	-8646
▁کآراست	-8647
▁کآسمان	-8648
▁کآشیان	-8649
▁کآفتاب	-8650
▁کآورده	-8651
▁کارهای	-8652
▁کارگاه	-8653
▁کاسرار	-8654
▁کاغیار	-8655
▁کافگند	-8656
▁کاندرو	-8657
▁کبوتری	-8658
▁کردگار	-8659
▁کریمان	-8660
▁کریمتر	-8661
▁کشاندی	-8662
▁کشانیم	-8663
▁کشتنیم	-8664
▁کشتگان	-8665
▁کشیشان	-8666
▁کنعانی	-8667
▁کهکشان	-8668
▁کیخسرو	-8669
▁کیمییا	-8670
▁گاوانش	-8671
▁گذارمت	-8672
▁گذاریم	-8673
▁گذاشتم	-8674
▁گذرانی	-8675
▁گذشتیش	-8676
▁گرداشت	-8677
▁گردیدن	-8678
▁گردیده	-8679
▁گرفتیم	-8680
▁گریزان	-8681
▁گستاخی	-8682
▁گشادند	-8683
▁گشتگان	-8684
▁گفتشان	-8685
▁گفتندی	-8686
▁گمارمت	-8687
▁گمرهان	-8688
▁گنجوری	-8689
▁گهرریز	-8690
▁گوششان	-8691
▁گوشمال	-8692
▁گویاست	-8693
▁گیسوان	-8694
▁گیسویت	-8695
▁یادشان	-8696
▁یاوریش	-8697
▁یزدانی	-8698
▁یعقوبم	-8699
▁یهودان	-8700
▁یکباره	-8701
▁یکدسته	-8702
خواهانند	-8703
▁آرامگاه	-8704
▁آرزومند	-8705
▁آزادشان	-8706
▁آشفتگان	-8707
▁آمرزیده	-8708
▁آموختمی	-8709
▁آمیختند	-8710
▁آوارگان	-8711
▁آوارگیم	-8712
▁آوازتان	-8713
▁آوازشان	-8714
▁ابراهیم	-8715
▁اختیارش	-8716
▁ارمغانت	-8717
▁ازمحاسن	-8718
▁ازنگاهی	-8719
▁استادیش	-8720
▁استخراج	-8721
▁استدراج	-8722
▁استغفار	-8723
▁استقبال	-8724
▁استمزاج	-8725
▁اسرافیل	-8726
▁اسماعیل	-8727
▁اشتیاقت	-8728
▁اشکبارش	-8729
▁اضطرابی	-8730
▁اعتبارش	-8731
▁افتادمت	-8732
▁افتادگی	-8733
▁افریدون	-8734
▁افسرشان	-8735
▁افسونگر	-8736
▁افشانان	-8737
▁افشانده	-8738
▁الاخلاق	-8739
▁الاسامی	-8740
▁الاعادی	-8741
▁الانامی	-8742
▁الایمان	-8743
▁التعجیل	-8744
▁التفاتش	-8745
▁العداوة	-8746
▁العظامی	-8747
▁القساوه	-8748
▁النبیین	-8749
▁الکلامی	-8750
▁امتحانم	-8751
▁انتظارم	-8752
▁انتظامی	-8753
▁انتقامت	-8754
▁اندامها	-8755
▁اندوخته	-8756
▁انعامند	-8757
▁اوفتادی	-8758
▁اینگونه	-8759
▁بآشیانش	-8760
▁بابلیان	-8761
▁بادامها	-8762
▁بازآوری	-8763
▁بازگردد	-8764
▁باستاره	-8765
▁باضطراب	-8766
▁باغبانش	-8767
▁بافسانه	-8768
▁بالرؤوس	-8769
▁بالعیون	-8770
▁بامدادی	-8771
▁بانتظار	-8772
▁ببازویت	-8773
▁ببهشتند	-8774
▁بتختگاه	-8775
▁بخرامند	-8776
▁بخشایشی	-8777
▁بخشیدمت	-8778
▁بخوابگه	-8779
▁بخورشید	-8780
▁بدخوییم	-8781
▁بدشمنان	-8782
▁بدنبالت	-8783
▁بدوستان	-8784
▁بدگمانم	-8785
▁برآشفتم	-8786
▁برآوازم	-8787
▁برافشان	-8788
▁برایگان	-8789
▁برخاستم	-8790
▁برخاسته	-8791
▁بردارند	-8792
▁برداشتم	-8793
▁برقیبان	-8794
▁برنایدم	-8795
▁برنتابد	-8796
▁برندارد	-8797
▁برنداشت	-8798
▁برهنگان	-8799
▁برهگذار	-8800
▁برگردند	-8801
▁برگرفتم	-8802
▁برگرفته	-8803
▁برگزیده	-8804
▁بسرفشان	-8805
▁بسرچشمه	-8806
▁بشاگردی	-8807
▁بشتافتی	-8808
▁بشماریم	-8809
▁بشکافته	-8810
▁بشکافند	-8811
▁بعدازین	-8812
▁بغریبان	-8813
▁بغلامان	-8814
▁بفتراکم	-8815
▁بمحرومی	-8816
▁بمسکینی	-8817
▁بمقیمان	-8818
▁بنامیزد	-8819
▁بناگوشش	-8820
▁بناگوشی	-8821
▁بنشانیم	-8822
▁بهزاران	-8823
▁بهمرهان	-8824
▁بوالحسن	-8825
▁بوالعجب	-8826
▁بوتیمار	-8827
▁بودژاله	-8828
▁بوزجمهر	-8829
▁بولایات	-8830
▁بویرانی	-8831
▁بپاسبان	-8832
▁بپرهیزی	-8833
▁بپرورده	-8834
▁بپرورمت	-8835
▁بچراگاه	-8836
▁بکاشانه	-8837
▁بگذاریم	-8838
▁بگذاشتی	-8839
▁بگذراند	-8840
▁بگریبان	-8841
▁بگشایند	-8842
▁بگلرخان	-8843
▁بیابانش	-8844
▁بیاراست	-8845
▁بیخبران	-8846
▁بیدآباد	-8847
▁بیدارها	-8848
▁بیقرارش	-8849
▁بیهوشیم	-8850
▁بیکلاهی	-8851
▁بیگناهم	-8852
▁بیگنهان	-8853
▁بیگنهند	-8854
▁تراشیده	-8855
▁تماشاگه	-8856
▁تماشایت	-8857
▁توانایی	-8858
▁تیزگامی	-8859
▁جانفزای	-8860
▁جوالهای	-8861
▁جوانبخش	-8862
▁جگرانند	-8863
▁حاتمشان	-8864
▁حاسدانت	-8865
▁خامششان	-8866
▁خاموشند	-8867
▁خاکسترش	-8868
▁خاکستری	-8869
▁خداوندم	-8870
▁خداوندی	-8871
▁خرامنده	-8872
▁خرامیده	-8873
▁خردسالی	-8874
▁خلوتگاه	-8875
▁خوابشان	-8876
▁خواستند	-8877
▁خودبینی	-8878
▁خوشخرام	-8879
▁خونبهای	-8880
▁خیابانی	-8881
▁داستانی	-8882
▁دامانان	-8883
▁دانشورش	-8884
▁دانشوری	-8885
▁درختانش	-8886
▁درخشنده	-8887
▁دردمندی	-8888
▁دردکشان	-8889
▁دریاخیز	-8890
▁دستگیری	-8891
▁دلداریت	-8892
▁دلربایی	-8893
▁دلشکسته	-8894
▁دلشکنان	-8895
▁دلفروزم	-8896
▁دلپسندت	-8897
▁دماوندم	-8898
▁دواجشان	-8899
▁دوسترین	-8900
▁دگرانند	-8901
▁دگرباره	-8902
▁دیوارها	-8903
▁رازداری	-8904
▁رازهاست	-8905
▁راهگذار	-8906
▁رساندند	-8907
▁رستاخیز	-8908
▁رستمشان	-8909
▁رنجانمت	-8910
▁روانشان	-8911
▁روزبروز	-8912
▁روزنامه	-8913
▁روزگارش	-8914
▁روزگاری	-8915
▁روستایی	-8916
▁روشنایی	-8917
▁زآتشکده	-8918
▁زراعیان	-8919
▁زرافشان	-8920
▁زرفشانم	-8921
▁زنخدانت	-8922
▁سازگاری	-8923
▁ستمدیده	-8924
▁ستمگران	-8925
▁سحرورند	-8926
▁سراحلیل	-8927
▁سراپرده	-8928
▁سرخوشان	-8929
▁سرفرازت	-8930
▁سرگردان	-8931
▁سرگشاده	-8932
▁سلیمانی	-8933
▁سمرقندم	-8934
▁سنجیدند	-8935
▁سوختگان	-8936
▁سوداخیز	-8937
▁سپارندم	-8938
▁شاخسارش	-8939
▁شادزیاد	-8940
▁شادکامی	-8941
▁شاهانند	-8942
▁شاهنشهی	-8943
▁شاهوارش	-8944
▁شایستگی	-8945
▁شبانگاه	-8946
▁شنیدندی	-8947
▁شهرستان	-8948
▁شهریاری	-8949
▁شهوتستی	-8950
▁شهیدانت	-8951
▁شهیدانش	-8952
▁شکرخندی	-8953
▁شکرستان	-8954
▁شکرفشان	-8955
▁شیفتگان	-8956
▁صاحبدلی	-8957
▁صیادمهر	-8958
▁طیرانند	-8959
▁عاشقانت	-8960
▁عشقبازی	-8961
▁غلامانت	-8962
▁غمناکان	-8963
▁غمگساری	-8964
▁فادخلوا	-8965
▁فراموشی	-8966
▁فرخندگی	-8967
▁فرستادت	-8968
▁فرستادی	-8969
▁فسونهاش	-8970
▁فشاندند	-8971
▁قاصددلم	-8972
▁قایمقام	-8973
▁قنادیلش	-8974
▁لباسشان	-8975
▁للتقلیل	-8976
▁لوحیهای	-8977
▁محتشمان	-8978
▁مرغزارش	-8979
▁مرغزاری	-8980
▁مسلمانم	-8981
▁مسکینان	-8982
▁مشایعتش	-8983
▁مشاییان	-8984
▁مشکبارش	-8985
▁معلومات	-8986
▁مقدمشان	-8987
▁ممنونند	-8988
▁مهربانم	-8989
▁مهرورزی	-8990
▁مهرپرور	-8991
▁مهمانان	-8992
▁مهمانیم	-8993
▁مومیایی	-8994
▁مژگانان	-8995
▁میتوانم	-8996
▁میخواست	-8997
▁میخواهد	-8998
▁میخوردم	-8999
▁میدویدم	-9000
▁میرسیدم	-9001
▁میریزدش	-9002
▁میزبانی	-9003
▁میسپارد	-9004
▁میشمردم	-9005
▁میطلبند	-9006
▁میفشانی	-9007
▁مینالید	-9008
▁مینمودت	-9009
▁مینوازد	-9010
▁میگریزی	-9011
▁میگفتمش	-9012
▁ناتمامت	-9013
▁ناتمامی	-9014
▁ناقوسها	-9015
▁نامحرمی	-9016
▁نامرادی	-9017
▁ناپاکان	-9018
▁ناکاسته	-9019
▁ناگزیرم	-9020
▁نبخشیدی	-9021
▁نتوانست	-9022
▁نجنبیدی	-9023
▁نخوانده	-9024
▁نخوانند	-9025
▁ندادندم	-9026
▁نداشتند	-9027
▁ندانسته	-9028
▁نشماریش	-9029
▁نشکستند	-9030
▁نفاقشان	-9031
▁نفروشند	-9032
▁نقشبندش	-9033
▁نقشهایش	-9034
▁نلرزیدت	-9035
▁نمکدانت	-9036
▁نمیتوان	-9037
▁نمیخردم	-9038
▁نمیدادم	-9039
▁نمیدادی	-9040
▁نمیرنجم	-9041
▁نمینالم	-9042
▁نمیپرسد	-9043
▁نمیکردی	-9044
▁ننالیده	-9045
▁ننشاندی	-9046
▁نوشخندت	-9047
▁نونتیجه	-9048
▁نپسندند	-9049
▁نکوروست	-9050
▁نگاهبان	-9051
▁نگرانند	-9052
▁نگشایند	-9053
▁نگونسار	-9054
▁نیاوردم	-9055
▁نیاکانت	-9056
▁نیستولی	-9057
▁نیفتاده	-9058
▁نیفروزد	-9059
▁نیکنامی	-9060
▁هشیاریت	-9061
▁همدمانش	-9062
▁همزانوی	-9063
▁همزبانش	-9064
▁همزبانم	-9065
▁همصحبتی	-9066
▁همهشاعر	-9067
▁همکلامی	-9068
▁هندوانه	-9069
▁وافؤادی	-9070
▁وامانده	-9071
▁وفادارا	-9072
▁پادشاهی	-9073
▁پادشهند	-9074
▁پارسایی	-9075
▁پالهنگی	-9076
▁پاکشیده	-9077
▁پاکوبان	-9078
▁پایمالم	-9079
▁پراکندی	-9080
▁پراگندم	-9081
▁پرداخته	-9082
▁پرستاری	-9083
▁پرفتوحش	-9084
▁پرفشانی	-9085
▁پروبالی	-9086
▁پسندیده	-9087
▁پشیمانی	-9088
▁پوستینی	-9089
▁پولادین	-9090
▁پیراسته	-9091
▁پیراهنت	-9092
▁پیرمغان	-9093
▁پیشانیم	-9094
▁پیمانان	-9095
▁چاکرانت	-9096
▁چندانکه	-9097
▁کآسمانی	-9098
▁کآشیانی	-9099
▁کابروان	-9100
▁کارفرما	-9101
▁کاروانش	-9102
▁کارکنان	-9103
▁کاسلامت	-9104
▁کافتاده	-9105
▁کافروخت	-9106
▁کافسانه	-9107
▁کشتزارش	-9108
▁کشتگانم	-9109
▁گاهگاهی	-9110
▁گذرگاهی	-9111
▁گرانبها	-9112
▁گردیدنش	-9113
▁گرفتارم	-9114
▁گریبانت	-9115
▁گریبانم	-9116
▁گستاخیم	-9117
▁گلستانم	-9118
▁گلستانی	-9119
▁گمشدگان	-9120
▁گوسفندی	-9121
▁گوشواره	-9122
▁یادگارش	-9123
▁یاراییم	-9124
▁یافتندی	-9125
▁آرزومندم	-9126
▁آموزگارش	-9127
▁آوازهاست	-9128
▁ابوالحسن	-9129
▁ابوالنصر	-9130
▁اخترشناس	-9131
▁ارجمندان	-9132
▁استخوانی	-9133
▁اشراقیان	-9134
▁افتادشان	-9135
▁افتادگان	-9136
▁افراختمش	-9137
▁افروختمی	-9138
▁افلاسشان	-9139
▁افلاکیان	-9140
▁الحمدلله	-9141
▁امیدگاها	-9142
▁اندامشان	-9143
▁اوستادان	-9144
▁ایستادگی	-9145
▁ایمانیان	-9146
▁بازخواست	-9147
▁باغبانان	-9148
▁بامدادان	-9149
▁ببرادران	-9150
▁بدلبریها	-9151
▁برانگیزم	-9152
▁برخوردار	-9153
▁برزیگران	-9154
▁برمکیانش	-9155
▁برگمارند	-9156
▁برینجهان	-9157
▁بندگانند	-9158
▁بهمسایگی	-9159
▁بوالعجبی	-9160
▁بوالهوسی	-9161
▁بپاخاسته	-9162
▁بپاسبانی	-9163
▁بکافریها	-9164
▁بیوفایان	-9165
▁بیوفاییت	-9166
▁تحقیقشان	-9167
▁توانستند	-9168
▁توفیقشان	-9169
▁جهانداری	-9170
▁جوانمردی	-9171
▁خوبرویان	-9172
▁خودخواهی	-9173
▁خوردستند	-9174
▁خوشخرامت	-9175
▁خوشخرامی	-9176
▁خونبهایی	-9177
▁خونخواره	-9178
▁دانشوران	-9179
▁دردمندان	-9180
▁دستگیریم	-9181
▁دوستدارا	-9182
▁دوستدارش	-9183
▁دوستداری	-9184
▁دیدارشان	-9185
▁دیوانگان	-9186
▁ذوالفقار	-9187
▁راخواهیم	-9188
▁رامشگران	-9189
▁روحانیان	-9190
▁زابلیانش	-9191
▁زبردستند	-9192
▁زندگانیت	-9193
▁ستمگریها	-9194
▁سرگردانم	-9195
▁سیاووشان	-9196
▁شهریارند	-9197
▁شهید۱۱۹۲	-9198
▁شورانگیز	-9199
▁شکستگانت	-9200
▁صندوقهای	-9201
▁عنبرفشان	-9202
▁فرستادمت	-9203
▁فرفوریوس	-9204
▁قدرداریش	-9205
▁قندیلهای	-9206
▁مالامالی	-9207
▁ماهرویان	-9208
▁مهربانیت	-9209
▁میخواستم	-9210
▁میشمارمت	-9211
▁میهمانیم	-9212
▁میگردیدم	-9213
▁نازنینان	-9214
▁ناقوسشان	-9215
▁نامحرمان	-9216
▁نشناختمش	-9217
▁نفرستاده	-9218
▁نفرستادی	-9219
▁نمیتوانم	-9220
▁نمیگذارد	-9221
▁نوشیروان	-9222
▁نگذاشتند	-9223
▁نیازاریش	-9224
▁نیافریده	-9225
▁نیاموزند	-9226
▁نیاوردیش	-9227
▁هاروتشان	-9228
▁هندوستان	-9229
▁هوسناکان	-9230
▁وانداخته	-9231
▁پاسبانان	-9232
▁پافشارند	-9233
▁پاکدامنی	-9234
▁پاکیزگان	-9235
▁پرافشانم	-9236
▁پراکندگی	-9237
▁پریشانیم	-9238
▁پوشیدستم	-9239
▁چوخورشید	-9240
▁کامرانیت	-9241
▁کانباشته	-9242
▁گرهگشایی	-9243
▁گلرخساری	-9244
▁گلستانند	-9245
▁گمگشتگان	-9246
▁گوسفندان	-9247
▁یونانیان	-9248
▁بدشنامشان	-9249
▁بدوشیزگان	-9250
▁برافراشته	-9251
▁براندازیم	-9252
▁بفرهمایون	-9253
▁تماشاییان	-9254
▁خدمتگزاری	-9255
▁خودپسندان	-9256
▁خونخوارند	-9257
▁دلباختگان	-9258
▁دوستداریت	-9259
▁ریسمانهای	-9260
▁سرافراخته	-9261
▁سراندازیم	-9262
▁شتابندگان	-9263
▁صیدافگنان	-9264
▁فرستادشان	-9265
▁میفرستادم	-9266
▁نامهربانی	-9267
▁ناپسندیده	-9268
▁ندانداگرم	-9269
▁نوسفرانند	-9270
▁نپیندارند	-9271
▁همراهانند	-9272
▁همصحبتانش	-9273
▁هواخواهان	-9274
▁واماندگان	-9275
▁کجروشیهای	-9276
▁نارپستانان	-9277
▁کالانعامند	-9278
▁افتاددیوارش	-9279
▁امیدواریهای	-9280
▁محشور۱۱۷۱هق	-9281
▁هواخواهانند	-9282
آنک	-9283
أسی	-9284
أمل	-9285
احت	-9286
اخا	-9287
اخل	-9288
اخو	-9289
اضی	-9290
اعد	-9291
اغد	-9292
اقع	-9293
اقف	-9294
اقل	-9295
اگه	-9296
بتم	-9297
بعت	-9298
بعش	-9299
اجب	-9300
اجت	-9301
اجگ	-9302
اجی	-9303
احی	-9304
اعت	-9305
بدا	-9306
بلا	-9307
بوت	-9308
تاع	-9309
تما	-9310
تهم	-9311
توب	-9312
توح	-9313
تگز	-9314
تیج	-9315
ثرش	-9316
ثمر	-9317
جرت	-9318
جره	-9319
جزه	-9320
جلس	-9321
جمر	-9322
جنب	-9323
حبت	-9324
حتم	-9325
حدم	-9326
حشر	-9327
حظه	-9328
حلت	-9329
حمل	-9330
حمه	-9331
حیه	-9332
خفی	-9333
خلخ	-9334
خمم	-9335
خوا	-9336
داو	-9337
درس	-9338
درش	-9339
دره	-9340
دلش	-9341
دمش	-9342
دوم	-9343
دیث	-9344
دیو	-9345
ذاق	-9346
ذوق	-9347
رآن	-9348
ربم	-9349
ربه	-9350
رخس	-9351
رخه	-9352
رزد	-9353
رسش	-9354
رسط	-9355
رصر	-9356
رگه	-9357
زدم	-9358
زدی	-9359
زلش	-9360
زمش	-9361
زنم	-9362
زوم	-9363
ساج	-9364
ساح	-9365
سبت	-9366
سجد	-9367
سدم	-9368
سدی	-9369
سعت	-9370
سنت	-9371
سیت	-9372
سیح	-9373
شاع	-9374
شبم	-9375
شرق	-9376
شها	-9377
شوق	-9378
صدا	-9379
صدم	-9380
صرت	-9381
صره	-9382
صنم	-9383
ضبش	-9384
طاق	-9385
طبع	-9386
طرت	-9387
طعه	-9388
طفی	-9389
طقش	-9390
طمه	-9391
عتب	-9392
عجب	-9393
عدم	-9394
عدی	-9395
عزی	-9396
عشر	-9397
علت	-9398
عنت	-9399
اصد	-9400
بلک	-9401
تلم	-9402
دیش	-9403
رشن	-9404
سزد	-9405
سلم	-9406
عفم	-9407
عها	-9408
عهد	-9409
عیش	-9410
عیل	-9411
غدم	-9412
فعل	-9413
فلس	-9414
فلم	-9415
فلک	-9416
فنش	-9417
فوت	-9418
قته	-9419
قتو	-9420
قتی	-9421
قدم	-9422
قشب	-9423
قصر	-9424
قصم	-9425
قعه	-9426
قلم	-9427
لبم	-9428
لتی	-9429
لرخ	-9430
لقه	-9431
لمت	-9432
لمه	-9433
لوا	-9434
لوق	-9435
لوم	-9436
لوه	-9437
متا	-9438
مرت	-9439
مرش	-9440
مرغ	-9441
مرق	-9442
مره	-9443
مرگ	-9444
مشر	-9445
معت	-9446
ملش	-9447
نبش	-9448
نبم	-9449
نتظ	-9450
نتق	-9451
نشا	-9452
نمش	-9453
نوم	-9454
نکی	-9455
هبا	-9456
هتم	-9457
همش	-9458
وبت	-9459
وتر	-9460
وتگ	-9461
وحی	-9462
وطی	-9463
وغا	-9464
وغم	-9465
وغی	-9466
وفق	-9467
وفی	-9468
وقم	-9469
ولد	-9470
ومه	-9471
وهش	-9472
وکی	-9473
چگه	-9474
کاو	-9475
کسی	-9476
کلم	-9477
کمت	-9478
کوه	-9479
گیش	-9480
یاء	-9481
یبا	-9482
یبت	-9483
یبش	-9484
یحی	-9485
یسی	-9486
یغا	-9487
یغت	-9488
یغم	-9489
یلس	-9490
یوه	-9491
یچش	-9492
یچک	-9493
▁ذو	-9494
اتلم	-9495
اتمش	-9496
احبا	-9497
احبد	-9498
احلی	-9499
اتق	-9500
اتن	-9501
اسم	-9502
بات	-9503
بسم	-9504
تقی	-9505
ثقی	-9506
جسم	-9507
حزن	-9508
دات	-9509
رسم	-9510
سوف	-9511
ضات	-9512
عتل	-9513
قده	-9514
قیب	-9515
قیف	-9516
قیق	-9517
قیل	-9518
لسم	-9519
لول	-9520
مات	-9521
کده	-9522
کوم	-9523
ادتر	-9524
ادشه	-9525
ادمت	-9526
ادیش	-9527
ارتر	-9528
ارسا	-9529
ارفی	-9530
اروب	-9531
اشقم	-9532
اصدم	-9533
اعظت	-9534
اغرت	-9535
اقان	-9536
اقعه	-9537
اقله	-9538
البد	-9539
الحس	-9540
العج	-9541
امده	-9542
امدی	-9543
امشب	-9544
امنش	-9545
انقه	-9546
انگه	-9547
انگی	-9548
اهنت	-9549
اووش	-9550
اکسی	-9551
اگاه	-9552
ایتی	-9553
ایقش	-9554
ایکش	-9555
بادا	-9556
بدمش	-9557
بریل	-9558
بهای	-9559
بیبا	-9560
بیبش	-9561
بیبم	-9562
تابی	-9563
تارش	-9564
تماد	-9565
تمال	-9566
جانم	-9567
جروش	-9568
جنان	-9569
جویت	-9570
حالم	-9571
حانم	-9572
حراب	-9573
حرور	-9574
حلیل	-9575
حگاه	-9576
خاست	-9577
خبری	-9578
ختنش	-9579
خدان	-9580
خرام	-9581
خطان	-9582
خنان	-9583
خورش	-9584
خوست	-9585
داخت	-9586
دادی	-9587
داین	-9588
دبیر	-9589
رابت	-9590
رارت	-9591
رازت	-9592
راسی	-9593
راقت	-9594
راقی	-9595
رامت	-9596
رخام	-9597
ردنم	-9598
ردگی	-9599
دق	-9600
فو	-9601
آرم	-9602
اهگ	-9603
تاه	-9604
جشن	-9605
دگر	-9606
ذات	-9607
راع	-9608
سرت	-9609
سرو	-9610
سیب	-9611
شمش	-9612
شگر	-9613
طری	-9614
ظان	-9615
فند	-9616
فیع	-9617
قدی	-9618
قفا	-9619
لسر	-9620
لوت	-9621
لیه	-9622
مدو	-9623
مشت	-9624
نتخ	-9625
نفا	-9626
نها	-9627
گرت	-9628
▁جب	-9629
▁رل	-9630
▁طو	-9631
▁عه	-9632
▁غض	-9633
▁غف	-9634
ادگر	-9635
اصدا	-9636
انگر	-9637
بشان	-9638
رزان	-9639
رسید	-9640
رهان	-9641
رهیز	-9642
روزت	-9643
رگان	-9644
رگهش	-9645
ریفه	-9646
رینه	-9647
زادی	-9648
زارت	-9649
زانف	-9650
زاید	-9651
زدای	-9652
زدید	-9653
زندم	-9654
زهتش	-9655
زودت	-9656
زوست	-9657
زویش	-9658
زیرم	-9659
زیگر	-9660
سارش	-9661
سازگ	-9662
سازی	-9663
ساوه	-9664
سایل	-9665
ستاخ	-9666
سترش	-9667
ستمم	-9668
ستمک	-9669
سروش	-9670
سروی	-9671
سرین	-9672
سماع	-9673
سندت	-9674
سندم	-9675
سوان	-9676
سوزی	-9677
سویت	-9678
سیای	-9679
سیدی	-9680
سیرم	-9681
سینش	-9682
شاره	-9683
شایت	-9684
شایش	-9685
شترک	-9686
شتیش	-9687
شریف	-9688
شسته	-9689
شفتم	-9690
شفته	-9691
شمها	-9692
شنات	-9693
شنای	-9694
شنده	-9695
شنفت	-9696
شنود	-9697
شنوی	-9698
شنگی	-9699
تذ	-9700
حظ	-9701
دج	-9702
سع	-9703
فخ	-9704
وخ	-9705
اما	-9706
امم	-9707
اهو	-9708
ایا	-9709
ایع	-9710
تشت	-9711
تگه	-9712
خام	-9713
دیر	-9714
زیر	-9715
سام	-9716
سما	-9717
سیر	-9718
صای	-9719
طام	-9720
عدا	-9721
غنی	-9722
فام	-9723
قشک	-9724
لاه	-9725
لیر	-9726
نوش	-9727
هرو	-9728
هین	-9729
وبم	-9730
وسم	-9731
ونا	-9732
ونخ	-9733
ونگ	-9734
ووش	-9735
پاه	-9736
پنج	-9737
کای	-9738
یرز	-9739
یرس	-9740
یرش	-9741
یرف	-9742
یرو	-9743
یمر	-9744
▁زب	-9745
▁قه	-9746
▁یح	-9747
اتقم	-9748
ادام	-9749
امرد	-9750
بلند	-9751
جایی	-9752
ریقه	-9753
شایی	-9754
شوری	-9755
شویش	-9756
شکال	-9757
شکنم	-9758
شیرم	-9759
شیند	-9760
صاره	-9761
صایش	-9762
صیری	-9763
ضاعت	-9764
ضایش	-9765
ضرتت	-9766
ضطرا	-9767
ضمون	-9768
طاقت	-9769
طانم	-9770
طراب	-9771
طربه	-9772
طیان	-9773
ظاره	-9774
ظالم	-9775
عادت	-9776
عادی	-9777
عاست	-9778
عاشق	-9779
عالم	-9780
عالی	-9781
عتلا	-9782
عران	-9783
علام	-9784
غانت	-9785
غانش	-9786
غبان	-9787
غدان	-9788
غنون	-9789
فاتش	-9790
فاعت	-9791
فتمت	-9792
فتنم	-9793
فتنی	-9794
فتگی	-9795
فراز	-9796
فلیس	-9797
فندم	-9798
فندی	-9799
خص	-9800
دد	-9801
شخ	-9802
شو	-9803
یص	-9804
۱ه	-9805
۱۷	-9806
اام	-9807
ادخ	-9808
ادز	-9809
ادگ	-9810
ارپ	-9811
افس	-9812
امح	-9813
امد	-9814
امن	-9815
بتل	-9816
بود	-9817
تاد	-9818
تگر	-9819
تیر	-9820
جام	-9821
جای	-9822
خنم	-9823
دام	-9824
دوی	-9825
رام	-9826
رری	-9827
روی	-9828
شود	-9829
شوی	-9830
طبر	-9831
طوق	-9832
طوی	-9833
عاد	-9834
غام	-9835
فاد	-9836
قاد	-9837
لود	-9838
مهر	-9839
ناد	-9840
نوی	-9841
واه	-9842
ودک	-9843
ودگ	-9844
وذر	-9845
وزش	-9846
ونه	-9847
ویر	-9848
چمد	-9849
گرب	-9850
گنم	-9851
یاد	-9852
یام	-9853
یرح	-9854
یلم	-9855
ینت	-9856
یوم	-9857
▁تض	-9858
▁صع	-9859
ادند	-9860
ادین	-9861
انوی	-9862
اهیت	-9863
اورد	-9864
ایگی	-9865
شتاق	-9866
عایت	-9867
فاوت	-9868
قتنی	-9869
قصان	-9870
قصود	-9871
قصیم	-9872
قلیل	-9873
قوبم	-9874
قیری	-9875
لادت	-9876
لاقش	-9877
لالی	-9878
لامت	-9879
لاوه	-9880
لایت	-9881
لایق	-9882
لبری	-9883
لبید	-9884
لسان	-9885
لسبی	-9886
لسله	-9887
لمات	-9888
لوده	-9889
لیتر	-9890
لیهم	-9891
ماده	-9892
مارت	-9893
ماشا	-9894
مالم	-9895
مالی	-9896
مامت	-9897
ماند	-9898
مدعا	-9899
ثو	-9900
جت	-9901
خن	-9902
دن	-9903
ذن	-9904
شف	-9905
عش	-9906
مأ	-9907
آرد	-9908
ایب	-9909
تری	-9910
تفی	-9911
راه	-9912
ردش	-9913
ردو	-9914
ردگ	-9915
رگی	-9916
زرد	-9917
شفت	-9918
صفی	-9919
صمت	-9920
ضعی	-9921
طفت	-9922
طیر	-9923
ظیر	-9924
عفت	-9925
عوی	-9926
غری	-9927
فتش	-9928
فتگ	-9929
فرد	-9930
قید	-9931
لنگ	-9932
لیت	-9933
نبی	-9934
نما	-9935
هام	-9936
هلو	-9937
هنه	-9938
ورد	-9939
ونت	-9940
وند	-9941
چید	-9942
کرد	-9943
کفت	-9944
یدآ	-9945
یدت	-9946
یدک	-9947
ید۱	-9948
▁ذق	-9949
▁شق	-9950
▁عک	-9951
▁قن	-9952
▁یس	-9953
▁یق	-9954
ادرت	-9955
ایست	-9956
ثیری	-9957
ستای	-9958
شیان	-9959
صومه	-9960
مراه	-9961
مرشد	-9962
مغان	-9963
مندی	-9964
مودت	-9965
موری	-9966
موشم	-9967
مونش	-9968
میدی	-9969
میلش	-9970
ناره	-9971
نانت	-9972
نانم	-9973
ناهش	-9974
نایت	-9975
ناید	-9976
نبار	-9977
نباز	-9978
نبلی	-9979
نتاب	-9980
نجرت	-9981
نجمن	-9982
نجید	-9983
ندار	-9984
ندام	-9985
ندرس	-9986
ندود	-9987
ندوه	-9988
ندیش	-9989
نشست	-9990
نشهی	-9991
نعان	-9992
نمود	-9993
نهای	-9994
نوری	-9995
نگدل	-9996
نینم	-9997
هاست	-9998
هایی	-9999
آه	-10000
بط	-10001
تع	-10002
ثم	-10003
جس	-10004
مپ	-10005
ادک	-10006
انز	-10007
اهب	-10008
اهش	-10009
اود	-10010
اکو	-10011
برف	-10012
جاب	-10013
جید	-10014
حوش	-10015
خبر	-10016
ربر	-10017
ریر	-10018
رین	-10019
زند	-10020
سوی	-10021
شنگ	-10022
شیر	-10023
عتک	-10024
قوی	-10025
لتش	-10026
لست	-10027
مید	-10028
نبل	-10029
ندا	-10030
ندس	-10031
ندو	-10032
ندگ	-10033
نیب	-10034
هند	-10035
هوی	-10036
پید	-10037
ژند	-10038
کتب	-10039
یرن	-10040
ینج	-10041
ینو	-10042
یون	-10043
▁رد	-10044
▁عس	-10045
▁قو	-10046
▁هز	-10047
▁یز	-10048
ارین	-10049
اصرا	-10050
اموش	-10051
امید	-10052
اندر	-10053
انین	-10054
بیدی	-10055
جاوه	-10056
دایت	-10057
ستمش	-10058
ستور	-10059
سویش	-10060
فقار	-10061
نگشت	-10062
هرری	-10063
هلوی	-10064
هلیل	-10065
همان	-10066
همای	-10067
واحب	-10068
وارم	-10069
واست	-10070
والح	-10071
واهد	-10072
واهی	-10073
وایت	-10074
وتری	-10075
وتست	-10076
وتگه	-10077
وحان	-10078
ودتر	-10079
وردم	-10080
ورمش	-10081
ور۱۱	-10082
وزجم	-10083
وزدم	-10084
وسمت	-10085
وسها	-10086
وشته	-10087
وشنش	-10088
وشید	-10089
وشیر	-10090
وشیه	-10091
وطیم	-10092
وغای	-10093
وفای	-10094
ولود	-10095
وندی	-10096
وهشت	-10097
ویدت	-10098
ویزم	-10099
أل	-10100
بج	-10101
بخ	-10102
بغ	-10103
رص	-10104
رک	-10105
هٰ	-10106
ارف	-10107
ارک	-10108
امش	-10109
امو	-10110
انک	-10111
ایر	-10112
جین	-10113
حیف	-10114
خار	-10115
خیر	-10116
دای	-10117
رار	-10118
رعی	-10119
رید	-10120
سین	-10121
شدم	-10122
ضیغ	-10123
ظار	-10124
عین	-10125
غار	-10126
فار	-10127
لام	-10128
لای	-10129
لکه	-10130
لید	-10131
لین	-10132
مار	-10133
ماه	-10134
مین	-10135
ناب	-10136
ندت	-10137
ندن	-10138
نفت	-10139
هنی	-10140
ور۱	-10141
وشا	-10142
ونب	-10143
وین	-10144
گام	-10145
یاه	-10146
یلی	-10147
یمش	-10148
ینن	-10149
ینک	-10150
▁سن	-10151
▁سک	-10152
▁شت	-10153
▁شج	-10154
▁شغ	-10155
▁پو	-10156
▁چس	-10157
▁۱۱	-10158
ادخل	-10159
اقبت	-10160
اهای	-10161
بیری	-10162
راوت	-10163
ستار	-10164
سترد	-10165
شاید	-10166
فسار	-10167
لوان	-10168
نالم	-10169
ویزه	-10170
وییش	-10171
وییم	-10172
پایت	-10173
پردم	-10174
پرسی	-10175
پندم	-10176
پیند	-10177
ژگون	-10178
کانت	-10179
کایت	-10180
کبیر	-10181
کردم	-10182
کسان	-10183
کیان	-10184
کیده	-10185
گانه	-10186
گانگ	-10187
گردد	-10188
گردی	-10189
گریه	-10190
گشته	-10191
گفته	-10192
گمان	-10193
گندش	-10194
گندی	-10195
گوشی	-10196
گویی	-10197
یادم	-10198
یاست	-10199
آز	-10200
ؤم	-10201
تق	-10202
تگ	-10203
خز	-10204
رح	-10205
ضل	-10206
غت	-10207
غو	-10208
لج	-10209
لص	-10210
لط	-10211
مچ	-10212
په	-10213
۹۵	-10214
...	-10215
الق	-10216
اگر	-10217
تار	-10218
تست	-10219
جست	-10220
حبا	-10221
خزن	-10222
ستا	-10223
ستح	-10224
ستخ	-10225
ستد	-10226
ستغ	-10227
ستگ	-10228
سدت	-10229
شرا	-10230
عند	-10231
لیخ	-10232
مدش	-10233
مور	-10234
نفس	-10235
هات	-10236
هشت	-10237
ودپ	-10238
وزن	-10239
ونش	-10240
ونک	-10241
ونی	-10242
پرس	-10243
کرش	-10244
کست	-10245
گرد	-10246
گرچ	-10247
یای	-10248
یرا	-10249
▁جگ	-10250
▁خز	-10251
▁خف	-10252
▁هج	-10253
▁وآ	-10254
▁ود	-10255
▁وک	-10256
▁وگ	-10257
▁چش	-10258
▁چغ	-10259
الیم	-10260
بانم	-10261
داست	-10262
زلتا	-10263
فتان	-10264
فگند	-10265
میرم	-10266
وریت	-10267
ویشی	-10268
ویید	-10269
چیدم	-10270
یاقت	-10271
یامت	-10272
یخته	-10273
یدست	-10274
یدلم	-10275
یراز	-10276
یراه	-10277
یرای	-10278
یرتی	-10279
یرسد	-10280
یرسم	-10281
یرفت	-10282
یرنج	-10283
یرند	-10284
یرگی	-10285
یرین	-10286
یزدت	-10287
یزمت	-10288
یماب	-10289
یماج	-10290
ینان	-10291
ینتش	-10292
ینگر	-10293
یهند	-10294
یچگه	-10295
▁آزم	-10296
▁آسم	-10297
▁آمر	-10298
▁آمو	-10299
آق	-10300
بث	-10301
بش	-10302
بک	-10303
تح	-10304
تل	-10305
ته	-10306
دف	-10307
دژ	-10308
رع	-10309
زت	-10310
سؤ	-10311
سج	-10312
سک	-10313
شع	-10314
ظی	-10315
فگ	-10316
قط	-10317
لع	-10318
مض	-10319
مط	-10320
مع	-10321
مو	-10322
نق	-10323
هف	-10324
هو	-10325
چی	-10326
گد	-10327
یو	-10328
ادث	-10329
ادد	-10330
ارب	-10331
ازک	-10332
اغت	-10333
امل	-10334
انج	-10335
انس	-10336
اکت	-10337
باه	-10338
بیز	-10339
حین	-10340
راد	-10341
ردا	-10342
ستو	-10343
شند	-10344
صند	-10345
صیر	-10346
قبت	-10347
قری	-10348
قفس	-10349
هرپ	-10350
هست	-10351
هود	-10352
ولت	-10353
چرا	-10354
کوی	-10355
▁آذ	-10356
▁جع	-10357
▁زآ	-10358
▁غص	-10359
▁گب	-10360
ادید	-10361
الفت	-10362
اهات	-10363
اهیش	-10364
اکرد	-10365
حرمی	-10366
خوشی	-10367
راشی	-10368
رمنت	-10369
زاست	-10370
صفور	-10371
قبله	-10372
قیقی	-10373
مشان	-10374
ندند	-10375
کاری	-10376
یارش	-10377
یرنگ	-10378
یناز	-10379
▁آنق	-10380
▁آنچ	-10381
▁آنگ	-10382
▁ابو	-10383
▁اتم	-10384
▁اجن	-10385
▁احب	-10386
▁احت	-10387
▁احو	-10388
▁ارب	-10389
▁ارج	-10390
▁ارز	-10391
▁ازق	-10392
▁ازپ	-10393
▁اسح	-10394
▁اسر	-10395
▁اسق	-10396
▁اسک	-10397
▁اشج	-10398
▁اشخ	-10399
آص	-10400
آو	-10401
اث	-10402
بب	-10403
حد	-10404
حو	-10405
دث	-10406
دع	-10407
رش	-10408
زش	-10409
زو	-10410
زگ	-10411
شأ	-10412
صا	-10413
صد	-10414
صل	-10415
طغ	-10416
عب	-10417
عز	-10418
غب	-10419
غن	-10420
غک	-10421
فح	-10422
لخ	-10423
نغ	-10424
وص	-10425
پو	-10426
چک	-10427
یؤ	-10428
یخ	-10429
اهل	-10430
ایگ	-10431
برم	-10432
حله	-10433
دند	-10434
راغ	-10435
روش	-10436
شست	-10437
عرا	-10438
فسر	-10439
لسی	-10440
لمش	-10441
ماج	-10442
متر	-10443
موی	-10444
نصر	-10445
هفت	-10446
هلی	-10447
هوس	-10448
وجی	-10449
کید	-10450
گرو	-10451
ینگ	-10452
▁دس	-10453
▁چت	-10454
اران	-10455
اقوس	-10456
ایتت	-10457
ایتم	-10458
ایعت	-10459
بانت	-10460
تاری	-10461
ردوس	-10462
ریده	-10463
سدیس	-10464
شکلی	-10465
ظارش	-10466
فتاد	-10467
ندید	-10468
نوای	-10469
ونند	-10470
یدنش	-10471
یزدم	-10472
یطان	-10473
▁اصح	-10474
▁اصن	-10475
▁اظه	-10476
▁افز	-10477
▁افل	-10478
▁افو	-10479
▁الب	-10480
▁الج	-10481
▁الد	-10482
▁الس	-10483
▁الغ	-10484
▁الق	-10485
▁الک	-10486
▁انع	-10487
▁انک	-10488
▁اهت	-10489
▁اوی	-10490
▁باص	-10491
▁باض	-10492
▁باف	-10493
▁ببح	-10494
▁ببز	-10495
▁ببن	-10496
▁بجب	-10497
▁بجر	-10498
▁بجی	-10499
آر	-10500
آس	-10501
آگ	-10502
بن	-10503
تث	-10504
تف	-10505
جف	-10506
جگ	-10507
ذب	-10508
ذه	-10509
رآ	-10510
رق	-10511
زخ	-10512
سن	-10513
سپ	-10514
سگ	-10515
ضم	-10516
طپ	-10517
عن	-10518
عک	-10519
فغ	-10520
فک	-10521
لد	-10522
مز	-10523
نح	-10524
نخ	-10525
نظ	-10526
هگ	-10527
وع	-10528
پش	-10529
چر	-10530
چس	-10531
چغ	-10532
ژد	-10533
کا	-10534
کز	-10535
یس	-10536
آذر	-10537
ادا	-10538
ازه	-10539
اصم	-10540
افد	-10541
این	-10542
جند	-10543
سست	-10544
صار	-10545
طنم	-10546
لکت	-10547
مست	-10548
منز	-10549
نهم	-10550
نود	-10551
وام	-10552
گذر	-10553
یدو	-10554
یوز	-10555
▁خب	-10556
▁صغ	-10557
▁غا	-10558
▁فخ	-10559
▁قب	-10560
▁هش	-10561
▁پذ	-10562
▁کژ	-10563
آمدم	-10564
الار	-10565
الان	-10566
تبان	-10567
جویم	-10568
خوار	-10569
دامت	-10570
دمان	-10571
ریوز	-10572
سمتم	-10573
شکار	-10574
فایش	-10575
فغان	-10576
مایت	-10577
یداد	-10578
یشان	-10579
▁بحس	-10580
▁بحک	-10581
▁برا	-10582
▁برج	-10583
▁برک	-10584
▁بزخ	-10585
▁بزل	-10586
▁بزه	-10587
▁بسز	-10588
▁بشگ	-10589
▁بصب	-10590
▁بضا	-10591
▁بطح	-10592
▁بطپ	-10593
▁بعا	-10594
▁بعت	-10595
▁بعج	-10596
▁بغد	-10597
▁بمث	-10598
▁بمخ	-10599
آش	-10600
آغ	-10601
آم	-10602
آی	-10603
بو	-10604
بپ	-10605
تد	-10606
تظ	-10607
حب	-10608
خب	-10609
خس	-10610
خف	-10611
دت	-10612
سف	-10613
شگ	-10614
طق	-10615
ظو	-10616
عج	-10617
غض	-10618
فم	-10619
قد	-10620
لث	-10621
لپ	-10622
لگ	-10623
هک	-10624
چش	-10625
کف	-10626
اغم	-10627
اغی	-10628
برآ	-10629
جیر	-10630
دست	-10631
دشم	-10632
ردس	-10633
رنه	-10634
سنی	-10635
صید	-10636
ضاب	-10637
ظرف	-10638
غمت	-10639
فتو	-10640
فرو	-10641
قهر	-10642
مدع	-10643
میخ	-10644
هار	-10645
ودم	-10646
گرگ	-10647
گشت	-10648
یفت	-10649
یچم	-10650
▁دک	-10651
▁رش	-10652
▁رف	-10653
▁رگ	-10654
▁سق	-10655
▁نچ	-10656
ادوی	-10657
ازیر	-10658
افری	-10659
انام	-10660
انای	-10661
اهشن	-10662
ایمق	-10663
براد	-10664
تحان	-10665
ثارش	-10666
دریس	-10667
رفیش	-10668
شکند	-10669
فایت	-10670
لانت	-10671
مایه	-10672
هسته	-10673
وامی	-10674
وروز	-10675
یدهد	-10676
یرده	-10677
▁الو	-10678
▁بمع	-10679
▁بمق	-10680
▁بمک	-10681
▁بنس	-10682
▁بنظ	-10683
▁بنف	-10684
▁بنق	-10685
▁بنم	-10686
▁بها	-10687
▁بهت	-10688
▁بهی	-10689
▁بوب	-10690
▁بوت	-10691
▁بوج	-10692
▁بور	-10693
▁بول	-10694
▁بپذ	-10695
▁بپر	-10696
▁بچر	-10697
▁بیض	-10698
▁تزل	-10699
آد	-10700
آذ	-10701
اچ	-10702
بآ	-10703
حک	-10704
خط	-10705
دب	-10706
دو	-10707
دک	-10708
رؤ	-10709
رض	-10710
شج	-10711
شط	-10712
طل	-10713
عذ	-10714
عط	-10715
غز	-10716
غم	-10717
لش	-10718
مش	-10719
مغ	-10720
نر	-10721
نز	-10722
نل	-10723
نن	-10724
چم	-10725
ژب	-10726
کج	-10727
گب	-10728
ارگ	-10729
اطم	-10730
امگ	-10731
انع	-10732
بلت	-10733
بند	-10734
جدی	-10735
جود	-10736
حاس	-10737
حاک	-10738
دفت	-10739
دوز	-10740
زاح	-10741
شقی	-10742
عاه	-10743
فاف	-10744
فتا	-10745
فین	-10746
قشی	-10747
قیر	-10748
میش	-10749
ودژ	-10750
وزب	-10751
پست	-10752
چون	-10753
ینق	-10754
▁اژ	-10755
▁غن	-10756
▁فز	-10757
الای	-10758
ذارش	-10759
راهی	-10760
ستمی	-10761
سران	-10762
شادی	-10763
فاست	-10764
فرست	-10765
وانب	-10766
ودای	-10767
ورشت	-10768
ونگر	-10769
کشته	-10770
گرفت	-10771
یدید	-10772
▁بیز	-10773
▁تسن	-10774
▁تعط	-10775
▁تعم	-10776
▁تمک	-10777
▁تنع	-10778
▁توا	-10779
▁توب	-10780
▁توز	-10781
▁توش	-10782
▁توف	-10783
▁توک	-10784
▁تکا	-10785
▁تکب	-10786
▁تکف	-10787
▁تیش	-10788
▁تیه	-10789
▁جزی	-10790
▁جمش	-10791
▁جنی	-10792
▁جیح	-10793
▁حات	-10794
▁حاذ	-10795
▁حاس	-10796
▁حاص	-10797
▁حام	-10798
▁حرب	-10799
آب	-10800
آف	-10801
بص	-10802
تب	-10803
جش	-10804
خض	-10805
خک	-10806
دآ	-10807
ذش	-10808
ذق	-10809
ذو	-10810
زب	-10811
سح	-10812
عر	-10813
عو	-10814
غه	-10815
قس	-10816
لر	-10817
نف	-10818
نک	-10819
هس	-10820
هش	-10821
وآ	-10822
پا	-10823
پخ	-10824
ژگ	-10825
گف	-10826
ارو	-10827
اصی	-10828
تنگ	-10829
جلم	-10830
جور	-10831
ردت	-10832
صحر	-10833
طله	-10834
عطر	-10835
قله	-10836
لاج	-10837
لهم	-10838
هنم	-10839
وشب	-10840
ویج	-10841
پای	-10842
چاک	-10843
کتو	-10844
کفر	-10845
یات	-10846
یدش	-10847
یید	-10848
▁خش	-10849
▁قس	-10850
▁وق	-10851
▁په	-10852
▁گف	-10853
اشقی	-10854
انان	-10855
اییش	-10856
جایت	-10857
جملی	-10858
راخت	-10859
رانه	-10860
ربان	-10861
زیدت	-10862
شمار	-10863
فتیم	-10864
قیرم	-10865
مقدس	-10866
هانت	-10867
هوده	-10868
واوی	-10869
پایه	-10870
کامی	-10871
▁افک	-10872
▁ایز	-10873
▁باع	-10874
▁بسک	-10875
▁بیج	-10876
▁تحم	-10877
▁تذر	-10878
▁حری	-10879
▁حضر	-10880
▁حقی	-10881
▁حلا	-10882
▁حلو	-10883
▁حوض	-10884
▁خات	-10885
▁خرو	-10886
▁خست	-10887
▁خطب	-10888
▁خفی	-10889
▁خلا	-10890
▁خلو	-10891
▁داو	-10892
▁دای	-10893
▁درآ	-10894
▁درا	-10895
▁درب	-10896
▁درخ	-10897
▁درف	-10898
▁درگ	-10899
اژ	-10900
بس	-10901
بق	-10902
تت	-10903
جن	-10904
حذ	-10905
حص	-10906
دز	-10907
دپ	-10908
رأ	-10909
رچ	-10910
زآ	-10911
زح	-10912
زق	-10913
سز	-10914
سط	-10915
شغ	-10916
صب	-10917
صن	-10918
ظا	-10919
ظت	-10920
فؤ	-10921
فز	-10922
لق	-10923
لل	-10924
لن	-10925
مؤ	-10926
مب	-10927
نس	-10928
وو	-10929
وچ	-10930
پن	-10931
کآ	-10932
کع	-10933
گو	-10934
یآ	-10935
یث	-10936
▁۱	-10937
ابگ	-10938
باش	-10939
حفه	-10940
داز	-10941
ذنب	-10942
زده	-10943
شکد	-10944
شکل	-10945
صبح	-10946
عدل	-10947
غها	-10948
قای	-10949
ندش	-10950
هقه	-10951
وسن	-10952
ونر	-10953
ژاد	-10954
یال	-10955
یین	-10956
▁تگ	-10957
▁زش	-10958
▁چم	-10959
ارای	-10960
الله	-10961
جمند	-10962
حالی	-10963
سایی	-10964
سرتم	-10965
فرین	-10966
نجیر	-10967
وادت	-10968
ودند	-10969
کوست	-10970
یدار	-10971
یرار	-10972
ینام	-10973
▁آنج	-10974
▁ایر	-10975
▁ببا	-10976
▁جرأ	-10977
▁حرک	-10978
▁دشن	-10979
▁دفت	-10980
▁دلخ	-10981
▁دلر	-10982
▁دلس	-10983
▁دلف	-10984
▁دله	-10985
▁دلپ	-10986
▁دلگ	-10987
▁دما	-10988
▁دمب	-10989
▁دنب	-10990
▁دند	-10991
▁دهق	-10992
▁دوی	-10993
▁ذلی	-10994
▁راح	-10995
▁راخ	-10996
▁راض	-10997
▁راع	-10998
▁ربا	-10999
بف	-11000
تغ	-11001
حج	-11002
حف	-11003
دخ	-11004
ذی	-11005
رج	-11006
زج	-11007
زغ	-11008
زک	-11009
ضع	-11010
ضو	-11011
طع	-11012
عص	-11013
غد	-11014
غص	-11015
فق	-11016
فن	-11017
لز	-11018
لچ	-11019
مح	-11020
مژ	-11021
هژ	-11022
وگ	-11023
پل	-11024
ژه	-11025
گذ	-11026
یج	-11027
آری	-11028
ادن	-11029
اهن	-11030
ختن	-11031
خشد	-11032
خگر	-11033
دور	-11034
رست	-11035
شور	-11036
صله	-11037
ضلی	-11038
طلس	-11039
ظام	-11040
لان	-11041
ماز	-11042
مام	-11043
هید	-11044
هیم	-11045
ودا	-11046
وفت	-11047
وله	-11048
ونم	-11049
گرن	-11050
یشخ	-11051
▁دخ	-11052
▁عا	-11053
▁غش	-11054
▁غو	-11055
▁فط	-11056
▁قض	-11057
▁نف	-11058
ازمت	-11059
افتم	-11060
المش	-11061
بیرم	-11062
رداد	-11063
رسند	-11064
زرده	-11065
یریز	-11066
یمار	-11067
▁انف	-11068
▁رخص	-11069
▁ررخ	-11070
▁رعی	-11071
▁رهز	-11072
▁رهن	-11073
▁رون	-11074
▁ریح	-11075
▁زرک	-11076
▁زلز	-11077
▁زهد	-11078
▁زیش	-11079
▁ساح	-11080
▁ساع	-11081
▁ساغ	-11082
▁سبح	-11083
▁سخر	-11084
▁سرز	-11085
▁سقی	-11086
▁سلا	-11087
▁سوا	-11088
▁سوگ	-11089
▁سپه	-11090
▁سیا	-11091
▁سین	-11092
▁شبگ	-11093
▁شتر	-11094
▁شرک	-11095
▁شعا	-11096
▁شعب	-11097
▁شفی	-11098
▁شنب	-11099
.ـ	-11100
ؤا	-11101
ؤو	-11102
بض	-11103
بم	-11104
تج	-11105
تز	-11106
تض	-11107
ثغ	-11108
ثن	-11109
جع	-11110
حز	-11111
ذل	-11112
زع	-11113
طت	-11114
طح	-11115
ظف	-11116
عس	-11117
عظ	-11118
عق	-11119
غف	-11120
فص	-11121
قض	-11122
لح	-11123
مث	-11124
مم	-11125
نط	-11126
نژ	-11127
وء	-11128
وظ	-11129
چگ	-11130
ژا	-11131
کح	-11132
کژ	-11133
گا	-11134
ارض	-11135
برت	-11136
بست	-11137
بیا	-11138
جمل	-11139
خفت	-11140
رگر	-11141
ساد	-11142
ستش	-11143
سوس	-11144
شاه	-11145
شتش	-11146
شنت	-11147
صلم	-11148
طای	-11149
عای	-11150
فات	-11151
مرد	-11152
نبه	-11153
هیز	-11154
وبه	-11155
وشخ	-11156
وقه	-11157
پاد	-11158
پین	-11159
یاج	-11160
یدگ	-11161
یرب	-11162
▁آص	-11163
▁اض	-11164
▁بض	-11165
▁زج	-11166
▁زع	-11167
▁زک	-11168
▁عش	-11169
▁نل	-11170
▁چگ	-11171
▁یؤ	-11172
ایزد	-11173
زونی	-11174
سشان	-11175
طانی	-11176
مراد	-11177
وادی	-11178
والن	-11179
ودکی	-11180
وسند	-11181
▁اکن	-11182
▁تبد	-11183
▁تحک	-11184
▁تلا	-11185
▁دره	-11186
▁ساف	-11187
▁شنق	-11188
▁شهن	-11189
▁شوک	-11190
▁شکا	-11191
▁شگر	-11192
▁شیش	-11193
▁صاح	-11194
▁صبو	-11195
▁صحی	-11196
▁صدب	-11197
▁ضعی	-11198
▁ضلی	-11199
أت	-11200
ؤذ	-11201
بز	-11202
تأ	-11203
تص	-11204
ثق	-11205
حی	-11206
رث	-11207
رپ	-11208
ر۱	-11209
شح	-11210
ضح	-11211
طش	-11212
فظ	-11213
لآ	-11214
لؤ	-11215
لغ	-11216
نث	-11217
نع	-11218
وذ	-11219
ٰذ	-11220
کؤ	-11221
کچ	-11222
یء	-11223
یپ	-11224
۷۱	-11225
۹۲	-11226
آسم	-11227
اقش	-11228
الل	-11229
بام	-11230
ثار	-11231
خرد	-11232
خوی	-11233
رقه	-11234
زاد	-11235
ستق	-11236
سمت	-11237
شتز	-11238
صمی	-11239
طین	-11240
عید	-11241
فاج	-11242
فتن	-11243
لکی	-11244
میپ	-11245
واد	-11246
ودخ	-11247
ویا	-11248
چست	-11249
کیس	-11250
گنه	-11251
یگر	-11252
▁اغ	-11253
▁اه	-11254
▁اک	-11255
▁اگ	-11256
▁دق	-11257
▁قا	-11258
▁کح	-11259
انست	-11260
انید	-11261
اکان	-11262
رمین	-11263
شوار	-11264
عایی	-11265
فران	-11266
فلان	-11267
نجور	-11268
نوشم	-11269
هانم	-11270
وانگ	-11271
ودگی	-11272
ویسد	-11273
یاری	-11274
▁آین	-11275
▁ارد	-11276
▁بیق	-11277
▁دوس	-11278
▁سبی	-11279
▁شهب	-11280
▁صهب	-11281
▁طار	-11282
▁طاو	-11283
▁طغر	-11284
▁طلس	-11285
▁طوا	-11286
▁طوف	-11287
▁طیل	-11288
▁ظری	-11289
▁ظلی	-11290
▁عرو	-11291
▁عشر	-11292
▁عقر	-11293
▁عقو	-11294
▁عند	-11295
▁غار	-11296
▁غشا	-11297
▁غمز	-11298
▁غمن	-11299
اآ	-11300
بل	-11301
خگ	-11302
خی	-11303
دگ	-11304
د۱	-11305
شس	-11306
طم	-11307
طن	-11308
قا	-11309
هق	-11310
گت	-11311
یع	-11312
آست	-11313
ارج	-11314
انا	-11315
انب	-11316
انن	-11317
انگ	-11318
ثغر	-11319
جان	-11320
جگر	-11321
حشی	-11322
خای	-11323
دسی	-11324
دیم	-11325
ذان	-11326
رشت	-11327
رمش	-11328
ستب	-11329
سری	-11330
سون	-11331
شای	-11332
شنا	-11333
صان	-11334
صیل	-11335
عار	-11336
غمه	-11337
فید	-11338
لفت	-11339
لوی	-11340
ژبر	-11341
کهف	-11342
یله	-11343
▁اظ	-11344
▁ثو	-11345
▁دن	-11346
▁ظف	-11347
▁عو	-11348
▁کؤ	-11349
▁کع	-11350
ادار	-11351
ارست	-11352
ازوی	-11353
ازیش	-11354
تیاج	-11355
خرین	-11356
دراج	-11357
ذشته	-11358
ردون	-11359
ریای	-11360
زدان	-11361
سبان	-11362
سکین	-11363
فسوس	-11364
ندتر	-11365
نگاه	-11366
یدمت	-11367
یدمد	-11368
یدهم	-11369
یرید	-11370
▁باق	-11371
▁بدش	-11372
▁بگد	-11373
▁توه	-11374
▁درن	-11375
▁شای	-11376
▁فاج	-11377
▁فاد	-11378
▁فار	-11379
▁فاس	-11380
▁فاط	-11381
▁فام	-11382
▁فای	-11383
▁فتا	-11384
▁فطر	-11385
▁فلا	-11386
▁قاد	-11387
▁قاق	-11388
▁قسی	-11389
▁قطر	-11390
▁قیص	-11391
▁لؤل	-11392
▁لای	-11393
▁لجا	-11394
▁لطی	-11395
▁للت	-11396
▁لول	-11397
▁مات	-11398
▁ماد	-11399
أم	-11400
اض	-11401
بچ	-11402
ذا	-11403
فض	-11404
مذ	-11405
نا	-11406
چا	-11407
آرا	-11408
ؤاد	-11409
افش	-11410
امر	-11411
انق	-11412
انو	-11413
خری	-11414
دشت	-11415
رکی	-11416
سال	-11417
ستک	-11418
شار	-11419
شتا	-11420
شتم	-11421
ضرر	-11422
طرب	-11423
فان	-11424
لبه	-11425
منه	-11426
نجب	-11427
نگب	-11428
هال	-11429
وسد	-11430
وشت	-11431
پهل	-11432
کشت	-11433
یدا	-11434
یشت	-11435
یغش	-11436
یلق	-11437
▁آخ	-11438
▁تی	-11439
▁خت	-11440
▁رچ	-11441
▁فع	-11442
▁نت	-11443
▁وم	-11444
▁گا	-11445
اعیل	-11446
انبه	-11447
ایان	-11448
بکان	-11449
ختند	-11450
خشان	-11451
رابه	-11452
ردشت	-11453
رمود	-11454
زنوی	-11455
شتاد	-11456
شتند	-11457
شمین	-11458
صیده	-11459
فایی	-11460
فتار	-11461
قامی	-11462
نامی	-11463
وازم	-11464
وبان	-11465
ویشت	-11466
کنان	-11467
کهتی	-11468
گیرم	-11469
ینای	-11470
▁آشت	-11471
▁اشت	-11472
▁برس	-11473
▁ران	-11474
▁شهو	-11475
▁صال	-11476
▁فرف	-11477
▁قاب	-11478
▁مأم	-11479
▁ماس	-11480
▁مان	-11481
▁مای	-11482
▁مبت	-11483
▁متح	-11484
▁مجن	-11485
▁محف	-11486
▁محم	-11487
▁محن	-11488
▁مخم	-11489
▁مخو	-11490
▁مرث	-11491
▁مرک	-11492
▁مزر	-11493
▁مسل	-11494
▁مسی	-11495
▁مشح	-11496
▁مشع	-11497
▁مشغ	-11498
▁مشن	-11499
بگ	-11500
رز	-11501
قو	-11502
لو	-11503
مگ	-11504
آشی	-11505
الا	-11506
الح	-11507
الد	-11508
الش	-11509
الن	-11510
الک	-11511
بزه	-11512
ثال	-11513
حال	-11514
خاء	-11515
خال	-11516
دنگ	-11517
رفت	-11518
روم	-11519
زال	-11520
شام	-11521
شتغ	-11522
شتگ	-11523
صال	-11524
طال	-11525
طشت	-11526
ظال	-11527
عال	-11528
فست	-11529
قال	-11530
قند	-11531
لعت	-11532
مال	-11533
نال	-11534
نوز	-11535
وزت	-11536
وزد	-11537
وزم	-11538
وزگ	-11539
وهر	-11540
ویخ	-11541
چار	-11542
ژال	-11543
کال	-11544
کرم	-11545
کوع	-11546
یدر	-11547
یدل	-11548
یشم	-11549
▁تذ	-11550
▁حا	-11551
▁حذ	-11552
▁حض	-11553
▁حن	-11554
▁پخ	-11555
▁گن	-11556
ابلی	-11557
الام	-11558
امال	-11559
اهند	-11560
اییت	-11561
تشان	-11562
روزش	-11563
ستین	-11564
فهان	-11565
فیان	-11566
قتول	-11567
ندوز	-11568
وشند	-11569
یروز	-11570
ینال	-11571
▁بتخ	-11572
▁دوز	-11573
▁زلی	-11574
▁سرآ	-11575
▁شدز	-11576
▁غال	-11577
▁مشگ	-11578
▁مصل	-11579
▁مظل	-11580
▁معص	-11581
▁مقص	-11582
▁ملع	-11583
▁ممت	-11584
▁ممل	-11585
▁ممن	-11586
▁منا	-11587
▁منب	-11588
▁منج	-11589
▁منز	-11590
▁منص	-11591
▁منه	-11592
▁منو	-11593
▁مون	-11594
▁مپذ	-11595
▁مپس	-11596
▁میآ	-11597
▁میب	-11598
▁میس	-11599
رر	-11600
رل	-11601
صم	-11602
اجه	-11603
ایز	-11604
حام	-11605
حرا	-11606
حمت	-11607
خوش	-11608
خیم	-11609
دوش	-11610
ذبه	-11611
ذرا	-11612
رهی	-11613
ریک	-11614
زهت	-11615
ستت	-11616
سرا	-11617
سنش	-11618
صاص	-11619
طرا	-11620
ظلی	-11621
غبی	-11622
غوش	-11623
فرا	-11624
موش	-11625
هوش	-11626
ودن	-11627
ورو	-11628
وزج	-11629
وشن	-11630
وشه	-11631
وشو	-11632
گوش	-11633
یوش	-11634
▁جس	-11635
▁صا	-11636
▁قع	-11637
▁قل	-11638
اموز	-11639
بامی	-11640
جوبه	-11641
ردود	-11642
ستمد	-11643
شقان	-11644
فرید	-11645
لاله	-11646
مانم	-11647
ناری	-11648
واله	-11649
وحیم	-11650
وزون	-11651
کنند	-11652
▁ایج	-11653
▁ایم	-11654
▁ایو	-11655
▁بطف	-11656
▁بوز	-11657
▁رهب	-11658
▁صند	-11659
▁صیر	-11660
▁عرا	-11661
▁عرص	-11662
▁غمگ	-11663
▁قار	-11664
▁قال	-11665
▁قام	-11666
▁قان	-11667
▁قای	-11668
▁مسک	-11669
▁مفل	-11670
▁موب	-11671
▁میف	-11672
▁میو	-11673
▁ناه	-11674
▁نخر	-11675
▁نرب	-11676
▁نرگ	-11677
▁نسا	-11678
▁نسخ	-11679
▁نسو	-11680
▁نشا	-11681
▁نشم	-11682
▁نعل	-11683
▁نفت	-11684
▁نما	-11685
▁نهن	-11686
▁نوب	-11687
▁نون	-11688
▁نوک	-11689
▁نیف	-11690
▁هات	-11691
▁هاد	-11692
▁هال	-11693
▁هرج	-11694
▁هرش	-11695
▁هرک	-11696
▁همب	-11697
▁همز	-11698
▁همس	-11699
اپ	-11700
سأ	-11701
صع	-11702
هج	-11703
پی	-11704
ؤمن	-11705
ادل	-11706
ارس	-11707
تفا	-11708
تند	-11709
خرا	-11710
دبی	-11711
درا	-11712
ذرت	-11713
ذرش	-11714
ذرم	-11715
ذری	-11716
ذلی	-11717
راخ	-11718
راش	-11719
راف	-11720
راک	-11721
راگ	-11722
رور	-11723
سید	-11724
شمی	-11725
صرا	-11726
طار	-11727
عات	-11728
عام	-11729
عذر	-11730
غای	-11731
قرا	-11732
لبت	-11733
لور	-11734
منم	-11735
نور	-11736
هرت	-11737
پوش	-11738
کیه	-11739
یبد	-11740
ینا	-11741
▁لؤ	-11742
▁لج	-11743
▁لخ	-11744
▁لش	-11745
▁لل	-11746
▁لو	-11747
آنکه	-11748
ابگه	-11749
اددی	-11750
اندت	-11751
باری	-11752
داری	-11753
داند	-11754
ذران	-11755
راشت	-11756
فترا	-11757
فتوت	-11758
ونان	-11759
یرون	-11760
▁ابک	-11761
▁ارس	-11762
▁بآه	-11763
▁بجن	-11764
▁بسق	-11765
▁بهز	-11766
▁بوظ	-11767
▁بیغ	-11768
▁بیو	-11769
▁بیچ	-11770
▁تاز	-11771
▁توی	-11772
▁جبه	-11773
▁صاد	-11774
▁مخت	-11775
▁معر	-11776
▁مقد	-11777
▁نیس	-11778
▁همص	-11779
▁همک	-11780
▁هیر	-11781
▁هیل	-11782
▁وآن	-11783
▁واد	-11784
▁واس	-11785
▁واض	-11786
▁واع	-11787
▁واپ	-11788
▁واگ	-11789
▁ودا	-11790
▁وسا	-11791
▁وسی	-11792
▁ونه	-11793
▁پاد	-11794
▁پاط	-11795
▁پال	-11796
▁پاگ	-11797
▁پرف	-11798
▁پول	-11799
حگ	-11800
دح	-11801
طب	-11802
آور	-11803
اخت	-11804
تشم	-11805
جشم	-11806
ختش	-11807
ختص	-11808
ختگ	-11809
ختی	-11810
خشم	-11811
ذور	-11812
ربش	-11813
رفی	-11814
زلز	-11815
شمت	-11816
شمم	-11817
شمن	-11818
شیم	-11819
صور	-11820
طور	-11821
ظور	-11822
غما	-11823
فلش	-11824
لمی	-11825
ماع	-11826
مسک	-11827
میت	-11828
نجش	-11829
ورآ	-11830
ورز	-11831
چشم	-11832
کور	-11833
گور	-11834
یخت	-11835
یره	-11836
یور	-11837
▁دگ	-11838
▁سح	-11839
افرو	-11840
انور	-11841
انیه	-11842
ایشم	-11843
بریز	-11844
ثانی	-11845
جشان	-11846
حانی	-11847
ختان	-11848
ختمی	-11849
دانی	-11850
دویت	-11851
زالی	-11852
شامی	-11853
شاند	-11854
شانی	-11855
شستم	-11856
شمان	-11857
شمرد	-11858
طایی	-11859
طشان	-11860
غانی	-11861
قانی	-11862
قیان	-11863
لانی	-11864
مننم	-11865
مینه	-11866
هانی	-11867
ورند	-11868
وشنگ	-11869
ونتی	-11870
ویخت	-11871
پرسم	-11872
یانی	-11873
▁ازن	-11874
▁اقب	-11875
▁حمد	-11876
▁دخت	-11877
▁زاب	-11878
▁ساد	-11879
▁محز	-11880
▁ناق	-11881
▁هرم	-11882
▁هرگ	-11883
▁هول	-11884
▁پخت	-11885
▁پوی	-11886
▁چام	-11887
▁چوخ	-11888
▁چوپ	-11889
▁چکن	-11890
▁کآخ	-11891
▁کاغ	-11892
▁کدخ	-11893
▁کسو	-11894
▁کلث	-11895
▁کمت	-11896
▁کهک	-11897
▁کوز	-11898
▁کون	-11899
أث	-11900
اگ	-11901
تخ	-11902
ازگ	-11903
اهت	-11904
ترا	-11905
ثری	-11906
دری	-11907
رجا	-11908
ریب	-11909
ریش	-11910
ریل	-11911
ریه	-11912
ریی	-11913
زری	-11914
ستع	-11915
شقم	-11916
صری	-11917
صیب	-11918
ظری	-11919
عری	-11920
فری	-11921
لاد	-11922
مده	-11923
مری	-11924
ویل	-11925
کشد	-11926
گوی	-11927
▁عز	-11928
▁هی	-11929
امری	-11930
اندا	-11931
اندم	-11932
اندگ	-11933
بایی	-11934
بیلش	-11935
تانی	-11936
ثاری	-11937
جویی	-11938
ختری	-11939
دردی	-11940
ذارم	-11941
ذاری	-11942
ربلا	-11943
ریاد	-11944
ساند	-11945
سانه	-11946
ضریم	-11947
عتاب	-11948
غایی	-11949
فتند	-11950
فسند	-11951
ماری	-11952
نجها	-11953
نداز	-11954
واری	-11955
واند	-11956
وسوی	-11957
پاری	-11958
یارت	-11959
یداف	-11960
یروی	-11961
یمند	-11962
▁بهه	-11963
▁خوا	-11964
▁خوب	-11965
▁دمس	-11966
▁دوب	-11967
▁دول	-11968
▁زرف	-11969
▁شدخ	-11970
▁مره	-11971
▁مری	-11972
▁مقب	-11973
▁منق	-11974
▁چوگ	-11975
▁کلی	-11976
▁کوک	-11977
▁کیخ	-11978
▁گرب	-11979
▁گرن	-11980
▁گرچ	-11981
▁گشا	-11982
▁گلا	-11983
▁گلر	-11984
▁گلز	-11985
▁گلن	-11986
▁گلچ	-11987
▁گلک	-11988
▁گلگ	-11989
▁گند	-11990
▁گوه	-11991
▁گیت	-11992
▁یاو	-11993
▁یعق	-11994
▁یما	-11995
▁یوس	-11996
▁یکت	-11997
▁۱۱۹	-11998
اجشان	-11999
ثا	-12000
جذ	-12001
جل	-12002
حث	-12003
خج	-12004
رط	-12005
یض	-12006
ازت	-12007
ازن	-12008
ازی	-12009
اکس	-12010
بلب	-12011
جاز	-12012
جمی	-12013
جنگ	-12014
خمی	-12015
خود	-12016
راو	-12017
رای	-12018
رمی	-12019
ریت	-12020
زاز	-12021
سلی	-12022
سمی	-12023
عمی	-12024
غاز	-12025
لار	-12026
لاص	-12027
ماش	-12028
میز	-12029
میک	-12030
میگ	-12031
میی	-12032
ناز	-12033
نمی	-12034
هکن	-12035
واز	-12036
واس	-12037
وسب	-12038
ومی	-12039
چنگ	-12040
ژرف	-12041
یاز	-12042
یبم	-12043
یمی	-12044
▁رأ	-12045
▁طا	-12046
▁ظه	-12047
▁مث	-12048
ازان	-12049
ازند	-12050
ازید	-12051
ازین	-12052
المی	-12053
جامی	-12054
درات	-12055
رارم	-12056
ردمی	-12057
ریان	-12058
ریقت	-12059
زاده	-12060
ستری	-12061
ستمت	-12062
ستیش	-12063
فتمی	-12064
مدیم	-12065
میان	-12066
میای	-12067
میخت	-12068
ندیل	-12069
وحیه	-12070
ورین	-12071
یروم	-12072
▁اوث	-12073
▁جمی	-12074
▁شبل	-12075
▁لاز	-12076
▁مذه	-12077
▁میه	-12078
▁کنع	-12079
ابشان	-12080
اجگان	-12081
ادارا	-12082
ادشاه	-12083
ادندم	-12084
ادویی	-12085
ادگان	-12086
ادیدن	-12087
ادیده	-12088
اراست	-12089
ارتگر	-12090
ارستی	-12091
ارشان	-12092
اروان	-12093
ارگان	-12094
ارگاه	-12095
اریخش	-12096
ازاده	-12097
ازاری	-12098
ازویت	-12099
آل	-12100
صی	-12101
مخ	-12102
مق	-12103
نص	-12104
نپ	-12105
نچ	-12106
هز	-12107
هه	-12108
چل	-12109
اشک	-12110
اهر	-12111
اکا	-12112
بلی	-12113
تشک	-12114
جوس	-12115
جوش	-12116
حدی	-12117
حلی	-12118
خلی	-12119
خنه	-12120
درد	-12121
ذرگ	-12122
رشک	-12123
ساک	-12124
سله	-12125
شکا	-12126
شکب	-12127
شکس	-12128
شکف	-12129
شکم	-12130
شکن	-12131
شین	-12132
طاع	-12133
عشم	-12134
علی	-12135
قلی	-12136
لاز	-12137
لاس	-12138
لبن	-12139
لتا	-12140
لیب	-12141
لیث	-12142
لیح	-12143
مشک	-12144
چمن	-12145
کلی	-12146
▁تظ	-12147
آباد	-12148
ادلی	-12149
اشان	-12150
ایده	-12151
جیده	-12152
دیده	-12153
ردید	-12154
زیده	-12155
سیده	-12156
شکست	-12157
شکفت	-12158
شکوی	-12159
شکین	-12160
فرهم	-12161
لالم	-12162
لیان	-12163
لیده	-12164
لیلی	-12165
نشان	-12166
نیده	-12167
وسان	-12168
پنجه	-12169
یادی	-12170
یدلی	-12171
یدهی	-12172
▁بخو	-12173
▁بهل	-12174
▁بوع	-12175
▁زمز	-12176
▁ضحو	-12177
▁لشک	-12178
▁نسی	-12179
▁هیه	-12180
▁کنا	-12181
ادشان	-12182
ادمهر	-12183
اسبان	-12184
استان	-12185
استند	-12186
اشایت	-12187
اشتند	-12188
اشقان	-12189
اعظان	-12190
اغبان	-12191
افلان	-12192
الشان	-12193
العجب	-12194
الیدم	-12195
الیدن	-12196
الیده	-12197
امانت	-12198
اماند	-12199
اظ	-12200
رن	-12201
زپ	-12202
غا	-12203
پذ	-12204
یق	-12205
آلی	-12206
اکر	-12207
اکی	-12208
ترم	-12209
حمد	-12210
خاک	-12211
خرم	-12212
خست	-12213
دلم	-12214
رمت	-12215
رمم	-12216
رمگ	-12217
رون	-12218
زنگ	-12219
شهر	-12220
ضری	-12221
طرف	-12222
ظهر	-12223
فرم	-12224
فره	-12225
لهی	-12226
لیش	-12227
لیچ	-12228
مای	-12229
مدح	-12230
مدل	-12231
مدم	-12232
مدن	-12233
ندر	-12234
نهد	-12235
هرب	-12236
هرم	-12237
هره	-12238
همی	-12239
پهر	-12240
چلی	-12241
▁ذک	-12242
ابند	-12243
ازاد	-12244
امهر	-12245
انیت	-12246
اهرت	-12247
ایند	-12248
خترم	-12249
خیار	-12250
دایی	-12251
رشان	-12252
رمان	-12253
رمای	-12254
رمید	-12255
ریار	-12256
زشان	-12257
شانش	-12258
شانم	-12259
شانه	-12260
لبنی	-12261
لهان	-12262
مدست	-12263
مدند	-12264
میرد	-12265
هرور	-12266
هشان	-12267
وشیم	-12268
ونری	-12269
یالی	-12270
یرود	-12271
▁آنه	-12272
▁ایش	-12273
▁حاک	-12274
▁عمد	-12275
▁غوط	-12276
▁مرم	-12277
▁ممد	-12278
▁ناس	-12279
▁نشی	-12280
▁کاک	-12281
ازشان	-12282
امروز	-12283
امعان	-12284
اموشی	-12285
امگاه	-12286
امیده	-12287
اناست	-12288
اندار	-12289
انداز	-12290
اندرو	-12291
اندند	-12292
انستم	-12293
انسته	-12294
انشان	-12295
انشور	-12296
اهبان	-12297
اهدان	-12298
اهشان	-12299
آخ	-12300
تس	-12301
صط	-12302
هب	-12303
آیم	-12304
ارن	-12305
اعل	-12306
اکد	-12307
اکن	-12308
بیم	-12309
تشی	-12310
تیم	-12311
ثیر	-12312
حمن	-12313
زیم	-12314
سیم	-12315
شری	-12316
صیم	-12317
طیم	-12318
ظیم	-12319
عنه	-12320
عیم	-12321
قاش	-12322
قیم	-12323
مگر	-12324
نشت	-12325
یما	-12326
یمم	-12327
▁جش	-12328
▁طغ	-12329
▁طف	-12330
▁طپ	-12331
▁عط	-12332
▁فو	-12333
▁چن	-12334
▁یل	-12335
ابان	-12336
ادیم	-12337
الاک	-12338
امیم	-12339
اکام	-12340
اکست	-12341
بانش	-12342
بانه	-12343
بتان	-12344
ردیم	-12345
سامی	-12346
ضوان	-12347
عبان	-12348
فروش	-12349
قمان	-12350
لشان	-12351
مانت	-12352
مردم	-12353
نجبی	-12354
هبان	-12355
هیدم	-12356
ورده	-12357
وریم	-12358
چنان	-12359
گاهم	-12360
گریم	-12361
یارم	-12362
یرمش	-12363
یریم	-12364
یمین	-12365
ینیم	-12366
▁بتث	-12367
▁بمژ	-12368
▁بیس	-12369
▁خدم	-12370
▁دیب	-12371
▁شکف	-12372
▁شکو	-12373
▁طال	-12374
▁طام	-12375
▁طرا	-12376
▁طیر	-12377
▁مغب	-12378
▁نات	-12379
▁کوچ	-12380
▁یکب	-12381
▁یکر	-12382
▁یکس	-12383
▁یکن	-12384
اربان	-12385
اندیم	-12386
اوردم	-12387
اورده	-12388
اکامی	-12389
اکرده	-12390
اکشان	-12391
اکنان	-12392
اکیان	-12393
ایران	-12394
ایشان	-12395
ایگان	-12396
باخته	-12397
بارند	-12398
بانان	-12399
آت	-12400
خد	-12401
سش	-12402
طه	-12403
یط	-12404
آفر	-12405
ؤال	-12406
ابج	-12407
ابم	-12408
ازش	-12409
تخت	-12410
جلت	-12411
حرو	-12412
ربی	-12413
ساب	-12414
صاد	-12415
ضطر	-12416
عتد	-12417
لاب	-12418
نگد	-12419
نگن	-12420
هرش	-12421
واح	-12422
وبی	-12423
وود	-12424
کاب	-12425
گهت	-12426
یاب	-12427
یرج	-12428
یرک	-12429
▁آف	-12430
▁تخ	-12431
▁ذب	-12432
▁لن	-12433
الیس	-12434
اوان	-12435
اینه	-12436
برین	-12437
توبی	-12438
ختنت	-12439
خوان	-12440
راری	-12441
ردین	-12442
روان	-12443
رییل	-12444
زانش	-12445
زیدم	-12446
ستیم	-12447
شتاب	-12448
غوان	-12449
قیبی	-12450
مارم	-12451
نجان	-12452
نجشم	-12453
ندوق	-12454
نگار	-12455
نگام	-12456
نگرد	-12457
نگور	-12458
نگین	-12459
هوان	-12460
وازد	-12461
وشاب	-12462
وناب	-12463
ینور	-12464
▁بتغ	-12465
▁بدز	-12466
▁بدع	-12467
▁برچ	-12468
▁بسج	-12469
▁بسف	-12470
▁بسپ	-12471
▁بهش	-12472
▁تقص	-12473
▁توح	-12474
▁دوت	-12475
▁ساب	-12476
▁ماخ	-12477
▁مرت	-12478
▁میا	-12479
▁ناآ	-12480
▁ندا	-12481
▁کاب	-12482
▁گیل	-12483
ابانی	-12484
امیزد	-12485
بانیت	-12486
بتانش	-12487
برادر	-12488
بردست	-12489
برییل	-12490
بهایی	-12491
بیران	-12492
تابان	-12493
تابند	-12494
تمامت	-12495
تمامی	-12496
تواند	-12497
حرایی	-12498
حرمان	-12499
حن	-12500
قل	-12501
مک	-12502
۱۹	-12503
آنج	-12504
اتل	-12505
اشد	-12506
اکش	-12507
تاز	-12508
حیل	-12509
رشد	-12510
رفس	-12511
رنج	-12512
رود	-12513
سبی	-12514
شدت	-12515
شدش	-12516
شدگ	-12517
ششد	-12518
شنه	-12519
شیش	-12520
صبر	-12521
عنی	-12522
غاف	-12523
فسش	-12524
فسم	-12525
فسو	-12526
فسی	-12527
لوس	-12528
مشد	-12529
نبر	-12530
نهی	-12531
وزی	-12532
پار	-12533
کاد	-12534
یزه	-12535
▁حش	-12536
▁شح	-12537
اخان	-12538
ادرش	-12539
اهیم	-12540
بسته	-12541
جسته	-12542
خنده	-12543
دسته	-12544
دینه	-12545
رسته	-12546
سمان	-12547
شیار	-12548
ظامی	-12549
عمان	-12550
فتنه	-12551
فتوح	-12552
فسان	-12553
فسرد	-12554
مانه	-12555
ناهم	-12556
نمان	-12557
نهاد	-12558
نهند	-12559
وسته	-12560
گرید	-12561
▁انه	-12562
▁بفس	-12563
▁بلع	-12564
▁غمخ	-12565
▁غمه	-12566
▁غمو	-12567
▁فیل	-12568
▁ناص	-12569
▁نبخ	-12570
▁ندز	-12571
▁ندم	-12572
▁نگو	-12573
▁هار	-12574
▁پرت	-12575
▁پرخ	-12576
▁کشا	-12577
ابسته	-12578
اشایی	-12579
خاسته	-12580
ختانش	-12581
خترکی	-12582
ختندی	-12583
ختگان	-12584
ختگاه	-12585
ختیار	-12586
خرامت	-12587
خرامی	-12588
خواست	-12589
خواند	-12590
خواهد	-12591
خواهی	-12592
خوردم	-12593
دادان	-12594
داریت	-12595
داشان	-12596
دامان	-12597
دمانش	-12598
دمتگز	-12599
دش	-12600
ذک	-12601
نو	-12602
اسن	-12603
اوس	-12604
بتی	-12605
برش	-12606
برو	-12607
بوس	-12608
جال	-12609
حوس	-12610
دید	-12611
سفت	-12612
شقب	-12613
شقت	-12614
طاب	-12615
طید	-12616
لیف	-12617
ماد	-12618
موس	-12619
نوس	-12620
هبر	-12621
وسش	-12622
وسه	-12623
وسی	-12624
ووس	-12625
یوس	-12626
▁حد	-12627
▁رق	-12628
▁هف	-12629
▁هل	-12630
ارمش	-12631
استن	-12632
اسیس	-12633
انمت	-12634
برید	-12635
بیین	-12636
توحش	-12637
خلخه	-12638
زارم	-12639
سازش	-12640
ظارم	-12641
عامی	-12642
فایم	-12643
لزار	-12644
هاند	-12645
وسمی	-12646
وسید	-12647
پارم	-12648
پرده	-12649
ینهی	-12650
▁آبر	-12651
▁ارو	-12652
▁افغ	-12653
▁بدا	-12654
▁بسن	-12655
▁ترح	-12656
▁جلی	-12657
▁ستر	-12658
▁سرچ	-12659
▁شهل	-12660
▁فرس	-12661
▁فرص	-12662
▁فره	-12663
▁ماج	-12664
▁مخص	-12665
▁نست	-12666
▁نگا	-12667
▁نگس	-12668
▁نگش	-12669
▁نگن	-12670
▁نگی	-12671
▁پاب	-12672
▁پیم	-12673
▁گوس	-12674
افراز	-12675
بروان	-12676
دمشان	-12677
ذراند	-12678
ذرانی	-12679
راختم	-12680
رارند	-12681
راسته	-12682
رامان	-12683
رانیت	-12684
راگاه	-12685
راگند	-12686
ربانی	-12687
ربایی	-12688
رداری	-12689
رداشت	-12690
ردانم	-12691
ردانی	-12692
ردایی	-12693
ردمان	-12694
ردگان	-12695
ردیده	-12696
رزانی	-12697
رسندم	-12698
رسندی	-12699
أن	-12700
بذ	-12701
جغ	-12702
وپ	-12703
آهی	-12704
اتح	-12705
ارق	-12706
افؤ	-12707
افه	-12708
افگ	-12709
افی	-12710
امق	-12711
جمن	-12712
خیز	-12713
زاف	-12714
ساف	-12715
ستج	-12716
سود	-12717
صاف	-12718
طاف	-12719
طرش	-12720
فکر	-12721
لاف	-12722
لبر	-12723
لبل	-12724
لکم	-12725
منا	-12726
منت	-12727
منش	-12728
منع	-12729
منن	-12730
منی	-12731
موز	-12732
نید	-12733
هدا	-12734
همد	-12735
همن	-12736
واف	-12737
کاف	-12738
یرگ	-12739
افرا	-12740
افور	-12741
رارش	-12742
رایی	-12743
ردمش	-12744
ریبی	-12745
شکاف	-12746
شیشی	-12747
فتور	-12748
منای	-12749
هرمن	-12750
وشیز	-12751
ونده	-12752
کعبه	-12753
یاهی	-12754
یزان	-12755
یزند	-12756
ینکی	-12757
▁بتق	-12758
▁بگس	-12759
▁بگن	-12760
▁بگی	-12761
▁حاف	-12762
▁داع	-12763
▁دلک	-12764
▁عاف	-12765
▁غاف	-12766
▁قاف	-12767
▁محج	-12768
▁محی	-12769
▁مرق	-12770
▁مرن	-12771
▁نده	-12772
▁نشو	-12773
▁هیز	-12774
▁واف	-12775
▁کآی	-12776
افشان	-12777
انگاه	-12778
راکند	-12779
رسیده	-12780
رمغان	-12781
رمگاه	-12782
رمیدم	-12783
رمیده	-12784
رهیزی	-12785
ریاری	-12786
ریانی	-12787
ریشان	-12788
ریفند	-12789
ریمان	-12790
ریمتر	-12791
ریوزه	-12792
زاران	-12793
زبانش	-12794
زبانم	-12795
زبانی	-12796
زداری	-12797
زدانی	-12798
زدیدی	-12799
اا	-12800
تک	-12801
ثی	-12802
رغ	-12803
صغ	-12804
مص	-12805
چن	-12806
ژر	-12807
▁.	-12808
اتا	-12809
انف	-12810
بال	-12811
بره	-12812
بیش	-12813
جفا	-12814
حکه	-12815
داح	-12816
رفم	-12817
رمغ	-12818
سیل	-12819
طون	-12820
ظاه	-12821
فاع	-12822
فاو	-12823
فاپ	-12824
نکه	-12825
واک	-12826
پرد	-12827
پند	-12828
کنج	-12829
کهت	-12830
یزگ	-12831
▁زق	-12832
▁مم	-12833
▁ین	-12834
أمون	-12835
امیز	-12836
امیش	-12837
اندن	-12838
انکه	-12839
اهین	-12840
اکیز	-12841
بنده	-12842
دامی	-12843
رامی	-12844
رنده	-12845
ریمی	-12846
زندی	-12847
سسته	-12848
غامی	-12849
لامی	-12850
لایی	-12851
مامی	-12852
مایی	-12853
نایی	-12854
نجین	-12855
گامی	-12856
گریز	-12857
ینید	-12858
یوان	-12859
▁آبد	-12860
▁بلق	-12861
▁بنی	-12862
▁خنج	-12863
▁زاه	-12864
▁شجا	-12865
▁شنج	-12866
▁قیم	-12867
▁پیل	-12868
▁کآد	-12869
امنده	-12870
امیان	-12871
انامی	-12872
انایی	-12873
اییان	-12874
رستان	-12875
رمایی	-12876
رمنده	-12877
ستادی	-12878
ستاری	-12879
ستانت	-12880
ستانش	-12881
ستانم	-12882
ستانه	-12883
ستایی	-12884
ستمگر	-12885
ستگان	-12886
سروان	-12887
سندان	-12888
شارند	-12889
شانان	-12890
شانده	-12891
شانیم	-12892
شایند	-12893
شبندش	-12894
شتافت	-12895
شرتگه	-12896
شمارم	-12897
شماری	-12898
شمردم	-12899
حض	-12900
فط	-12901
مج	-12902
مظ	-12903
آفت	-12904
اسی	-12905
اشی	-12906
جات	-12907
جاو	-12908
حیم	-12909
خان	-12910
رمس	-12911
زوی	-12912
سرد	-12913
شهی	-12914
صاح	-12915
طنی	-12916
عوت	-12917
غفر	-12918
فاس	-12919
فرق	-12920
مفر	-12921
نیف	-12922
هیل	-12923
ودب	-12924
وهی	-12925
ژده	-12926
گنی	-12927
▁رر	-12928
▁یو	-12929
ابجا	-12930
اتنم	-12931
ادیل	-12932
ارید	-12933
استی	-12934
اشای	-12935
افدل	-12936
التش	-12937
ایدم	-12938
ایشی	-12939
جهان	-12940
خویی	-12941
دارش	-12942
ذارد	-12943
ستاد	-12944
سیدم	-12945
شاده	-12946
شیدم	-12947
نیدم	-12948
هانگ	-12949
هرست	-12950
وخته	-12951
وزان	-12952
وسفر	-12953
چارم	-12954
گهان	-12955
یدمش	-12956
یینه	-12957
▁امل	-12958
▁بشی	-12959
▁تأم	-12960
▁حجا	-12961
▁زجا	-12962
▁سرط	-12963
▁طلع	-12964
▁فصی	-12965
▁لبا	-12966
▁ناش	-12967
▁ناپ	-12968
▁چاب	-12969
▁یاس	-12970
▁یاق	-12971
افگند	-12972
ایستم	-12973
ردیدم	-12974
شمینه	-12975
شناست	-12976
شنایی	-12977
شکارش	-12978
شکسته	-12979
شکفته	-12980
شکنان	-12981
شکینه	-12982
شگران	-12983
شیاری	-12984
شیانش	-12985
شیانم	-12986
شیانه	-12987
شیانی	-12988
شیران	-12989
شیشان	-12990
شیمان	-12991
صحبتی	-12992
طاقتی	-12993
طانان	-12994
عتبار	-12995
عفران	-12996
علشان	-12997
عیفان	-12998
فاهان	-12999
أه	-13000
طف	-13001
مف	-13002
چت	-13003
یگ	-13004
أله	-13005
اوه	-13006
بنی	-13007
بید	-13008
تنی	-13009
جله	-13010
جنی	-13011
حقی	-13012
حوی	-13013
خنی	-13014
رفش	-13015
رفه	-13016
زدش	-13017
زنی	-13018
شبی	-13019
طبی	-13020
طلب	-13021
علم	-13022
عله	-13023
عمت	-13024
فله	-13025
لبی	-13026
مله	-13027
ویب	-13028
کنی	-13029
گفت	-13030
یبی	-13031
یحت	-13032
یکن	-13033
▁تج	-13034
▁رن	-13035
ادان	-13036
ارکن	-13037
الها	-13038
بندم	-13039
بیله	-13040
جران	-13041
حیان	-13042
ذاشت	-13043
رابی	-13044
ردای	-13045
رفان	-13046
رویم	-13047
شاهی	-13048
شمنی	-13049
لیبی	-13050
مرده	-13051
میکن	-13052
ناله	-13053
نویم	-13054
نیاز	-13055
وسبی	-13056
وشنی	-13057
ویله	-13058
کرده	-13059
گانم	-13060
گرنه	-13061
گویم	-13062
▁بخا	-13063
▁بخد	-13064
▁بخز	-13065
▁بخی	-13066
▁ترب	-13067
▁ترن	-13068
▁حبی	-13069
▁حنی	-13070
▁رشت	-13071
▁طبی	-13072
▁مگذ	-13073
▁میش	-13074
▁هرا	-13075
▁کوث	-13076
▁کوف	-13077
اقانی	-13078
الهای	-13079
الهنگ	-13080
خواره	-13081
رداست	-13082
ریبان	-13083
طربان	-13084
فاوتی	-13085
فتادی	-13086
فتارم	-13087
فتاری	-13088
فتمنه	-13089
فتندی	-13090
فرستم	-13091
فروشم	-13092
فرینش	-13093
فسرده	-13094
فندان	-13095
قوسها	-13096
قیبان	-13097
لامان	-13098
لتبان	-13099
ژن	-13100
اصه	-13101
خشی	-13102
ذاب	-13103
ریق	-13104
ستن	-13105
سهل	-13106
صود	-13107
ندک	-13108
▁ضع	-13109
اشتم	-13110
انجا	-13111
باشت	-13112
باهی	-13113
براه	-13114
لاهی	-13115
ویمت	-13116
▁باس	-13117
▁رسو	-13118
▁نفا	-13119
خوشان	-13120
لرزید	-13121
لسبیل	-13122
لستان	-13123
لمانم	-13124
لمانی	-13125
لیمان	-13126
مانان	-13127
مانیم	-13128
مدیده	-13129
مرادت	-13130
مرهان	-13131
مستان	-13132
منایت	-13133
مندان	-13134
میانه	-13135
میایی	-13136
میخته	-13137
نانکه	-13138
نبالت	-13139
نبیدی	-13140
نتشان	-13141
نجانم	-13142
نجبیل	-13143
نجوری	-13144
نجیده	-13145
نجینه	-13146
ندارد	-13147
ندارم	-13148
نداری	-13149
نداشت	-13150
ندانت	-13151
ندلیب	-13152
ندوان	-13153
ندوست	-13154
ندیدم	-13155
ندیده	-13156
ندیله	-13157
نشاند	-13158
نشسته	-13159
نشیند	-13160
نماید	-13161
نمودت	-13162
نهاده	-13163
نهانی	-13164
نهایی	-13165
نگاری	-13166
نگامه	-13167
نگاهی	-13168
نینان	-13169
هربان	-13170
هرشان	-13171
هروان	-13172
هلوان	-13173
همانی	-13174
همیده	-13175
هودان	-13176
وابگه	-13177
وارها	-13178
والفت	-13179
وانان	-13180
وانده	-13181
وانست	-13182
وانند	-13183
وتستی	-13184
وتشان	-13185
وتگاه	-13186
ودکان	-13187
ورانگ	-13188
ورانی	-13189
وروست	-13190
وریان	-13191
وریوس	-13192
ور۱۱۷	-13193
وزگار	-13194
وستان	-13195
وستین	-13196
وسشان	-13197
وسویش	-13198
وسیده	-13199
وشدار	-13200
وششان	-13201
وشمند	-13202
وشیار	-13203
وشیدم	-13204
وشیده	-13205
وشیدی	-13206
وطیان	-13207
وغایی	-13208
وفیان	-13209
ولایی	-13210
ومندم	-13211
ونانش	-13212
ونانی	-13213
ونسار	-13214
ونشان	-13215
ویاست	-13216
ویبار	-13217
ویخته	-13218
ویسند	-13219
ویشان	-13220
پستان	-13221
پسندت	-13222
کدانت	-13223
کناری	-13224
کینان	-13225
گانان	-13226
گانند	-13227
گانگی	-13228
گانیت	-13229
گرفتم	-13230
گرفته	-13231
گریزی	-13232
گزیرم	-13233
یارتش	-13234
یبانت	-13235
یبانم	-13236
یبایی	-13237
یدادم	-13238
یدادی	-13239
یدارم	-13240
یداره	-13241
یداری	-13242
یداست	-13243
یداشت	-13244
یداند	-13245
یدانش	-13246
یدانم	-13247
یدانی	-13248
یدستم	-13249
یدندی	-13250
یدهدم	-13251
یدگاه	-13252
یدیدم	-13253
یرانم	-13254
یرانه	-13255
یرانی	-13256
یرایه	-13257
یروان	-13258
یروزه	-13259
یریزد	-13260
یمانی	-13261
یندار	-13262
▁آتشک	-13263
▁آتشگ	-13264
▁آسای	-13265
▁ابرآ	-13266
▁ابلی	-13267
▁اجاب	-13268
▁ادری	-13269
▁ارای	-13270
▁اربع	-13271
▁استب	-13272
▁استر	-13273
▁استع	-13274
▁استق	-13275
▁استم	-13276
▁استو	-13277
▁اسرا	-13278
▁اشار	-13279
▁اشکب	-13280
▁اعتب	-13281
▁اعتد	-13282
▁اعتم	-13283
▁اقلی	-13284
▁الاخ	-13285
▁الاس	-13286
▁الاع	-13287
▁الام	-13288
▁الای	-13289
▁التع	-13290
▁التم	-13291
▁الحر	-13292
▁السر	-13293
▁السل	-13294
▁الغر	-13295
▁القص	-13296
▁الکل	-13297
▁امار	-13298
▁امتی	-13299
▁امنی	-13300
▁انتخ	-13301
▁انتق	-13302
▁اندا	-13303
▁انفع	-13304
▁انگب	-13305
▁اهتز	-13306
▁اگرچ	-13307
▁ایست	-13308
▁اینج	-13309
▁اینق	-13310
▁اینه	-13311
▁اینگ	-13312
▁بآنج	-13313
▁بادک	-13314
▁بارب	-13315
▁بازآ	-13316
▁بازت	-13317
▁بازخ	-13318
▁باست	-13319
▁باضط	-13320
▁باغب	-13321
▁باغه	-13322
▁بافس	-13323
▁باقب	-13324
▁بالر	-13325
▁بالع	-13326
▁بانب	-13327
▁بانت	-13328
▁ببست	-13329
▁بتار	-13330
▁بتیر	-13331
▁بجنب	-13332
▁بجور	-13333
▁بجوی	-13334
▁بحری	-13335
▁بحقی	-13336
▁بحیر	-13337
▁بخام	-13338
▁بخدم	-13339
▁بخرد	-13340
▁بخرم	-13341
▁بخلی	-13342
▁بخور	-13343
▁بخوی	-13344
▁بدزد	-13345
▁بدشم	-13346
▁بدشن	-13347
▁بدفت	-13348
▁بدنب	-13349
▁بدنی	-13350
▁بدور	-13351
▁بدوز	-13352
▁بدگم	-13353
▁برآر	-13354
▁براب	-13355
▁براد	-13356
▁برخا	-13357
▁برهگ	-13358
▁بروم	-13359
▁برگز	-13360
▁برگم	-13361
▁بساح	-13362
▁بساغ	-13363
▁بسای	-13364
▁بسرف	-13365
▁بسرچ	-13366
▁بسنج	-13367
▁بسین	-13368
▁بشار	-13369
▁بششد	-13370
▁بشکا	-13371
▁بصحر	-13372
▁بصور	-13373
▁بصیر	-13374
▁بعشر	-13375
▁بفرا	-13376
▁بلاه	-13377
▁بلقی	-13378
▁بمخل	-13379
▁بمرغ	-13380
▁بمرگ	-13381
▁بمست	-13382
▁بمنز	-13383
▁بمنع	-13384
▁بمید	-13385
▁بناپ	-13386
▁بنفش	-13387
▁بنوش	-13388
▁بنوی	-13389
▁بهاد	-13390
▁بهام	-13391
▁بهان	-13392
▁بهرم	-13393
▁بهمس	-13394
▁بوال	-13395
▁بودن	-13396
▁بودژ	-13397
▁بوری	-13398
▁بویر	-13399
▁بپاد	-13400
▁بپرو	-13401
▁بپوش	-13402
▁بکاف	-13403
▁بکین	-13404
▁بگسل	-13405
▁بگلش	-13406
▁بیجا	-13407
▁بیجه	-13408
▁بیخت	-13409
▁بیدر	-13410
▁بیدو	-13411
▁بیرج	-13412
▁بیرح	-13413
▁بیشت	-13414
▁بیشر	-13415
▁بیقر	-13416
▁بیمد	-13417
▁بیمه	-13418
▁بینه	-13419
▁بینو	-13420
▁بیوف	-13421
▁بیگن	-13422
▁تأسی	-13423
▁تابد	-13424
▁تاجی	-13425
▁تاره	-13426
▁تافت	-13427
▁تحمی	-13428
▁تران	-13429
▁تزاح	-13430
▁تسبی	-13431
▁تشنگ	-13432
▁تعری	-13433
▁تعزی	-13434
▁تعلی	-13435
▁تغاف	-13436
▁تلبی	-13437
▁تلخک	-13438
▁تنگد	-13439
▁تنگن	-13440
▁توای	-13441
▁توفی	-13442
▁ثواب	-13443
▁جانس	-13444
▁جانف	-13445
▁جانه	-13446
▁جانگ	-13447
▁جاود	-13448
▁جستج	-13449
▁جفاج	-13450
▁جفاپ	-13451
▁جناب	-13452
▁جگرن	-13453
▁حاسد	-13454
▁حرفه	-13455
▁خارج	-13456
▁خاصی	-13457
▁خالد	-13458
▁خامش	-13459
▁خاند	-13460
▁خانق	-13461
▁خاور	-13462
▁خاکد	-13463
▁خجال	-13464
▁خردس	-13465
▁خردم	-13466
▁خلای	-13467
▁خوای	-13468
▁خوبر	-13469
▁خودب	-13470
▁خودخ	-13471
▁خودپ	-13472
▁خودک	-13473
▁خورش	-13474
▁خوشب	-13475
▁خوشت	-13476
▁خوشخ	-13477
▁خوشد	-13478
▁خونب	-13479
▁خونخ	-13480
▁دادخ	-13481
▁داست	-13482
▁داغد	-13483
▁درخش	-13484
▁دردک	-13485
▁درگه	-13486
▁دستر	-13487
▁دستگ	-13488
▁دلبا	-13489
▁دلخو	-13490
▁دلشد	-13491
▁دلفر	-13492
▁دماد	-13493
▁دماو	-13494
▁دواز	-13495
▁دورت	-13496
▁دوید	-13497
▁دگرب	-13498
▁ذوال	-13499
▁ذوای	-13500
▁راخو	-13501
▁رازت	-13502
▁رازه	-13503
▁راهز	-13504
▁راهگ	-13505
▁ربود	-13506
▁رسول	-13507
▁رعای	-13508
▁رهان	-13509
▁رهنم	-13510
▁رهید	-13511
▁روزب	-13512
▁روزن	-13513
▁روزگ	-13514
▁ریاح	-13515
▁ریشخ	-13516
▁زاوی	-13517
▁زدود	-13518
▁زدید	-13519
▁زرگر	-13520
▁زنبی	-13521
▁زنخد	-13522
▁زندگ	-13523
▁زورم	-13524
▁زکام	-13525
▁زیرد	-13526
▁سازگ	-13527
▁ستمک	-13528
▁سراح	-13529
▁سران	-13530
▁سرتا	-13531
▁سرمد	-13532
▁سرور	-13533
▁سروه	-13534
▁سرگذ	-13535
▁سرگر	-13536
▁سطور	-13537
▁سلاط	-13538
▁سندر	-13539
▁سنگد	-13540
▁سوار	-13541
▁سپار	-13542
▁سپهد	-13543
▁شادز	-13544
▁شاهن	-13545
▁شاهو	-13546
▁شبست	-13547
▁شرمس	-13548
▁شرمن	-13549
▁شمات	-13550
▁شمای	-13551
▁شناس	-13552
▁شهنش	-13553
▁شکای	-13554
▁شکرخ	-13555
▁شکرف	-13556
▁شیفت	-13557
▁صبحد	-13558
▁صبحگ	-13559
▁صبور	-13560
▁صفاه	-13561
▁صیدک	-13562
▁صیدگ	-13563
▁عاری	-13564
▁عدال	-13565
▁عشقب	-13566
▁عیار	-13567
▁غمگس	-13568
▁غمیگ	-13569
▁فراخ	-13570
▁فراد	-13571
▁فرشت	-13572
▁فرنگ	-13573
▁فروش	-13574
▁فروغ	-13575
▁فقرا	-13576
▁فلاط	-13577
▁قایم	-13578
▁لباس	-13579
▁لبال	-13580
▁لبری	-13581
▁لییم	-13582
▁مؤمن	-13583
▁ماری	-13584
▁ماهر	-13585
▁محاب	-13586
▁محرا	-13587
▁محرو	-13588
▁مخال	-13589
▁مخصو	-13590
▁مدرس	-13591
▁مرغز	-13592
▁مرغک	-13593
▁مرید	-13594
▁مساف	-13595
▁مستح	-13596
▁مسلس	-13597
▁مشتغ	-13598
▁مشکس	-13599
▁مصاح	-13600
▁مطاب	-13601
▁معرا	-13602
▁مفرم	-13603
▁ملکی	-13604
▁مناس	-13605
▁مناف	-13606
▁منتظ	-13607
▁منته	-13608
▁منصو	-13609
▁مهرب	-13610
▁مهرپ	-13611
▁مهوش	-13612
▁مواف	-13613
▁مکین	-13614
▁میاز	-13615
▁میبر	-13616
▁میتر	-13617
▁میدو	-13618
▁میرز	-13619
▁میزن	-13620
▁میشن	-13621
▁میطپ	-13622
▁میفش	-13623
▁مینم	-13624
▁میهم	-13625
▁میچر	-13626
▁میچک	-13627
▁میکن	-13628
▁میگذ	-13629
▁میگس	-13630
▁میگو	-13631
▁میگی	-13632
▁ناام	-13633
▁ناتو	-13634
▁نازن	-13635
▁ناشد	-13636
▁ناشک	-13637
▁نامح	-13638
▁نامر	-13639
▁نبار	-13640
▁نبخش	-13641
▁نبند	-13642
▁نبوی	-13643
▁نبین	-13644
▁نخند	-13645
▁نخور	-13646
▁ندار	-13647
▁ندام	-13648
▁ندیم	-13649
▁نران	-13650
▁نرنج	-13651
▁نزدی	-13652
▁نساز	-13653
▁نشکف	-13654
▁نقشب	-13655
▁نقشه	-13656
▁نقشک	-13657
▁نمرد	-13658
▁نمیت	-13659
▁نمیخ	-13660
▁نمیش	-13661
▁نمین	-13662
▁نمیپ	-13663
▁نمیک	-13664
▁ننوش	-13665
▁ننگر	-13666
▁نهای	-13667
▁نهنگ	-13668
▁نوشخ	-13669
▁نوکی	-13670
▁نپرس	-13671
▁نکوی	-13672
▁نگسل	-13673
▁نگنج	-13674
▁نگوی	-13675
▁نگیر	-13676
▁نیار	-13677
▁نیاف	-13678
▁نیاک	-13679
▁نیای	-13680
▁نیفت	-13681
▁نیفر	-13682
▁نیکن	-13683
▁هماه	-13684
▁همای	-13685
▁همصح	-13686
▁همنش	-13687
▁همهش	-13688
▁همکل	-13689
▁همیش	-13690
▁هژبر	-13691
▁هیچک	-13692
▁واسط	-13693
▁وامگ	-13694
▁واند	-13695
▁پاسب	-13696
▁پاله	-13697
▁پراف	-13698
▁پراک	-13699
▁پراگ	-13700
▁پرفت	-13701
▁پرفش	-13702
▁پرند	-13703
▁پروب	-13704
▁پروی	-13705
▁پیاد	-13706
▁پیال	-13707
▁پیرا	-13708
▁پیرز	-13709
▁پیشو	-13710
▁چارد	-13711
▁چاکر	-13712
▁چونک	-13713
▁چگون	-13714
▁کآرا	-13715
▁کآسم	-13716
▁کآفت	-13717
▁کآنج	-13718
▁کآیم	-13719
▁کارف	-13720
▁کاره	-13721
▁کارو	-13722
▁کارگ	-13723
▁کاسر	-13724
▁کاسل	-13725
▁کاشت	-13726
▁کاشک	-13727
▁کافت	-13728
▁کافس	-13729
▁کامر	-13730
▁کانب	-13731
▁کاوی	-13732
▁کردگ	-13733
▁کشتز	-13734
▁کنیت	-13735
▁کواک	-13736
▁گاهگ	-13737
▁گذرگ	-13738
▁گرام	-13739
▁گردا	-13740
▁گرهگ	-13741
▁گرین	-13742
▁گلبر	-13743
▁گلست	-13744
▁گمشد	-13745
▁گوار	-13746
▁گوشو	-13747
▁گوین	-13748
▁یادگ	-13749
▁یاره	-13750
▁یاسم	-13751
▁یاور	-13752
▁یکای	-13753
▁یکدی	-13754
ابروان	-13755
اتمشان	-13756
اخاسته	-13757
ادشاهی	-13758
اریهای	-13759
ازاریش	-13760
اسبانی	-13761
افگنده	-13762
الهاست	-13763
الهوسی	-13764
امانده	-13765
انتظار	-13766
انداری	-13767
انشوری	-13768
اووشان	-13769
اکاسته	-13770
برانند	-13771
توانست	-13772
جمندان	-13773
خوارند	-13774
خواستم	-13775
خوانده	-13776
خورشید	-13777
راشیده	-13778
راعیان	-13779
رافشان	-13780
رخساری	-13781
رداخته	-13782
رداریش	-13783
ریارند	-13784
زیگران	-13785
ستاخیز	-13786
ستانند	-13787
ستمشان	-13788
سندیده	-13789
شتیاقت	-13790
شماریم	-13791
فاقشان	-13792
فتراکم	-13793
فشانده	-13794
فیقشان	-13795
قوسشان	-13796
لاکیان	-13797
لتقلیل	-13798
لمانان	-13799
مرزیده	-13800
مرقندم	-13801
نجیدند	-13802
ندانکه	-13803
ندلیبی	-13804
ندوانه	-13805
نگیخته	-13806
هربانی	-13807
هرستان	-13808
همایون	-13809
وانشان	-13810
وانگان	-13811
ور۱۱۷۱	-13812
وسفندی	-13813
وفاییت	-13814
پسندان	-13815
گانگان	-13816
گریبان	-13817
▁آفرید	-13818
▁آمدست	-13819
▁آموخت	-13820
▁آموزگ	-13821
▁آوارگ	-13822
▁آوازت	-13823
▁استبر	-13824
▁استخو	-13825
▁استقب	-13826
▁اسکند	-13827
▁افرید	-13828
▁البری	-13829
▁القسا	-13830
▁اندام	-13831
▁باختم	-13832
▁بادام	-13833
▁بالعی	-13834
▁بتاری	-13835
▁بتثلی	-13836
▁بتسبی	-13837
▁بتوان	-13838
▁بحریف	-13839
▁بخلعت	-13840
▁بخوان	-13841
▁بدیگر	-13842
▁برآور	-13843
▁براند	-13844
▁برانگ	-13845
▁برانی	-13846
▁برهنگ	-13847
▁برگرد	-13848
▁برگشت	-13849
▁بشارت	-13850
▁بشکاف	-13851
▁بنشان	-13852
▁بواله	-13853
▁بوتیم	-13854
▁بگریز	-13855
▁بگلرخ	-13856
▁بیدلی	-13857
▁بیرجی	-13858
▁بینای	-13859
▁تحقیق	-13860
▁جانگز	-13861
▁جهانگ	-13862
▁جوانب	-13863
▁جوانم	-13864
▁خوانی	-13865
▁خوناب	-13866
▁خونری	-13867
▁خویشت	-13868
▁دادخو	-13869
▁دانست	-13870
▁دریاخ	-13871
▁دستگه	-13872
▁دلاوی	-13873
▁دلبرد	-13874
▁رنجور	-13875
▁روزبر	-13876
▁روشند	-13877
▁زناره	-13878
▁سخنور	-13879
▁سراند	-13880
▁سوداخ	-13881
▁شادزی	-13882
▁شهید۱	-13883
▁شوران	-13884
▁شکرری	-13885
▁شیروی	-13886
▁صاحبد	-13887
▁صیداف	-13888
▁طیران	-13889
▁عنبرف	-13890
▁غمناک	-13891
▁فرادی	-13892
▁فرخند	-13893
▁فرنگی	-13894
▁فسونه	-13895
▁قاصرا	-13896
▁لوحیه	-13897
▁مالام	-13898
▁معلوم	-13899
▁ممنون	-13900
▁مهرور	-13901
▁مهرپر	-13902
▁مولود	-13903
▁میخند	-13904
▁میسوز	-13905
▁میطلب	-13906
▁میناز	-13907
▁مینال	-13908
▁مینگر	-13909
▁ناآشن	-13910
▁نامرد	-13911
▁ناپاک	-13912
▁نخواه	-13913
▁نشناس	-13914
▁نشکست	-13915
▁نمیکن	-13916
▁ننشین	-13917
▁نوامی	-13918
▁نپسند	-13919
▁نگاشت	-13920
▁نیافر	-13921
▁نیستو	-13922
▁همراه	-13923
▁همزان	-13924
▁هواخو	-13925
▁ولادت	-13926
▁پاکیز	-13927
▁پروان	-13928
▁پولاد	-13929
▁کافرو	-13930
▁کشانی	-13931
▁کشاور	-13932
▁کیخسر	-13933
▁کیمیی	-13934
▁گرهگش	-13935
▁گستاخ	-13936
▁گمارم	-13937
▁گمگشت	-13938
▁گهرری	-13939
▁یارای	-13940
اروتشان	-13941
انشوران	-13942
انعامند	-13943
بردستند	-13944
صحبتانش	-13945
فرستادم	-13946
والفقار	-13947
ور۱۱۷۱ه	-13948
وسفندان	-13949
وشمندان	-13950
ونانیان	-13951
یندارند	-13952
▁ابوالح	-13953
▁اخترشن	-13954
▁استخرا	-13955
▁افراسی	-13956
▁الحمدل	-13957
▁العداو	-13958
▁اینگون	-13959
▁ببرادر	-13960
▁بدشنام	-13961
▁بدلبری	-13962
▁بدوشیز	-13963
▁برآواز	-13964
▁برافرا	-13965
▁برافرو	-13966
▁برانگی	-13967
▁برخورد	-13968
▁برنتاب	-13969
▁بشتافت	-13970
▁بمسکین	-13971
▁بناگوش	-13972
▁بنشانی	-13973
▁بهمسای	-13974
▁بوالعج	-13975
▁بگذاری	-13976
▁بگذاشت	-13977
▁بیداره	-13978
▁خدمتگز	-13979
▁خودبین	-13980
▁خوردست	-13981
▁دانشور	-13982
▁دستگیر	-13983
▁دلباخت	-13984
▁دلفروز	-13985
▁راخواه	-13986
▁ریسمان	-13987
▁زرفشان	-13988
▁سرافرا	-13989
▁شتابند	-13990
▁شهید۱۱	-13991
▁عشقباز	-13992
▁فرفوری	-13993
▁فیروزم	-13994
▁قندیله	-13995
▁مشایعت	-13996
▁میتوان	-13997
▁میریزد	-13998
▁میگسار	-13999
▁میگفتم	-14000
▁ناسازگ	-14001
▁ناپسند	-14002
▁نداندا	-14003
▁نمیرنج	-14004
▁ننشاند	-14005
▁نوشخند	-14006
▁نیاموز	-14007
▁نیاورد	-14008
▁نیفروز	-14009
▁هوسناک	-14010
▁واماند	-14011
▁پاکدام	-14012
▁پراکند	-14013
▁پیشانی	-14014
▁کشتزار	-14015
▁گرانبه	-14016
جروشیهای	-14017
وسفرانند	-14018
▁ابوالحس	-14019
▁ابوالفت	-14020
▁افتاددی	-14021
▁افراختم	-14022
▁امیدگاه	-14023
▁برمکیان	-14024
▁دوستدار	-14025
▁ستمگریه	-14026
▁شهید۱۱۹	-14027
▁شکستگان	-14028
▁میشمارم	-14029
▁نشناختم	-14030
▁هواخواه	-14031
▁پرافشان	-14032
▁نارپستان	-14033
▁پاکدامان	-14034
▁محشور۱۱۷۱ه	-14035
▁	-14036
ا	-14037
ن	-14038
ر	-14039
ی	-14040
د	-14041
م	-14042
و	-14043
ه	-14044
ب	-14045
ت	-14046
ز	-14047
ش	-14048
ک	-14049
س	-14050
ل	-14051
گ	-14052
ف	-14053
خ	-14054
آ	-14055
ج	-14056
چ	-14057
ق	-14058
غ	-14059
پ	-14060
ع	-14061
ح	-14062
ص	-14063
ذ	-14064
ط	-14065
ض	-14066
ظ	-14067
ث	-14068
أ	-14069
ژ	-14070
ؤ	-14071
۱	-14072
-	-14073
ء	-14074
.	-14075
۹	-14076
/	-14077
ة	-14078
ـ	-14079
ٰ	-14080
۲	-14081
۵	-14082
۷	-14083
