<unk>	0
<s>	0
</s>	0
▁ا	-0
▁ب	-1
▁ک	-2
▁د	-3
▁م	-4
ان	-5
▁ن	-6
ست	-7
▁ش	-8
▁ر	-9
▁آ	-10
ار	-11
▁و	-12
ین	-13
▁ز	-14
▁گ	-15
▁ت	-16
▁از	-17
▁خ	-18
▁س	-19
▁چ	-20
▁که	-21
ده	-22
▁ه	-23
ند	-24
▁در	-25
▁است	-26
ای	-27
▁ج	-28
▁پ	-29
ام	-30
▁ی	-31
▁این	-32
▁را	-33
▁بر	-34
فت	-35
▁تو	-36
وی	-37
▁با	-38
عر	-39
ود	-40
▁من	-41
ید	-42
▁آن	-43
ون	-44
▁به	-45
رد	-46
▁شعر	-47
یر	-48
▁ع	-49
▁می	-50
اد	-51
▁دل	-52
▁ف	-53
اه	-54
▁سر	-55
شم	-56
خت	-57
▁هم	-58
شت	-59
گر	-60
▁غ	-61
ال	-62
▁ح	-63
وز	-64
ور	-65
▁بی	-66
▁کن	-67
▁ای	-68
▁گر	-69
را	-70
▁ق	-71
▁چو	-72
لی	-73
▁ص	-74
▁نه	-75
وان	-76
وش	-77
▁چه	-78
▁دار	-79
▁مح	-80
بی	-81
▁چون	-82
سی	-83
▁نی	-84
▁تا	-85
بان	-86
▁گل	-87
اری	-88
▁ام	-89
▁سا	-90
▁گفت	-91
لا	-92
مان	-93
▁شد	-94
ذر	-95
▁هر	-96
▁بود	-97
▁دو	-98
▁روز	-99
▁او	-100
▁ل	-101
اره	-102
▁پی	-103
▁جان	-104
شان	-105
ری	-106
فا	-107
می	-108
▁خو	-109
▁یک	-110
▁مو	-111
▁آذر	-112
▁ساخت	-113
▁اد	-114
مد	-115
از	-116
وع	-117
هر	-118
شک	-119
▁«	-120
▁شب	-121
▁ادبی	-122
ضوع	-123
▁موضوع	-124
ارهٔ	-125
شمارهٔ	-126
▁ساختار	-127
نگ	-128
رم	-129
انه	-130
▁کند	-131
▁ط	-132
▁پر	-133
اک	-134
▁بد	-135
اب	-136
▁شک	-137
▁سرو	-138
▁خود	-139
▁زبان	-140
▁فر	-141
▁دی	-142
یم	-143
▁کرد	-144
▁بگ	-145
سته	-146
هان	-147
▁نیست	-148
شد	-149
▁رفت	-150
▁ند	-151
▁چشم	-152
▁ما	-153
▁مرا	-154
▁مر	-155
بر	-156
گی	-157
ستان	-158
▁دارد	-159
▁اف	-160
▁کس	-161
▁بس	-162
▁غم	-163
▁نب	-164
نج	-165
▁وی	-166
▁شا	-167
▁نگ	-168
من	-169
یست	-170
▁خون	-171
▁همه	-172
تو	-173
نه	-174
انی	-175
اف	-176
ایی	-177
شی	-178
▁اگر	-179
▁بین	-180
▁شده	-181
▁کز	-182
▁دست	-183
اند	-184
▁آمد	-185
وس	-186
یز	-187
▁بل	-188
نده	-189
▁غیر	-190
▁روی	-191
دا	-192
▁دا	-193
▁عن	-194
▁دید	-195
رده	-196
▁نش	-197
جا	-198
▁گرد	-199
▁دگر	-200
صه	-201
▁ده	-202
شق	-203
لیل	-204
▁آه	-205
▁باغ	-206
▁چیست	-207
▁یار	-208
له	-209
▁تح	-210
▁یا	-211
▁لب	-212
▁نام	-213
که	-214
▁نا	-215
▁بیت	-216
▁شام	-217
شته	-218
نی	-219
▁گوی	-220
▁خلا	-221
▁کار	-222
امین	-223
▁بخ	-224
▁مض	-225
▁باد	-226
▁دارای	-227
یش	-228
▁شاعر	-229
سر	-230
کن	-231
▁جهان	-232
▁استع	-233
▁تحلیل	-234
▁باز	-235
▁کلا	-236
ایت	-237
▁شامل	-238
▁خلاصه	-239
سیک	-240
ژگی	-241
▁ویژگی	-242
▁کلاسیک	-243
▁شاعرانه	-244
▁/	-245
توای	-246
فاده	-247
▁محور	-248
▁سروده	-249
▁عنوان	-250
▁محتوای	-251
▁مضامین	-252
▁استعاری	-253
▁استفاده	-254
▁تر	-255
اید	-256
ینه	-257
▁کو	-258
▁کرده	-259
اله	-260
▁عشق	-261
▁یکی	-262
امی	-263
▁ره	-264
رف	-265
▁۱	-266
▁آب	-267
دم	-268
▁آر	-269
▁بلب	-270
▁خاک	-271
▁کسی	-272
اهی	-273
قی	-274
▁آت	-275
▁بب	-276
فر	-277
▁مرغ	-278
ستم	-279
▁نمی	-280
فس	-281
▁کش	-282
▁داد	-283
▁راه	-284
یدم	-285
▁دام	-286
هل	-287
▁دم	-288
▁صب	-289
▁کوی	-290
▁بن	-291
▁خوش	-292
▁اند	-293
دی	-294
لم	-295
▁مرد	-296
شن	-297
لک	-298
▁آو	-299
▁بک	-300
▁بت	-301
▁کا	-302
▁ها	-303
اده	-304
▁شن	-305
▁ماند	-306
▁رو	-307
سم	-308
▁خل	-309
▁کنم	-310
▁بز	-311
▁خواه	-312
فته	-313
وه	-314
▁افت	-315
▁نو	-316
▁جز	-317
▁دوست	-318
زار	-319
▁مشک	-320
▁کشت	-321
▁آتش	-322
خته	-323
▁پا	-324
▁بج	-325
▁رخ	-326
▁نک	-327
▁مهر	-328
▁شه	-329
چه	-330
▁شم	-331
گان	-332
▁مه	-333
▁پای	-334
یغ	-335
▁گوش	-336
اج	-337
▁رس	-338
نان	-339
▁مگر	-340
▁چرا	-341
▁شاه	-342
▁درد	-343
▁سوی	-344
ارم	-345
انم	-346
▁خط	-347
▁گذ	-348
▁پیر	-349
▁دلم	-350
روز	-351
▁دیده	-352
▁گفتم	-353
▁آید	-354
▁ازین	-355
▁سو	-356
▁شود	-357
یه	-358
▁صید	-359
یان	-360
▁وفا	-361
نم	-362
▁برد	-363
وت	-364
یده	-365
الم	-366
شب	-367
بت	-368
اص	-369
▁ناله	-370
▁هست	-371
▁ال	-372
▁داشت	-373
▁سپ	-374
▁مج	-375
مر	-376
▁پیش	-377
▁نخ	-378
▁بلبل	-379
▁کی	-380
▁آس	-381
▁ماه	-382
ایه	-383
توان	-384
ات	-385
▁بست	-386
در	-387
▁دشم	-388
▁یی	-389
▁نامه	-390
▁نظ	-391
است	-392
مین	-393
▁ولی	-394
▁خر	-395
گه	-396
▁دور	-397
▁قفس	-398
▁امشب	-399
یل	-400
ویش	-401
▁عج	-402
▁دارم	-403
▁گو	-404
به	-405
▁ری	-406
وم	-407
▁حرف	-408
نت	-409
▁گرفت	-410
قت	-411
▁بهر	-412
ارد	-413
▁نبود	-414
▁کآ	-415
یند	-416
▁تن	-417
▁آنکه	-418
طر	-419
▁همان	-420
غان	-421
▁نشان	-422
▁وص	-423
▁گی	-424
▁سینه	-425
مه	-426
▁تیر	-427
ویم	-428
افل	-429
▁پس	-430
▁یاد	-431
نین	-432
▁دانی	-433
نش	-434
▁فت	-435
قه	-436
زه	-437
▁آنجا	-438
حر	-439
▁شیر	-440
▁فرا	-441
مت	-442
▁جام	-443
گاه	-444
▁آز	-445
▁ار	-446
وق	-447
وست	-448
زد	-449
▁غل	-450
▁میان	-451
جر	-452
فرین	-453
ندان	-454
ادی	-455
یرم	-456
ها	-457
▁جوان	-458
ارش	-459
گند	-460
▁آستان	-461
اغ	-462
▁نر	-463
▁تنگ	-464
▁روان	-465
▁امروز	-466
▁وز	-467
▁تیغ	-468
▁نبا	-469
▁آورد	-470
▁ور	-471
امت	-472
▁اس	-473
▁بپ	-474
▁رب	-475
▁اما	-476
▁خرا	-477
▁آفرین	-478
دل	-479
▁آم	-480
▁زین	-481
▁گشت	-482
▁-	-483
▁کم	-484
▁روزی	-485
▁ظ	-486
▁برخ	-487
▁بو	-488
▁اهل	-489
▁نم	-490
▁ناز	-491
▁کجا	-492
▁بسته	-493
▁لی	-494
▁برآ	-495
▁سخ	-496
▁آشی	-497
▁چمن	-498
▁سب	-499
▁کف	-500
▁آرز	-501
▁زن	-502
▁حال	-503
▁فلک	-504
▁نتوان	-505
▁آفرینش	-506
▁بم	-507
▁بند	-508
▁صبح	-509
▁زد	-510
▁مردم	-511
یدی	-512
▁بیر	-513
▁خدا	-514
▁سایه	-515
▁رنج	-516
▁شاخ	-517
▁باشد	-518
▁نهان	-519
▁نباشد	-520
▁دیگر	-521
▁غافل	-522
شر	-523
▁جای	-524
▁مست	-525
▁کشد	-526
▁بزم	-527
▁حس	-528
▁مع	-529
یب	-530
▁زر	-531
▁هی	-532
▁بوی	-533
▁شهر	-534
▁صبا	-535
▁رشک	-536
▁سوز	-537
▁کام	-538
اشت	-539
▁بسر	-540
هی	-541
▁نگر	-542
یزد	-543
▁بمن	-544
▁مد	-545
ماند	-546
▁ستم	-547
▁هجر	-548
▁هزار	-549
▁بسی	-550
▁گفتی	-551
▁آشیان	-552
گار	-553
▁خور	-554
▁کنون	-555
▁مس	-556
▁افس	-557
▁بیم	-558
▁گاه	-559
▁زل	-560
▁بیرون	-561
اش	-562
الی	-563
▁بگو	-564
▁صد	-565
انده	-566
▁هیچ	-567
▁کشته	-568
کان	-569
یشه	-570
▁نق	-571
▁بینم	-572
▁زمان	-573
▁دهد	-574
▁جا	-575
▁بید	-576
▁چند	-577
▁گویم	-578
زل	-579
▁عمر	-580
▁بیا	-581
▁خلق	-582
▁نظر	-583
عت	-584
وا	-585
▁جم	-586
▁زمین	-587
▁شرم	-588
▁شکر	-589
▁امید	-590
ردم	-591
▁مب	-592
▁ابر	-593
اق	-594
▁آی	-595
▁قد	-596
▁شکوه	-597
▁سود	-598
خر	-599
صر	-600
ادم	-601
▁آنچه	-602
▁رح	-603
▁جفا	-604
▁باید	-605
▁تم	-606
▁فرد	-607
▁سل	-608
▁زند	-609
▁شبی	-610
▁فشان	-611
▁محمد	-612
مل	-613
▁نیک	-614
▁وگر	-615
▁آسمان	-616
▁بخت	-617
▁دوش	-618
▁رفته	-619
▁کردی	-620
▁یاری	-621
چو	-622
▁رقی	-623
▁فرو	-624
لب	-625
▁نماند	-626
▁اش	-627
▁ان	-628
▁رود	-629
▁زان	-630
▁میک	-631
▁گله	-632
▁پهل	-633
▁دشمن	-634
▁مشکل	-635
▁چنین	-636
لت	-637
یران	-638
▁سحر	-639
▁پاک	-640
▁خواهد	-641
▁شنیدم	-642
ندم	-643
▁خنده	-644
کر	-645
▁حی	-646
امان	-647
▁خوان	-648
کنم	-649
▁بال	-650
▁مانده	-651
آن	-652
▁سنگ	-653
▁آواز	-654
سرت	-655
فای	-656
▁قاص	-657
▁پرو	-658
کنون	-659
▁اکنون	-660
یار	-661
▁بام	-662
▁بگذ	-663
▁همچو	-664
▁شیرین	-665
▁ندارد	-666
▁نشسته	-667
▁لط	-668
حت	-669
▁خوی	-670
▁روش	-671
▁پند	-672
▁بنده	-673
فی	-674
▁حک	-675
▁راز	-676
▁زیر	-677
▁شمع	-678
▁کشی	-679
▁حسرت	-680
▁کنی	-681
وری	-682
▁اب	-683
▁جور	-684
▁بینی	-685
رس	-686
▁اخت	-687
▁ازو	-688
▁ملک	-689
ورده	-690
▁عجب	-691
▁زنده	-692
▁فغان	-693
کش	-694
یری	-695
▁برگ	-696
▁گنج	-697
▁دیدم	-698
اس	-699
▁نفس	-700
▁وصل	-701
▁ببین	-702
▁گمان	-703
یاد	-704
▁گش	-705
▁بار	-706
▁همی	-707
▁اندر	-708
▁ذ	-709
▁ساز	-710
▁خام	-711
▁نشن	-712
وده	-713
▁دع	-714
اریخ	-715
▁خسر	-716
▁مکن	-717
▁پرده	-718
▁سی	-719
ره	-720
ویی	-721
▁خار	-722
▁سخن	-723
زون	-724
▁نغ	-725
▁زلف	-726
▁وقت	-727
تر	-728
هد	-729
▁آش	-730
▁سگ	-731
▁حرم	-732
▁دانم	-733
▁روزگار	-734
ضر	-735
▁بیش	-736
▁نیز	-737
▁سپهر	-738
▁مباد	-739
تف	-740
▁داغ	-741
▁ترسم	-742
▁گوشه	-743
▁گیرد	-744
▁باغبان	-745
▁بیگ	-746
▁منت	-747
▁دلت	-748
▁طرف	-749
▁بگرد	-750
▁خواج	-751
▁گریه	-752
▁دوستان	-753
وف	-754
گفت	-755
▁گم	-756
▁میر	-757
▁داری	-758
▁دامن	-759
▁خم	-760
▁درخت	-761
حی	-762
انش	-763
▁ریز	-764
▁آمده	-765
▁گشته	-766
▁تاریخ	-767
وید	-768
▁حل	-769
▁گلی	-770
▁چنان	-771
ناه	-772
▁آری	-773
▁رخت	-774
▁پاس	-775
▁فردا	-776
▁گلشن	-777
تم	-778
▁ض	-779
ندی	-780
▁آخر	-781
لس	-782
شتر	-783
واه	-784
سیده	-785
▁فراق	-786
▁بش	-787
▁بچ	-788
▁تل	-789
▁بدل	-790
▁کرم	-791
▁داده	-792
▁هاتف	-793
▁آرزوست	-794
▁بنش	-795
▁سیم	-796
▁ریخت	-797
▁شکایت	-798
کی	-799
دایی	-800
▁آشن	-801
▁شوق	-802
▁لطف	-803
▁نگه	-804
▁باشی	-805
▁بیند	-806
▁خراب	-807
▁کشتی	-808
▁گویی	-809
▁خواهم	-810
دای	-811
▁خبر	-812
▁سال	-813
▁نسی	-814
▁افتاد	-815
اشق	-816
▁مش	-817
▁مگ	-818
▁اشک	-819
▁خانه	-820
▁تنه	-821
▁فری	-822
▁لیک	-823
▁نال	-824
▁خویش	-825
▁دریغ	-826
▁نکند	-827
▁برخیز	-828
عی	-829
▁خج	-830
▁دیر	-831
▁رنگ	-832
▁لاله	-833
ثر	-834
نب	-835
شید	-836
▁بع	-837
▁جو	-838
▁ست	-839
▁هو	-840
▁تهی	-841
▁درین	-842
▁خا	-843
▁منزل	-844
▁کشید	-845
▁کویت	-846
عل	-847
هم	-848
▁نگذ	-849
▁افتد	-850
▁نشین	-851
▁چین	-852
▁وع	-853
اخته	-854
▁جدا	-855
▁شوی	-856
▁بودم	-857
▁خواجه	-858
طان	-859
▁بص	-860
▁عر	-861
▁جود	-862
▁دین	-863
▁برده	-864
▁عالم	-865
▁بغ	-866
▁زده	-867
▁سرا	-868
▁پدر	-869
▁رقیب	-870
▁روشن	-871
بار	-872
ستی	-873
▁اول	-874
▁خضر	-875
▁ظلم	-876
▁تازه	-877
▁تنها	-878
▁اح	-879
▁صف	-880
▁زهر	-881
▁شاد	-882
▁بهار	-883
▁جویم	-884
▁ساقی	-885
▁سیاه	-886
▁ماهی	-887
▁میخ	-888
▁بنشین	-889
▁عق	-890
▁صیاد	-891
▁آشفته	-892
ارت	-893
ویت	-894
▁کنج	-895
▁فگند	-896
▁یاران	-897
زم	-898
▁تلخ	-899
▁بدست	-900
▁عاشق	-901
▁۲	-902
ساز	-903
▁بح	-904
غیار	-905
▁نوش	-906
▁باشم	-907
▁خورد	-908
▁قاصد	-909
▁کاین	-910
▁ندیدم	-911
▁بهشت	-912
▁نغمه	-913
▁گیرم	-914
▁رسیده	-915
بری	-916
فتاب	-917
▁آگه	-918
▁گوید	-919
▁حکایت	-920
▁آغ	-921
▁غر	-922
▁کاش	-923
▁گذشت	-924
▁درویش	-925
گز	-926
▁کل	-927
▁بآن	-928
▁جگر	-929
▁قدر	-930
▁افسوس	-931
▁اینکه	-932
خم	-933
▁صبر	-934
▁طلب	-935
▁گیر	-936
▁حلقه	-937
▁افتاده	-938
▁بوستان	-939
؟!	-940
ایش	-941
یدن	-942
▁بشک	-943
▁پوش	-944
▁عجبی	-945
▁وعده	-946
▁کردم	-947
▁گردد	-948
▁اغیار	-949
اح	-950
تی	-951
عه	-952
زان	-953
▁حر	-954
▁شی	-955
▁بدگ	-956
▁آفتاب	-957
▁جانان	-958
وال	-959
▁قم	-960
▁مغ	-961
داشت	-962
▁دهی	-963
▁گرم	-964
▁بتان	-965
▁چکنم	-966
▁برداشت	-967
زن	-968
▁حج	-969
▁بوس	-970
▁موی	-971
▁نور	-972
▁نیم	-973
▁توان	-974
▁انج	-975
رو	-976
وار	-977
گون	-978
▁صح	-979
▁نع	-980
▁چک	-981
انند	-982
▁گذر	-983
▁اختر	-984
▁بلبلی	-985
▁برخیزم	-986
وک	-987
▁۳	-988
▁برم	-989
▁تاب	-990
▁جست	-991
▁عدل	-992
▁مرگ	-993
▁اوست	-994
▁جامی	-995
▁خسرو	-996
▁شکست	-997
▁کشتن	-998
مش	-999
ادر	-1000
▁اص	-1001
▁خان	-1002
▁دری	-1003
▁جنان	-1004
▁محبت	-1005
▁محمل	-1006
▁نکرد	-1007
▁افروز	-1008
▁کب	-1009
▁فکر	-1010
▁آرند	-1011
▁باین	-1012
▁توام	-1013
▁مهربان	-1014
▁۴	-1015
سند	-1016
وزه	-1017
▁دلش	-1018
▁مید	-1019
▁هوس	-1020
▁بلند	-1021
▁پاسبان	-1022
▁۵	-1023
▁خلوت	-1024
▁رسید	-1025
▁عیان	-1026
▁کاری	-1027
▁بگردانی	-1028
اخ	-1029
قص	-1030
ارند	-1031
▁آرم	-1032
▁خواب	-1033
▁نگاه	-1034
▁بگذشت	-1035
▁خواست	-1036
▁کاروان	-1037
کین	-1038
▁سف	-1039
▁قی	-1040
▁نن	-1041
▁رسد	-1042
▁روم	-1043
▁زود	-1044
▁عهد	-1045
▁گوهر	-1046
▁ایشان	-1047
نون	-1048
▁قت	-1049
▁بره	-1050
▁مجلس	-1051
▁مشکین	-1052
رخ	-1053
صت	-1054
▁مپ	-1055
▁غیرت	-1056
▁لیلی	-1057
▁گردن	-1058
▁گفتن	-1059
▁گز	-1060
▁حیف	-1061
▁نشد	-1062
▁سوخت	-1063
▁ناید	-1064
▁پهلو	-1065
▁کیست	-1066
▁نگذاشت	-1067
▁انت	-1068
▁کشم	-1069
▁آمدی	-1070
▁بادا	-1071
▁جانم	-1072
▁سبزه	-1073
▁ورنه	-1074
▁سلطان	-1075
او	-1076
فه	-1077
ادت	-1078
▁جل	-1079
▁لو	-1080
▁خاص	-1081
▁زاه	-1082
▁های	-1083
▁پری	-1084
▁بجان	-1085
▁برون	-1086
▁دیدی	-1087
▁راست	-1088
▁ندیده	-1089
ادش	-1090
عبه	-1091
▁بف	-1092
▁غن	-1093
▁یع	-1094
▁شان	-1095
▁تماش	-1096
▁جفای	-1097
▁خاطر	-1098
▁فرست	-1099
▁محشر	-1100
▁چشمه	-1101
▁گرچه	-1102
▁مرغان	-1103
▁خورشید	-1104
اع	-1105
ریم	-1106
▁منع	-1107
▁گهر	-1108
▁شاید	-1109
▁نشست	-1110
▁گفتا	-1111
ضه	-1112
اخت	-1113
▁قص	-1114
▁دان	-1115
▁دود	-1116
▁سخت	-1117
▁میگ	-1118
▁چراغ	-1119
▁نبیند	-1120
▁تب	-1121
▁مخ	-1122
▁پن	-1123
▁عذر	-1124
▁مین	-1125
▁تیره	-1126
▁گناه	-1127
▁بستند	-1128
▁درمان	-1129
یت	-1130
ایق	-1131
حان	-1132
▁قط	-1133
▁اثر	-1134
▁ادب	-1135
▁زار	-1136
▁صاف	-1137
▁منش	-1138
▁ناخ	-1139
▁بباغ	-1140
▁برای	-1141
▁آورده	-1142
▁گردون	-1143
▁بدگمان	-1144
قب	-1145
▁ات	-1146
▁نز	-1147
▁انگ	-1148
▁بیخ	-1149
▁رحم	-1150
▁لعل	-1151
▁حرفی	-1152
▁دمید	-1153
▁کعبه	-1154
سد	-1155
وغ	-1156
▁بده	-1157
▁نقش	-1158
▁بیتو	-1159
▁زاری	-1160
▁شگفت	-1161
▁هرگز	-1162
▁پیمان	-1163
کس	-1164
وسف	-1165
▁آل	-1166
▁مژ	-1167
▁سیه	-1168
▁گردم	-1169
▁برآید	-1170
با	-1171
ردی	-1172
▁اج	-1173
▁قر	-1174
▁کت	-1175
▁کج	-1176
▁گنه	-1177
▁باده	-1178
▁رشته	-1179
▁شهید	-1180
▁نبرد	-1181
▁کمان	-1182
▁ریخته	-1183
▁گلستان	-1184
▁ث	-1185
هاد	-1186
▁حق	-1187
▁لا	-1188
▁مل	-1189
وانه	-1190
گنده	-1191
▁حسن	-1192
▁طبی	-1193
▁نهد	-1194
▁پیغ	-1195
▁چار	-1196
▁آشنا	-1197
▁ایزد	-1198
▁دیدن	-1199
▁نیمی	-1200
▁چشمم	-1201
▁کشان	-1202
▁گریم	-1203
▁جدایی	-1204
▁خوشتر	-1205
▁فریاد	-1206
▁کشیده	-1207
سل	-1208
ضا	-1209
قم	-1210
▁تش	-1211
▁فق	-1212
▁بخل	-1213
▁تخت	-1214
▁دعا	-1215
▁زاغ	-1216
▁آزاد	-1217
▁زاهد	-1218
▁نخست	-1219
▁آیینه	-1220
▁بط	-1221
▁سج	-1222
▁طب	-1223
نیده	-1224
▁بخش	-1225
▁خرم	-1226
▁چاک	-1227
▁دیار	-1228
▁زاده	-1229
▁نهاد	-1230
▁نگفت	-1231
▁افزون	-1232
▁پهلوی	-1233
ریف	-1234
▁مق	-1235
▁بزر	-1236
▁غمت	-1237
▁کان	-1238
▁پوست	-1239
▁انجمن	-1240
▁نداشت	-1241
راب	-1242
▁شو	-1243
▁خفت	-1244
▁فروز	-1245
▁نسیم	-1246
▁وگرنه	-1247
دمت	-1248
دهد	-1249
راز	-1250
▁خس	-1251
▁زم	-1252
▁شر	-1253
▁هن	-1254
▁سلی	-1255
▁آغاز	-1256
▁خالی	-1257
▁کنار	-1258
▁صباحی	-1259
▁ندانم	-1260
▁پنهان	-1261
▁گفتمش	-1262
▁خواهیم	-1263
▁غلامان	-1264
▁ناتوان	-1265
جد	-1266
الت	-1267
بین	-1268
سان	-1269
▁آرا	-1270
▁بشن	-1271
▁دشت	-1272
▁زنی	-1273
▁نخل	-1274
▁وای	-1275
▁آموز	-1276
▁بخاک	-1277
▁بودش	-1278
▁دانه	-1279
▁نالم	-1280
▁افگند	-1281
▁دامان	-1282
▁نخواه	-1283
▁پیکان	-1284
جی	-1285
▁سم	-1286
یبان	-1287
▁بتو	-1288
▁بنا	-1289
▁بگر	-1290
▁خیز	-1291
▁روح	-1292
▁زخم	-1293
▁هما	-1294
▁بخود	-1295
▁خدای	-1296
▁خونم	-1297
▁فزون	-1298
▁مجید	-1299
▁مص	-1300
▁حسین	-1301
▁شنفت	-1302
▁یافت	-1303
▁دیگران	-1304
لهی	-1305
▁عب	-1306
▁آهی	-1307
▁خوا	-1308
▁صاح	-1309
▁عید	-1310
▁وین	-1311
▁خیزد	-1312
▁شبان	-1313
▁یوسف	-1314
▁پرورد	-1315
▁کجایی	-1316
▁پنداری	-1317
سار	-1318
نگی	-1319
▁عی	-1320
▁نف	-1321
▁۱۱	-1322
▁ترک	-1323
▁حاص	-1324
▁فرخ	-1325
▁مطر	-1326
▁پسر	-1327
▁کاو	-1328
▁کین	-1329
▁گلش	-1330
▁یاب	-1331
▁بدام	-1332
▁بچشم	-1333
▁دردم	-1334
▁عنبر	-1335
▁ناوک	-1336
▁گفتش	-1337
▁گیتی	-1338
▁بودند	-1339
▁خواند	-1340
▁فرهاد	-1341
▁اندیشه	-1342
▁سلیمان	-1343
ضی	-1344
وشی	-1345
▁تأ	-1346
▁نس	-1347
▁آوی	-1348
▁بان	-1349
▁بگل	-1350
▁بیک	-1351
▁خیر	-1352
▁رسم	-1353
▁سرد	-1354
▁سفر	-1355
▁قلم	-1356
▁پید	-1357
▁گرگ	-1358
▁بروز	-1359
▁بگفت	-1360
▁خوشه	-1361
▁سرای	-1362
▁طبیب	-1363
▁غنچه	-1364
▁مرغی	-1365
▁مسکین	-1366
▁گرفته	-1367
ول	-1368
گس	-1369
یی	-1370
ایل	-1371
▁تار	-1372
▁خند	-1373
▁شیخ	-1374
▁قصر	-1375
▁گرت	-1376
▁آباد	-1377
▁بوده	-1378
▁خامه	-1379
▁رفتن	-1380
▁رفتی	-1381
▁شنید	-1382
▁فتاد	-1383
▁خندان	-1384
▁مجنون	-1385
▁گریبان	-1386
طره	-1387
▁زیب	-1388
▁پشت	-1389
▁چرخ	-1390
▁تمام	-1391
▁دهند	-1392
▁غمین	-1393
▁قطره	-1394
▁کینه	-1395
▁گفته	-1396
▁خونین	-1397
▁زمانه	-1398
▁سراسر	-1399
سه	-1400
کم	-1401
فتر	-1402
▁شع	-1403
▁کد	-1404
میده	-1405
نجیر	-1406
▁درت	-1407
▁پرس	-1408
▁کاف	-1409
▁الله	-1410
▁اینک	-1411
▁دردی	-1412
▁رفتم	-1413
▁مپرس	-1414
▁چکند	-1415
▁گدای	-1416
▁گذرد	-1417
▁دادند	-1418
▁دندان	-1419
زی	-1420
اقت	-1421
حاب	-1422
▁حم	-1423
▁وف	-1424
ارها	-1425
گاهی	-1426
▁برو	-1427
▁بفر	-1428
▁جنگ	-1429
▁دزد	-1430
▁زمن	-1431
▁غری	-1432
▁غمی	-1433
▁پیو	-1434
▁بسوی	-1435
▁جامه	-1436
▁حاصل	-1437
▁راهی	-1438
▁رخنه	-1439
▁ریزد	-1440
▁صاحب	-1441
▁محرم	-1442
▁گاهی	-1443
▁بگذرد	-1444
▁بیداد	-1445
▁جوانی	-1446
▁پرواز	-1447
▁گدایی	-1448
▁میکردم	-1449
غر	-1450
فل	-1451
جاج	-1452
▁خد	-1453
▁طم	-1454
▁عذ	-1455
▁بکف	-1456
▁حشر	-1457
▁خیل	-1458
▁علی	-1459
▁فرز	-1460
▁قدم	-1461
▁آرام	-1462
▁آزار	-1463
▁انتظ	-1464
▁خدمت	-1465
▁خزان	-1466
▁قطعه	-1467
▁پرست	-1468
▁یعنی	-1469
▁رساند	-1470
▁قیامت	-1471
▁پیغام	-1472
کب	-1473
▁۶	-1474
▁۷	-1475
▁۸	-1476
▁بق	-1477
▁جغ	-1478
▁۱۰	-1479
▁۱۲	-1480
▁۱۴	-1481
▁جرم	-1482
▁حور	-1483
▁رام	-1484
▁رخش	-1485
▁شدم	-1486
▁عار	-1487
▁عام	-1488
▁کهن	-1489
▁آمدش	-1490
▁ایاز	-1491
▁خلقی	-1492
▁دلبر	-1493
▁سروی	-1494
▁فرصت	-1495
▁نرگس	-1496
▁نیام	-1497
▁افسون	-1498
▁افشان	-1499
▁نسیمی	-1500
▁نهانی	-1501
▁گویند	-1502
▁رقیبان	-1503
دار	-1504
▁جر	-1505
▁فص	-1506
▁عاق	-1507
▁مدح	-1508
▁کای	-1509
▁امین	-1510
▁برند	-1511
▁صحبت	-1512
▁آرزوی	-1513
▁دوستی	-1514
▁۹	-1515
گری	-1516
▁وا	-1517
▁۱۳	-1518
▁۱۵	-1519
▁۱۶	-1520
▁۱۷	-1521
▁باش	-1522
▁بهم	-1523
▁خجل	-1524
▁خلد	-1525
▁شوخ	-1526
▁غوغ	-1527
▁فتد	-1528
▁چنگ	-1529
▁بیضه	-1530
▁خفته	-1531
▁دفتر	-1532
▁ساده	-1533
▁پرور	-1534
▁بایدش	-1535
▁زنجیر	-1536
بیل	-1537
زود	-1538
های	-1539
ورد	-1540
گین	-1541
نبال	-1542
▁امت	-1543
▁بای	-1544
▁تست	-1545
▁حدی	-1546
▁دهم	-1547
▁محت	-1548
▁منم	-1549
▁کزو	-1550
▁افسر	-1551
▁الهی	-1552
▁خسته	-1553
▁سفید	-1554
▁مطرب	-1555
▁مغنی	-1556
▁آوردی	-1557
▁بسیار	-1558
▁شکسته	-1559
▁فرمان	-1560
▁برخیزد	-1561
حه	-1562
ران	-1563
زای	-1564
▁تغ	-1565
▁رع	-1566
▁طع	-1567
▁طل	-1568
خواه	-1569
لمان	-1570
▁آرد	-1571
▁برب	-1572
▁حیر	-1573
▁سرم	-1574
▁عیب	-1575
▁قات	-1576
▁قتل	-1577
▁ناف	-1578
▁ننش	-1579
▁هوا	-1580
▁خاکش	-1581
▁خروش	-1582
▁داند	-1583
▁دردا	-1584
▁فرام	-1585
▁ناقه	-1586
▁نمید	-1587
▁پیدا	-1588
▁چهره	-1589
▁کسان	-1590
▁آزاده	-1591
▁آسوده	-1592
▁داشتم	-1593
ابی	-1594
داد	-1595
دان	-1596
ریز	-1597
▁رض	-1598
▁مت	-1599
▁گه	-1600
فشان	-1601
▁افگ	-1602
▁بکش	-1603
▁تاج	-1604
▁خال	-1605
▁زدی	-1606
▁عقل	-1607
▁غرض	-1608
▁فیر	-1609
▁قوت	-1610
▁لبت	-1611
▁گلب	-1612
▁بودی	-1613
▁دانش	-1614
▁ساحت	-1615
▁سراغ	-1616
▁شیشه	-1617
▁ندان	-1618
▁پسند	-1619
▁کنند	-1620
▁گردی	-1621
▁شنیده	-1622
▁شکاری	-1623
▁ناگاه	-1624
▁گریان	-1625
▁پروانه	-1626
خش	-1627
▁ایام	-1628
▁حریف	-1629
▁فریب	-1630
رب	-1631
شه	-1632
وط	-1633
ایم	-1634
وشم	-1635
▁عد	-1636
▁مط	-1637
▁آست	-1638
▁ارم	-1639
▁مال	-1640
▁منی	-1641
▁ناک	-1642
▁اسیر	-1643
▁نگار	-1644
▁پیره	-1645
▁کریم	-1646
▁خاموش	-1647
▁دگران	-1648
▁ریزند	-1649
▁ندانی	-1650
▁اسیران	-1651
سا	-1652
۱۱	-1653
ابت	-1654
قار	-1655
مود	-1656
▁تک	-1657
▁مک	-1658
ستمت	-1659
گونه	-1660
▁اجل	-1661
▁بدی	-1662
▁رای	-1663
▁زآن	-1664
▁سیر	-1665
▁قدح	-1666
▁نقد	-1667
▁همت	-1668
▁آسان	-1669
▁باخت	-1670
▁براف	-1671
▁بندد	-1672
▁دراز	-1673
▁دسته	-1674
▁شادم	-1675
▁شاهی	-1676
▁چشمی	-1677
▁کنان	-1678
▁گذار	-1679
▁گفتگ	-1680
▁دشمنی	-1681
▁میگفت	-1682
▁ناساز	-1683
▁نرویم	-1684
▁نکرده	-1685
▁یابند	-1686
▁بنشینم	-1687
▁شهیدان	-1688
▁گرفتار	-1689
صاف	-1690
قان	-1691
مون	-1692
▁دف	-1693
▁قب	-1694
شکده	-1695
▁آدم	-1696
▁الا	-1697
▁ببر	-1698
▁بجز	-1699
▁بدو	-1700
▁تأث	-1701
▁جوش	-1702
▁حاج	-1703
▁دلی	-1704
▁شور	-1705
▁طبع	-1706
▁طوف	-1707
▁عود	-1708
▁مصر	-1709
▁مهد	-1710
▁میز	-1711
▁ننگ	-1712
▁نهم	-1713
▁یکد	-1714
▁بازی	-1715
▁بروی	-1716
▁جبین	-1717
▁حالم	-1718
▁حیله	-1719
▁دهان	-1720
▁سراف	-1721
▁شکفت	-1722
▁غبار	-1723
▁هوای	-1724
▁وفات	-1725
▁پادش	-1726
▁پرسی	-1727
▁چشمش	-1728
▁کارم	-1729
▁کشند	-1730
▁کمند	-1731
▁افغان	-1732
▁بیخبر	-1733
▁بیگنه	-1734
▁دامنت	-1735
▁دربان	-1736
▁سپارم	-1737
▁نشاند	-1738
▁نشنود	-1739
▁گذارم	-1740
▁امتحان	-1741
▁دشمنان	-1742
▁فراموش	-1743
▁مسلمان	-1744
باب	-1745
عان	-1746
لیس	-1747
چار	-1748
▁له	-1749
▁وح	-1750
▁۱۸	-1751
▁آبش	-1752
▁آشک	-1753
▁آمی	-1754
▁بگش	-1755
▁دخت	-1756
▁رها	-1757
▁طمع	-1758
▁قصه	-1759
▁مشت	-1760
▁مکش	-1761
▁نان	-1762
▁نشک	-1763
▁نظم	-1764
▁هفت	-1765
▁کیش	-1766
▁باغی	-1767
▁باور	-1768
▁بصبر	-1769
▁دادی	-1770
▁درید	-1771
▁زیان	-1772
▁سجده	-1773
▁شدند	-1774
▁غلام	-1775
▁قاتل	-1776
▁قمری	-1777
▁نوشت	-1778
▁هنوز	-1779
▁کمین	-1780
▁گویا	-1781
▁احوال	-1782
▁تنگدل	-1783
▁خواهی	-1784
▁ساخته	-1785
▁مهمان	-1786
▁ندارم	-1787
▁پیشتر	-1788
▁گفتند	-1789
وفا	-1790
▁سع	-1791
▁قف	-1792
▁آیی	-1793
▁خرام	-1794
▁میده	-1795
▁رنگین	-1796
▁سنگدل	-1797
▁نازنین	-1798
لیب	-1799
▁تع	-1800
▁شمش	-1801
▁عند	-1802
▁کوت	-1803
▁کوه	-1804
▁رویت	-1805
▁نالد	-1806
▁ایوان	-1807
▁ستمگر	-1808
▁شکفته	-1809
▁پیمانه	-1810
ندد	-1811
▁آد	-1812
▁رم	-1813
▁زغ	-1814
▁صل	-1815
▁نپ	-1816
▁وط	-1817
اختم	-1818
ازیم	-1819
الید	-1820
روخت	-1821
▁الق	-1822
▁بدخ	-1823
▁تذر	-1824
▁خشم	-1825
▁دلا	-1826
▁دمی	-1827
▁صنم	-1828
▁عین	-1829
▁قاف	-1830
▁براه	-1831
▁بپاس	-1832
▁تویی	-1833
▁جایی	-1834
▁جمال	-1835
▁ساعت	-1836
▁طاقت	-1837
▁غریب	-1838
▁قامت	-1839
▁وفای	-1840
▁چاره	-1841
▁ایران	-1842
▁برآمد	-1843
▁بیدار	-1844
▁دلبری	-1845
▁دیوار	-1846
▁شاهان	-1847
▁غمگین	-1848
▁فتاده	-1849
▁فشانم	-1850
▁قاصدی	-1851
▁ویران	-1852
▁آشنایی	-1853
▁بندگان	-1854
▁خواستم	-1855
بد	-1856
افت	-1857
ثوم	-1858
یور	-1859
▁عم	-1860
▁غز	-1861
اریم	-1862
اهان	-1863
▁اسم	-1864
▁اعت	-1865
▁برق	-1866
▁بمی	-1867
▁دوا	-1868
▁دیو	-1869
▁رست	-1870
▁رقص	-1871
▁ریش	-1872
▁زال	-1873
▁فصل	-1874
▁لال	-1875
▁لبم	-1876
▁مشو	-1877
▁مگو	-1878
▁نار	-1879
▁نغز	-1880
▁پشم	-1881
▁گره	-1882
▁گلم	-1883
▁گیس	-1884
▁آگاه	-1885
▁بکسی	-1886
▁بیاد	-1887
▁تذرو	-1888
▁جورت	-1889
▁جوید	-1890
▁رسته	-1891
▁رنجش	-1892
▁زهره	-1893
▁شهره	-1894
▁فتنه	-1895
▁مادر	-1896
▁مدار	-1897
▁همین	-1898
▁هوشم	-1899
▁کآمد	-1900
▁کوثر	-1901
▁گشاد	-1902
▁آزرده	-1903
▁تغافل	-1904
▁تماشا	-1905
▁دریغا	-1906
▁دهقان	-1907
▁فاخته	-1908
▁نالان	-1909
▁نشانی	-1910
▁پیامی	-1911
▁چندان	-1912
▁کلثوم	-1913
▁آتشکده	-1914
جم	-1915
وب	-1916
گذ	-1917
امه	-1918
لاج	-1919
لان	-1920
نجر	-1921
کند	-1922
▁خی	-1923
▁صی	-1924
شنام	-1925
▁آبی	-1926
▁اصف	-1927
▁بری	-1928
▁بعد	-1929
▁جرس	-1930
▁جغد	-1931
▁جوی	-1932
▁درم	-1933
▁ذوق	-1934
▁رقم	-1935
▁زنه	-1936
▁سبز	-1937
▁سرش	-1938
▁سست	-1939
▁سلس	-1940
▁سمن	-1941
▁سنب	-1942
▁غلط	-1943
▁پار	-1944
▁آغوش	-1945
▁آهوی	-1946
▁افرا	-1947
▁اولی	-1948
▁ببزم	-1949
▁بسکه	-1950
▁بکار	-1951
▁تشنه	-1952
▁خاست	-1953
▁خداو	-1954
▁خنجر	-1955
▁دستی	-1956
▁رستم	-1957
▁سویت	-1958
▁عامل	-1959
▁قتلم	-1960
▁مایل	-1961
▁میوه	-1962
▁نهال	-1963
▁وصال	-1964
▁پایی	-1965
▁پرتو	-1966
▁کشور	-1967
▁گران	-1968
▁آشکار	-1969
▁ابلیس	-1970
▁انصاف	-1971
▁خونبه	-1972
▁ستاره	-1973
▁فشاند	-1974
▁فگنده	-1975
▁همانا	-1976
▁گرفتم	-1977
▁آویخته	-1978
▁بیگانه	-1979
خوان	-1980
▁آیم	-1981
▁زاد	-1982
▁سبب	-1983
▁هوش	-1984
▁آنان	-1985
▁امیر	-1986
▁برسد	-1987
▁بگوش	-1988
▁دوری	-1989
▁دوشم	-1990
▁شهری	-1991
▁غارت	-1992
▁بیوفا	-1993
▁قصیده	-1994
تا	-1995
▁دون	-1996
▁صدر	-1997
▁صفا	-1998
▁میم	-1999
▁نوی	-2000
▁کآن	-2001
▁کود	-2002
▁بدری	-2003
▁برین	-2004
▁بگذر	-2005
▁حساب	-2006
▁فرود	-2007
▁خسروی	-2008
▁دمساز	-2009
▁گریست	-2010
▁گشاده	-2011
▁گدایان	-2012
ابر	-2013
میر	-2014
▁رک	-2015
▁زخ	-2016
▁عف	-2017
عیان	-2018
وابی	-2019
گانی	-2020
گهان	-2021
گیرد	-2022
▁بصد	-2023
▁دلب	-2024
▁شما	-2025
▁نکه	-2026
▁نیش	-2027
▁آوری	-2028
▁برود	-2029
▁بپای	-2030
▁حدیث	-2031
▁دستش	-2032
▁رسند	-2033
▁روزه	-2034
▁زیاد	-2035
▁شادی	-2036
▁ماده	-2037
▁ندید	-2038
▁کوزه	-2039
▁اصحاب	-2040
▁بگرفت	-2041
▁دشمنت	-2042
▁نگاهی	-2043
▁نگرفت	-2044
▁چارده	-2045
▁کاشان	-2046
▁داستان	-2047
▁فرستمت	-2048
▁میخانه	-2049
▁نگذارد	-2050
▁انداختم	-2051
▁زندگانی	-2052
قر	-2053
لف	-2054
ما	-2055
خور	-2056
شتی	-2057
▁خن	-2058
▁فس	-2059
▁فی	-2060
استه	-2061
قبال	-2062
▁اسل	-2063
▁بتن	-2064
▁بدر	-2065
▁جزا	-2066
▁درش	-2067
▁دهن	-2068
▁رفی	-2069
▁زرد	-2070
▁سهل	-2071
▁علم	-2072
▁غمش	-2073
▁قید	-2074
▁معش	-2075
▁مور	-2076
▁هند	-2077
▁هنگ	-2078
▁وام	-2079
▁گون	-2080
▁آنگه	-2081
▁آیدم	-2082
▁بخیل	-2083
▁بردی	-2084
▁برید	-2085
▁بکوی	-2086
▁بیار	-2087
▁تربت	-2088
▁تیشه	-2089
▁جلوه	-2090
▁حجاج	-2091
▁خوشم	-2092
▁درون	-2093
▁دروی	-2094
▁دولت	-2095
▁رعای	-2096
▁سرمه	-2097
▁فراز	-2098
▁فزود	-2099
▁مدام	-2100
▁مژده	-2101
▁نمود	-2102
▁نمیر	-2103
▁پیری	-2104
▁ابوال	-2105
▁ایمان	-2106
▁اینجا	-2107
▁بجایی	-2108
▁برادر	-2109
▁تأثیر	-2110
▁خرابه	-2111
▁دنبال	-2112
▁سوخته	-2113
▁طوفان	-2114
▁عاقبت	-2115
▁قافله	-2116
▁ناخوش	-2117
▁کشیدم	-2118
▁گذشته	-2119
▁آراسته	-2120
▁عنبرین	-2121
▁فرخنده	-2122
▁ناسازی	-2123
▁نخواهد	-2124
)»	-2125
ظر	-2126
▁(	-2127
اتم	-2128
اکب	-2129
تاب	-2130
ردد	-2131
رما	-2132
قوت	-2133
لاک	-2134
نجه	-2135
▁اق	-2136
▁بآ	-2137
▁جی	-2138
▁عص	-2139
▁مز	-2140
▁نث	-2141
▁نژ	-2142
اریش	-2143
▁آهن	-2144
▁آیا	-2145
▁باو	-2146
▁خشک	-2147
▁ذکر	-2148
▁رهش	-2149
▁روا	-2150
▁سفت	-2151
▁سنج	-2152
▁شدش	-2153
▁طره	-2154
▁عسل	-2155
▁فقر	-2156
▁ناد	-2157
▁ویر	-2158
▁گست	-2159
وفایی	-2160
▁آمدم	-2161
▁آنها	-2162
▁آگهی	-2163
▁بانگ	-2164
▁بوسه	-2165
▁حجله	-2166
▁دختر	-2167
▁رحمی	-2168
▁رشکم	-2169
▁زیبا	-2170
▁سازم	-2171
▁ساغر	-2172
▁سفله	-2173
▁سنبل	-2174
▁شمار	-2175
▁غرور	-2176
▁قفای	-2177
▁لوحی	-2178
▁مرنج	-2179
▁مسجد	-2180
▁مشام	-2181
▁مغان	-2182
▁منهم	-2183
▁نافه	-2184
▁ناگه	-2185
▁نوبت	-2186
▁همدم	-2187
▁پایه	-2188
▁کتاب	-2189
▁کزین	-2190
▁کوکب	-2191
▁گلبن	-2192
▁گوشم	-2193
▁انگشت	-2194
▁باران	-2195
▁بیاضی	-2196
▁دشنام	-2197
▁فیروز	-2198
▁ناچار	-2199
▁نشینی	-2200
▁نظاره	-2201
▁چگونه	-2202
▁کنعان	-2203
▁کواکب	-2204
▁گشاید	-2205
▁یاقوت	-2206
▁آستانش	-2207
▁بیگناه	-2208
▁نشستند	-2209
▁آموزگار	-2210
▁انداخته	-2211
▁بیوفایی	-2212
▁مهربانی	-2213
▁ندانستم	-2214
ضط	-2215
گیر	-2216
▁سه	-2217
▁هج	-2218
چاره	-2219
▁کلک	-2220
▁عیسی	-2221
▁کامی	-2222
▁گردش	-2223
▁گلزار	-2224
▁بیچاره	-2225
واز	-2226
▁زب	-2227
▁غب	-2228
▁نص	-2229
▁۱۹	-2230
▁ریا	-2231
▁شدی	-2232
▁فاش	-2233
▁قضا	-2234
▁لشک	-2235
▁مژه	-2236
▁هان	-2237
▁کوش	-2238
▁خوار	-2239
▁ظالم	-2240
▁نواز	-2241
▁پیکی	-2242
▁کآذر	-2243
▁بلبلم	-2244
▁بندگی	-2245
▁جهانی	-2246
▁غلامی	-2247
▁حریفان	-2248
▁عندلیب	-2249
▁پریشان	-2250
ذیر	-2251
ردن	-2252
ناک	-2253
وزخ	-2254
▁ضح	-2255
▁مأ	-2256
▁چل	-2257
▁برز	-2258
▁زغن	-2259
▁شوم	-2260
▁عجز	-2261
▁عفو	-2262
▁هشی	-2263
▁برکه	-2264
▁بپرس	-2265
▁جسته	-2266
▁دلکش	-2267
▁سخنی	-2268
▁شبها	-2269
▁شکار	-2270
▁نامد	-2271
▁نزار	-2272
▁نگون	-2273
▁کامد	-2274
▁ابروی	-2275
▁بسرای	-2276
▁بشکند	-2277
▁سرایت	-2278
▁سیمین	-2279
▁منقار	-2280
▁نگرید	-2281
▁آستانه	-2282
▁افروزد	-2283
▁اندازیم	-2284
▁برآورده	-2285
حل	-2286
دس	-2287
آمد	-2288
ارغ	-2289
بخت	-2290
جرا	-2291
عیف	-2292
فتد	-2293
لال	-2294
وخت	-2295
▁خص	-2296
▁رط	-2297
▁مظ	-2298
▁مف	-2299
▁نج	-2300
▁نط	-2301
بانی	-2302
داری	-2303
ناهی	-2304
ودان	-2305
وشان	-2306
کشان	-2307
گاری	-2308
▁بتک	-2309
▁بحر	-2310
▁بزن	-2311
▁بنه	-2312
▁بیه	-2313
▁خرس	-2314
▁رون	-2315
▁سرت	-2316
▁سرخ	-2317
▁سعی	-2318
▁طاق	-2319
▁محر	-2320
▁مرح	-2321
▁مرو	-2322
▁میل	-2323
▁ناب	-2324
▁نده	-2325
▁ننه	-2326
▁نوم	-2327
▁نیر	-2328
▁نیل	-2329
▁واق	-2330
▁آمدن	-2331
▁ایمن	-2332
▁بادت	-2333
▁باری	-2334
▁بجای	-2335
▁بستی	-2336
▁بلقی	-2337
▁بلکه	-2338
▁بوسم	-2339
▁توبه	-2340
▁جمله	-2341
▁جواب	-2342
▁جویی	-2343
▁حاجی	-2344
▁دامی	-2345
▁دوان	-2346
▁روزم	-2347
▁ساله	-2348
▁ستان	-2349
▁سرشک	-2350
▁سزای	-2351
▁شهان	-2352
▁صیدی	-2353
▁ضعیف	-2354
▁عشقت	-2355
▁فارغ	-2356
▁لشکر	-2357
▁مایه	-2358
▁مرده	-2359
▁مگیر	-2360
▁نامی	-2361
▁ندهد	-2362
▁نعمت	-2363
▁نفسی	-2364
▁نکنم	-2365
▁نکهت	-2366
▁وادی	-2367
▁پایت	-2368
▁پیام	-2369
▁پیشه	-2370
▁کبوت	-2371
▁گریز	-2372
▁یادم	-2373
▁آزادی	-2374
▁آلوده	-2375
▁آمدند	-2376
▁اسلام	-2377
▁امیدی	-2378
▁بالین	-2379
▁بجهان	-2380
▁برابر	-2381
▁بسینه	-2382
▁بماند	-2383
▁بپاسخ	-2384
▁بینند	-2385
▁بیگان	-2386
▁جوابی	-2387
▁خورده	-2388
▁دریده	-2389
▁دیاری	-2390
▁رهایی	-2391
▁فراقت	-2392
▁ماجرا	-2393
▁محمود	-2394
▁میکده	-2395
▁نکردم	-2396
▁نیستم	-2397
▁کوتاه	-2398
▁گفتگو	-2399
▁یکدگر	-2400
▁افتادم	-2401
▁انتظار	-2402
▁میگویم	-2403
▁درویشان	-2404
اط	-2405
تش	-2406
حش	-2407
ظه	-2408
کو	-2409
اشا	-2410
ایک	-2411
حون	-2412
خند	-2413
رسی	-2414
ستر	-2415
شرت	-2416
قوب	-2417
لاب	-2418
نای	-2419
ورم	-2420
گرم	-2421
ینم	-2422
▁صن	-2423
▁وس	-2424
▁وه	-2425
ایره	-2426
جویی	-2427
زبان	-2428
▁الح	-2429
▁بلا	-2430
▁بمح	-2431
▁جوع	-2432
▁حجر	-2433
▁خشن	-2434
▁زدم	-2435
▁زنگ	-2436
▁سهی	-2437
▁طای	-2438
▁غمم	-2439
▁قبا	-2440
▁قصد	-2441
▁میچ	-2442
▁نرم	-2443
▁نفر	-2444
▁پرا	-2445
▁کمر	-2446
▁گام	-2447
▁گاو	-2448
▁گرش	-2449
وانده	-2450
▁افتم	-2451
▁بالا	-2452
▁بشکر	-2453
▁بهتر	-2454
▁تبسم	-2455
▁تنگی	-2456
▁جانب	-2457
▁جرمی	-2458
▁خاکی	-2459
▁خجلت	-2460
▁خدنگ	-2461
▁خرقه	-2462
▁خرمن	-2463
▁خیال	-2464
▁دریا	-2465
▁دستم	-2466
▁راحت	-2467
▁رحمت	-2468
▁رخصت	-2469
▁سازی	-2470
▁سمند	-2471
▁شراب	-2472
▁طلعت	-2473
▁علاج	-2474
▁محفل	-2475
▁مخزن	-2476
▁مستی	-2477
▁نداد	-2478
▁نهفت	-2479
▁نیاز	-2480
▁نیکو	-2481
▁هرکه	-2482
▁پرید	-2483
▁پیکر	-2484
▁یارب	-2485
▁آوازه	-2486
▁آگاهی	-2487
▁امیدو	-2488
▁بازوی	-2489
▁بالای	-2490
▁برهمن	-2491
▁بشنوم	-2492
▁بکویش	-2493
▁بینوا	-2494
▁تمامی	-2495
▁تواند	-2496
▁خطایی	-2497
▁خندید	-2498
▁رضوان	-2499
▁زمانی	-2500
▁زنهار	-2501
▁سلسله	-2502
▁عنایت	-2503
▁غلمان	-2504
▁فرزند	-2505
▁فشانی	-2506
▁مستان	-2507
▁میکشد	-2508
▁نداند	-2509
▁نشینم	-2510
▁نگفته	-2511
▁نیاید	-2512
▁هنگام	-2513
▁پیرهن	-2514
▁کردند	-2515
▁کشتنم	-2516
▁یعقوب	-2517
▁بیدلان	-2518
▁خداوند	-2519
▁خرامان	-2520
▁خونبها	-2521
▁شرمنده	-2522
▁فرستاد	-2523
▁مرغزار	-2524
▁نخواهم	-2525
▁ننشیند	-2526
▁ویرانه	-2527
▁گرفتند	-2528
▁دادخواه	-2529
جز	-2530
▁۲۰	-2531
ردان	-2532
▁اضط	-2533
▁بخر	-2534
▁مول	-2535
▁بازگ	-2536
▁خجسته	-2537
▁مردان	-2538
▁گفتار	-2539
▁اصفهان	-2540
▁استخوان	-2541
بع	-2542
▁صر	-2543
▁تیز	-2544
▁جسم	-2545
▁خطه	-2546
▁شهد	-2547
▁طوط	-2548
▁بخون	-2549
▁بکام	-2550
▁درست	-2551
▁روست	-2552
▁غوغا	-2553
▁نایی	-2554
▁نعیم	-2555
▁کهنه	-2556
▁بردند	-2557
▁شاهین	-2558
▁شمارم	-2559
▁شمشیر	-2560
▁عاشقی	-2561
سن	-2562
قش	-2563
زله	-2564
سید	-2565
▁دش	-2566
▁سح	-2567
▁غف	-2568
▁بجا	-2569
▁بغم	-2570
▁حذر	-2571
▁دهش	-2572
▁سار	-2573
▁مار	-2574
▁مهی	-2575
▁پرد	-2576
▁آلود	-2577
▁بخیر	-2578
▁بچمن	-2579
▁تکیه	-2580
▁دروغ	-2581
▁دستت	-2582
▁دهاد	-2583
▁رکاب	-2584
▁زنند	-2585
▁سبیل	-2586
▁ماتم	-2587
▁مردن	-2588
▁مزار	-2589
▁استاد	-2590
▁اندوه	-2591
▁خرابی	-2592
▁خوبان	-2593
▁دریای	-2594
▁دشوار	-2595
▁دیوان	-2596
▁رفتند	-2597
▁زلزله	-2598
▁شنویم	-2599
▁میروی	-2600
▁نرسید	-2601
▁نهفته	-2602
▁نگوید	-2603
▁برخاست	-2604
▁شکرانه	-2605
▁میداند	-2606
▁میگیرد	-2607
▁پیوسته	-2608
▁دلباخته	-2609
عا	-2610
کت	-2611
گش	-2612
اهر	-2613
باز	-2614
باه	-2615
ضرت	-2616
فلی	-2617
قاه	-2618
نام	-2619
نجا	-2620
وای	-2621
وفه	-2622
گهش	-2623
▁اخ	-2624
▁خض	-2625
▁طپ	-2626
▁لر	-2627
▁لع	-2628
▁ول	-2629
انگی	-2630
اووس	-2631
ترسم	-2632
رمود	-2633
زاری	-2634
شیدی	-2635
فروز	-2636
ویان	-2637
▁آهم	-2638
▁آهو	-2639
▁الم	-2640
▁بوع	-2641
▁خنک	-2642
▁دیب	-2643
▁راغ	-2644
▁زنخ	-2645
▁سرف	-2646
▁سری	-2647
▁سوک	-2648
▁صاد	-2649
▁صلح	-2650
▁طری	-2651
▁عیش	-2652
▁لله	-2653
▁نهی	-2654
▁نکو	-2655
▁همر	-2656
▁وطن	-2657
▁کاه	-2658
▁کله	-2659
▁کور	-2660
▁آتشم	-2661
▁آتشی	-2662
▁آهنگ	-2663
▁آینه	-2664
▁ابری	-2665
▁احمد	-2666
▁ارقم	-2667
▁انجم	-2668
▁بباد	-2669
▁بستر	-2670
▁بمنت	-2671
▁بگوی	-2672
▁حجاب	-2673
▁حضرت	-2674
▁خاصه	-2675
▁خراج	-2676
▁خلاف	-2677
▁دادم	-2678
▁دانا	-2679
▁دگری	-2680
▁روضه	-2681
▁رونق	-2682
▁ریزی	-2683
▁زارم	-2684
▁سوزد	-2685
▁شاهد	-2686
▁طعنه	-2687
▁ظاهر	-2688
▁عبیر	-2689
▁غیور	-2690
▁قرار	-2691
▁مجال	-2692
▁مکان	-2693
▁مکتو	-2694
▁نمان	-2695
▁ننال	-2696
▁نوید	-2697
▁نیار	-2698
▁هستی	-2699
▁وصلم	-2700
▁پاره	-2701
▁پاسخ	-2702
▁چندی	-2703
▁کاند	-2704
▁کنشت	-2705
▁یارم	-2706
▁آنگاه	-2707
▁باخته	-2708
▁بخلوت	-2709
▁بلقیس	-2710
▁بمنزل	-2711
▁بمیان	-2712
▁بینمت	-2713
▁توانم	-2714
▁دیدار	-2715
▁روباه	-2716
▁زبانی	-2717
▁شنیدن	-2718
▁شکوفه	-2719
▁صبحدم	-2720
▁طاووس	-2721
▁محتاج	-2722
▁معشوق	-2723
▁مپسند	-2724
▁نامهر	-2725
▁ندیدی	-2726
▁نهاده	-2727
▁نومید	-2728
▁نیامد	-2729
▁هجران	-2730
▁هستند	-2731
▁همیشه	-2732
▁هیچکس	-2733
▁پروین	-2734
▁کبوتر	-2735
▁کنارم	-2736
▁گرفتی	-2737
▁گیسوی	-2738
▁بدامان	-2739
▁برگشته	-2740
▁بنالید	-2741
▁جاودان	-2742
▁خانقاه	-2743
▁خرابات	-2744
▁فروزان	-2745
▁میترسم	-2746
▁نالیدن	-2747
▁ناگهان	-2748
▁نیکبخت	-2749
▁کدامین	-2750
▁کودکان	-2751
▁برافروخت	-2752
اپ	-2753
حا	-2754
حم	-2755
ازد	-2756
الب	-2757
الع	-2758
اوی	-2759
جیس	-2760
حنه	-2761
داع	-2762
دال	-2763
دها	-2764
سوز	-2765
سیس	-2766
شتن	-2767
فتح	-2768
لاط	-2769
لوم	-2770
مدا	-2771
میل	-2772
ندل	-2773
واب	-2774
وطه	-2775
چین	-2776
کار	-2777
▁اط	-2778
▁دب	-2779
▁فن	-2780
▁فه	-2781
▁لح	-2782
▁مث	-2783
▁وج	-2784
▁وش	-2785
▁پل	-2786
▁گس	-2787
الان	-2788
جوان	-2789
خانه	-2790
زانی	-2791
ستند	-2792
مانی	-2793
نشین	-2794
نگان	-2795
نیاد	-2796
یمان	-2797
▁آور	-2798
▁ارغ	-2799
▁باب	-2800
▁بخط	-2801
▁بشم	-2802
▁بکس	-2803
▁رمه	-2804
▁رهم	-2805
▁روس	-2806
▁زنش	-2807
▁زنم	-2808
▁زهد	-2809
▁صفه	-2810
▁صور	-2811
▁صوف	-2812
▁عرش	-2813
▁غاف	-2814
▁قفا	-2815
▁قلت	-2816
▁قوی	-2817
▁لقب	-2818
▁لوح	-2819
▁مجل	-2820
▁معن	-2821
▁مغز	-2822
▁مند	-2823
▁میط	-2824
▁نسر	-2825
▁نعش	-2826
▁نقط	-2827
▁نوخ	-2828
▁وصف	-2829
▁پیک	-2830
▁چاه	-2831
▁کفت	-2832
▁گدا	-2833
▁یله	-2834
▁آذری	-2835
▁افگن	-2836
▁اوفت	-2837
▁بباز	-2838
▁برفت	-2839
▁بزرگ	-2840
▁بستم	-2841
▁بشوق	-2842
▁بغیر	-2843
▁بفرد	-2844
▁بنام	-2845
▁بندم	-2846
▁بهره	-2847
▁بگیر	-2848
▁تیغت	-2849
▁جبری	-2850
▁جودش	-2851
▁حاتم	-2852
▁حجاز	-2853
▁حجره	-2854
▁حکمت	-2855
▁خاصم	-2856
▁خاکم	-2857
▁دادش	-2858
▁داور	-2859
▁دماغ	-2860
▁دکان	-2861
▁راهم	-2862
▁رایت	-2863
▁رهان	-2864
▁رهنم	-2865
▁زنان	-2866
▁سجود	-2867
▁سرشت	-2868
▁سودم	-2869
▁سوزی	-2870
▁سگان	-2871
▁شحنه	-2872
▁شمال	-2873
▁صحرا	-2874
▁ضمیر	-2875
▁طایر	-2876
▁عادت	-2877
▁عدلش	-2878
▁عمری	-2879
▁عنان	-2880
▁غوطه	-2881
▁قفسم	-2882
▁مدعی	-2883
▁مستج	-2884
▁مطلب	-2885
▁مهان	-2886
▁ناام	-2887
▁نساز	-2888
▁نشود	-2889
▁نوای	-2890
▁نوحه	-2891
▁نژاد	-2892
▁هدهد	-2893
▁وداع	-2894
▁پایم	-2895
▁پیرم	-2896
▁کشدم	-2897
▁گواه	-2898
▁گیری	-2899
▁یادش	-2900
▁یمین	-2901
▁آدینه	-2902
▁آهنین	-2903
▁احباب	-2904
▁اسیری	-2905
▁اقبال	-2906
▁امکان	-2907
▁بردار	-2908
▁بریده	-2909
▁بغداد	-2910
▁بلبلش	-2911
▁بنیاد	-2912
▁بهرام	-2913
▁بگفتش	-2914
▁بگمان	-2915
▁بگوشم	-2916
▁بیخود	-2917
▁بیمار	-2918
▁جویند	-2919
▁دادگر	-2920
▁دایره	-2921
▁دمادم	-2922
▁رخشان	-2923
▁رعایا	-2924
▁رفتنم	-2925
▁روشنی	-2926
▁ریزان	-2927
▁زبانم	-2928
▁زندان	-2929
▁زندگی	-2930
▁سوگند	-2931
▁صیادم	-2932
▁غوغای	-2933
▁فرشته	-2934
▁فروخت	-2935
▁فگندی	-2936
▁مبادا	-2937
▁مضمون	-2938
▁میانه	-2939
▁میرود	-2940
▁میزند	-2941
▁نداری	-2942
▁نشاید	-2943
▁نوشته	-2944
▁نگردد	-2945
▁نگویم	-2946
▁نیارم	-2947
▁نیستی	-2948
▁وفایی	-2949
▁پرسند	-2950
▁پستان	-2951
▁پیراه	-2952
▁پیوند	-2953
▁گردید	-2954
▁گستاخ	-2955
▁گفتنش	-2956
▁گلچین	-2957
▁آسمانم	-2958
▁آمیخته	-2959
▁اختیار	-2960
▁افگنان	-2961
▁تماشای	-2962
▁درختان	-2963
▁دردمند	-2964
▁شکایتی	-2965
▁صفاهان	-2966
▁صوفیان	-2967
▁عاشقان	-2968
▁فتادند	-2969
▁نشنیده	-2970
▁همزبان	-2971
▁چنانکه	-2972
▁کشیدند	-2973
▁رساندند	-2974
▁فرستاده	-2975
▁ابوالفتح	-2976
▁ناخوانده	-2977
ضت	-2978
وران	-2979
▁بخرام	-2980
▁خواری	-2981
زا	-2982
طا	-2983
▁حو	-2984
▁زی	-2985
▁الع	-2986
▁ایا	-2987
▁جنت	-2988
▁شست	-2989
▁طاس	-2990
▁مزن	-2991
▁بازو	-2992
▁بجوش	-2993
▁دایم	-2994
▁صافی	-2995
▁مگوی	-2996
▁ناتم	-2997
▁نصیب	-2998
▁گرامی	-2999
▁اضطراب	-3000
اور	-3001
دلی	-3002
رنگ	-3003
زید	-3004
شکی	-3005
کام	-3006
یزی	-3007
اخیز	-3008
ادار	-3009
اریه	-3010
الیه	-3011
قصیر	-3012
پسند	-3013
▁برت	-3014
▁برف	-3015
▁تمن	-3016
▁تنم	-3017
▁خرد	-3018
▁زور	-3019
▁سیب	-3020
▁کری	-3021
▁آدمی	-3022
▁بازش	-3023
▁بریم	-3024
▁بگنج	-3025
▁ترکی	-3026
▁دهدم	-3027
▁دوات	-3028
▁شاها	-3029
▁میگذ	-3030
▁نفسم	-3031
▁نقاب	-3032
▁کاسه	-3033
▁کیسه	-3034
▁گشود	-3035
▁آزاری	-3036
▁آوردم	-3037
▁اینان	-3038
▁باشیم	-3039
▁بزبان	-3040
▁تقصیر	-3041
▁درگاه	-3042
▁دونان	-3043
▁شیراز	-3044
▁میرفت	-3045
▁ننوشم	-3046
▁اولیتر	-3047
▁بزرگان	-3048
▁ساربان	-3049
▁میخندد	-3050
▁میدهمش	-3051
▁وفادار	-3052
▁انتظارش	-3053
▁بدریوزه	-3054
▁ناتوانی	-3055
خل	-3056
خو	-3057
سس	-3058
عد	-3059
وج	-3060
پس	-3061
ازی	-3062
اسد	-3063
افق	-3064
اکل	-3065
خون	-3066
دمی	-3067
ذار	-3068
شتم	-3069
فاق	-3070
متر	-3071
نجد	-3072
گرف	-3073
۱۱۷	-3074
▁تت	-3075
▁ته	-3076
▁شخ	-3077
▁فل	-3078
▁کر	-3079
باره	-3080
حرای	-3081
راست	-3082
رانی	-3083
رومی	-3084
ریفی	-3085
ومند	-3086
یلان	-3087
▁آسی	-3088
▁احت	-3089
▁بسا	-3090
▁بچه	-3091
▁جاد	-3092
▁خاق	-3093
▁خری	-3094
▁خطا	-3095
▁خطت	-3096
▁خوف	-3097
▁دمد	-3098
▁رضا	-3099
▁ساق	-3100
▁سای	-3101
▁سرگ	-3102
▁سگت	-3103
▁شری	-3104
▁شنو	-3105
▁شکی	-3106
▁عسس	-3107
▁عکس	-3108
▁فال	-3109
▁فتح	-3110
▁معم	-3111
▁میپ	-3112
▁ناو	-3113
▁نجف	-3114
▁نرد	-3115
▁نزد	-3116
▁هار	-3117
▁همس	-3118
▁همن	-3119
▁وار	-3120
▁پره	-3121
▁پیچ	-3122
▁چرد	-3123
▁گبر	-3124
▁گلو	-3125
▁گمر	-3126
روخته	-3127
مدیده	-3128
▁امام	-3129
▁اگرت	-3130
▁ببرد	-3131
▁بختی	-3132
▁بخند	-3133
▁بشنو	-3134
▁بنان	-3135
▁بچنگ	-3136
▁تراز	-3137
▁جانی	-3138
▁حرام	-3139
▁حریم	-3140
▁حیات	-3141
▁حیرت	-3142
▁دورم	-3143
▁دوزخ	-3144
▁رازی	-3145
▁رامش	-3146
▁رفیع	-3147
▁روزت	-3148
▁زمزم	-3149
▁ساعد	-3150
▁سحری	-3151
▁سودی	-3152
▁سوزم	-3153
▁شاخش	-3154
▁شعله	-3155
▁شنود	-3156
▁شوید	-3157
▁شگرف	-3158
▁صادق	-3159
▁ضحاک	-3160
▁طلبد	-3161
▁طلبی	-3162
▁عباد	-3163
▁عذار	-3164
▁عروس	-3165
▁فراغ	-3166
▁قیصر	-3167
▁لطفت	-3168
▁ماست	-3169
▁محنت	-3170
▁مخور	-3171
▁مدان	-3172
▁مردی	-3173
▁مفلس	-3174
▁نامش	-3175
▁نخفت	-3176
▁ندهی	-3177
▁نقشی	-3178
▁نگهی	-3179
▁نیاو	-3180
▁هرکس	-3181
▁وقتی	-3182
▁پناه	-3183
▁چمنم	-3184
▁چمنی	-3185
▁کاکل	-3186
▁کباب	-3187
▁کجات	-3188
▁کدام	-3189
▁کویش	-3190
▁گزند	-3191
▁گزین	-3192
▁یارا	-3193
▁آرایش	-3194
▁آستین	-3195
▁افتدش	-3196
▁افزود	-3197
▁القصه	-3198
▁امیری	-3199
▁انگار	-3200
▁ببیند	-3201
▁بتکده	-3202
▁بدنام	-3203
▁بربست	-3204
▁بشکنم	-3205
▁بمیرم	-3206
▁بوعده	-3207
▁حسرتم	-3208
▁خوشدل	-3209
▁درخور	-3210
▁دوریت	-3211
▁رسیدی	-3212
▁رواست	-3213
▁ستانی	-3214
▁سرایی	-3215
▁سودای	-3216
▁طریقه	-3217
▁عدالت	-3218
▁عمارت	-3219
▁غباری	-3220
▁مکتوب	-3221
▁میرسد	-3222
▁میکنم	-3223
▁نبردم	-3224
▁نبسته	-3225
▁نشنوی	-3226
▁نوروز	-3227
▁نگویی	-3228
▁نیستش	-3229
▁نیفتد	-3230
▁هشیار	-3231
▁ولایت	-3232
▁پسندم	-3233
▁پیاده	-3234
▁پیران	-3235
▁کآنجا	-3236
▁کافور	-3237
▁کاندر	-3238
▁کاووس	-3239
▁کشیدن	-3240
▁گناهی	-3241
▁گیلان	-3242
▁یکبار	-3243
▁آرمیده	-3244
▁ابروان	-3245
▁ارمغان	-3246
▁افگنده	-3247
▁بازگشت	-3248
▁بدنبال	-3249
▁برانگی	-3250
▁بفرمان	-3251
▁جوانان	-3252
▁خروشید	-3253
▁خواسته	-3254
▁دلفروز	-3255
▁دیوانه	-3256
▁راستان	-3257
▁رنجیده	-3258
▁محرومی	-3259
▁نتواند	-3260
▁ندارند	-3261
▁نشناخت	-3262
▁نیارست	-3263
▁هوشمند	-3264
▁پیغامی	-3265
▁کامیاب	-3266
▁گفتگوی	-3267
▁آزادگان	-3268
▁افروخته	-3269
▁برداشتی	-3270
▁دشمنانت	-3271
▁ستمدیده	-3272
▁دوستداری	-3273
▁سرافگنده	-3274
▁نامهربان	-3275
تن	-3276
جب	-3277
جه	-3278
جو	-3279
حق	-3280
خا	-3281
خه	-3282
رح	-3283
صف	-3284
ضب	-3285
عف	-3286
فع	-3287
قف	-3288
ؤوس	-3289
ابل	-3290
اکم	-3291
بدم	-3292
بوی	-3293
بیس	-3294
تان	-3295
تفا	-3296
جاد	-3297
حیر	-3298
دوز	-3299
دیل	-3300
دیو	-3301
دیک	-3302
رات	-3303
راف	-3304
رند	-3305
ریس	-3306
زدی	-3307
زنش	-3308
زیز	-3309
شمه	-3310
عام	-3311
عفر	-3312
عود	-3313
غما	-3314
فتم	-3315
قدر	-3316
قوس	-3317
لاس	-3318
لاق	-3319
لحت	-3320
لیش	-3321
ملو	-3322
ملی	-3323
همه	-3324
ویس	-3325
گرگ	-3326
گهم	-3327
▁تد	-3328
▁تس	-3329
▁جن	-3330
▁زه	-3331
▁سز	-3332
▁سط	-3333
▁ظل	-3334
▁عل	-3335
▁فض	-3336
▁لق	-3337
▁چر	-3338
اتمش	-3339
اداش	-3340
انیش	-3341
اهید	-3342
ایده	-3343
ایون	-3344
دانت	-3345
دایت	-3346
ساری	-3347
سیحا	-3348
شیده	-3349
ظهار	-3350
فعال	-3351
لاوت	-3352
مهری	-3353
هدار	-3354
هرمن	-3355
همان	-3356
وخته	-3357
وریا	-3358
ویدم	-3359
ویند	-3360
چشمه	-3361
کنند	-3362
گارش	-3363
گذار	-3364
گران	-3365
▁آصف	-3366
▁آنم	-3367
▁باط	-3368
▁بتر	-3369
▁بتم	-3370
▁بغل	-3371
▁بقا	-3372
▁بلی	-3373
▁بمد	-3374
▁بمر	-3375
▁بمس	-3376
▁بپا	-3377
▁بکم	-3378
▁تاک	-3379
▁تخم	-3380
▁ترا	-3381
▁تند	-3382
▁تنی	-3383
▁جاه	-3384
▁جفت	-3385
▁حرص	-3386
▁حکم	-3387
▁ختن	-3388
▁خسک	-3389
▁خسی	-3390
▁خطش	-3391
▁رهی	-3392
▁زبر	-3393
▁زرا	-3394
▁سبو	-3395
▁سرک	-3396
▁سور	-3397
▁سگی	-3398
▁شبت	-3399
▁شکن	-3400
▁ضعف	-3401
▁طعن	-3402
▁طفل	-3403
▁طوس	-3404
▁عاج	-3405
▁عرض	-3406
▁عزل	-3407
▁عقد	-3408
▁عمل	-3409
▁غضب	-3410
▁قند	-3411
▁لات	-3412
▁لبی	-3413
▁محل	-3414
▁معر	-3415
▁نبی	-3416
▁نمک	-3417
▁نوح	-3418
▁نیا	-3419
▁پرم	-3420
▁پست	-3421
▁پشی	-3422
▁پنج	-3423
▁چتر	-3424
▁چهر	-3425
▁کبر	-3426
▁کفر	-3427
▁کفی	-3428
▁گرو	-3429
▁گمگ	-3430
▁یمن	-3431
انیان	-3432
ستاده	-3433
شدگان	-3434
ینهار	-3435
▁آذرت	-3436
▁آرزو	-3437
▁آرمت	-3438
▁آسود	-3439
▁آشفت	-3440
▁آنکو	-3441
▁آوار	-3442
▁آیدش	-3443
▁آیین	-3444
▁استغ	-3445
▁بارش	-3446
▁ببوس	-3447
▁بتخت	-3448
▁بترس	-3449
▁بتیغ	-3450
▁بجام	-3451
▁بخشی	-3452
▁بدرد	-3453
▁بدهش	-3454
▁بدوش	-3455
▁بردن	-3456
▁برقص	-3457
▁برگر	-3458
▁بشهر	-3459
▁بطرف	-3460
▁بلور	-3461
▁بناز	-3462
▁بناگ	-3463
▁بندی	-3464
▁بنگر	-3465
▁بویی	-3466
▁بگشا	-3467
▁بگلب	-3468
▁بیکی	-3469
▁تازی	-3470
▁تحفه	-3471
▁ترسا	-3472
▁ترکش	-3473
▁تلخی	-3474
▁تگرگ	-3475
▁جانش	-3476
▁جلیل	-3477
▁حاشا	-3478
▁حالی	-3479
▁حاکم	-3480
▁حریر	-3481
▁حلوا	-3482
▁خارا	-3483
▁خروس	-3484
▁خطبه	-3485
▁خلیل	-3486
▁خندد	-3487
▁دادن	-3488
▁دعوی	-3489
▁دلیل	-3490
▁ذوال	-3491
▁راضی	-3492
▁راهش	-3493
▁رسان	-3494
▁رضای	-3495
▁رفیق	-3496
▁رنجد	-3497
▁رویش	-3498
▁رویم	-3499
▁ریشه	-3500
▁زانی	-3501
▁زیرک	-3502
▁سارش	-3503
▁سالک	-3504
▁ستمت	-3505
▁ستمش	-3506
▁سحاب	-3507
▁سراب	-3508
▁سرکه	-3509
▁سلام	-3510
▁سماع	-3511
▁سودا	-3512
▁شرمی	-3513
▁شمرد	-3514
▁شنوم	-3515
▁شوخی	-3516
▁شکنج	-3517
▁شکیب	-3518
▁صندل	-3519
▁صورت	-3520
▁طفلی	-3521
▁طوطی	-3522
▁ظلمت	-3523
▁عذرا	-3524
▁عشرت	-3525
▁فروش	-3526
▁قبله	-3527
▁قدرت	-3528
▁لازم	-3529
▁لبان	-3530
▁مباش	-3531
▁متاع	-3532
▁محکم	-3533
▁مرهم	-3534
▁مریز	-3535
▁معطر	-3536
▁مقام	-3537
▁مقیم	-3538
▁مملو	-3539
▁منال	-3540
▁منظر	-3541
▁میشم	-3542
▁میطپ	-3543
▁نرود	-3544
▁نزنم	-3545
▁نشوی	-3546
▁نکنی	-3547
▁نگشت	-3548
▁نیمه	-3549
▁هلال	-3550
▁هلاک	-3551
▁همسر	-3552
▁واقف	-3553
▁والی	-3554
▁وحشی	-3555
▁پاکد	-3556
▁پنجه	-3557
▁چشمت	-3558
▁چینی	-3559
▁کبود	-3560
▁کسری	-3561
▁کسوت	-3562
▁کفیل	-3563
▁گامی	-3564
▁گذری	-3565
▁گرنه	-3566
▁گروه	-3567
▁گشتی	-3568
▁گونه	-3569
▁یسار	-3570
▁یغما	-3571
▁آراست	-3572
▁آواره	-3573
▁آوردت	-3574
▁اظهار	-3575
▁افلاک	-3576
▁اقامت	-3577
▁القدس	-3578
▁انکار	-3579
▁اهرمن	-3580
▁ایجاد	-3581
▁باغها	-3582
▁بایدت	-3583
▁بایدم	-3584
▁ببینم	-3585
▁بجنان	-3586
▁بخواب	-3587
▁بدامن	-3588
▁بدیده	-3589
▁برآرم	-3590
▁برجیس	-3591
▁برویت	-3592
▁بستان	-3593
▁بعالم	-3594
▁بمحشر	-3595
▁بنشان	-3596
▁بهزار	-3597
▁بوریا	-3598
▁بکویت	-3599
▁بگردن	-3600
▁بیهوش	-3601
▁تاراج	-3602
▁ترانه	-3603
▁تلبیس	-3604
▁توانا	-3605
▁جلالت	-3606
▁جیحون	-3607
▁حلاوت	-3608
▁حمایت	-3609
▁حیرتم	-3610
▁خشنود	-3611
▁خوردم	-3612
▁دارند	-3613
▁داشتی	-3614
▁درآمد	-3615
▁درگهش	-3616
▁دلدوز	-3617
▁دلیری	-3618
▁دمبدم	-3619
▁دوستر	-3620
▁دیبای	-3621
▁دیدند	-3622
▁دیگری	-3623
▁ربوده	-3624
▁رعایت	-3625
▁رقصان	-3626
▁رمیده	-3627
▁رندان	-3628
▁روسبی	-3629
▁ریحان	-3630
▁ریختی	-3631
▁ستاده	-3632
▁سرزنش	-3633
▁سزاست	-3634
▁سنگین	-3635
▁سپاری	-3636
▁شاهیش	-3637
▁شمشاد	-3638
▁صیادی	-3639
▁طبیبم	-3640
▁عینکی	-3641
▁فرستی	-3642
▁قفایت	-3643
▁مادرت	-3644
▁ماندی	-3645
▁مانند	-3646
▁متحیر	-3647
▁محترم	-3648
▁مرحبا	-3649
▁مردمش	-3650
▁مستور	-3651
▁مصلحت	-3652
▁مظلوم	-3653
▁میدان	-3654
▁ناهید	-3655
▁نباشی	-3656
▁نباید	-3657
▁نزدیک	-3658
▁نسرین	-3659
▁نشانم	-3660
▁نشستم	-3661
▁نشستی	-3662
▁نشیند	-3663
▁ننالد	-3664
▁نهالی	-3665
▁نهانم	-3666
▁نوایی	-3667
▁نیافت	-3668
▁نیرنگ	-3669
▁هوایی	-3670
▁وفایت	-3671
▁پادشه	-3672
▁چوگان	-3673
▁کتابی	-3674
▁کردیش	-3675
▁گذارد	-3676
▁گرانی	-3677
▁گریزد	-3678
▁گسسته	-3679
▁گفتیم	-3680
▁گمانش	-3681
▁آسمانی	-3682
▁ارغوان	-3683
▁افسانه	-3684
▁انفعال	-3685
▁اینهمه	-3686
▁بامداد	-3687
▁برافرا	-3688
▁بناگاه	-3689
▁بیابان	-3690
▁بیماری	-3691
▁بیمهری	-3692
▁جبرییل	-3693
▁خاکستر	-3694
▁خواستی	-3695
▁خوانده	-3696
▁دلبران	-3697
▁دلجویی	-3698
▁زاهدان	-3699
▁زنارها	-3700
▁زینهار	-3701
▁سرفراز	-3702
▁سپهدار	-3703
▁شبانگه	-3704
▁شبستان	-3705
▁شرمسار	-3706
▁شگفتید	-3707
▁فیروزه	-3708
▁قلتبان	-3709
▁محرمان	-3710
▁میهمان	-3711
▁ندانند	-3712
▁نشانده	-3713
▁نشکفته	-3714
▁نمیرود	-3715
▁نوجوان	-3716
▁نوشخند	-3717
▁همنشین	-3718
▁پرستان	-3719
▁پرورده	-3720
▁پوشیده	-3721
▁پیراهن	-3722
▁گذارند	-3723
▁گنجینه	-3724
▁امیدوار	-3725
▁باغبانی	-3726
▁تماشایی	-3727
▁خواجگان	-3728
▁خورشیدی	-3729
▁دربانان	-3730
▁دوستانت	-3731
▁دوستدار	-3732
▁رهنمایی	-3733
▁ناامیدی	-3734
▁نمیدانم	-3735
▁نمیدانی	-3736
▁گرفتاری	-3737
▁امیدوارم	-3738
▁مسلمانان	-3739
وح	-3740
۱۱۸	-3741
▁طوق	-3742
▁کمی	-3743
▁الفت	-3744
▁قفسی	-3745
▁کمال	-3746
▁خوشخر	-3747
▁روزنه	-3748
شا	-3749
کل	-3750
احت	-3751
کات	-3752
یهو	-3753
ردست	-3754
▁تقی	-3755
▁قوم	-3756
▁مخت	-3757
▁ندا	-3758
▁پخت	-3759
▁کاخ	-3760
رفشان	-3761
▁بزمت	-3762
▁تیهو	-3763
▁حامی	-3764
▁حرمت	-3765
▁مصری	-3766
▁معجز	-3767
▁کوشم	-3768
▁حرکات	-3769
▁نشانه	-3770
▁نظامی	-3771
▁نویسم	-3772
▁پریده	-3773
▁شهریار	-3774
▁نیامدی	-3775
..	-3776
سپ	-3777
آیی	-3778
حسن	-3779
شار	-3780
وسی	-3781
۱۱۹	-3782
▁زا	-3783
ارمت	-3784
زیده	-3785
▁باک	-3786
▁سپه	-3787
▁شبم	-3788
▁شفا	-3789
▁شهی	-3790
▁عطا	-3791
▁فرس	-3792
▁قلی	-3793
▁لاف	-3794
▁هجو	-3795
▁کبک	-3796
اورزی	-3797
▁باغم	-3798
▁بدان	-3799
▁بدیع	-3800
▁بسمل	-3801
▁بگدا	-3802
▁توشه	-3803
▁رشید	-3804
▁عاقل	-3805
▁عشقم	-3806
▁عینک	-3807
▁نوشم	-3808
▁هادی	-3809
▁پوشد	-3810
▁کوته	-3811
▁کوچه	-3812
▁کیان	-3813
▁آبادی	-3814
▁افسار	-3815
▁افشار	-3816
▁اینها	-3817
▁بجایش	-3818
▁برزین	-3819
▁بیخته	-3820
▁تعمیر	-3821
▁تمنای	-3822
▁خاصیت	-3823
▁خوایق	-3824
▁دروغی	-3825
▁سحرگه	-3826
▁عاشقم	-3827
▁ناکسی	-3828
▁نگریم	-3829
▁پایان	-3830
▁پیرزن	-3831
▁گلرنگ	-3832
▁یافته	-3833
▁بتاریخ	-3834
▁بدیگری	-3835
▁خسروان	-3836
▁خندانت	-3837
▁دوستیت	-3838
▁غارتگر	-3839
▁میگذرد	-3840
▁جهانگیر	-3841
▁سلطانان	-3842
▁نامردان	-3843
▁پاسبانی	-3844
▁کشاورزی	-3845
آب	-3846
رت	-3847
عم	-3848
فد	-3849
قا	-3850
مس	-3851
یچ	-3852
افگ	-3853
دره	-3854
راس	-3855
سال	-3856
شده	-3857
قام	-3858
لوه	-3859
منه	-3860
موم	-3861
وجی	-3862
ویه	-3863
یزم	-3864
یفه	-3865
یلی	-3866
▁حص	-3867
▁زو	-3868
▁صه	-3869
اشتی	-3870
افری	-3871
بارش	-3872
بتلا	-3873
شنوم	-3874
شیشه	-3875
قیقت	-3876
نیبت	-3877
هایت	-3878
وازم	-3879
چیده	-3880
گردی	-3881
گویم	-3882
یهای	-3883
▁آبت	-3884
▁آوخ	-3885
▁ازل	-3886
▁ازم	-3887
▁بشب	-3888
▁تتق	-3889
▁جار	-3890
▁جنب	-3891
▁رجا	-3892
▁رخم	-3893
▁رمد	-3894
▁رهت	-3895
▁سخا	-3896
▁سرب	-3897
▁سلط	-3898
▁سیل	-3899
▁شبه	-3900
▁شدت	-3901
▁شدن	-3902
▁شهش	-3903
▁طرب	-3904
▁طین	-3905
▁عجم	-3906
▁عصر	-3907
▁غصه	-3908
▁فام	-3909
▁فخر	-3910
▁فین	-3911
▁قطب	-3912
▁محب	-3913
▁محش	-3914
▁محک	-3915
▁مرت	-3916
▁مزد	-3917
▁نشم	-3918
▁نوا	-3919
▁هزل	-3920
▁همچ	-3921
▁وال	-3922
▁پرش	-3923
▁چهل	-3924
▁چکد	-3925
▁چید	-3926
▁کآب	-3927
▁گلت	-3928
▁گیا	-3929
▁یال	-3930
▁یزد	-3931
▁۱۱۹	-3932
خشنده	-3933
شاندی	-3934
یروان	-3935
▁آمین	-3936
▁آیدت	-3937
▁اگرم	-3938
▁باقی	-3939
▁بالی	-3940
▁بجرم	-3941
▁بحکم	-3942
▁بختم	-3943
▁بزلف	-3944
▁بستن	-3945
▁بسقر	-3946
▁بشاخ	-3947
▁بنای	-3948
▁بهیچ	-3949
▁بودت	-3950
▁بچرخ	-3951
▁بیمش	-3952
▁جرعه	-3953
▁جنون	-3954
▁خصمی	-3955
▁خلقت	-3956
▁داغم	-3957
▁دایه	-3958
▁دعای	-3959
▁دواج	-3960
▁راند	-3961
▁رحمه	-3962
▁رطبی	-3963
▁رنجه	-3964
▁زمام	-3965
▁ساحل	-3966
▁ساوه	-3967
▁سدره	-3968
▁سران	-3969
▁سعید	-3970
▁سویش	-3971
▁سپند	-3972
▁صیدش	-3973
▁غرقه	-3974
▁غفلت	-3975
▁غفور	-3976
▁غماز	-3977
▁غیری	-3978
▁فراخ	-3979
▁فسون	-3980
▁فگار	-3981
▁قباد	-3982
▁مانی	-3983
▁مجمر	-3984
▁محال	-3985
▁مراد	-3986
▁مرگم	-3987
▁مریم	-3988
▁ملوک	-3989
▁مویی	-3990
▁میگر	-3991
▁نامت	-3992
▁نفاق	-3993
▁ننهی	-3994
▁نوشد	-3995
▁نکشت	-3996
▁نکوه	-3997
▁نگرم	-3998
▁نیکی	-3999
▁هراس	-4000
▁هیزم	-4001
▁واپس	-4002
▁وصلت	-4003
▁پرسش	-4004
▁کآشی	-4005
▁کرمت	-4006
▁کلاه	-4007
▁کندی	-4008
▁کیمی	-4009
▁گشتم	-4010
▁گوسف	-4011
▁گوشش	-4012
▁آموخت	-4013
▁آنگهی	-4014
▁ابلهی	-4015
▁اختری	-4016
▁اسیرم	-4017
▁اندوز	-4018
▁بباغی	-4019
▁ببامی	-4020
▁بجلوه	-4021
▁بخیلی	-4022
▁بدوزخ	-4023
▁بزرگی	-4024
▁بسویت	-4025
▁بشیشه	-4026
▁بعاشق	-4027
▁بفرست	-4028
▁بپوشم	-4029
▁بگلشن	-4030
▁بینیم	-4031
▁جنیبت	-4032
▁حدیثی	-4033
▁حرفیش	-4034
▁خرامی	-4035
▁درختی	-4036
▁دلدار	-4037
▁رباید	-4038
▁زاهدی	-4039
▁زلالی	-4040
▁سامان	-4041
▁سرآمد	-4042
▁سرشته	-4043
▁سوختن	-4044
▁سوختی	-4045
▁سپردن	-4046
▁شماری	-4047
▁شناسد	-4048
▁شنفتم	-4049
▁شهیدی	-4050
▁شکستن	-4051
▁صحرای	-4052
▁ظریفی	-4053
▁عدویت	-4054
▁عریان	-4055
▁غالیه	-4056
▁غزالی	-4057
▁فتادی	-4058
▁فقیرم	-4059
▁مأموم	-4060
▁مأمون	-4061
▁مبتلا	-4062
▁محتشم	-4063
▁مرحله	-4064
▁معمور	-4065
▁منافق	-4066
▁میدهد	-4067
▁میکرد	-4068
▁نامحر	-4069
▁نبودش	-4070
▁نخورد	-4071
▁نهادی	-4072
▁نگاری	-4073
▁نگشته	-4074
▁هاروت	-4075
▁هستیش	-4076
▁واقعه	-4077
▁کجاست	-4078
▁کدامت	-4079
▁گذران	-4080
▁گلشنت	-4081
▁گلگون	-4082
▁گمراه	-4083
▁آستانت	-4084
▁آستانی	-4085
▁آوازان	-4086
▁افروخت	-4087
▁افسرده	-4088
▁اندرین	-4089
▁بارگاه	-4090
▁بایزید	-4091
▁ببینیم	-4092
▁بخندید	-4093
▁بدخوست	-4094
▁بدریای	-4095
▁بدگویی	-4096
▁برآورد	-4097
▁برومند	-4098
▁بفرمود	-4099
▁بیهوده	-4100
▁جادویی	-4101
▁خرسندی	-4102
▁دامانش	-4103
▁دلتنگی	-4104
▁دلپسند	-4105
▁راعیان	-4106
▁رخشنده	-4107
▁رعایای	-4108
▁سپارمت	-4109
▁شوریده	-4110
▁ضعیفان	-4111
▁منتهای	-4112
▁مهوشان	-4113
▁میدیدم	-4114
▁میشنوم	-4115
▁نابسته	-4116
▁نادیدن	-4117
▁نادیده	-4118
▁نتوانم	-4119
▁نتوانی	-4120
▁نداریم	-4121
▁نشنیدی	-4122
▁نمیکنم	-4123
▁نکویان	-4124
▁نیامده	-4125
▁هشیاری	-4126
▁همراهی	-4127
▁همسایه	-4128
▁پوستین	-4129
▁کافران	-4130
▁کامروز	-4131
▁گریزان	-4132
▁اصفاهان	-4133
▁بباغبان	-4134
▁بگنجینه	-4135
▁بینهایت	-4136
▁بیگانگی	-4137
▁درخشنده	-4138
▁دیوارها	-4139
▁ستمکشان	-4140
▁صبحگاهی	-4141
▁نمیگویم	-4142
▁هواخواه	-4143
▁پاسبانش	-4144
▁پریشانی	-4145
▁کاروانی	-4146
▁کامرانی	-4147
▁برانگیخته	-4148
▁ناسازگاری	-4149
ؤل	-4150
اذ	-4151
بح	-4152
ثل	-4153
دت	-4154
دش	-4155
رگ	-4156
سب	-4157
سط	-4158
سو	-4159
صح	-4160
ضش	-4161
ضع	-4162
عث	-4163
غل	-4164
غی	-4165
فش	-4166
قن	-4167
هت	-4168
پر	-4169
کد	-4170
گن	-4171
یط	-4172
آید	-4173
ؤلؤ	-4174
ابد	-4175
ابه	-4176
اجب	-4177
احل	-4178
ارا	-4179
ازن	-4180
ازه	-4181
اطر	-4182
اعت	-4183
امع	-4184
اها	-4185
اپل	-4186
ایع	-4187
برد	-4188
بیح	-4189
بیم	-4190
جار	-4191
خاب	-4192
ختی	-4193
خشد	-4194
خیز	-4195
خیل	-4196
دیس	-4197
دین	-4198
ذری	-4199
صو	-4200
ابا	-4201
راج	-4202
رسد	-4203
روح	-4204
زمه	-4205
زین	-4206
سای	-4207
سطو	-4208
سنه	-4209
سیع	-4210
شاق	-4211
شدر	-4212
صوم	-4213
طبع	-4214
طیل	-4215
عتی	-4216
عیت	-4217
فشه	-4218
فیف	-4219
فیق	-4220
قین	-4221
لدا	-4222
لله	-4223
لند	-4224
لوی	-4225
لیم	-4226
مرد	-4227
ملم	-4228
مند	-4229
نار	-4230
نجی	-4231
نوس	-4232
وتی	-4233
ودت	-4234
ودی	-4235
ورش	-4236
وره	-4237
وزد	-4238
ولی	-4239
ونس	-4240
ویز	-4241
ژدم	-4242
کرد	-4243
کسم	-4244
کشی	-4245
یبت	-4246
یبی	-4247
یحت	-4248
یلش	-4249
یمت	-4250
▁اع	-4251
▁اژ	-4252
▁تج	-4253
▁تز	-4254
▁تف	-4255
▁تق	-4256
▁ثم	-4257
▁جد	-4258
▁جف	-4259
▁رج	-4260
▁رز	-4261
▁زع	-4262
▁صو	-4263
▁طر	-4264
▁طن	-4265
▁فک	-4266
▁فگ	-4267
▁لآ	-4268
▁مؤ	-4269
▁مذ	-4270
▁نت	-4271
▁نل	-4272
▁هق	-4273
▁ون	-4274
▁گد	-4275
▁یه	-4276
▁۲۱	-4277
احین	-4278
اراج	-4279
ارید	-4280
اسند	-4281
اطمه	-4282
اقتی	-4283
امها	-4284
امیس	-4285
ایدم	-4286
اییم	-4287
برند	-4288
تابی	-4289
دیگر	-4290
رانه	-4291
ربلا	-4292
رحمه	-4293
ردند	-4294
رمای	-4295
رمند	-4296
سایی	-4297
ستمش	-4298
ستگی	-4299
اعظ	-4300
رعه	-4301
▁ثن	-4302
افیت	-4303
انها	-4304
سرار	-4305
سمان	-4306
سمین	-4307
سویش	-4308
سیاب	-4309
شتها	-4310
شناس	-4311
صحبت	-4312
غافل	-4313
فترا	-4314
فسون	-4315
فقار	-4316
فیعا	-4317
قایق	-4318
قلاب	-4319
قندم	-4320
لناک	-4321
لیبی	-4322
لیخا	-4323
لیفه	-4324
مانش	-4325
نامه	-4326
ندند	-4327
همال	-4328
وابت	-4329
واست	-4330
وانش	-4331
وانی	-4332
وایب	-4333
وسفی	-4334
وندم	-4335
وهری	-4336
پیشه	-4337
چنین	-4338
کبیر	-4339
کنان	-4340
کندر	-4341
کینی	-4342
گانش	-4343
گذشت	-4344
گفته	-4345
گندم	-4346
یارش	-4347
یخته	-4348
یدان	-4349
یدند	-4350
یدون	-4351
یهات	-4352
▁افق	-4353
▁الص	-4354
▁الف	-4355
▁امل	-4356
▁اوج	-4357
▁باج	-4358
▁بتس	-4359
▁بتی	-4360
▁بحی	-4361
▁برس	-4362
▁برن	-4363
▁بشت	-4364
▁بغر	-4365
▁بمج	-4366
▁بمش	-4367
▁بپر	-4368
▁بیط	-4369
▁تدب	-4370
▁ترش	-4371
▁ترم	-4372
▁تری	-4373
▁تفا	-4374
▁تنش	-4375
▁تیم	-4376
▁جاب	-4377
▁جدل	-4378
▁جیب	-4379
▁حسد	-4380
▁حقه	-4381
▁حمد	-4382
▁حمل	-4383
▁خرش	-4384
▁خشت	-4385
▁خصم	-4386
▁خلل	-4387
▁داج	-4388
▁درج	-4389
▁درع	-4390
▁درو	-4391
▁ذات	-4392
▁رزم	-4393
▁رند	-4394
▁ریع	-4395
▁زدش	-4396
▁زدن	-4397
▁زدو	-4398
▁زره	-4399
▁زغم	-4400
▁زهی	-4401
▁سام	-4402
▁سان	-4403
▁سبا	-4404
▁سبق	-4405
▁سطر	-4406
▁سمر	-4407
▁سند	-4408
▁سوس	-4409
▁سپر	-4410
▁سگش	-4411
▁سید	-4412
▁شاب	-4413
▁شتا	-4414
▁شرر	-4415
▁شرف	-4416
▁شعف	-4417
▁صحن	-4418
▁صدف	-4419
▁صدق	-4420
▁صرف	-4421
▁طپد	-4422
▁ظرف	-4423
▁عدو	-4424
▁عرف	-4425
▁علا	-4426
▁عور	-4427
▁غله	-4428
▁غنی	-4429
▁غیب	-4430
▁فرش	-4431
▁فرص	-4432
▁فرق	-4433
▁فصی	-4434
▁فیض	-4435
▁قاع	-4436
▁قسم	-4437
▁لبش	-4438
▁لوث	-4439
▁متف	-4440
▁مدا	-4441
▁مده	-4442
▁مرس	-4443
▁مطل	-4444
▁معذ	-4445
▁مقص	-4446
▁ممت	-4447
▁منط	-4448
▁منه	-4449
▁مگس	-4450
▁میغ	-4451
▁ناص	-4452
▁ناچ	-4453
▁نای	-4454
▁نجد	-4455
▁نزه	-4456
▁نطع	-4457
▁نعل	-4458
▁ننم	-4459
▁هشت	-4460
▁وان	-4461
▁ورد	-4462
▁وزن	-4463
▁وضع	-4464
▁پاب	-4465
▁پاف	-4466
▁پشه	-4467
▁پیت	-4468
▁کاج	-4469
▁کاس	-4470
▁کحل	-4471
▁کرا	-4472
▁کفش	-4473
▁کفن	-4474
▁کوس	-4475
▁کید	-4476
▁گسل	-4477
▁گهی	-4478
اندیش	-4479
توانم	-4480
ریفان	-4481
ساران	-4482
ستانم	-4483
عامند	-4484
فشانی	-4485
قیمان	-4486
لاطون	-4487
وستان	-4488
ویانی	-4489
گزاری	-4490
یزگان	-4491
▁آدمش	-4492
▁آسیب	-4493
▁آشام	-4494
▁آمیز	-4495
▁اخلا	-4496
▁ارجم	-4497
▁اسقف	-4498
▁اشتی	-4499
▁اشکم	-4500
▁اطلس	-4501
▁اندک	-4502
▁بادش	-4503
▁بادی	-4504
▁باره	-4505
▁باعث	-4506
▁بانی	-4507
▁ببحر	-4508
▁ببخش	-4509
▁بجیب	-4510
▁بحشر	-4511
▁بخار	-4512
▁بداد	-4513
▁بدار	-4514
▁بداغ	-4515
▁بدهن	-4516
▁برتر	-4517
▁بردش	-4518
▁برقی	-4519
▁برگش	-4520
▁بریز	-4521
▁بزخم	-4522
▁بزمش	-4523
▁بزیر	-4524
▁بزین	-4525
▁بساز	-4526
▁بسوز	-4527
▁بشاه	-4528
▁بشکن	-4529
▁بطلب	-4530
▁بقعه	-4531
▁بمال	-4532
▁بمشک	-4533
▁بنال	-4534
▁بنظر	-4535
▁بهای	-4536
▁بوفا	-4537
▁بپاخ	-4538
▁بپرد	-4539
▁بپره	-4540
▁بپهل	-4541
▁بکاخ	-4542
▁بکنج	-4543
▁بیسر	-4544
▁بیقر	-4545
▁بینش	-4546
▁بیکس	-4547
▁تحمل	-4548
▁تسلی	-4549
▁تیرش	-4550
▁تیری	-4551
▁تیغم	-4552
▁ثنای	-4553
▁جانت	-4554
▁جزیل	-4555
▁جستن	-4556
▁جعفر	-4557
▁جمیل	-4558
▁جودت	-4559
▁جیفه	-4560
▁حسنت	-4561
▁حمام	-4562
▁حمدا	-4563
▁حمله	-4564
▁حیوه	-4565
▁خاتم	-4566
▁خاری	-4567
▁خازن	-4568
▁خدیو	-4569
▁خران	-4570
▁خرده	-4571
▁خرید	-4572
▁خضری	-4573
▁خطاب	-4574
▁خفیف	-4575
▁خموش	-4576
▁خندی	-4577
▁خیره	-4578
▁دامت	-4579
▁دامش	-4580
▁دخیل	-4581
▁درشت	-4582
▁درفش	-4583
▁درهم	-4584
▁دعات	-4585
▁دعوت	-4586
▁دلشک	-4587
▁دودی	-4588
▁دیدش	-4589
▁دیری	-4590
▁ذلیل	-4591
▁رازه	-4592
▁راهب	-4593
▁رسول	-4594
▁رهزن	-4595
▁رهند	-4596
▁روزش	-4597
▁روند	-4598
▁زارش	-4599
▁زاغی	-4600
▁زانو	-4601
▁زبور	-4602
▁زجاج	-4603
▁زخمم	-4604
▁زخمی	-4605
▁زرشک	-4606
▁زرکش	-4607
▁زلفت	-4608
▁زیار	-4609
▁زیور	-4610
▁سبحه	-4611
▁ستمی	-4612
▁سختی	-4613
▁سخنم	-4614
▁سراپ	-4615
▁سروت	-4616
▁سرکش	-4617
▁سعود	-4618
▁سفته	-4619
▁سفتی	-4620
▁سلوک	-4621
▁سهیل	-4622
▁سوده	-4623
▁سوزن	-4624
▁سپرد	-4625
▁شاخم	-4626
▁شاخی	-4627
▁شایق	-4628
▁شتاب	-4629
▁شرمم	-4630
▁شنوی	-4631
▁صبری	-4632
▁صرصر	-4633
▁صعود	-4634
▁صیدم	-4635
▁ضایع	-4636
▁طاعت	-4637
▁طالع	-4638
▁طامع	-4639
▁طبعش	-4640
▁طبله	-4641
▁طبلک	-4642
▁طراز	-4643
▁طرفی	-4644
▁طلبم	-4645
▁ظلمی	-4646
▁عتاب	-4647
▁عدیل	-4648
▁عذری	-4649
▁عراق	-4650
▁عزیز	-4651
▁عشاق	-4652
▁عشقی	-4653
▁عقول	-4654
▁علیه	-4655
▁عمدا	-4656
▁عمرت	-4657
▁غزال	-4658
▁غلتم	-4659
▁غمزه	-4660
▁غیرم	-4661
▁فرار	-4662
▁فرقت	-4663
▁فرما	-4664
▁فکرت	-4665
▁قابل	-4666
▁قدسی	-4667
▁قدمی	-4668
▁قرآن	-4669
▁قسیس	-4670
▁قصاب	-4671
▁لؤلؤ	-4672
▁لایق	-4673
▁لجاج	-4674
▁لحظه	-4675
▁لرزد	-4676
▁لطفش	-4677
▁لقای	-4678
▁مالم	-4679
▁مانم	-4680
▁ماهت	-4681
▁مبند	-4682
▁مثقب	-4683
▁مجوس	-4684
▁محیط	-4685
▁مددی	-4686
▁مرغم	-4687
▁مرگش	-4688
▁مزاج	-4689
▁مسلم	-4690
▁مسهل	-4691
▁مشکم	-4692
▁معنی	-4693
▁مهره	-4694
▁مهری	-4695
▁موزه	-4696
▁موسی	-4697
▁مویت	-4698
▁میرم	-4699
▁میشد	-4700
▁مینا	-4701
▁ناخن	-4702
▁نازش	-4703
▁نازک	-4704
▁ناکس	-4705
▁نبرم	-4706
▁ندهم	-4707
▁نزند	-4708
▁نسخه	-4709
▁نشوم	-4710
▁نعشم	-4711
▁نفور	-4712
▁نماز	-4713
▁نهشت	-4714
▁نژند	-4715
▁نگری	-4716
▁نگین	-4717
▁نیلی	-4718
▁نیوش	-4719
▁هاله	-4720
▁هجرم	-4721
▁همتش	-4722
▁همدا	-4723
▁همره	-4724
▁واجب	-4725
▁واعظ	-4726
▁وامق	-4727
▁وجود	-4728
▁وحدت	-4729
▁وحید	-4730
▁وزان	-4731
▁وسعت	-4732
▁وسیع	-4733
▁وطنم	-4734
▁پذیر	-4735
▁پندی	-4736
▁پیرو	-4737
▁پیشت	-4738
▁چاپل	-4739
▁چندم	-4740
▁چهار	-4741
▁چکار	-4742
▁کآخر	-4743
▁کآرم	-4744
▁کآید	-4745
▁کارش	-4746
▁کاست	-4747
▁کافر	-4748
▁کاهی	-4749
▁کران	-4750
▁کلبه	-4751
▁کمتر	-4752
▁کندن	-4753
▁کنمت	-4754
▁کویی	-4755
▁کژدم	-4756
▁گاوی	-4757
▁گزاف	-4758
▁گزان	-4759
▁گلاب	-4760
▁گنجی	-4761
▁گنده	-4762
▁گیاه	-4763
▁یابم	-4764
▁یارش	-4765
▁یقین	-4766
▁یلدا	-4767
▁یکان	-4768
▁یکدل	-4769
▁یکسو	-4770
افگنان	-4771
امانان	-4772
فشانده	-4773
▁آبنوس	-4774
▁آتشین	-4775
▁آرندم	-4776
▁آزمون	-4777
▁آسایش	-4778
▁آمیخت	-4779
▁آنقدر	-4780
▁آهوان	-4781
▁آوازش	-4782
▁آویزه	-4783
▁آگاهم	-4784
▁ابدال	-4785
▁اخترم	-4786
▁اخوان	-4787
▁ادریس	-4788
▁ارباب	-4789
▁ارسطو	-4790
▁اسراف	-4791
▁اشجار	-4792
▁افلاس	-4793
▁التفا	-4794
▁اندیش	-4795
▁انوری	-4796
▁اولاد	-4797
▁اژدها	-4798
▁ایزدی	-4799
▁باختر	-4800
▁بالله	-4801
▁باورم	-4802
▁بایست	-4803
▁ببستر	-4804
▁بخاطر	-4805
▁بدخوی	-4806
▁بدستش	-4807
▁بدوست	-4808
▁بدولت	-4809
▁برآرد	-4810
▁برویم	-4811
▁بزاری	-4812
▁بششدر	-4813
▁بشنوی	-4814
▁بشیرم	-4815
▁بعشرت	-4816
▁بفترا	-4817
▁بفرما	-4818
▁بفسون	-4819
▁بفغان	-4820
▁بلندی	-4821
▁بمردم	-4822
▁بمستی	-4823
▁بمسجد	-4824
▁بناله	-4825
▁بنفشه	-4826
▁بهارم	-4827
▁بهشتم	-4828
▁بوالع	-4829
▁بودیم	-4830
▁بوسند	-4831
▁بپذیر	-4832
▁بگشاد	-4833
▁بگفتا	-4834
▁بگلبن	-4835
▁بگویی	-4836
▁بیرحم	-4837
▁بیشتر	-4838
▁بینید	-4839
▁بیکسی	-4840
▁ترکان	-4841
▁تشریف	-4842
▁تشنگی	-4843
▁توفیق	-4844
▁جفایت	-4845
▁جفایش	-4846
▁جمشید	-4847
▁جنایت	-4848
▁جوشید	-4849
▁حاتمش	-4850
▁حقیقت	-4851
▁حوران	-4852
▁حیران	-4853
▁خاسته	-4854
▁خاستی	-4855
▁خاقان	-4856
▁خانقه	-4857
▁خدنگی	-4858
▁خرابت	-4859
▁خطاست	-4860
▁خلایق	-4861
▁خوردی	-4862
▁خیزدم	-4863
▁دامنش	-4864
▁درختش	-4865
▁دستان	-4866
▁دستور	-4867
▁دشمنش	-4868
▁دعایت	-4869
▁دلشان	-4870
▁دوستت	-4871
▁دویدم	-4872
▁ذوایب	-4873
▁راستی	-4874
▁رانده	-4875
▁راهزن	-4876
▁رخسار	-4877
▁رسیدم	-4878
▁رفتنش	-4879
▁رفتیم	-4880
▁رنجید	-4881
▁روانه	-4882
▁روزان	-4883
▁روزها	-4884
▁ریختن	-4885
▁ریزدم	-4886
▁ریزمت	-4887
▁زانوی	-4888
▁زبانه	-4889
▁زرگری	-4890
▁زلفین	-4891
▁زلیخا	-4892
▁زمزمه	-4893
▁زنبیل	-4894
▁سراغت	-4895
▁سرشان	-4896
▁سروها	-4897
▁سرکشد	-4898
▁سرکنم	-4899
▁سعادت	-4900
▁سندان	-4901
▁سپهری	-4902
▁سیاهش	-4903
▁شفیعا	-4904
▁شمایل	-4905
▁شهباز	-4906
▁شکارش	-4907
▁شکنجه	-4908
▁شگفتت	-4909
▁شیطان	-4910
▁عافیت	-4911
▁عذاری	-4912
▁غافلم	-4913
▁غافلی	-4914
▁غرامت	-4915
▁غریبم	-4916
▁غریبی	-4917
▁غلطان	-4918
▁غلطید	-4919
▁غیرتم	-4920
▁فاطمه	-4921
▁فایده	-4922
▁فتادش	-4923
▁فدایت	-4924
▁فرازی	-4925
▁فراقم	-4926
▁فردوس	-4927
▁فرمود	-4928
▁فروشد	-4929
▁فضایش	-4930
▁فغانش	-4931
▁فقیری	-4932
▁لبریز	-4933
▁لولوی	-4934
▁ماندم	-4935
▁ماندن	-4936
▁مجروح	-4937
▁مجلست	-4938
▁محابا	-4939
▁محروم	-4940
▁محزون	-4941
▁محملش	-4942
▁محملم	-4943
▁مرادش	-4944
▁مرادم	-4945
▁مزارم	-4946
▁مزرعه	-4947
▁مستحق	-4948
▁مستند	-4949
▁مسیحا	-4950
▁مشامم	-4951
▁مشتری	-4952
▁مشحون	-4953
▁معراج	-4954
▁معصوم	-4955
▁ملامت	-4956
▁ملایک	-4957
▁منشین	-4958
▁مژگان	-4959
▁مگذار	-4960
▁میبرد	-4961
▁میبری	-4962
▁میخور	-4963
▁میدهی	-4964
▁میدید	-4965
▁میروم	-4966
▁میچکد	-4967
▁میکند	-4968
▁ناقوس	-4969
▁نایدت	-4970
▁نبوده	-4971
▁نبینم	-4972
▁نثارش	-4973
▁نثاری	-4974
▁نخستش	-4975
▁نخندد	-4976
▁نرفته	-4977
▁نرنجی	-4978
▁نسازد	-4979
▁نسفته	-4980
▁نسوزد	-4981
▁نشنوم	-4982
▁نصیحت	-4983
▁نفرست	-4984
▁نمانم	-4985
▁نمایی	-4986
▁نموده	-4987
▁نمیرم	-4988
▁ننگرد	-4989
▁نوازش	-4990
▁نوشتن	-4991
▁نکردی	-4992
▁نکوهش	-4993
▁نگاهش	-4994
▁نگاهم	-4995
▁نگران	-4996
▁نگردی	-4997
▁نگفتی	-4998
▁نگیرد	-4999
▁نگیرم	-5000
▁نیروی	-5001
▁هزارت	-5002
▁هنوزش	-5003
▁هیهات	-5004
▁پارسا	-5005
▁پاگاه	-5006
▁پرسید	-5007
▁پرهیز	-5008
▁پروری	-5009
▁پوشید	-5010
▁پیامت	-5011
▁پیریم	-5012
▁چراغی	-5013
▁چنگال	-5014
▁کآدمی	-5015
▁کاریت	-5016
▁کربلا	-5017
▁کشتیش	-5018
▁کشوری	-5019
▁کشیدی	-5020
▁کنندم	-5021
▁کوهکن	-5022
▁کیوان	-5023
▁گاهیش	-5024
▁گذارش	-5025
▁گذاری	-5026
▁گذشتم	-5027
▁گرسنه	-5028
▁گرگان	-5029
▁گریزم	-5030
▁گزیدم	-5031
▁گشادی	-5032
▁گفتنم	-5033
▁گلبنی	-5034
▁گمانم	-5035
▁گوارا	-5036
▁گواهی	-5037
▁گوهری	-5038
▁گویمت	-5039
▁گوییم	-5040
▁گیرند	-5041
▁یاریت	-5042
▁یزدان	-5043
▁یوسفی	-5044
▁یکایک	-5045
اندازیم	-5046
▁آرزویت	-5047
▁آشفتگی	-5048
▁آشکارا	-5049
▁آشیانم	-5050
▁آمدستی	-5051
▁آگاهیت	-5052
▁اختران	-5053
▁ارزانی	-5054
▁استغفر	-5055
▁اسکندر	-5056
▁اعتبار	-5057
▁اعتدال	-5058
▁افزونی	-5059
▁افسونت	-5060
▁افگندم	-5061
▁افگندی	-5062
▁الامین	-5063
▁الرحمه	-5064
▁انتخاب	-5065
▁انقلاب	-5066
▁اوفتاد	-5067
▁باختند	-5068
▁بارنده	-5069
▁بایشان	-5070
▁ببازار	-5071
▁ببوسید	-5072
▁بتاراج	-5073
▁بتخانه	-5074
▁بتماشا	-5075
▁بخشایش	-5076
▁برخیزی	-5077
▁برفتند	-5078
▁بریدند	-5079
▁بزمگاه	-5080
▁بسیاری	-5081
▁بلبلان	-5082
▁بمحراب	-5083
▁بناگوش	-5084
▁بپاداش	-5085
▁بگلزار	-5086
▁بیدادم	-5087
▁بیهمال	-5088
▁بیگنهم	-5089
▁تأثیری	-5090
▁ترازوی	-5091
▁تفاوتی	-5092
▁تنهایی	-5093
▁تنگنای	-5094
▁جانسوز	-5095
▁جهانند	-5096
▁جویبار	-5097
▁حیرانم	-5098
▁خاکدان	-5099
▁خرسندم	-5100
▁خوانان	-5101
▁خواندم	-5102
▁خواندی	-5103
▁خواهند	-5104
▁خوشبوی	-5105
▁خونابه	-5106
▁خونریز	-5107
▁خویشتن	-5108
▁دانستم	-5109
▁درمانم	-5110
▁دوششان	-5111
▁دیدگان	-5112
▁رسانده	-5113
▁رسانید	-5114
▁رستخیز	-5115
▁ریاحین	-5116
▁ریختند	-5117
▁ریشخند	-5118
▁زنخدان	-5119
▁ستمگری	-5120
▁سرچشمه	-5121
▁سرگذشت	-5122
▁سطرلاب	-5123
▁سلسبیل	-5124
▁شتابان	-5125
▁غزالان	-5126
▁فرداست	-5127
▁فرزندی	-5128
▁فلاطون	-5129
▁فهمیده	-5130
▁مرنجان	-5131
▁مستجاب	-5132
▁مفلسان	-5133
▁میبرند	-5134
▁میخواه	-5135
▁میزبان	-5136
▁میطپدم	-5137
▁مینالم	-5138
▁مینمود	-5139
▁میپرسی	-5140
▁ناتمام	-5141
▁ناگفته	-5142
▁نرسیده	-5143
▁نستانم	-5144
▁نشنیدم	-5145
▁نشینند	-5146
▁نمانده	-5147
▁نمیکند	-5148
▁نوامیس	-5149
▁نویسند	-5150
▁نگویند	-5151
▁نیاورد	-5152
▁همایون	-5153
▁همصحبت	-5154
▁همیکرد	-5155
▁هولناک	-5156
▁هیچکسم	-5157
▁پادشاه	-5158
▁پایمال	-5159
▁پریدند	-5160
▁پشیمان	-5161
▁پلنگان	-5162
▁پهلویت	-5163
▁کشاندی	-5164
▁کشتگان	-5165
▁گردیده	-5166
▁گستاخی	-5167
▁گلزاری	-5168
▁گمگشته	-5169
▁گوشمال	-5170
▁یاسمین	-5171
▁یکدیگر	-5172
▁آوارگان	-5173
▁اختیارش	-5174
▁استعداد	-5175
▁افراخته	-5176
▁اندوخته	-5177
▁انگیخته	-5178
▁ایستاده	-5179
▁اینگونه	-5180
▁بحریفان	-5181
▁بداندیش	-5182
▁بدگمانی	-5183
▁بنشانند	-5184
▁بویرانه	-5185
▁بگلستان	-5186
▁بیدلانت	-5187
▁بیطاقتی	-5188
▁بیگناهی	-5189
▁جفاپیشه	-5190
▁جهانیان	-5191
▁دلشدگان	-5192
▁ریختندی	-5193
▁سالهاست	-5194
▁سرافراز	-5195
▁سرافگند	-5196
▁شرمساری	-5197
▁عندلیبی	-5198
▁فراموشش	-5199
▁فرستادم	-5200
▁فرستادن	-5201
▁مسلمانی	-5202
▁نشناخته	-5203
▁نشناسند	-5204
▁نوخاسته	-5205
▁نیاورده	-5206
▁پارسایی	-5207
▁کاروانم	-5208
▁کاویانی	-5209
▁گردنشان	-5210
▁گلستانی	-5211
▁افراسیاب	-5212
▁امیدواری	-5213
▁برفشانده	-5214
▁بیگانگان	-5215
▁ذوالفقار	-5216
▁روحانیان	-5217
▁فیروزمند	-5218
▁میگساران	-5219
▁همداستان	-5220
▁هندوستان	-5221
▁هوشمندان	-5222
▁بیخبرانند	-5223
▁دادخواهان	-5224
▁پاکدامانان	-5225
بهه	-5226
▁کلی	-5227
▁جبهه	-5228
▁دردش	-5229
▁صبوح	-5230
▁فیضت	-5231
▁مدحت	-5232
▁انبار	-5233
▁حمامی	-5234
!!	-5235
ظم	-5236
۱ه	-5237
حوس	-5238
ظیم	-5239
▁۲۲	-5240
▁۲۳	-5241
▁۲۴	-5242
▁۲۶	-5243
▁۳۰	-5244
▁۳۲	-5245
▁۳۳	-5246
▁۳۴	-5247
▁۳۵	-5248
▁۳۶	-5249
▁۳۷	-5250
▁۳۸	-5251
▁۳۹	-5252
▁۴۰	-5253
▁۴۱	-5254
▁۴۲	-5255
▁۴۳	-5256
▁۴۵	-5257
▁۴۶	-5258
▁۴۷	-5259
▁۴۸	-5260
▁۵۰	-5261
▁۵۱	-5262
▁۵۲	-5263
▁۵۳	-5264
▁۵۴	-5265
▁۵۵	-5266
▁۵۶	-5267
▁۵۷	-5268
۱۱۹۲	-5269
▁آنک	-5270
▁خلف	-5271
▁سبک	-5272
▁صله	-5273
▁نطق	-5274
۱۱۷۱ه	-5275
▁ببام	-5276
▁بصری	-5277
▁خامی	-5278
▁سامی	-5279
▁سپاه	-5280
▁صبحت	-5281
▁عارف	-5282
▁عامی	-5283
▁عظیم	-5284
▁نیکن	-5285
▁کلام	-5286
▁کوفی	-5287
▁احسان	-5288
▁حرامی	-5289
▁خارجی	-5290
▁زیشان	-5291
▁مقامی	-5292
▁میرزا	-5293
▁نادان	-5294
▁پختگی	-5295
▁پرورش	-5296
▁زبردست	-5297
▁نداشته	-5298
▁سخنوران	-5299
پد	-5300
یف	-5301
اعی	-5302
حمت	-5303
کیسه	-5304
▁تعر	-5305
▁غبغ	-5306
▁غزل	-5307
▁ماک	-5308
▁کال	-5309
ناکان	-5310
▁المق	-5311
▁بازم	-5312
▁جلال	-5313
▁جلوس	-5314
▁دراج	-5315
▁درود	-5316
▁عقاب	-5317
▁عقرب	-5318
▁بازار	-5319
▁بواله	-5320
▁منزلت	-5321
▁مولود	-5322
▁کارند	-5323
▁کردمی	-5324
▁کشاند	-5325
▁ماکیان	-5326
▁نوکیسه	-5327
.ـ	-5328
ئی	-5329
تد	-5330
حب	-5331
هن	-5332
ٰذ	-5333
یا	-5334
آسا	-5335
آور	-5336
اسی	-5337
بده	-5338
ترف	-5339
جدی	-5340
حلی	-5341
خاص	-5342
خسر	-5343
دلم	-5344
رمت	-5345
زیت	-5346
شرق	-5347
شیب	-5348
صیل	-5349
ضرر	-5350
عاد	-5351
عتش	-5352
فتن	-5353
فله	-5354
فیل	-5355
قاج	-5356
مسک	-5357
نجم	-5358
نحه	-5359
نگر	-5360
هشت	-5361
پاک	-5362
یها	-5363
▁..	-5364
▁شش	-5365
▁طی	-5366
▁فغ	-5367
▁پذ	-5368
▁۲۵	-5369
▁۲۷	-5370
▁۲۸	-5371
▁۲۹	-5372
▁۳۱	-5373
▁۴۴	-5374
▁۴۹	-5375
▁۵۸	-5376
آباد	-5377
آنکس	-5378
ادلی	-5379
ادیث	-5380
افام	-5381
افته	-5382
امون	-5383
انین	-5384
جاجی	-5385
جروش	-5386
حانم	-5387
حلیل	-5388
خسرو	-5389
دادی	-5390
درسه	-5391
ردنم	-5392
رزید	-5393
زنوی	-5394
زیاد	-5395
سالی	-5396
سانه	-5397
ستری	-5398
سپاس	-5399
ظیفه	-5400
فلسم	-5401
فندم	-5402
واحب	-5403
وازد	-5404
وشته	-5405
ٰذان	-5406
پایی	-5407
پذیر	-5408
ژگان	-5409
کامش	-5410
کردی	-5411
گفتم	-5412
یشان	-5413
ینند	-5414
▁آقا	-5415
▁آمر	-5416
▁انس	-5417
▁بعت	-5418
▁بنگ	-5419
▁بکن	-5420
▁بکی	-5421
▁حرز	-5422
▁خسم	-5423
▁دهل	-5424
▁رچو	-5425
▁زتو	-5426
▁زخط	-5427
▁زرق	-5428
▁سخط	-5429
▁سلخ	-5430
▁شبا	-5431
▁شبق	-5432
▁شرط	-5433
▁شیء	-5434
▁شین	-5435
▁صدا	-5436
▁صلا	-5437
▁ضرر	-5438
▁غنج	-5439
▁فرج	-5440
▁فوج	-5441
▁فیه	-5442
▁قلب	-5443
▁قهر	-5444
▁لعب	-5445
▁لنگ	-5446
▁مجو	-5447
▁منز	-5448
▁مهم	-5449
▁هاش	-5450
▁واز	-5451
▁ومه	-5452
▁پهن	-5453
▁چها	-5454
▁کاز	-5455
▁کلف	-5456
▁کنش	-5457
▁گول	-5458
آگهان	-5459
اختند	-5460
ادران	-5461
افتاد	-5462
الحسن	-5463
امالی	-5464
ایعتش	-5465
خواهی	-5466
ردمند	-5467
ردیدم	-5468
زانوی	-5469
زداری	-5470
سلامت	-5471
سپارد	-5472
شمنان	-5473
فتاده	-5474
نگاهی	-5475
هشتند	-5476
وروست	-5477
گشایی	-5478
گیریم	-5479
▁...ـ	-5480
▁آذار	-5481
▁ارزد	-5482
▁ازوف	-5483
▁افکن	-5484
▁انار	-5485
▁ایما	-5486
▁بالم	-5487
▁بامت	-5488
▁بجزع	-5489
▁بخشد	-5490
▁بدخو	-5491
▁بدعا	-5492
▁بدلی	-5493
▁براز	-5494
▁برجد	-5495
▁بسرا	-5496
▁بسنگ	-5497
▁بطپد	-5498
▁بعجز	-5499
▁بعهد	-5500
▁بغمم	-5501
▁بماه	-5502
▁بندت	-5503
▁بنهم	-5504
▁بوزه	-5505
▁بوقت	-5506
▁بپاک	-5507
▁بگرو	-5508
▁بیان	-5509
▁بیشه	-5510
▁تاجر	-5511
▁تباه	-5512
▁تخته	-5513
▁تنیم	-5514
▁ثانی	-5515
▁جامم	-5516
▁جلاد	-5517
▁جنبم	-5518
▁جورش	-5519
▁حرمش	-5520
▁خجلم	-5521
▁خجند	-5522
▁خشمت	-5523
▁خضاب	-5524
▁خفتم	-5525
▁خوست	-5526
▁دردت	-5527
▁دلال	-5528
▁دلند	-5529
▁دهدت	-5530
▁دوای	-5531
▁دوتا	-5532
▁دوسه	-5533
▁دینی	-5534
▁رخان	-5535
▁رسمم	-5536
▁رمید	-5537
▁روشی	-5538
▁رویی	-5539
▁ریزم	-5540
▁ریزه	-5541
▁زحمت	-5542
▁زخطا	-5543
▁زلفش	-5544
▁زوال	-5545
▁سازش	-5546
▁سحرم	-5547
▁سردی	-5548
▁سوار	-5549
▁سویم	-5550
▁سیما	-5551
▁شاهش	-5552
▁شرار	-5553
▁شسته	-5554
▁شهند	-5555
▁شهوت	-5556
▁شکفد	-5557
▁شیار	-5558
▁شیون	-5559
▁صبرت	-5560
▁صلحی	-5561
▁صنما	-5562
▁صهبا	-5563
▁ضحکه	-5564
▁طفیل	-5565
▁عارت	-5566
▁عبوس	-5567
▁عدوی	-5568
▁عربی	-5569
▁عقلی	-5570
▁علمت	-5571
▁عیبت	-5572
▁غازی	-5573
▁غبغب	-5574
▁غلتد	-5575
▁فتوت	-5576
▁فحلی	-5577
▁فربه	-5578
▁فرسخ	-5579
▁فرسی	-5580
▁قرین	-5581
▁لنگر	-5582
▁لیکن	-5583
▁ماهش	-5584
▁مجاز	-5585
▁مروی	-5586
▁مصفی	-5587
▁مظهر	-5588
▁مقدس	-5589
▁ممسک	-5590
▁مهرش	-5591
▁مولا	-5592
▁مگرد	-5593
▁مگرم	-5594
▁میمز	-5595
▁میگز	-5596
▁نادر	-5597
▁نسود	-5598
▁نشیب	-5599
▁نفیر	-5600
▁نمون	-5601
▁نوشی	-5602
▁هرشب	-5603
▁هرچه	-5604
▁هشتم	-5605
▁هنرت	-5606
▁هوات	-5607
▁هیچش	-5608
▁وزین	-5609
▁وصلی	-5610
▁وطنی	-5611
▁پاله	-5612
▁پاکی	-5613
▁پرنم	-5614
▁پسته	-5615
▁پشمی	-5616
▁پنبه	-5617
▁چاشت	-5618
▁کابر	-5619
▁کاهد	-5620
▁کروی	-5621
▁کسیت	-5622
▁کنیم	-5623
▁کوفه	-5624
▁گرگش	-5625
▁گزید	-5626
▁گلکی	-5627
▁گوشو	-5628
▁یکسر	-5629
افریها	-5630
بانیان	-5631
یرانند	-5632
▁آخرین	-5633
▁آزارم	-5634
▁آزردن	-5635
▁آمدنش	-5636
▁آموزت	-5637
▁آهسته	-5638
▁آویخت	-5639
▁ابعاد	-5640
▁اجلال	-5641
▁اجنحه	-5642
▁اضطرا	-5643
▁افتدم	-5644
▁المنه	-5645
▁امارت	-5646
▁امسال	-5647
▁امشبم	-5648
▁انتها	-5649
▁انسان	-5650
▁ایمنم	-5651
▁بارها	-5652
▁باشدم	-5653
▁بتانی	-5654
▁بخدمت	-5655
▁برآیی	-5656
▁بردیم	-5657
▁برگشت	-5658
▁بستیم	-5659
▁بشاخی	-5660
▁بطفلی	-5661
▁بنامه	-5662
▁بندند	-5663
▁بنمود	-5664
▁بهاری	-5665
▁بهانه	-5666
▁بهلال	-5667
▁بپایت	-5668
▁بپرسش	-5669
▁بچشمش	-5670
▁بکشتی	-5671
▁بیزار	-5672
▁تحصیل	-5673
▁تربتم	-5674
▁تشویش	-5675
▁تعزیت	-5676
▁تمکین	-5677
▁تناهی	-5678
▁ثوابی	-5679
▁جاریه	-5680
▁جفاست	-5681
▁جویدش	-5682
▁جگران	-5683
▁حسابت	-5684
▁حسابم	-5685
▁حسنین	-5686
▁حصیری	-5687
▁خجلند	-5688
▁خراشد	-5689
▁خرامت	-5690
▁خرامد	-5691
▁خرسند	-5692
▁خریده	-5693
▁خزانف	-5694
▁خلافت	-5695
▁خلوتی	-5696
▁خمارم	-5697
▁دادنش	-5698
▁درآیی	-5699
▁دردام	-5700
▁دعاست	-5701
▁دمیده	-5702
▁دوایت	-5703
▁دیباج	-5704
▁دیدمت	-5705
▁رایان	-5706
▁رسیدن	-5707
▁رفتنی	-5708
▁رهبری	-5709
▁روستا	-5710
▁ریشان	-5711
▁زجاجی	-5712
▁زکامش	-5713
▁سافله	-5714
▁ساوجی	-5715
▁ستمکش	-5716
▁سخنان	-5717
▁سوزان	-5718
▁سوزند	-5719
▁سیاهم	-5720
▁سیاهی	-5721
▁شادیم	-5722
▁شاعری	-5723
▁شبگون	-5724
▁شریان	-5725
▁شعبان	-5726
▁شعبده	-5727
▁شفاعت	-5728
▁شناسی	-5729
▁شهانت	-5730
▁صاحبا	-5731
▁صباحت	-5732
▁صواحب	-5733
▁طبیبا	-5734
▁طلبید	-5735
▁طمقاج	-5736
▁عادلی	-5737
▁عاریه	-5738
▁عاقله	-5739
▁عالیه	-5740
▁عنانم	-5741
▁غزنوی	-5742
▁فرزین	-5743
▁فروشم	-5744
▁فغانی	-5745
▁فلانی	-5746
▁قاتلم	-5747
▁قاصدا	-5748
▁قافیه	-5749
▁قفسند	-5750
▁لرزان	-5751
▁ماران	-5752
▁محشور	-5753
▁مخوان	-5754
▁مدامی	-5755
▁مدرسه	-5756
▁مرتضی	-5757
▁مسجدی	-5758
▁معترف	-5759
▁مفلسم	-5760
▁مولای	-5761
▁مکرمت	-5762
▁میآیی	-5763
▁میدمد	-5764
▁میدهم	-5765
▁میمرد	-5766
▁مینام	-5767
▁میپرد	-5768
▁نافله	-5769
▁نالیم	-5770
▁ناووس	-5771
▁نخوری	-5772
▁ندامت	-5773
▁نرسته	-5774
▁نزادی	-5775
▁نشمار	-5776
▁نصیبم	-5777
▁نفسند	-5778
▁نقشکی	-5779
▁ننالم	-5780
▁نپسند	-5781
▁نچیده	-5782
▁نکهتی	-5783
▁نکویی	-5784
▁نگفتم	-5785
▁نگنجد	-5786
▁هستیم	-5787
▁همنفس	-5788
▁همچون	-5789
▁هٰذان	-5790
▁وآنکس	-5791
▁پذیرم	-5792
▁چشمان	-5793
▁کآواز	-5794
▁کاشکی	-5795
▁کالبد	-5796
▁کامده	-5797
▁کبکان	-5798
▁کجروش	-5799
▁کردمت	-5800
▁کردیم	-5801
▁کریمی	-5802
▁کفایت	-5803
▁کودکی	-5804
▁کوفتن	-5805
▁گردنم	-5806
▁گرفتش	-5807
▁گفتنی	-5808
▁گمانت	-5809
▁گناهش	-5810
▁گناهم	-5811
▁گویان	-5812
پسندیده	-5813
▁آزردنم	-5814
▁ابرآسا	-5815
▁احادیث	-5816
▁احتراز	-5817
▁ازمشرق	-5818
▁ازیشان	-5819
▁اسفندم	-5820
▁اسیریم	-5821
▁افروزی	-5822
▁افزودت	-5823
▁امروزش	-5824
▁انتقام	-5825
▁انجمنم	-5826
▁باختمش	-5827
▁بازاری	-5828
▁بانصاف	-5829
▁بخلوتی	-5830
▁بدرگهش	-5831
▁بدیوان	-5832
▁برانند	-5833
▁بروادت	-5834
▁بسامان	-5835
▁بعتابت	-5836
▁بمژگان	-5837
▁بنشیند	-5838
▁بنگاری	-5839
▁بهاران	-5840
▁بهامون	-5841
▁بهشتاد	-5842
▁بوظیفه	-5843
▁بکناری	-5844
▁بگداخت	-5845
▁بگریزی	-5846
▁بگریست	-5847
▁بیدادت	-5848
▁بیداری	-5849
▁جانانم	-5850
▁جداییش	-5851
▁جمشیدی	-5852
▁جوانیت	-5853
▁خاقانی	-5854
▁خاموشش	-5855
▁خردمند	-5856
▁خلقتنی	-5857
▁خودکام	-5858
▁داعیان	-5859
▁درگاهی	-5860
▁دلپذیر	-5861
▁دمسازش	-5862
▁دوستیش	-5863
▁دیدستم	-5864
▁روستای	-5865
▁زادگان	-5866
▁زورآور	-5867
▁زیبایی	-5868
▁سختگیر	-5869
▁سرفگند	-5870
▁سلطانی	-5871
▁سپارند	-5872
▁شکفتگی	-5873
▁شیرویه	-5874
▁صبحدمی	-5875
▁صبوحست	-5876
▁فردوسی	-5877
▁فرستیش	-5878
▁مجانین	-5879
▁مردگان	-5880
▁منزلتا	-5881
▁مولایی	-5882
▁مگردان	-5883
▁میدانم	-5884
▁میدهدم	-5885
▁میرسدت	-5886
▁میکشان	-5887
▁ناخوشی	-5888
▁ناسپاس	-5889
▁ناکرده	-5890
▁نشاندش	-5891
▁نقشهای	-5892
▁نمیداد	-5893
▁ننالید	-5894
▁ننوشته	-5895
▁نگارین	-5896
▁نگفتیم	-5897
▁هنگامه	-5898
▁پوشیدی	-5899
▁پیرهنم	-5900
▁پیرهنی	-5901
▁پیغامش	-5902
▁پیکانت	-5903
▁چیدستم	-5904
▁کآراست	-5905
▁کارگاه	-5906
▁کاغیار	-5907
▁کریمتر	-5908
▁کشتنیم	-5909
▁کیخسرو	-5910
▁کیمییا	-5911
▁گفتندی	-5912
▁گمارمت	-5913
▁آرامگاه	-5914
▁آمرزیده	-5915
▁آموختمی	-5916
▁ازنگاهی	-5917
▁استادیش	-5918
▁استقبال	-5919
▁امتحانم	-5920
▁بامدادی	-5921
▁ببهشتند	-5922
▁بدشمنان	-5923
▁برآوازم	-5924
▁برافتاد	-5925
▁برافشان	-5926
▁برایگان	-5927
▁برخاسته	-5928
▁برنداشت	-5929
▁برگزیده	-5930
▁بشکافته	-5931
▁بوالحسن	-5932
▁بوالهوس	-5933
▁بگذاشتی	-5934
▁بیگنهند	-5935
▁جگرانند	-5936
▁خاکستری	-5937
▁خاکپایی	-5938
▁خردسالی	-5939
▁خلوتگاه	-5940
▁دلپسندت	-5941
▁دواجشان	-5942
▁دگرباره	-5943
▁رازداری	-5944
▁رستاخیز	-5945
▁روشنایی	-5946
▁سراحلیل	-5947
▁سرگردان	-5948
▁سوداخیز	-5949
▁شادزیاد	-5950
▁شاهانند	-5951
▁شبانگاه	-5952
▁طیرانند	-5953
▁غمناکان	-5954
▁مرغزاری	-5955
▁مسلمانم	-5956
▁مشایعتش	-5957
▁میسپارد	-5958
▁مینافام	-5959
▁مینوازد	-5960
▁میگریزی	-5961
▁نمیرنجم	-5962
▁نمیکردی	-5963
▁ننالیده	-5964
▁ننشاندی	-5965
▁ننشینند	-5966
▁نکوروست	-5967
▁نگونسار	-5968
▁نیاوردم	-5969
▁همزانوی	-5970
▁هندوانه	-5971
▁وفادارا	-5972
▁پادشایی	-5973
▁پالهنگی	-5974
▁پرداخته	-5975
▁پرستاری	-5976
▁پندارند	-5977
▁پوستینی	-5978
▁کآشیانی	-5979
▁کاروانش	-5980
▁کاسلامت	-5981
▁کافسانه	-5982
▁گوسفندی	-5983
▁ابوالحسن	-5984
▁افروختمی	-5985
▁ببرادران	-5986
▁بپاسبانی	-5987
▁بکافریها	-5988
▁جهانگردی	-5989
▁خودخواهی	-5990
▁خوشخرامت	-5991
▁دستگیریم	-5992
▁دیوانگان	-5993
▁ستمگریها	-5994
▁شیبانیان	-5995
▁مالامالی	-5996
▁میگردیدم	-5997
▁نامحرمان	-5998
▁نشناختمش	-5999
▁نوشیروان	-6000
▁کارآگهان	-6001
▁کامرانیت	-6002
▁گرهگشایی	-6003
▁ناپسندیده	-6004
▁کجروشیهای	-6005
▁هواخواهانند	-6006
اذق	-6007
اطه	-6008
اپو	-6009
بخش	-6010
خاء	-6011
صوص	-6012
نظر	-6013
وحش	-6014
کتب	-6015
افتی	-6016
الحش	-6017
اویه	-6018
اگرم	-6019
تاسر	-6020
تفاع	-6021
جملی	-6022
جمهر	-6023
جمیل	-6024
جهتم	-6025
خراج	-6026
خلخه	-6027
درات	-6028
دراج	-6029
رؤوس	-6030
سوزی	-6031
شاوه	-6032
شرکت	-6033
صافت	-6034
صوبه	-6035
طرتا	-6036
فرما	-6037
قدیس	-6038
لاطم	-6039
مدوح	-6040
نواز	-6041
وختم	-6042
وزخش	-6043
ولیش	-6044
پرسم	-6045
پرور	-6046
یربد	-6047
▁بآی	-6048
▁تفح	-6049
▁جهت	-6050
▁حوص	-6051
▁ذقن	-6052
▁رجز	-6053
▁رزق	-6054
▁رطب	-6055
▁رطل	-6056
▁رمض	-6057
▁رگش	-6058
▁زآب	-6059
▁زقن	-6060
▁سطح	-6061
▁شغل	-6062
▁صما	-6063
▁صنع	-6064
▁طرح	-6065
▁طرز	-6066
▁طنز	-6067
▁عصف	-6068
▁فضل	-6069
▁لآل	-6070
▁مؤذ	-6071
▁مثل	-6072
▁مکت	-6073
▁نپذ	-6074
▁نپس	-6075
▁چرب	-6076
▁یما	-6077
▁ینم	-6078
ادیلش	-6079
اگردی	-6080
بیمار	-6081
تشکده	-6082
خواست	-6083
ربایی	-6084
رزیدت	-6085
رویان	-6086
ریدون	-6087
زولیش	-6088
سایگی	-6089
شایند	-6090
شکیبی	-6091
ضاعتی	-6092
عفران	-6093
فتوحش	-6094
فرمند	-6095
لاطین	-6096
لومات	-6097
مدلله	-6098
نتابد	-6099
جورد	-6100
نگری	-6101
▁طعم	-6102
▁واض	-6103
لمانی	-6104
نجبیل	-6105
واسیس	-6106
واویس	-6107
کندگی	-6108
گذارد	-6109
یمانه	-6110
▁آخور	-6111
▁آشتی	-6112
▁آورم	-6113
▁آیمت	-6114
▁احتم	-6115
▁احتی	-6116
▁اربع	-6117
▁ازمح	-6118
▁اطرف	-6119
▁اعتم	-6120
▁اعتک	-6121
▁اعضا	-6122
▁اعمی	-6123
▁اقلی	-6124
▁الاع	-6125
▁الحق	-6126
▁اوجت	-6127
▁بابل	-6128
▁باطن	-6129
▁بترک	-6130
▁بحسب	-6131
▁بحسن	-6132
▁بدخش	-6133
▁بربط	-6134
▁برزق	-6135
▁برقع	-6136
▁بشمش	-6137
▁بصبح	-6138
▁بعجب	-6139
▁بغلط	-6140
▁بقای	-6141
▁بقصر	-6142
▁بقضا	-6143
▁بقهر	-6144
▁بمثل	-6145
▁بمخل	-6146
▁بمدح	-6147
▁بمرگ	-6148
▁بمقر	-6149
▁بنسب	-6150
▁بوبد	-6151
▁ترحم	-6152
▁تزاح	-6153
▁تزوی	-6154
▁تعری	-6155
▁تغاف	-6156
▁تقدم	-6157
▁تنعم	-6158
▁توکل	-6159
▁تکلم	-6160
▁تیمم	-6161
▁جرسم	-6162
▁جرسی	-6163
▁جوشش	-6164
▁حاذق	-6165
▁حباب	-6166
▁حلاج	-6167
▁حورش	-6168
▁خالق	-6169
▁خصمت	-6170
▁خناز	-6171
▁خنوس	-6172
▁دبیر	-6173
▁درجم	-6174
▁دلگش	-6175
▁ذرات	-6176
▁رجال	-6177
▁رضات	-6178
▁رطبش	-6179
▁رعیت	-6180
▁رقصم	-6181
▁زبده	-6182
▁زبرد	-6183
▁زعلی	-6184
▁زعمر	-6185
▁زورم	-6186
▁سبزش	-6187
▁سرما	-6188
▁سفتن	-6189
▁سندر	-6190
▁سندس	-6191
▁سوسن	-6192
▁شوره	-6193
▁صدره	-6194
▁صفحه	-6195
▁صلای	-6196
▁صلوه	-6197
▁صلیب	-6198
▁صنمش	-6199
ثغر	-6200
غرض	-6201
غول	-6202
افتر	-6203
غرای	-6204
نگیس	-6205
ورزی	-6206
▁تکف	-6207
▁طول	-6208
▁پول	-6209
▁کدخ	-6210
▁ابکم	-6211
▁بانت	-6212
▁بفرق	-6213
▁بیکل	-6214
▁تحکم	-6215
▁ترکت	-6216
▁خدام	-6217
▁رکوع	-6218
▁زهدش	-6219
▁زیبد	-6220
▁سایل	-6221
▁سردت	-6222
▁سفره	-6223
▁شعار	-6224
▁صنمی	-6225
▁صولت	-6226
▁ضحوک	-6227
▁طالب	-6228
▁طمعت	-6229
▁طیور	-6230
▁ظلال	-6231
▁عذاب	-6232
▁عروج	-6233
▁عزلش	-6234
▁عصمت	-6235
▁عفوت	-6236
▁علمش	-6237
▁عنقا	-6238
▁عیبم	-6239
▁غالب	-6240
▁غضبش	-6241
▁غمگس	-6242
▁غیبت	-6243
▁فاسد	-6244
▁فزای	-6245
▁فسحت	-6246
▁فصیح	-6247
▁فقرت	-6248
▁فلان	-6249
▁فهمد	-6250
▁فکلی	-6251
▁فکند	-6252
▁قاعد	-6253
▁قایم	-6254
▁قبای	-6255
▁قدمش	-6256
▁قعود	-6257
▁قفست	-6258
▁قوتی	-6259
▁لابد	-6260
▁لالا	-6261
▁لطیف	-6262
▁لعلی	-6263
▁لوحش	-6264
▁مأمن	-6265
▁مؤمن	-6266
▁مثال	-6267
▁محجو	-6268
▁مداح	-6269
▁مذاق	-6270
▁مرکب	-6271
▁مزید	-6272
▁مزین	-6273
▁مصرع	-6274
▁مطاب	-6275
▁مطوق	-6276
▁مظلم	-6277
▁معاذ	-6278
▁معذب	-6279
▁معشو	-6280
▁مغرب	-6281
▁منطق	-6282
▁موبد	-6283
▁موجب	-6284
▁مکتب	-6285
▁مکدر	-6286
▁مکشد	-6287
▁نارپ	-6288
▁نافر	-6289
▁نبخش	-6290
▁نتاج	-6291
▁نحوس	-6292
▁نساج	-6293
▁نسزد	-6294
▁نشاط	-6295
▁نعلش	-6296
▁نفتد	-6297
▁نفوس	-6298
▁نقطه	-6299
بذ	-6300
اسن	-6301
افؤ	-6302
بذا	-6303
بوس	-6304
ادخل	-6305
بینی	-6306
عانی	-6307
وایی	-6308
ونتی	-6309
یانی	-6310
▁انه	-6311
▁خسش	-6312
▁شرع	-6313
▁صلی	-6314
▁عبد	-6315
▁مصح	-6316
▁هنا	-6317
▁هنر	-6318
اییده	-6319
شیمان	-6320
▁باند	-6321
▁برجی	-6322
▁بشکل	-6323
▁بوجد	-6324
▁تاجی	-6325
▁حبذا	-6326
▁خاند	-6327
▁خفتی	-6328
▁خوشی	-6329
▁دشتش	-6330
▁سرخی	-6331
▁سلیم	-6332
▁سمور	-6333
▁سمین	-6334
▁شوند	-6335
▁صلیح	-6336
▁عبور	-6337
▁فسوس	-6338
▁فکرم	-6339
▁محلل	-6340
▁مصاح	-6341
▁مصحف	-6342
▁مصور	-6343
▁مولد	-6344
▁نوحم	-6345
▁نپذی	-6346
▁هجوم	-6347
▁هرمس	-6348
▁هفتم	-6349
▁همنف	-6350
▁هوشش	-6351
▁واضح	-6352
▁وافؤ	-6353
▁وجان	-6354
▁وسوا	-6355
▁وسوس	-6356
▁وشوی	-6357
▁پافش	-6358
▁پراک	-6359
▁پشتم	-6360
▁پلاس	-6361
▁پیاپ	-6362
▁چامه	-6363
▁چران	-6364
▁چرخه	-6365
▁چرید	-6366
▁چسان	-6367
▁چنار	-6368
▁چنگی	-6369
▁کؤوس	-6370
▁کاهل	-6371
▁کرسی	-6372
▁کلکم	-6373
▁کلیب	-6374
▁کودک	-6375
▁کوشی	-6376
▁کوهش	-6377
▁کوکو	-6378
▁گامش	-6379
▁گسست	-6380
▁گیسو	-6381
▁یؤوس	-6382
▁یابد	-6383
▁یازی	-6384
▁یالش	-6385
▁یونس	-6386
▁۱۱۹۵	-6387
آتشکده	-6388
ادخلوا	-6389
اسدانت	-6390
ایستگی	-6391
برویان	-6392
خورشید	-6393
رداریش	-6394
رفشانم	-6395
زیگران	-6396
ساختند	-6397
شناسان	-6398
نادیلش	-6399
بره	-6400
تول	-6401
سمن	-6402
مره	-6403
منن	-6404
وود	-6405
▁حد	-6406
اهیم	-6407
ایگی	-6408
▁آبر	-6409
▁افغ	-6410
▁بسج	-6411
▁بسپ	-6412
▁ختم	-6413
▁رلف	-6414
▁رگی	-6415
▁ریو	-6416
▁سلک	-6417
▁شمن	-6418
▁فعل	-6419
▁فلز	-6420
▁ناآ	-6421
▁نبخ	-6422
▁نبد	-6423
▁نحی	-6424
▁ورت	-6425
▁کسش	-6426
اوانش	-6427
▁الای	-6428
▁بآست	-6429
▁باضط	-6430
▁بحیا	-6431
▁براد	-6432
▁بسان	-6433
▁خونی	-6434
▁دستک	-6435
▁زمره	-6436
▁زیبش	-6437
▁زیست	-6438
▁ساری	-6439
▁شیفت	-6440
▁عقده	-6441
▁معیل	-6442
▁نبری	-6443
▁نحیف	-6444
▁ندای	-6445
▁نگرد	-6446
▁کندم	-6447
▁گلبر	-6448
همایون	-6449
وزجمهر	-6450
پیمانه	-6451
۱۱۷۱هق	-6452
▁آبروی	-6453
▁آرامش	-6454
▁آسایم	-6455
▁آغازش	-6456
▁آماده	-6457
▁آمیزت	-6458
▁آوارگ	-6459
▁آورمش	-6460
▁آوریت	-6461
▁آویزم	-6462
▁آگندم	-6463
▁آگهان	-6464
▁اتفاق	-6465
▁اخلاص	-6466
▁اخلاق	-6467
▁اخیار	-6468
▁ارایک	-6469
▁ارزیز	-6470
▁اسرار	-6471
▁اسماع	-6472
▁اشخاص	-6473
▁اصنام	-6474
▁اطراف	-6475
▁اعیان	-6476
▁افسرش	-6477
▁اقلیم	-6478
▁الاسم	-6479
▁الحال	-6480
▁الحرم	-6481
▁الدین	-6482
▁الصبح	-6483
▁الصنم	-6484
▁الطبع	-6485
▁العدا	-6486
▁العهد	-6487
▁الغرض	-6488
▁المثل	-6489
▁انهار	-6490
▁ایازش	-6491
▁ایمنی	-6492
▁بابلی	-6493
▁باربد	-6494
▁باطله	-6495
▁ببخشد	-6496
▁ببرید	-6497
▁ببندد	-6498
▁ببهای	-6499
حن	-6500
ابک	-6501
ارن	-6502
جلت	-6503
ابین	-6504
امیم	-6505
اینه	-6506
جهان	-6507
خسته	-6508
ستیم	-6509
لشان	-6510
ونده	-6511
▁باس	-6512
▁بگی	-6513
▁تبی	-6514
▁توح	-6515
▁حیض	-6516
▁شنج	-6517
▁طال	-6518
▁عرب	-6519
▁مرم	-6520
▁هدی	-6521
▁وهم	-6522
انگیز	-6523
قصابی	-6524
▁اشتر	-6525
▁باسق	-6526
▁بدفت	-6527
▁بکفر	-6528
▁ترنم	-6529
▁جستج	-6530
▁حجال	-6531
▁حسنی	-6532
▁سرگش	-6533
▁شکور	-6534
▁عصای	-6535
▁فرید	-6536
▁مرمر	-6537
▁ناوه	-6538
▁نزهت	-6539
▁نهیم	-6540
▁نیاک	-6541
▁هدیه	-6542
▁پستی	-6543
▁چابک	-6544
▁کردت	-6545
خواهیم	-6546
▁ببارد	-6547
▁بتابد	-6548
▁بتکلم	-6549
▁بجبین	-6550
▁بجورم	-6551
▁بحیله	-6552
▁بخاکش	-6553
▁بخلاق	-6554
▁بدروی	-6555
▁برآری	-6556
▁براحت	-6557
▁بربند	-6558
▁برزده	-6559
▁برقفا	-6560
▁بساحل	-6561
▁بسازد	-6562
▁بسازم	-6563
▁بسجده	-6564
▁بسخاء	-6565
▁بسزای	-6566
▁بسنجد	-6567
▁بسوخت	-6568
▁بسوزی	-6569
▁بشرکت	-6570
▁بشمار	-6571
▁بطلان	-6572
▁بعداز	-6573
▁بفراز	-6574
▁بفردا	-6575
▁بفرقش	-6576
▁بفروش	-6577
▁بلاها	-6578
▁بمانی	-6579
▁بمجلس	-6580
▁بمجمل	-6581
▁بمدحش	-6582
▁بمدعا	-6583
▁بمرغی	-6584
▁بمرگم	-6585
▁بمشاط	-6586
▁بنالد	-6587
▁بناگه	-6588
▁بنویس	-6589
▁بهیچم	-6590
▁بپایش	-6591
▁بکامم	-6592
▁بکشیم	-6593
▁بگریه	-6594
▁بگلاب	-6595
▁بگناه	-6596
▁بیاضش	-6597
▁بیدوا	-6598
▁بیچار	-6599
ارق	-6600
بلب	-6601
ثری	-6602
حمی	-6603
رای	-6604
ریب	-6605
ریت	-6606
ومی	-6607
▁رأ	-6608
▁ظه	-6609
ادری	-6610
ازید	-6611
المی	-6612
برده	-6613
بلبل	-6614
توحش	-6615
لهان	-6616
میان	-6617
وزند	-6618
▁بیع	-6619
▁تلف	-6620
▁خدی	-6621
▁خنگ	-6622
▁خوب	-6623
▁دهر	-6624
▁رأس	-6625
▁رحل	-6626
▁شمی	-6627
▁مقب	-6628
▁موج	-6629
▁موف	-6630
▁ویس	-6631
اییان	-6632
حرومی	-6633
مرهان	-6634
هروان	-6635
▁اثری	-6636
▁ایشی	-6637
▁ببرت	-6638
▁بحال	-6639
▁بلید	-6640
▁بیمد	-6641
▁جرمم	-6642
▁جنبش	-6643
▁خدیا	-6644
▁خوبم	-6645
▁خویت	-6646
▁دواز	-6647
▁سرمد	-6648
▁سرود	-6649
▁ظهور	-6650
▁علقه	-6651
▁ملون	-6652
▁موفق	-6653
▁مومی	-6654
▁چشان	-6655
▁استغف	-6656
▁امرای	-6657
▁ایشیخ	-6658
▁بانوی	-6659
▁بجانم	-6660
▁بدهند	-6661
▁بمیرد	-6662
▁تارها	-6663
▁تبدیل	-6664
▁تتارش	-6665
▁تجارت	-6666
▁تجملی	-6667
▁تحملی	-6668
▁تحمیل	-6669
▁تدبیر	-6670
▁تدریس	-6671
▁تراشد	-6672
▁تراکم	-6673
▁ترحمی	-6674
▁تزاحم	-6675
▁تزویج	-6676
▁تعالی	-6677
▁تعطیل	-6678
▁تعلیم	-6679
▁تقریب	-6680
▁تلاطم	-6681
▁تهلیل	-6682
▁توبره	-6683
▁توحید	-6684
▁تکاور	-6685
▁تکبیر	-6686
▁تکفیر	-6687
▁تیماج	-6688
▁ثانیش	-6689
▁ثنایت	-6690
▁جابجا	-6691
▁جاروب	-6692
▁جانها	-6693
▁جبریل	-6694
▁جغدان	-6695
▁جغدند	-6696
▁جمالت	-6697
▁جمعیت	-6698
▁جمیلش	-6699
ذرم	-6700
ساک	-6701
شرم	-6702
لاخ	-6703
لاز	-6704
لاف	-6705
▁چی	-6706
ابان	-6707
بروز	-6708
شانه	-6709
لگان	-6710
یانش	-6711
▁امش	-6712
▁اوث	-6713
▁بصی	-6714
▁تاز	-6715
▁خرک	-6716
▁طوی	-6717
▁پیم	-6718
▁چوم	-6719
اشانه	-6720
لاخان	-6721
لازمت	-6722
کیانش	-6723
▁الحر	-6724
▁ببست	-6725
▁ببند	-6726
▁بدین	-6727
▁بقفس	-6728
▁بمان	-6729
▁بودن	-6730
▁بودژ	-6731
▁حشرم	-6732
▁خودی	-6733
▁دمان	-6734
▁رحیم	-6735
▁روزگ	-6736
▁سبوس	-6737
▁شانه	-6738
▁عزای	-6739
▁مخال	-6740
▁مردک	-6741
▁موسم	-6742
▁نخیز	-6743
▁هنگی	-6744
▁پیشم	-6745
▁یمان	-6746
▁امساک	-6747
▁امشبی	-6748
▁اوثان	-6749
▁بآنجا	-6750
▁باورت	-6751
▁بتیرم	-6752
▁بجامی	-6753
▁بخلاف	-6754
▁بدانش	-6755
▁برنده	-6756
▁بشنود	-6757
▁تازگی	-6758
▁جفاجو	-6759
▁جنابی	-6760
▁جنگجو	-6761
▁جهانت	-6762
▁جوابت	-6763
▁جوابم	-6764
▁جوییش	-6765
▁جوییم	-6766
▁حجابت	-6767
▁حریفی	-6768
▁حلولی	-6769
▁حوصله	-6770
▁حکمتا	-6771
▁حیاتت	-6772
▁حیرتی	-6773
▁خاتمش	-6774
▁خجالت	-6775
▁خجلتی	-6776
▁خروسش	-6777
▁خروشش	-6778
▁خرگهم	-6779
▁خستگی	-6780
▁خضریم	-6781
▁خطیبی	-6782
▁خفتان	-6783
▁خفتنی	-6784
▁خلقته	-6785
▁خلیفه	-6786
▁خموشم	-6787
▁خموشی	-6788
▁خنجرت	-6789
▁خندند	-6790
▁داریم	-6791
▁داوود	-6792
▁دختری	-6793
▁دردها	-6794
▁دروغم	-6795
▁دلخون	-6796
▁دلهای	-6797
▁دلگشا	-6798
▁دهانم	-6799
صی	-6800
ادل	-6801
بها	-6802
بیب	-6803
بیز	-6804
زیم	-6805
سنش	-6806
صاص	-6807
صیع	-6808
لزم	-6809
هنگ	-6810
وله	-6811
چلی	-6812
ارتی	-6813
استی	-6814
بیین	-6815
جاست	-6816
دیار	-6817
وشید	-6818
▁آیه	-6819
▁بدن	-6820
▁بسؤ	-6821
▁تسی	-6822
▁صند	-6823
▁قار	-6824
▁نهر	-6825
▁کفم	-6826
نبیین	-6827
▁افتی	-6828
▁اینم	-6829
▁بجفا	-6830
▁بخلق	-6831
▁برگی	-6832
▁بکشد	-6833
▁بیست	-6834
▁حبیب	-6835
▁خودن	-6836
▁دردآ	-6837
▁رامم	-6838
▁سطبر	-6839
▁شبنم	-6840
▁صندو	-6841
▁عیار	-6842
▁غوره	-6843
▁غیبی	-6844
▁قلزم	-6845
▁نباز	-6846
▁پویه	-6847
▁چارم	-6848
▁کچلی	-6849
▁گرید	-6850
افریده	-6851
▁استبر	-6852
▁اعتلا	-6853
▁اندرز	-6854
▁بآهنگ	-6855
▁براهی	-6856
▁بسؤال	-6857
▁بنگرم	-6858
▁بپرور	-6859
▁بگویش	-6860
▁تسیلم	-6861
▁توسنش	-6862
▁جوانم	-6863
▁خودنق	-6864
▁دردآش	-6865
▁دقایق	-6866
▁دهندش	-6867
▁دوایی	-6868
▁دورتر	-6869
▁دوزخش	-6870
▁دوستش	-6871
▁دیروز	-6872
▁دینکم	-6873
▁رازها	-6874
▁راغها	-6875
▁راندی	-6876
▁رایتت	-6877
▁رستمش	-6878
▁رمضان	-6879
▁رمیان	-6880
▁رمیدی	-6881
▁رهاند	-6882
▁رونده	-6883
▁رکعبه	-6884
▁زانیه	-6885
▁زایده	-6886
▁زخجلت	-6887
▁زدودی	-6888
▁زراعت	-6889
▁زمردم	-6890
▁زمزمش	-6891
▁زنندش	-6892
▁زنهاد	-6893
▁زنیفه	-6894
▁زودتر	-6895
▁زیارت	-6896
▁ساغرت	-6897
▁سامری	-6898
▁سجودت	-6899
ذت	-6900
اتح	-6901
اقش	-6902
ثال	-6903
غال	-6904
▁حض	-6905
ابلی	-6906
اموز	-6907
ریقت	-6908
ساره	-6909
صحاب	-6910
لافی	-6911
ورای	-6912
ورند	-6913
وزون	-6914
وشند	-6915
▁افو	-6916
▁دمت	-6917
▁دنی	-6918
▁شدز	-6919
▁عبر	-6920
▁لذت	-6921
▁میف	-6922
▁نلغ	-6923
شتغال	-6924
▁انده	-6925
▁بساغ	-6926
▁تافت	-6927
▁حضور	-6928
▁خاصی	-6929
▁دستگ	-6930
▁دهمت	-6931
▁دوال	-6932
▁زاید	-6933
▁زمرد	-6934
▁سخای	-6935
▁شاهو	-6936
▁شدزر	-6937
▁طناز	-6938
▁فاتح	-6939
▁قدوم	-6940
▁ملال	-6941
▁میزن	-6942
▁کلیل	-6943
▁آبدار	-6944
▁افواج	-6945
▁القسا	-6946
▁انباز	-6947
▁انداز	-6948
▁بحالم	-6949
▁بساغر	-6950
▁بلعام	-6951
▁بمیری	-6952
▁تافتی	-6953
▁تمثال	-6954
▁رحیلش	-6955
▁رواقش	-6956
▁روشنش	-6957
▁زابلی	-6958
▁سردیش	-6959
▁سرشار	-6960
▁سرشکم	-6961
▁سرمست	-6962
▁سرودی	-6963
▁سروری	-6964
▁سرکند	-6965
▁سرگرد	-6966
▁سرگرم	-6967
▁سریشم	-6968
▁سطورش	-6969
▁سفیدش	-6970
▁سمرشد	-6971
▁سمندر	-6972
▁سمندش	-6973
▁سنبلی	-6974
▁سواره	-6975
▁سودها	-6976
▁سوراخ	-6977
▁سپهرش	-6978
▁سیاحت	-6979
▁شاهات	-6980
▁شاهیت	-6981
▁شبانه	-6982
▁شتابی	-6983
▁شریفه	-6984
▁شعاعی	-6985
▁شقایق	-6986
▁شمردن	-6987
▁شمعها	-6988
▁شمیمش	-6989
▁شنجرف	-6990
▁شنفته	-6991
▁شنقار	-6992
▁شهادت	-6993
▁شویدش	-6994
▁شکافت	-6995
▁شکنند	-6996
▁شکیبا	-6997
▁صادقی	-6998
▁صافتر	-6999
طب	-7000
انو	-7001
شیم	-7002
ضلی	-7003
ادین	-7004
اضلی	-7005
اهای	-7006
ایان	-7007
ایشی	-7008
بریز	-7009
دهدی	-7010
رابه	-7011
ریضت	-7012
طبلت	-7013
قیان	-7014
وفای	-7015
یمار	-7016
▁بصع	-7017
▁تشت	-7018
▁خصر	-7019
▁دلج	-7020
▁دلق	-7021
▁زشت	-7022
▁سرپ	-7023
▁صنو	-7024
▁فدا	-7025
▁فرف	-7026
▁لجه	-7027
▁ماس	-7028
▁موس	-7029
▁نوس	-7030
▁همز	-7031
▁کسل	-7032
اسشان	-7033
ریبان	-7034
وردار	-7035
▁استم	-7036
▁بافس	-7037
▁تلخم	-7038
▁تیرم	-7039
▁حصار	-7040
▁حکمش	-7041
▁خسوف	-7042
▁داود	-7043
▁دلیر	-7044
▁دگرت	-7045
▁شرمش	-7046
▁شهدن	-7047
▁عنبی	-7048
▁منزه	-7049
▁ندیم	-7050
▁پاکو	-7051
راقیان	-7052
وتیمار	-7053
وفایان	-7054
▁استمز	-7055
▁بخشود	-7056
▁بزانو	-7057
▁بصعوه	-7058
▁بغارت	-7059
▁بپایه	-7060
▁بکینم	-7061
▁تاشان	-7062
▁تبریز	-7063
▁جانور	-7064
▁خودپس	-7065
▁دادنم	-7066
▁روانم	-7067
▁صالحش	-7068
▁صنعان	-7069
▁صنمان	-7070
▁صنوبر	-7071
▁طاقتی	-7072
▁طبیبش	-7073
▁طغرای	-7074
▁طلعتم	-7075
▁طپیدن	-7076
▁طینتش	-7077
▁ظاهرت	-7078
▁عارضت	-7079
▁عارفی	-7080
▁عالمش	-7081
▁عالمی	-7082
▁عبیرم	-7083
▁عرفان	-7084
▁عصاره	-7085
▁عصایش	-7086
▁عصفور	-7087
▁عصمتش	-7088
▁عقربش	-7089
▁علامت	-7090
▁علایق	-7091
▁عیاری	-7092
▁غزنین	-7093
▁غشاوه	-7094
▁غلتان	-7095
▁غمازی	-7096
▁غمهای	-7097
▁غمیگن	-7098
▁غوانی	-7099
تشم	-7100
جبی	-7101
خام	-7102
ربر	-7103
صره	-7104
ماع	-7105
ییر	-7106
▁دج	-7107
▁دد	-7108
▁عو	-7109
بیله	-7110
رانت	-7111
سلام	-7112
شکیب	-7113
فزای	-7114
▁ترف	-7115
▁خفا	-7116
▁صحی	-7117
▁عزم	-7118
▁عوض	-7119
▁فتم	-7120
▁قاب	-7121
▁مبر	-7122
▁میت	-7123
▁وقف	-7124
دمانش	-7125
رمایی	-7126
▁اشکش	-7127
▁بدلم	-7128
▁بچاک	-7129
▁بکرت	-7130
▁خروج	-7131
▁خفاش	-7132
▁دجله	-7133
▁زهار	-7134
▁شعری	-7135
▁صبرم	-7136
▁طپان	-7137
▁عیدی	-7138
▁فهمی	-7139
▁میرد	-7140
▁نایم	-7141
▁نصره	-7142
▁هشته	-7143
▁وزید	-7144
▁پیاز	-7145
▁کابل	-7146
▁آزادش	-7147
▁اجماع	-7148
▁بآیین	-7149
▁بستمت	-7150
▁بپرسی	-7151
▁بکربر	-7152
▁بکسیت	-7153
▁بگیری	-7154
▁تغییر	-7155
▁توانی	-7156
▁جادوی	-7157
▁داشتش	-7158
▁دیدیش	-7159
▁زیرکی	-7160
▁سپارد	-7161
▁سپردم	-7162
▁صحیفه	-7163
▁فاضلی	-7164
▁فتادم	-7165
▁فراتر	-7166
▁فراخی	-7167
▁فرادی	-7168
▁فراغت	-7169
▁فراغم	-7170
▁فرخنه	-7171
▁فرصتش	-7172
▁فرصتی	-7173
▁فروزی	-7174
▁فروغی	-7175
▁فریبش	-7176
▁فزودش	-7177
▁فزونی	-7178
▁فسارش	-7179
▁فسانه	-7180
▁فصیحی	-7181
▁فطرتا	-7182
▁فکلیت	-7183
▁قابله	-7184
▁قارون	-7185
▁قاعده	-7186
▁قبایی	-7187
▁قبیله	-7188
▁قدرتت	-7189
▁قدریت	-7190
▁قرارت	-7191
▁قسمتم	-7192
▁قندیل	-7193
▁قیصرت	-7194
▁لآلیش	-7195
▁لاتقم	-7196
▁لاتنم	-7197
▁لالای	-7198
▁لبالب	-7199
--	-7200
تع	-7201
طت	-7202
اتر	-7203
بیا	-7204
تعج	-7205
▁اک	-7206
▁سک	-7207
اخلف	-7208
سوره	-7209
قیبی	-7210
نیفه	-7211
ورید	-7212
پرسد	-7213
▁---	-7214
▁بها	-7215
▁جلد	-7216
▁حاش	-7217
▁دوم	-7218
▁دیت	-7219
▁شخص	-7220
▁مسأ	-7221
▁نثر	-7222
▁پرخ	-7223
▁چهی	-7224
▁کیس	-7225
ارهای	-7226
تعجیل	-7227
ندگان	-7228
▁اکمل	-7229
▁بازآ	-7230
▁بجنب	-7231
▁برگم	-7232
▁بکشت	-7233
▁تنفس	-7234
▁جزیه	-7235
▁خلطت	-7236
▁رحمن	-7237
▁سریر	-7238
▁سکون	-7239
▁شکرخ	-7240
▁صفای	-7241
▁عیدم	-7242
▁فرات	-7243
▁فگنم	-7244
▁قندی	-7245
▁نرسد	-7246
▁نرهی	-7247
▁نفری	-7248
▁آمدیم	-7249
▁انبیا	-7250
▁اکملت	-7251
▁بشکاف	-7252
▁بوسمت	-7253
▁حنیفه	-7254
▁خوشاب	-7255
▁خوشیم	-7256
▁درگهم	-7257
▁شدندش	-7258
▁فرخند	-7259
▁قسوره	-7260
▁لحیان	-7261
▁لخلخه	-7262
▁لرزدت	-7263
▁لطیفه	-7264
▁لعلیش	-7265
▁لقمان	-7266
▁مأمنش	-7267
▁مادرش	-7268
▁ماریه	-7269
▁ماهشن	-7270
▁متفرد	-7271
▁متفکر	-7272
▁مثقبش	-7273
▁مجلسم	-7274
▁مجلسی	-7275
▁محراب	-7276
▁محرمش	-7277
▁محشری	-7278
▁محفلش	-7279
▁محلول	-7280
▁محملی	-7281
▁محکوم	-7282
▁محیطی	-7283
▁مخالف	-7284
▁مختصر	-7285
▁مختلف	-7286
▁مخصوص	-7287
▁مرساد	-7288
▁مرسله	-7289
▁مریضت	-7290
▁مسأله	-7291
▁مشاطه	-7292
▁مشتاق	-7293
▁مشتغل	-7294
▁مشغول	-7295
▁مصاحب	-7296
▁مصرعی	-7297
▁مصیبت	-7298
▁مطابق	-7299
أه	-7300
رغ	-7301
ذشت	-7302
رشد	-7303
زدش	-7304
سیل	-7305
سیم	-7306
عای	-7307
عرض	-7308
ییم	-7309
▁چگ	-7310
دردی	-7311
زارش	-7312
لیلی	-7313
▁امن	-7314
▁تزل	-7315
▁دیگ	-7316
▁قفل	-7317
▁مشم	-7318
▁نخو	-7319
▁چگل	-7320
ابانی	-7321
دمشان	-7322
▁اویی	-7323
▁ایست	-7324
▁بحیر	-7325
▁برجا	-7326
▁بعرض	-7327
▁بیمن	-7328
▁بیوز	-7329
▁خرما	-7330
▁دهنی	-7331
▁رادی	-7332
▁سستی	-7333
▁سواد	-7334
▁طارم	-7335
▁غلای	-7336
▁فنای	-7337
▁لاغر	-7338
▁مشمر	-7339
▁نشأه	-7340
▁نهند	-7341
▁هیضه	-7342
▁وجای	-7343
▁پلید	-7344
▁کبیر	-7345
▁کلان	-7346
▁گسیل	-7347
▁گوشی	-7348
▁آرایی	-7349
▁الرشد	-7350
▁بحسرت	-7351
▁برهنه	-7352
▁برگرد	-7353
▁بشنفت	-7354
▁بگشای	-7355
▁تزلزل	-7356
▁حقایق	-7357
▁خلیلی	-7358
▁زاویه	-7359
▁سیمرغ	-7360
▁مدعای	-7361
▁مراست	-7362
▁مطربه	-7363
▁مطلبت	-7364
▁مطلقه	-7365
▁مظلمه	-7366
▁معالی	-7367
▁معذور	-7368
▁معرکه	-7369
▁معشری	-7370
▁مفرما	-7371
▁مقارن	-7372
▁مقبول	-7373
▁مقتول	-7374
▁مقدار	-7375
▁مقیمش	-7376
▁ممتحن	-7377
▁ممدوح	-7378
▁منبری	-7379
▁مندرس	-7380
▁منزلم	-7381
▁منشان	-7382
▁منطفی	-7383
▁منمای	-7384
▁مهانت	-7385
▁مهوشی	-7386
▁موافق	-7387
▁موران	-7388
▁موزون	-7389
▁مکینی	-7390
▁مگیرم	-7391
▁میآید	-7392
▁میفگن	-7393
▁میچمد	-7394
▁ناآشن	-7395
▁ناخلف	-7396
▁نارسا	-7397
▁نازان	-7398
▁نازکت	-7399
بق	-7400
قع	-7401
انت	-7402
قهه	-7403
نصر	-7404
هبت	-7405
هتز	-7406
ژبر	-7407
▁سق	-7408
▁صم	-7409
ابور	-7410
انمت	-7411
روشم	-7412
هقهه	-7413
▁خست	-7414
▁سوء	-7415
▁غاز	-7416
▁چال	-7417
▁کنز	-7418
▁یکت	-7419
داریت	-7420
رخامه	-7421
هتزاز	-7422
ژبران	-7423
یلسان	-7424
▁اجتم	-7425
▁الاخ	-7426
▁بدیر	-7427
▁بهات	-7428
▁تاری	-7429
▁جغدم	-7430
▁خاره	-7431
▁درده	-7432
▁رجوع	-7433
▁سابق	-7434
▁شرکت	-7435
▁صفات	-7436
▁عذرت	-7437
▁عمرش	-7438
▁فایق	-7439
▁فلوس	-7440
▁قیدی	-7441
▁متهم	-7442
▁مرقع	-7443
▁منبر	-7444
▁میزد	-7445
▁نجنب	-7446
▁کاود	-7447
▁کیشت	-7448
▁یادت	-7449
مینالم	-7450
▁آرزوم	-7451
▁بازند	-7452
▁بتموز	-7453
▁بخنده	-7454
▁بزشتی	-7455
▁بکشتن	-7456
▁بگوید	-7457
▁بیاور	-7458
▁خیالی	-7459
▁دامنم	-7460
▁ریزدت	-7461
▁سقایه	-7462
▁طالعت	-7463
▁طریقت	-7464
▁ظلمات	-7465
▁عتابی	-7466
▁غازیش	-7467
▁قهقهه	-7468
▁متهمش	-7469
▁مذهبت	-7470
▁نازند	-7471
▁ناشده	-7472
▁ناورد	-7473
▁ناوکی	-7474
▁ناچیز	-7475
▁ناکام	-7476
▁نایره	-7477
▁نبخشد	-7478
▁نبندد	-7479
▁نبودم	-7480
▁نتازد	-7481
▁نثارت	-7482
▁نجویم	-7483
▁ندادن	-7484
▁نرنجد	-7485
▁نزهتش	-7486
▁نسازم	-7487
▁نساید	-7488
▁نسوخت	-7489
▁نشکفت	-7490
▁نشکفد	-7491
▁نشکند	-7492
▁نعمتی	-7493
▁نفرین	-7494
▁نقیبی	-7495
▁نلغزد	-7496
▁نمارق	-7497
▁نمودی	-7498
▁نمکین	-7499
بو	-7500
قد	-7501
وة	-7502
سود	-7503
طاف	-7504
نگو	-7505
▁رف	-7506
▁ضب	-7507
▁یم	-7508
قهای	-7509
نهاد	-7510
وسال	-7511
▁اجر	-7512
▁ازک	-7513
▁اسب	-7514
▁بدم	-7515
▁درس	-7516
▁رهز	-7517
▁زوی	-7518
▁صخر	-7519
▁ضبط	-7520
▁مام	-7521
▁پاش	-7522
▁چمد	-7523
▁کمش	-7524
اصیان	-7525
خواره	-7526
راگاه	-7527
سودای	-7528
گذارم	-7529
▁آیند	-7530
▁بدنب	-7531
▁بنقد	-7532
▁جستم	-7533
▁جهاد	-7534
▁خونخ	-7535
▁درنگ	-7536
▁دهنم	-7537
▁رفاه	-7538
▁شمعم	-7539
▁صخره	-7540
▁عاجز	-7541
▁عامت	-7542
▁قبول	-7543
▁ماهم	-7544
▁میرس	-7545
▁نخرد	-7546
▁نظمت	-7547
▁نورد	-7548
▁پخته	-7549
▁کشمت	-7550
▁کشیم	-7551
▁کنده	-7552
▁گوشت	-7553
ستانان	-7554
▁ازکفر	-7555
▁الطاف	-7556
▁بسگان	-7557
▁بشتاب	-7558
▁توزین	-7559
▁جانگز	-7560
▁جستمت	-7561
▁حرفها	-7562
▁دارمت	-7563
▁رفتمی	-7564
▁روبیم	-7565
▁سخنگو	-7566
▁سیماب	-7567
▁صافدل	-7568
▁علیهم	-7569
▁مدارش	-7570
▁مرتبه	-7571
▁مشکبو	-7572
▁نسیمش	-7573
▁ننشست	-7574
▁ننهند	-7575
▁ننگرم	-7576
▁ننگری	-7577
▁ننگست	-7578
▁نهالت	-7579
▁نهفتن	-7580
▁نهفتی	-7581
▁نوازی	-7582
▁نوخیز	-7583
▁نوذری	-7584
▁نوسفر	-7585
▁نوشتم	-7586
▁نوشتی	-7587
▁نونتی	-7588
▁نپرسد	-7589
▁نپیند	-7590
▁نژادا	-7591
▁نکنند	-7592
▁نگارا	-7593
▁نگذرم	-7594
▁نگذری	-7595
▁نگیری	-7596
▁نیازت	-7597
▁هدهدی	-7598
▁هزاری	-7599
بث	-7600
دف	-7601
نظ	-7602
اخم	-7603
ثلی	-7604
شنی	-7605
ضای	-7606
طاع	-7607
نظل	-7608
گهی	-7609
▁بذ	-7610
▁تظ	-7611
▁چا	-7612
ثلیث	-7613
روزه	-7614
ویسد	-7615
▁آفت	-7616
▁اصم	-7617
▁اید	-7618
▁خطی	-7619
▁زرت	-7620
▁شمر	-7621
▁صحو	-7622
▁مرث	-7623
▁ممن	-7624
▁ناس	-7625
▁هدف	-7626
▁گری	-7627
▁گور	-7628
▁انتق	-7629
▁بخبر	-7630
▁بذله	-7631
▁بردت	-7632
▁بعبث	-7633
▁بکفش	-7634
▁تظلم	-7635
▁جاری	-7636
▁حاجت	-7637
▁حنظل	-7638
▁سالت	-7639
▁شباب	-7640
▁ضعفم	-7641
▁غموس	-7642
▁فگنی	-7643
▁قضای	-7644
▁لطفم	-7645
▁مجدر	-7646
▁منجم	-7647
▁مولی	-7648
▁پوید	-7649
▁کندش	-7650
▁یکاد	-7651
▁افکار	-7652
▁اقطاع	-7653
▁بانتظ	-7654
▁بتیغم	-7655
▁بدگوی	-7656
▁برکان	-7657
▁تأملی	-7658
▁خرمنت	-7659
▁صبوری	-7660
▁طفلان	-7661
▁عذارش	-7662
▁عصیان	-7663
▁ماسوا	-7664
▁مرثیه	-7665
▁ممنون	-7666
▁نافرج	-7667
▁نبودی	-7668
▁نخستت	-7669
▁هماها	-7670
▁همایی	-7671
▁همراه	-7672
▁همرهم	-7673
▁هوشنگ	-7674
▁هیربد	-7675
▁هیلاج	-7676
▁هیچگه	-7677
▁واعظت	-7678
▁والله	-7679
▁والیس	-7680
▁وبلبل	-7681
▁ورزیم	-7682
▁وزیده	-7683
▁وسایل	-7684
▁وسواس	-7685
▁وسوسه	-7686
▁وفاتش	-7687
▁وفایم	-7688
▁ولادت	-7689
▁ونالم	-7690
▁ونهان	-7691
▁پابست	-7692
▁پابند	-7693
▁پارسی	-7694
▁پاطیل	-7695
▁پالان	-7696
▁پرتاب	-7697
▁پرخطر	-7698
▁پردگی	-7699
اعل	-7700
بیش	-7701
شاد	-7702
طرب	-7703
عار	-7704
غیر	-7705
▁رش	-7706
▁وک	-7707
اقوس	-7708
راوت	-7709
سیاه	-7710
ششان	-7711
غانه	-7712
قبله	-7713
قیقی	-7714
یدمت	-7715
▁افز	-7716
▁بطر	-7717
▁جهل	-7718
▁حما	-7719
▁خمی	-7720
▁رهد	-7721
▁شهل	-7722
▁مان	-7723
▁ملع	-7724
▁پیس	-7725
زایند	-7726
▁بخاش	-7727
▁بدنی	-7728
▁تابی	-7729
▁تفحص	-7730
▁جگرن	-7731
▁خیری	-7732
▁رشحه	-7733
▁رفتش	-7734
▁سراج	-7735
▁سرکو	-7736
▁شهنش	-7737
▁صغیر	-7738
▁طعنت	-7739
▁فوجی	-7740
▁قالب	-7741
▁ممان	-7742
▁نعال	-7743
▁نهیب	-7744
▁وکیل	-7745
▁کفنش	-7746
▁کناس	-7747
▁آزادم	-7748
▁آشنات	-7749
▁اسبیش	-7750
▁اشعار	-7751
▁الثغر	-7752
▁بحیاء	-7753
▁بدنیا	-7754
▁برندی	-7755
▁بطرزی	-7756
▁بقبله	-7757
▁بودنه	-7758
▁بینور	-7759
▁تنشان	-7760
▁توایم	-7761
▁ثوابت	-7762
▁جواله	-7763
▁دیدنت	-7764
▁رسیدش	-7765
▁سرمدی	-7766
▁شهلای	-7767
▁عقیقی	-7768
▁فتاوی	-7769
▁مشاعل	-7770
▁مضطرب	-7771
▁ملعون	-7772
▁ناشاد	-7773
▁نمیرد	-7774
▁هزارم	-7775
▁پستیش	-7776
▁پسندت	-7777
▁پشتها	-7778
▁پویند	-7779
▁پیاپی	-7780
▁چالاک	-7781
▁چراست	-7782
▁چرنده	-7783
▁چریدی	-7784
▁چشمها	-7785
▁چشیده	-7786
▁چغانه	-7787
▁کآتشم	-7788
▁کآسان	-7789
▁کآنچه	-7790
▁کآورد	-7791
▁کآیمت	-7792
▁کآییم	-7793
▁کابین	-7794
▁کارها	-7795
▁کاسیر	-7796
▁کافتد	-7797
▁کالان	-7798
▁کبابت	-7799
▁ژ	-7800
امش	-7801
ینش	-7802
▁جذ	-7803
اشنی	-7804
میرم	-7805
ویده	-7806
▁آیت	-7807
▁بول	-7808
▁ثمر	-7809
▁زیش	-7810
▁سده	-7811
▁قدت	-7812
▁قصب	-7813
▁نود	-7814
▁ژرف	-7815
امشان	-7816
امیان	-7817
شانیم	-7818
▁آهنی	-7819
▁اسحق	-7820
▁انکی	-7821
▁ایوب	-7822
▁بدلش	-7823
▁بعدم	-7824
▁بههم	-7825
▁تختی	-7826
▁جذبه	-7827
▁حالت	-7828
▁حزین	-7829
▁حلال	-7830
▁دماو	-7831
▁دوام	-7832
▁رسوا	-7833
▁زخار	-7834
▁زهرم	-7835
▁زیشب	-7836
▁ساکن	-7837
▁سنین	-7838
▁شودش	-7839
▁طلوع	-7840
▁منور	-7841
▁موکب	-7842
▁گنجم	-7843
▁آساید	-7844
▁اشکها	-7845
▁انکیس	-7846
▁بجانش	-7847
▁بردنم	-7848
▁برمکش	-7849
▁بولای	-7850
▁بگذار	-7851
▁حاصلی	-7852
▁خورند	-7853
▁درهای	-7854
▁دلیرم	-7855
▁دویده	-7856
▁ضمیرم	-7857
▁طویله	-7858
▁غمامش	-7859
▁قرارش	-7860
▁مقصود	-7861
▁نیارد	-7862
▁پریدم	-7863
▁پسینش	-7864
▁چاشنی	-7865
▁کجایت	-7866
▁کدخدا	-7867
▁کرامت	-7868
▁کردار	-7869
▁کردست	-7870
▁کسالت	-7871
▁کفران	-7872
▁کلیچه	-7873
▁کمندش	-7874
▁کناری	-7875
▁کنونم	-7876
▁کوثرش	-7877
▁کوهست	-7878
▁گدازد	-7879
▁گدایش	-7880
▁گذشتن	-7881
▁گذشتی	-7882
▁گریزی	-7883
▁گشایم	-7884
▁گشوده	-7885
▁گفتمی	-7886
▁گفتنت	-7887
▁گلبرگ	-7888
▁گلبنش	-7889
▁گلشنی	-7890
▁گلنار	-7891
▁گمشده	-7892
▁گمگشت	-7893
▁گنجور	-7894
▁گویدت	-7895
▁گیاهی	-7896
▁یارها	-7897
▁یاسمن	-7898
▁یافتم	-7899
لق	-7900
دام	-7901
زده	-7902
شود	-7903
ویل	-7904
▁تض	-7905
▁سد	-7906
ادان	-7907
ازار	-7908
اندت	-7909
قشان	-7910
▁باخ	-7911
▁ببن	-7912
▁برج	-7913
▁برک	-7914
▁تسن	-7915
▁توب	-7916
▁زای	-7917
▁سمی	-7918
▁مفت	-7919
▁منظ	-7920
نیانی	-7921
وارند	-7922
▁بآشی	-7923
▁بابی	-7924
▁بوسد	-7925
▁بکرم	-7926
▁بیاض	-7927
▁دبور	-7928
▁دویم	-7929
▁سیاح	-7930
▁شنعت	-7931
▁ظرفی	-7932
▁فکرش	-7933
▁قدیم	-7934
▁مبرا	-7935
▁متاب	-7936
▁متقی	-7937
▁معلق	-7938
▁منات	-7939
▁منعش	-7940
▁نارد	-7941
▁پلنگ	-7942
▁پیلت	-7943
▁کآهی	-7944
قیقشان	-7945
▁آشنای	-7946
▁باخبر	-7947
▁بادیه	-7948
▁ببنیم	-7949
▁برسان	-7950
▁بچشمت	-7951
▁بکدام	-7952
▁تحویل	-7953
▁تسنیم	-7954
▁تضلیل	-7955
▁توبوا	-7956
▁حضرتت	-7957
▁حواری	-7958
▁خوابی	-7959
▁زرینه	-7960
▁شادان	-7961
▁عنادل	-7962
▁فرصتم	-7963
▁متابع	-7964
▁منظور	-7965
▁میشود	-7966
▁نهنگی	-7967
▁نگارش	-7968
▁نیاری	-7969
▁هزارش	-7970
▁کآرند	-7971
▁کسانم	-7972
▁کشتنی	-7973
▁گذاشت	-7974
▁گزینی	-7975
▁یماقی	-7976
▁یمانی	-7977
▁یکتای	-7978
▁یکنظر	-7979
جوانمرد	-7980
سمانهای	-7981
شنامشان	-7982
وشیروان	-7983
▁آبادتر	-7984
▁آتشگهی	-7985
▁آراستی	-7986
▁آرایان	-7987
▁آستانم	-7988
▁آسمانش	-7989
▁آسیایی	-7990
▁آشکارش	-7991
▁آشیانه	-7992
▁آشیانی	-7993
▁آلودگی	-7994
▁آموختم	-7995
▁آموخته	-7996
▁آنانکه	-7997
▁اجتماع	-7998
▁احتمال	-7999
خن	-8000
جاع	-8001
دود	-8002
یرت	-8003
▁ذق	-8004
دارش	-8005
ونین	-8006
ژگون	-8007
یزان	-8008
یناد	-8009
▁ارق	-8010
▁ایل	-8011
▁ثقی	-8012
▁داس	-8013
▁عفت	-8014
▁نشت	-8015
▁ونی	-8016
▁پود	-8017
▁یون	-8018
واستم	-8019
▁اشکی	-8020
▁باغت	-8021
▁بدشت	-8022
▁بسخن	-8023
▁بلال	-8024
▁بمنش	-8025
▁ثقیل	-8026
▁داعی	-8027
▁دهیم	-8028
▁ذقنم	-8029
▁رایق	-8030
▁زماه	-8031
▁سازد	-8032
▁شجاع	-8033
▁شکنی	-8034
▁عناب	-8035
▁قدیر	-8036
▁مناس	-8037
▁ننهد	-8038
▁هستش	-8039
▁ودود	-8040
▁چاهی	-8041
▁گردت	-8042
اندگان	-8043
▁ارقمش	-8044
▁افگنی	-8045
▁الوان	-8046
▁بجوید	-8047
▁بخوان	-8048
▁بدریا	-8049
▁بصیرت	-8050
▁بلایی	-8051
▁دولتش	-8052
▁رویان	-8053
▁سراغم	-8054
▁سروشی	-8055
▁مادری	-8056
▁مناسب	-8057
▁نشترم	-8058
▁هدایت	-8059
▁ونیاز	-8060
▁پرنده	-8061
▁چمننم	-8062
▁کونین	-8063
▁گردیم	-8064
▁گسترد	-8065
▁گشودم	-8066
▁گوهرت	-8067
▁یمانش	-8068
▁ابلهان	-8069
▁احتیاج	-8070
▁اختصاص	-8071
▁اربعین	-8072
▁ارتفاع	-8073
▁ارجمند	-8074
▁ارغنون	-8075
▁اروندم	-8076
▁ازقندم	-8077
▁استران	-8078
▁استوار	-8079
▁اشتغال	-8080
▁اشتیاق	-8081
▁اصطبلت	-8082
▁اعتماد	-8083
▁افراخت	-8084
▁افراشت	-8085
▁افزوده	-8086
▁افشانی	-8087
▁افغانم	-8088
▁افکنند	-8089
▁اقلیمی	-8090
▁التفات	-8091
▁الجمیل	-8092
▁الحرام	-8093
▁السلام	-8094
▁العاشق	-8095
▁المقدس	-8096
▁الوندم	-8097
▁اندازه	-8098
▁اندوهی	-8099
نف	-8100
لهم	-8101
نیت	-8102
نیس	-8103
پیش	-8104
▁عه	-8105
امنی	-8106
رادی	-8107
سرور	-8108
سوزم	-8109
قیفه	-8110
لهای	-8111
وریش	-8112
▁تله	-8113
▁حصر	-8114
▁خیش	-8115
▁رکن	-8116
▁فیل	-8117
▁پرن	-8118
▁اولم	-8119
▁بخشم	-8120
▁بخلش	-8121
▁بخور	-8122
▁جغدی	-8123
▁جمعی	-8124
▁خاکت	-8125
▁خرگه	-8126
▁خمار	-8127
▁دگرم	-8128
▁سروش	-8129
▁سرکن	-8130
▁عهدی	-8131
▁غنیم	-8132
▁قلمش	-8133
▁مصنف	-8134
▁ملهم	-8135
▁مویش	-8136
▁نامح	-8137
▁نرست	-8138
▁نپیم	-8139
▁هوسم	-8140
▁پروب	-8141
▁پیله	-8142
▁چاکم	-8143
▁کآرد	-8144
▁گشتش	-8145
▁گلها	-8146
▁گویت	-8147
▁یاوه	-8148
▁آمدیش	-8149
▁ازپیش	-8150
▁امنیت	-8151
▁بیتاب	-8152
▁تجنیس	-8153
▁جوشان	-8154
▁حرامت	-8155
▁خاطرش	-8156
▁خیزان	-8157
▁داریش	-8158
▁رامین	-8159
▁راهبر	-8160
▁سقیفه	-8161
▁صولتش	-8162
▁متوحش	-8163
▁میرند	-8164
▁نبرده	-8165
▁چونکه	-8166
▁کاران	-8167
▁کارگر	-8168
▁کشیشی	-8169
▁گردنت	-8170
▁گویست	-8171
▁گوییا	-8172
▁گویید	-8173
▁گوییش	-8174
▁استبرق	-8175
▁السرور	-8176
▁انصافت	-8177
▁انگبین	-8178
▁انگشتش	-8179
▁اهتزاز	-8180
▁ایستاد	-8181
▁اینقدر	-8182
▁بآستین	-8183
▁بازآید	-8184
▁بازتاب	-8185
▁باقبال	-8186
▁بالاتر	-8187
▁بالیده	-8188
▁بانباز	-8189
▁بایستم	-8190
▁باینجا	-8191
▁ببارید	-8192
▁ببالید	-8193
▁ببخشود	-8194
▁بتثلیث	-8195
▁بترصیع	-8196
▁بتسبیح	-8197
▁بتسدیس	-8198
▁بتغافل	-8199
استم	-8200
باید	-8201
فرست	-8202
لسمی	-8203
ینهی	-8204
▁آرش	-8205
▁ترس	-8206
▁تره	-8207
▁جشن	-8208
▁عدم	-8209
▁عیس	-8210
▁فضا	-8211
▁نمر	-8212
▁هدر	-8213
▁واس	-8214
▁چای	-8215
گزیرم	-8216
▁آبله	-8217
▁آتشت	-8218
▁بامی	-8219
▁ببال	-8220
▁ببوی	-8221
▁برجم	-8222
▁بردم	-8223
▁بسفر	-8224
▁بعیش	-8225
▁بکمر	-8226
▁بینو	-8227
▁ترنج	-8228
▁جاهی	-8229
▁حرفش	-8230
▁رطلی	-8231
▁رهین	-8232
▁ساید	-8233
▁صافش	-8234
▁ظلیل	-8235
▁عاید	-8236
▁فلکت	-8237
▁قاید	-8238
▁قطار	-8239
▁مرغک	-8240
▁منعت	-8241
▁ناهی	-8242
▁نروم	-8243
▁هستم	-8244
▁واسط	-8245
▁پوشش	-8246
▁چاکی	-8247
▁کوست	-8248
دیوارش	-8249
▁الحان	-8250
▁اندکی	-8251
▁ایستم	-8252
▁بازان	-8253
▁بامید	-8254
▁بباید	-8255
▁برایت	-8256
▁بغرقه	-8257
▁بوسید	-8258
▁بکاری	-8259
▁بگوشه	-8260
▁بیاید	-8261
▁رهبان	-8262
▁طلسمی	-8263
▁عبرتی	-8264
▁عیسوی	-8265
▁فرستم	-8266
▁مینهی	-8267
▁میکال	-8268
▁نمرود	-8269
▁نهایت	-8270
▁نیسان	-8271
▁واسطه	-8272
▁پیاله	-8273
▁کوبان	-8274
▁گزینم	-8275
فرستادم	-8276
▁امیران	-8277
▁بتقدیس	-8278
▁بتلافی	-8279
▁بتوانش	-8280
▁بتکاپو	-8281
▁بحیرتم	-8282
▁بخاشاک	-8283
▁بخامان	-8284
▁بخرابه	-8285
▁بخشنده	-8286
▁بخلعتی	-8287
▁بخلیفه	-8288
▁بخوابت	-8289
▁بخوانم	-8290
▁بخوانی	-8291
▁بدخشان	-8292
▁بدرگاه	-8293
▁بدفتری	-8294
▁بدهقان	-8295
▁بدهنوز	-8296
▁برآرند	-8297
▁برآورم	-8298
▁برادرم	-8299
دید	-8300
شنو	-8301
ایکش	-8302
زاده	-8303
ویسم	-8304
▁آوه	-8305
▁اصل	-8306
▁تلک	-8307
▁خاد	-8308
▁خلت	-8309
▁رسن	-8310
▁فکن	-8311
▁قدی	-8312
▁مدی	-8313
▁مغب	-8314
▁هلک	-8315
داشان	-8316
فشانم	-8317
▁آلای	-8318
▁آهها	-8319
▁املم	-8320
▁اندی	-8321
▁بتاب	-8322
▁بتگر	-8323
▁بکور	-8324
▁تأمل	-8325
▁خوشا	-8326
▁دادت	-8327
▁دادر	-8328
▁داغت	-8329
▁دامم	-8330
▁رمال	-8331
▁زریر	-8332
▁شریک	-8333
▁شهدا	-8334
▁مشنو	-8335
▁مشکن	-8336
▁مونس	-8337
▁نمیخ	-8338
▁نمیش	-8339
▁والا	-8340
▁پدید	-8341
▁کنمش	-8342
▁گامت	-8343
▁اجابت	-8344
▁ازواج	-8345
▁امیدم	-8346
▁اندرم	-8347
▁اندود	-8348
▁بناید	-8349
▁بیخطر	-8350
▁تعریس	-8351
▁جمالی	-8352
▁دامیم	-8353
▁سپرده	-8354
▁شمرده	-8355
▁قمریش	-8356
▁ماهها	-8357
▁مدیحت	-8358
▁مردمی	-8359
▁مردود	-8360
▁مغبچه	-8361
▁ناگفت	-8362
▁پاداش	-8363
▁پرسیم	-8364
▁پرویز	-8365
▁پریدن	-8366
▁کاسته	-8367
▁کاشته	-8368
▁یاوری	-8369
▁آلایشم	-8370
▁اخلاقش	-8371
▁استاده	-8372
▁اعتکاف	-8373
▁اندیشی	-8374
▁بالایی	-8375
▁بجنبید	-8376
▁برانیش	-8377
▁بربندم	-8378
▁برزانی	-8379
▁برساحل	-8380
▁برسانی	-8381
▁برفتار	-8382
▁برقصیم	-8383
▁برناید	-8384
▁برچیده	-8385
▁برکندم	-8386
▁برگذشت	-8387
▁برگردد	-8388
▁برگشتن	-8389
▁بریشان	-8390
▁بزرگیی	-8391
▁بزنجیر	-8392
▁بسپارد	-8393
▁بشاهان	-8394
▁بشمارم	-8395
▁بشمشیر	-8396
▁بشورید	-8397
▁بشیران	-8398
▁بصحرای	-8399
اجر	-8400
یغم	-8401
▁زش	-8402
تیاز	-8403
گانت	-8404
▁بجو	-8405
▁جزو	-8406
▁رخی	-8407
▁رسل	-8408
▁زشش	-8409
▁زچه	-8410
▁طشت	-8411
▁نوک	-8412
▁چست	-8413
راخته	-8414
وفنون	-8415
یدگان	-8416
▁ابدا	-8417
▁بارم	-8418
▁بجسم	-8419
▁بجشن	-8420
▁بجنگ	-8421
▁بغار	-8422
▁بمار	-8423
▁بیگن	-8424
▁تنان	-8425
▁جگرم	-8426
▁خارم	-8427
▁دزدی	-8428
▁رزان	-8429
▁رسدم	-8430
▁رواج	-8431
▁شبلی	-8432
▁شموس	-8433
▁شهور	-8434
▁صوفی	-8435
▁ضیغم	-8436
▁عذرم	-8437
▁فاجر	-8438
▁لبوس	-8439
▁مشکی	-8440
▁مهرت	-8441
▁مواج	-8442
▁نارم	-8443
▁نروی	-8444
▁نطقش	-8445
▁نوبر	-8446
▁نکشد	-8447
▁هارب	-8448
▁هفته	-8449
▁واند	-8450
▁کاوه	-8451
▁کشتم	-8452
▁اگرچه	-8453
▁بحلند	-8454
▁بدامت	-8455
▁بهادر	-8456
▁خریدن	-8457
▁خطشان	-8458
▁دیارم	-8459
▁رسایی	-8460
▁سوادی	-8461
▁شهیدم	-8462
▁شکارم	-8463
▁مشکلی	-8464
▁مگریز	-8465
▁ناوکش	-8466
▁ننوشی	-8467
▁نکشته	-8468
▁پاسخی	-8469
▁چهارم	-8470
▁کلاوه	-8471
▁گیردش	-8472
▁آشناست	-8473
▁افسونی	-8474
▁امتیاز	-8475
▁بربسته	-8476
▁بصیادی	-8477
▁بضاعتی	-8478
▁بطراوت	-8479
▁بطریقت	-8480
▁بفتراک	-8481
▁بفردای	-8482
▁بفردوس	-8483
▁بفرمای	-8484
▁بقصابی	-8485
▁بلورین	-8486
▁بمخلوق	-8487
▁بمرادت	-8488
▁بمردند	-8489
▁بمشامی	-8490
▁بمیانه	-8491
▁بمیدان	-8492
▁بنازید	-8493
▁بناقوس	-8494
▁بناپاک	-8495
▁بناچار	-8496
▁بندگیش	-8497
▁بنشسته	-8498
▁بنشینی	-8499
اتت	-8500
اقی	-8501
لبند	-8502
نگار	-8503
▁آفر	-8504
▁بتل	-8505
▁حوت	-8506
▁خطر	-8507
▁شرا	-8508
▁عطر	-8509
▁غنا	-8510
▁قمر	-8511
▁للت	-8512
▁مجد	-8513
▁نخی	-8514
▁نقل	-8515
▁ورع	-8516
▁یوز	-8517
چوگان	-8518
▁آردت	-8519
▁آگهم	-8520
▁آگین	-8521
▁احول	-8522
▁بتلخ	-8523
▁بتنم	-8524
▁بطحا	-8525
▁بیشر	-8526
▁خبری	-8527
▁زدای	-8528
▁سترگ	-8529
▁سپار	-8530
▁سیمش	-8531
▁شودت	-8532
▁شودم	-8533
▁شگون	-8534
▁للتق	-8535
▁مارش	-8536
▁مرغش	-8537
▁مروت	-8538
▁نخری	-8539
▁نخلی	-8540
▁نظری	-8541
▁نظیر	-8542
▁نگهش	-8543
▁پیرش	-8544
▁چیده	-8545
▁کنیه	-8546
▁آمدنم	-8547
▁ازینت	-8548
▁بآنکه	-8549
▁بریشم	-8550
▁بزمین	-8551
▁بسترم	-8552
▁بنالم	-8553
▁بنوشم	-8554
▁بهمین	-8555
▁بکمین	-8556
▁بیمین	-8557
▁خسروش	-8558
▁دعایی	-8559
▁زاغان	-8560
▁سواقی	-8561
▁شماتت	-8562
▁ماهیش	-8563
▁مخواه	-8564
▁مردنم	-8565
▁ممتاز	-8566
▁موسمی	-8567
▁نخستم	-8568
▁وفاتم	-8569
▁پسندی	-8570
▁پیرار	-8571
▁گفتمت	-8572
▁آرزویش	-8573
▁آفریدن	-8574
▁بدامنش	-8575
▁برگرفت	-8576
▁بزنگار	-8577
▁بستگان	-8578
▁بفرستم	-8579
▁بنهاده	-8580
▁بنوازم	-8581
▁بنویسم	-8582
▁بهرمند	-8583
▁بودشان	-8584
▁بودموی	-8585
▁بپرسید	-8586
▁بپرهیز	-8587
▁بپهلوی	-8588
▁بچشمها	-8589
▁بکاریم	-8590
▁بگشاده	-8591
▁بگشاید	-8592
▁بگلبنی	-8593
▁بگلشنی	-8594
▁بگویند	-8595
▁بگویید	-8596
▁بگیردم	-8597
▁بیازید	-8598
▁بیتابی	-8599
سنت	-8600
نشا	-8601
اردت	-8602
طارد	-8603
قمار	-8604
ویدن	-8605
گاها	-8606
▁تبه	-8607
▁حیل	-8608
▁ریس	-8609
▁شرح	-8610
▁صحر	-8611
▁فزا	-8612
▁محو	-8613
▁وصی	-8614
▁کآر	-8615
▁کآس	-8616
▁آهنت	-8617
▁انشا	-8618
▁بجنت	-8619
▁بسرو	-8620
▁بغمت	-8621
▁بنظم	-8622
▁تعلم	-8623
▁حرفم	-8624
▁خداش	-8625
▁خوری	-8626
▁درمت	-8627
▁سخره	-8628
▁سموم	-8629
▁شمعی	-8630
▁شنبه	-8631
▁شیره	-8632
▁فتور	-8633
▁مسوس	-8634
▁منبع	-8635
▁مپوش	-8636
▁نزدم	-8637
▁وصفت	-8638
▁وعیش	-8639
▁کآری	-8640
▁یادی	-8641
▁یهود	-8642
▁احسنت	-8643
▁باردت	-8644
▁بردنش	-8645
▁بقمار	-8646
▁بهرجا	-8647
▁بودنش	-8648
▁تیرگی	-8649
▁جامیش	-8650
▁دانیش	-8651
▁دبیری	-8652
▁دراند	-8653
▁دویدن	-8654
▁دیدنش	-8655
▁روزنت	-8656
▁سپردی	-8657
▁شاهنش	-8658
▁شمارد	-8659
▁شیرده	-8660
▁صیدگه	-8661
▁عطارد	-8662
▁علاوه	-8663
▁غلامت	-8664
▁فریبم	-8665
▁فزودی	-8666
▁قراری	-8667
▁مشگین	-8668
▁نشانش	-8669
▁وصلست	-8670
▁چنینم	-8671
▁گنجها	-8672
▁گیریم	-8673
▁براهیم	-8674
▁بیجاست	-8675
▁بیجهتم	-8676
▁بیدرنگ	-8677
▁بیرجیس	-8678
▁بیشترک	-8679
▁بیشرمی	-8680
▁بیقرار	-8681
▁بیلشان	-8682
▁بیمارم	-8683
▁بیمایه	-8684
▁بیمدار	-8685
▁بینایی	-8686
▁بیندیش	-8687
▁بینوات	-8688
▁بیکسان	-8689
▁بیگنهی	-8690
▁تابدار	-8691
▁تاریخش	-8692
▁تدبیرم	-8693
▁ترکتاز	-8694
▁تشنگان	-8695
▁تغافلی	-8696
▁تلخکام	-8697
▁تمنایت	-8698
▁تنگدلی	-8699
دلت	-8700
زدد	-8701
لوق	-8702
اشتن	-8703
ریها	-8704
زدای	-8705
سارش	-8706
▁اسپ	-8707
▁الی	-8708
▁بسم	-8709
▁بمه	-8710
▁ربم	-8711
▁روض	-8712
▁شکم	-8713
▁ورق	-8714
خندان	-8715
▁آریش	-8716
▁آماج	-8717
▁آمال	-8718
▁ابرو	-8719
▁اسبت	-8720
▁ایاغ	-8721
▁برخم	-8722
▁تارش	-8723
▁تیغش	-8724
▁تیغی	-8725
▁خارش	-8726
▁خلاص	-8727
▁دلقش	-8728
▁رباب	-8729
▁ربای	-8730
▁ربود	-8731
▁سالی	-8732
▁ظلمه	-8733
▁عارش	-8734
▁قمار	-8735
▁لعلت	-8736
▁نباش	-8737
▁همزد	-8738
▁هیکل	-8739
▁وحوش	-8740
لبریها	-8741
▁اسبان	-8742
▁بخشند	-8743
▁بدبین	-8744
▁بدزدد	-8745
▁برخرد	-8746
▁بهارش	-8747
▁تبسمت	-8748
▁خدایت	-8749
▁خراشی	-8750
▁دریغم	-8751
▁روضات	-8752
▁سپاهش	-8753
▁فگندش	-8754
▁قاصدم	-8755
▁مخلوق	-8756
▁مداین	-8757
▁معدلت	-8758
▁میگشت	-8759
▁نزاید	-8760
▁نکوست	-8761
▁پرخون	-8762
▁پیوست	-8763
▁کانجا	-8764
▁کجاوه	-8765
▁کمینه	-8766
▁کنارش	-8767
▁آوردیش	-8768
▁آوردیم	-8769
▁اسپندم	-8770
▁امروزت	-8771
▁امروزم	-8772
▁باختنت	-8773
▁ببندند	-8774
▁بتکبیر	-8775
▁بشارتی	-8776
▁بلندان	-8777
▁توانگر	-8778
▁توانیم	-8779
▁تودردی	-8780
▁جانگزا	-8781
▁جاهشان	-8782
▁جستجوی	-8783
▁جلالتش	-8784
▁جواسیس	-8785
▁جگرنات	-8786
▁حرامان	-8787
▁حرزشان	-8788
▁حریفند	-8789
▁حمدلله	-8790
▁حوریان	-8791
▁حکیمان	-8792
▁خاصیتی	-8793
▁خالدین	-8794
▁خالشان	-8795
▁خاموشی	-8796
▁خاندان	-8797
▁خاکشان	-8798
▁خاکیان	-8799
اشتش	-8800
مانم	-8801
ونام	-8802
▁بما	-8803
▁دلک	-8804
▁دیج	-8805
▁سقر	-8806
▁شیب	-8807
▁قطع	-8808
▁لیس	-8809
وریوس	-8810
▁باطل	-8811
▁برآش	-8812
▁برخش	-8813
▁بسرش	-8814
▁بسیج	-8815
▁بسیل	-8816
▁بلعل	-8817
▁بمرد	-8818
▁بملک	-8819
▁تواش	-8820
▁خدات	-8821
▁داست	-8822
▁رنجی	-8823
▁زربر	-8824
▁زرنگ	-8825
▁زرین	-8826
▁زلال	-8827
▁زنار	-8828
▁زنام	-8829
▁ستمم	-8830
▁سیدی	-8831
▁فنون	-8832
▁مساف	-8833
▁مستت	-8834
▁مستش	-8835
▁معده	-8836
▁معشر	-8837
▁معلم	-8838
▁نالی	-8839
▁نورش	-8840
▁هجرت	-8841
▁کشدش	-8842
▁گداز	-8843
▁گرین	-8844
▁الحزن	-8845
▁باشدت	-8846
▁باشدش	-8847
▁بایره	-8848
▁بریزد	-8849
▁بسایه	-8850
▁بمکتب	-8851
▁بیمهر	-8852
▁جوادی	-8853
▁حلالت	-8854
▁خوریم	-8855
▁دارید	-8856
▁دریدی	-8857
▁دلکشم	-8858
▁دیجور	-8859
▁رشکند	-8860
▁رشکها	-8861
▁رنجشم	-8862
▁زراهی	-8863
▁سوزها	-8864
▁غبارش	-8865
▁مسافر	-8866
▁نماید	-8867
▁نمردم	-8868
▁نیفتم	-8869
▁پندار	-8870
▁کامدم	-8871
▁کامشب	-8872
▁گاهان	-8873
▁آشیانش	-8874
▁بآفرین	-8875
▁بدستار	-8876
▁خاییده	-8877
▁خراسان	-8878
▁خرامید	-8879
▁خرسوار	-8880
▁خروشان	-8881
▁خشنودم	-8882
▁خفتمنه	-8883
▁خنازیر	-8884
▁خندیدم	-8885
▁خواجگی	-8886
▁خوارتر	-8887
▁خواریم	-8888
▁خوانیم	-8889
▁خوانین	-8890
▁خواهدم	-8891
▁خواهید	-8892
▁خواهیش	-8893
▁خوایقش	-8894
▁خوششان	-8895
▁خونبار	-8896
▁خونشان	-8897
▁دادرسم	-8898
▁داشتند	-8899
اقم	-8900
بای	-8901
▁شط	-8902
▁ضو	-8903
علام	-8904
وردم	-8905
▁بشو	-8906
▁بصر	-8907
▁توو	-8908
▁جنه	-8909
▁حجت	-8910
▁صحف	-8911
▁علت	-8912
▁قرص	-8913
▁همب	-8914
▁چوب	-8915
▁آیات	-8916
▁بختش	-8917
▁بخلت	-8918
▁بوعد	-8919
▁جفات	-8920
▁خلقش	-8921
▁دوشش	-8922
▁رحیل	-8923
▁سلمی	-8924
▁سودن	-8925
▁شکرت	-8926
▁صدای	-8927
▁عادم	-8928
▁عجبا	-8929
▁فردی	-8930
▁فکان	-8931
▁قاقم	-8932
▁لحدش	-8933
▁مسلس	-8934
▁مسوز	-8935
▁میلت	-8936
▁نیزه	-8937
▁هوشی	-8938
▁وشاخ	-8939
▁وصلش	-8940
▁وگرت	-8941
▁پرسد	-8942
▁پرسم	-8943
▁پروا	-8944
▁اسامی	-8945
▁اعلام	-8946
▁بانیش	-8947
▁ببینی	-8948
▁بلندت	-8949
▁بودمی	-8950
▁بگوهر	-8951
▁بیدلم	-8952
▁بینمش	-8953
▁تفلیس	-8954
▁جبینش	-8955
▁جمشان	-8956
▁دادیش	-8957
▁رقیبی	-8958
▁زانکه	-8959
▁زمینم	-8960
▁سازند	-8961
▁سلاله	-8962
▁صدایی	-8963
▁صهبای	-8964
▁فروشی	-8965
▁مباهی	-8966
▁مسلسل	-8967
▁مشکوی	-8968
▁میرسم	-8969
▁میکشم	-8970
▁نبردش	-8971
▁نفسان	-8972
▁نهادم	-8973
▁همبزم	-8974
▁وصالی	-8975
▁وعالی	-8976
▁پاکان	-8977
▁پرسدم	-8978
▁گلشنم	-8979
▁افشاند	-8980
▁باصحاب	-8981
▁بدنهاد	-8982
▁بیدلیل	-8983
▁خلوتگه	-8984
▁دانسته	-8985
▁دانستی	-8986
▁داوریش	-8987
▁دبیران	-8988
▁دختران	-8989
▁دخترکی	-8990
▁درآمدم	-8991
▁درخانه	-8992
▁دردشان	-8993
▁درمانش	-8994
▁درنگری	-8995
▁درویشی	-8996
▁دستانت	-8997
▁دسترسی	-8998
▁دستگهم	-8999
اسق	-9000
اسم	-9001
ترش	-9002
هاش	-9003
▁ابد	-9004
▁بطن	-9005
▁سکر	-9006
▁سگم	-9007
▁صفی	-9008
▁مکر	-9009
▁نفی	-9010
▁بارت	-9011
▁بامش	-9012
▁برکش	-9013
▁بزهد	-9014
▁بعذر	-9015
▁بمزد	-9016
▁بمشت	-9017
▁تاکش	-9018
▁خندم	-9019
▁خویی	-9020
▁درجی	-9021
▁سرزد	-9022
▁سنگی	-9023
▁شترش	-9024
▁صدفی	-9025
▁صفوت	-9026
▁طرفه	-9027
▁عارض	-9028
▁فاسق	-9029
▁فانی	-9030
▁لطفی	-9031
▁مینو	-9032
▁نفسش	-9033
▁نکشم	-9034
▁پاکش	-9035
▁پندم	-9036
▁گربه	-9037
▁گشای	-9038
▁گندم	-9039
▁یکره	-9040
▁آوازی	-9041
▁ابالی	-9042
▁اخترت	-9043
▁اشارت	-9044
▁بامری	-9045
▁بجویی	-9046
▁بدوری	-9047
▁بهشتی	-9048
▁بکشتم	-9049
▁بگلرخ	-9050
▁تاجیک	-9051
▁تسبیح	-9052
▁حسرتی	-9053
▁خوردت	-9054
▁خوردش	-9055
▁داغها	-9056
▁دلتنگ	-9057
▁دهندم	-9058
▁دیدمش	-9059
▁روزتر	-9060
▁روزنش	-9061
▁ریاضی	-9062
▁سرانش	-9063
▁سیاست	-9064
▁صیدکش	-9065
▁فروکش	-9066
▁منتفی	-9067
▁نبویی	-9068
▁کمندم	-9069
▁گروهی	-9070
▁گمانی	-9071
▁امامان	-9072
▁بامیدی	-9073
▁برگیرم	-9074
▁بنشستم	-9075
▁بیاران	-9076
▁حرمگاه	-9077
▁خوانند	-9078
▁خواهدت	-9079
▁دشمنیت	-9080
▁دعاهای	-9081
▁دلاویز	-9082
▁دلباخت	-9083
▁دلبردن	-9084
▁دلجویت	-9085
▁دلخواه	-9086
▁دلدوزت	-9087
▁دلسوزی	-9088
▁دلنواز	-9089
▁دلیران	-9090
▁دمبدمش	-9091
▁دمسازی	-9092
▁دندانت	-9093
▁دوازده	-9094
▁دوباره	-9095
▁دونانش	-9096
▁دیدارت	-9097
▁دیدیاز	-9098
▁ذوفنون	-9099
▁دز	-9100
تماس	-9101
تمام	-9102
عیون	-9103
▁جمع	-9104
▁ذنب	-9105
▁زهم	-9106
▁سهم	-9107
▁قیس	-9108
▁اویس	-9109
▁برهم	-9110
▁بستش	-9111
▁بسعی	-9112
▁بشیر	-9113
▁بعدل	-9114
▁بچار	-9115
▁توهم	-9116
▁جبار	-9117
▁حاجب	-9118
▁ذباب	-9119
▁زدند	-9120
▁سالش	-9121
▁سترد	-9122
▁ستوه	-9123
▁سرها	-9124
▁شوقم	-9125
▁صفرا	-9126
▁ضلیل	-9127
▁عرصه	-9128
▁فدای	-9129
▁قصدش	-9130
▁قفلم	-9131
▁قلیل	-9132
▁مؤذن	-9133
▁مشعل	-9134
▁پدرش	-9135
▁چشید	-9136
▁کسوف	-9137
▁اتمام	-9138
▁اخترش	-9139
▁اشکال	-9140
▁اولین	-9141
▁بدلبر	-9142
▁تأسیس	-9143
▁حیوان	-9144
▁خرمنش	-9145
▁دربار	-9146
▁دیرین	-9147
▁زیانی	-9148
▁ساختم	-9149
▁سالار	-9150
▁سرطان	-9151
▁سوزدم	-9152
▁شوییش	-9153
▁شکستی	-9154
▁صدبار	-9155
▁صفایی	-9156
▁غناست	-9157
▁فراقش	-9158
▁فریبی	-9159
▁مشامی	-9160
▁مغانی	-9161
▁منزلش	-9162
▁نگهند	-9163
▁وعامی	-9164
▁کاستی	-9165
▁کمندی	-9166
▁کنیتش	-9167
▁افتادش	-9168
▁التماس	-9169
▁ترسیده	-9170
▁خوردنم	-9171
▁درخورش	-9172
▁رازتان	-9173
▁راهبرم	-9174
▁راهشان	-9175
▁رخساره	-9176
▁رداشان	-9177
▁ررخامه	-9178
▁رستگان	-9179
▁رسوایی	-9180
▁رسولان	-9181
▁رنجوری	-9182
▁رنجیدی	-9183
▁رنگینی	-9184
▁رهاندم	-9185
▁رهانند	-9186
▁رهروان	-9187
▁رهزنان	-9188
▁رهنمون	-9189
▁رهیدند	-9190
▁روحانی	-9191
▁روسیاه	-9192
▁روشندل	-9193
▁ریختنش	-9194
▁ریختیم	-9195
▁زبیمار	-9196
▁زسودای	-9197
▁زعفران	-9198
▁زمردین	-9199
ختم	-9200
وکت	-9201
یلت	-9202
بریه	-9203
خمور	-9204
▁بحل	-9205
▁شصت	-9206
اندام	-9207
▁آزری	-9208
▁آگهت	-9209
▁بجرگ	-9210
▁بجگر	-9211
▁بحدی	-9212
▁بحلت	-9213
▁بحمد	-9214
▁بدگو	-9215
▁برسم	-9216
▁بویش	-9217
▁حربا	-9218
▁حوضش	-9219
▁خیزم	-9220
▁رحمش	-9221
▁زوفا	-9222
▁شوکت	-9223
▁شیوه	-9224
▁غنای	-9225
▁میخی	-9226
▁نرفت	-9227
▁هایش	-9228
▁هرجا	-9229
▁پنچه	-9230
▁چکنی	-9231
▁کلید	-9232
▁گذرش	-9233
رخساری	-9234
▁آنسان	-9235
▁ارزان	-9236
▁انجام	-9237
▁بجانب	-9238
▁بحالی	-9239
▁بحیلت	-9240
▁بخزان	-9241
▁برملا	-9242
▁بروید	-9243
▁بریدن	-9244
▁بشگون	-9245
▁بمنعم	-9246
▁بنایش	-9247
▁بکارش	-9248
▁جامیس	-9249
▁جرمیش	-9250
▁خوردن	-9251
▁دلیلم	-9252
▁روایت	-9253
▁زدیدن	-9254
▁سواری	-9255
▁فکرها	-9256
▁فگندم	-9257
▁مخمور	-9258
▁مغانش	-9259
▁مغانه	-9260
▁مندیل	-9261
▁مویان	-9262
▁میزان	-9263
▁نوبتی	-9264
▁نوشید	-9265
▁نیمشب	-9266
▁هوایش	-9267
▁وشامی	-9268
▁پذیره	-9269
▁چکیده	-9270
▁گذارت	-9271
▁گذشتش	-9272
▁گریند	-9273
▁گیرمش	-9274
▁آذرگون	-9275
▁آفتابش	-9276
▁البریه	-9277
▁بازویت	-9278
▁بجوشید	-9279
▁تابنده	-9280
▁توانست	-9281
▁حکایتی	-9282
▁خاوران	-9283
▁دریاست	-9284
▁زمستان	-9285
▁زمسیحا	-9286
▁زنبیلش	-9287
▁زنجبیل	-9288
▁زندگان	-9289
▁زورمند	-9290
▁زچوگان	-9291
▁زیارتش	-9292
▁زیردست	-9293
▁ساعیان	-9294
▁سامعان	-9295
▁ساکنان	-9296
▁ساکنند	-9297
▁سایبان	-9298
▁ستمکشی	-9299
اختی	-9300
یزدش	-9301
▁ثنا	-9302
▁جرا	-9303
▁جزع	-9304
▁نحل	-9305
▁نزع	-9306
فروزد	-9307
▁ادبش	-9308
▁بدهم	-9309
▁برهش	-9310
▁بفخر	-9311
▁بفعل	-9312
▁بفلک	-9313
▁تندی	-9314
▁حقوق	-9315
▁خبرش	-9316
▁دربه	-9317
▁دشتم	-9318
▁دودش	-9319
▁رسدت	-9320
▁زهاد	-9321
▁سیاو	-9322
▁شعاع	-9323
▁شناس	-9324
▁عیبش	-9325
▁قدمت	-9326
▁قیام	-9327
▁قیمت	-9328
▁قیوم	-9329
▁منعم	-9330
▁هوسن	-9331
▁وایه	-9332
▁چکاو	-9333
▁گزای	-9334
▁گهرم	-9335
▁آرمین	-9336
▁انگور	-9337
▁بباغم	-9338
▁برونم	-9339
▁بسکین	-9340
▁بپهلو	-9341
▁تابان	-9342
▁تباهی	-9343
▁جلادت	-9344
▁خاصان	-9345
▁دانای	-9346
▁رفتنت	-9347
▁زاریم	-9348
▁زبانش	-9349
▁زردشت	-9350
▁زنگاه	-9351
▁سبحان	-9352
▁سوادش	-9353
▁فروزم	-9354
▁لیلیش	-9355
▁مرادت	-9356
▁مرداد	-9357
▁ملکیت	-9358
▁مینای	-9359
▁ندزدش	-9360
▁نرسند	-9361
▁نزاده	-9362
▁نشستن	-9363
▁نشنید	-9364
▁هفتاد	-9365
▁پشمین	-9366
▁پوستی	-9367
▁کاسان	-9368
▁کنایت	-9369
▁کیستی	-9370
▁آرمیدم	-9371
▁بدخویی	-9372
▁بلندتر	-9373
▁بیخبری	-9374
▁بیدادش	-9375
▁خردسال	-9376
▁خواستن	-9377
▁خوردیم	-9378
▁دریوزه	-9379
▁دزدیدی	-9380
▁دودکان	-9381
▁سراپای	-9382
▁سربلند	-9383
▁سرتاسر	-9384
▁سرشتند	-9385
▁سرپنجه	-9386
▁سرکشان	-9387
▁سرکشته	-9388
▁سرگران	-9389
▁سرگشته	-9390
▁سفلگان	-9391
▁سلاخان	-9392
▁سلاطین	-9393
▁سلطانم	-9394
▁سندروس	-9395
▁سنگدلی	-9396
▁سوختمی	-9397
▁سوگندم	-9398
▁سیمابی	-9399
سلد	-9400
سلند	-9401
▁سجل	-9402
▁قرن	-9403
▁نسل	-9404
باشته	-9405
▁اجرا	-9406
▁اردی	-9407
▁توست	-9408
▁ثمین	-9409
▁زردی	-9410
▁فقیر	-9411
▁لاوه	-9412
▁کوری	-9413
▁آلایش	-9414
▁بخششم	-9415
▁روزیی	-9416
▁سعایت	-9417
▁سیهند	-9418
▁فکرتت	-9419
▁ملالم	-9420
▁نخورم	-9421
▁نهادا	-9422
▁نگسلد	-9423
▁بگسلند	-9424
▁داغدار	-9425
▁زنگاری	-9426
▁سیمگون	-9427
▁شاخساز	-9428
▁شامیان	-9429
▁شانزده	-9430
▁شاهاتا	-9431
▁شاهانش	-9432
▁شاهدان	-9433
▁شددیار	-9434
▁شراریش	-9435
▁شرمناک	-9436
▁شمارمش	-9437
▁شمارند	-9438
▁شمشیرت	-9439
▁شنفتند	-9440
▁شنفتنی	-9441
▁شهدنوش	-9442
▁شهنامه	-9443
▁شهنشاه	-9444
▁شهیدند	-9445
▁شکایتم	-9446
▁شکرریز	-9447
▁شکستند	-9448
▁شکفتنی	-9449
▁شیرازه	-9450
▁صحرایی	-9451
▁صیدخام	-9452
▁صیدکشی	-9453
▁صیدگاه	-9454
▁طایران	-9455
▁طبیبان	-9456
▁طرارند	-9457
▁طواویس	-9458
▁طوطیان	-9459
▁طیلسان	-9460
▁ظفرمند	-9461
▁ظلمانی	-9462
▁عاصیان	-9463
▁عالمند	-9464
▁عروسان	-9465
▁عریانی	-9466
▁عشرتگه	-9467
▁عقابان	-9468
▁عیارند	-9469
▁عیسویش	-9470
▁غافلان	-9471
▁غبارند	-9472
▁غریبان	-9473
▁غلطانم	-9474
▁غمازند	-9475
▁غمخانه	-9476
▁غمزدای	-9477
▁غوغایی	-9478
▁فتادیش	-9479
▁فراخور	-9480
▁فرادیس	-9481
▁فراروش	-9482
▁فردایی	-9483
▁فرزانه	-9484
▁فرزندم	-9485
▁فرستمش	-9486
▁فرستند	-9487
▁فرسوده	-9488
▁فرمایی	-9489
▁فرمودش	-9490
▁فرنگیس	-9491
▁فروشان	-9492
▁فرونده	-9493
▁فریدون	-9494
▁فزودیش	-9495
▁فشانان	-9496
▁فشاندش	-9497
▁فشاندم	-9498
▁فشانده	-9499
▁فشانیم	-9500
▁فقراست	-9501
▁فقیران	-9502
▁فگندند	-9503
▁فیلقوس	-9504
▁قاصرات	-9505
▁قربانی	-9506
▁قمریان	-9507
▁لاجورد	-9508
▁لرزانی	-9509
▁لعلشان	-9510
▁لییمان	-9511
▁مؤمنات	-9512
▁ماخسته	-9513
▁مانداز	-9514
▁ماندنت	-9515
▁ماندند	-9516
▁ماندیم	-9517
▁مانندم	-9518
▁ماهیان	-9519
▁ماورای	-9520
▁مبیناد	-9521
▁محتشمی	-9522
▁محجوبه	-9523
▁محمودش	-9524
▁مخدرات	-9525
▁مدارید	-9526
▁مردشان	-9527
▁مردمان	-9528
▁مرزبان	-9529
▁مرغوله	-9530
▁مرغکان	-9531
▁مریدان	-9532
▁مستجار	-9533
▁مستجیر	-9534
▁مستوری	-9535
▁مسکینی	-9536
▁مشکبوی	-9537
▁مشکبیز	-9538
▁مشکسای	-9539
▁مشکینش	-9540
▁مشکینه	-9541
▁مضمونش	-9542
▁مطربان	-9543
▁معاینه	-9544
▁معشوقی	-9545
▁معصومه	-9546
▁معموری	-9547
▁مفرمای	-9548
▁مقصودت	-9549
▁مقیمان	-9550
▁ملازمت	-9551
▁ملایکش	-9552
▁منصوبه	-9553
▁مهرشان	-9554
▁موسویش	-9555
▁مولودش	-9556
▁مکتوبی	-9557
▁مگیرید	-9558
▁میازار	-9559
▁میاموز	-9560
▁میجویی	-9561
▁میخورد	-9562
▁میدارم	-9563
▁میداشت	-9564
▁میزانش	-9565
▁میزنند	-9566
▁میسوزم	-9567
▁میشمرد	-9568
▁میطپید	-9569
▁میمیرم	-9570
▁مینازد	-9571
▁مینگرم	-9572
▁میچرند	-9573
▁میچیدم	-9574
▁میکردی	-9575
▁میکشتم	-9576
▁میکشتی	-9577
▁میکشیم	-9578
▁میگذشت	-9579
▁میگرید	-9580
▁میگوید	-9581
▁میگیری	-9582
▁ناآشنا	-9583
▁ناامید	-9584
▁نازاده	-9585
▁ناسفته	-9586
▁ناشکیب	-9587
▁ناصحان	-9588
▁ناصواب	-9589
▁نالیدم	-9590
▁نالیده	-9591
▁نالیدی	-9592
▁نامحرم	-9593
▁ناورده	-9594
▁ناچارم	-9595
▁ناکامی	-9596
▁ناگفتن	-9597
▁نبارند	-9598
▁نباشدت	-9599
▁نبخارد	-9600
▁نبردند	-9601
▁نبردیم	-9602
▁نبندند	-9603
▁نثاریش	-9604
▁نخروشم	-9605
▁نخستین	-9606
▁نخواست	-9607
▁نخورده	-9608
▁نخوردی	-9609
▁نخیزند	-9610
▁ندارید	-9611
▁نداشتم	-9612
▁ندانست	-9613
▁ندمیده	-9614
▁ندیمان	-9615
▁نرانند	-9616
▁نرباید	-9617
▁نزهتگه	-9618
▁نسازند	-9619
▁نسیمند	-9620
▁نشابور	-9621
▁نشاندت	-9622
▁نشاندی	-9623
▁نشانها	-9624
▁نشناسم	-9625
▁نشکسته	-9626
▁نشینان	-9627
▁نظامیم	-9628
▁نعمانم	-9629
▁نفرستد	-9630
▁نفروشم	-9631
▁نفریبد	-9632
▁نماندش	-9633
▁نمودند	-9634
▁نمیدهد	-9635
▁نمیرسد	-9636
▁نمیروم	-9637
▁نمیشوم	-9638
▁ننشسته	-9639
▁ننشستی	-9640
▁ننماید	-9641
▁ننمودت	-9642
▁ننهاده	-9643
▁ننویسد	-9644
▁نهادند	-9645
▁نهفتنی	-9646
▁نوازند	-9647
▁نوخطان	-9648
▁نورانی	-9649
▁نوروزی	-9650
▁نومیدش	-9651
▁نویسیم	-9652
▁نپذیرد	-9653
▁نپسندم	-9654
▁نپوشید	-9655
▁نگاشتن	-9656
▁نگرفتم	-9657
▁نگرفته	-9658
▁نگشتند	-9659
▁نگفتمت	-9660
▁نگفتنم	-9661
▁نگویدت	-9662
▁نیافتم	-9663
▁نیافته	-9664
▁نیایدم	-9665
▁نیاییم	-9666
▁نیستان	-9667
▁نیستند	-9668
▁نیلگون	-9669
▁نیکمرد	-9670
▁نیکنام	-9671
▁هزاران	-9672
▁همرهان	-9673
▁همزمان	-9674
▁همنفسی	-9675
▁همنوای	-9676
▁همچنان	-9677
▁همیگفت	-9678
▁هندوست	-9679
▁هوششان	-9680
▁هوشیار	-9681
▁هژبران	-9682
▁وارسته	-9683
▁وارستی	-9684
▁واضحات	-9685
▁واعظان	-9686
▁وامگیر	-9687
▁واپسین	-9688
▁واژگون	-9689
▁واگذار	-9690
▁ورزانی	-9691
▁ولادتش	-9692
▁ویرانی	-9693
▁پافگند	-9694
▁پایانش	-9695
▁پایبوس	-9696
▁پایشان	-9697
▁پراگند	-9698
▁پرستار	-9699
▁پرسیدم	-9700
▁پرسیده	-9701
▁پرسیدی	-9702
▁پرفشان	-9703
▁پروازش	-9704
▁پروازم	-9705
▁پروران	-9706
▁پروردم	-9707
▁پرورشت	-9708
▁پرورید	-9709
▁پشمینه	-9710
▁پندارم	-9711
▁پنهانی	-9712
▁پهلوان	-9713
▁پوشیدم	-9714
▁پیداتر	-9715
▁پیداست	-9716
▁پیرانه	-9717
▁پیرایه	-9718
▁پیشوای	-9719
▁پیشگاه	-9720
▁پیموده	-9721
▁پیوندم	-9722
▁پیوندی	-9723
▁چارطبع	-9724
▁چاپلوس	-9725
▁چشاندی	-9726
▁چشمانش	-9727
▁چوماهی	-9728
▁چوپرسم	-9729
▁کآرایش	-9730
▁کآسمان	-9731
▁کآشیان	-9732
▁کآفتاب	-9733
▁کآورده	-9734
▁کارهای	-9735
▁کاسرار	-9736
▁کافگند	-9737
▁کاندرو	-9738
▁کبوتری	-9739
▁کردشان	-9740
▁کردگار	-9741
▁کریمان	-9742
▁کشانیم	-9743
▁کشیدیش	-9744
▁کشیشان	-9745
▁کنعانی	-9746
▁کنیزان	-9747
▁کهغافل	-9748
▁کهکشان	-9749
▁کیمیای	-9750
▁گاوانش	-9751
▁گذارمت	-9752
▁گذاریم	-9753
▁گذاشتم	-9754
▁گذرانی	-9755
▁گذرگاه	-9756
▁گذشتیش	-9757
▁گرداشت	-9758
▁گردیدن	-9759
▁گرفتیم	-9760
▁گستاخم	-9761
▁گشادند	-9762
▁گشتگان	-9763
▁گفتشان	-9764
▁گلفشان	-9765
▁گمرهان	-9766
▁گنجوری	-9767
▁گهرریز	-9768
▁گوششان	-9769
▁گویاست	-9770
▁گیسوان	-9771
▁گیسویت	-9772
▁یادشان	-9773
▁یادگار	-9774
▁یاوریش	-9775
▁یعقوبم	-9776
▁یهودان	-9777
▁یکباره	-9778
▁یکدانه	-9779
▁یکدسته	-9780
▁یکروزه	-9781
▁آرزومند	-9782
▁آزادشان	-9783
▁آشفتگان	-9784
▁آشیانها	-9785
▁آمدستیم	-9786
▁آمیختند	-9787
▁آمیختیم	-9788
▁آوارگیم	-9789
▁آوازتان	-9790
▁آوازشان	-9791
▁ابراهیم	-9792
▁ارمغانت	-9793
▁ازمحاسن	-9794
▁استخراج	-9795
▁استدراج	-9796
▁استغفار	-9797
▁استمزاج	-9798
▁اسرافیل	-9799
▁اسماعیل	-9800
▁اشتیاقت	-9801
▁اشکبارش	-9802
▁اضطرابی	-9803
▁افتادمت	-9804
▁افتادگی	-9805
▁افراختی	-9806
▁افریدون	-9807
▁افسرشان	-9808
▁افسونگر	-9809
▁افشانان	-9810
▁افشاندش	-9811
▁افشانده	-9812
▁الاخلاق	-9813
▁الاعادی	-9814
▁الایمان	-9815
▁التعجیل	-9816
▁التفاتش	-9817
▁العداوة	-9818
▁القساوه	-9819
▁النبیین	-9820
▁انتظارم	-9821
▁انتقامت	-9822
▁اندامها	-9823
▁اندوختم	-9824
▁انعامند	-9825
▁انگشتها	-9826
▁اوفتادت	-9827
▁اوفتادی	-9828
▁اژدهاوش	-9829
▁اینچنین	-9830
▁بآشیانش	-9831
▁بابلیان	-9832
▁بادامها	-9833
▁بازآوری	-9834
▁بازگردد	-9835
▁باضطراب	-9836
▁باغبانش	-9837
▁بافسانه	-9838
▁بالرؤوس	-9839
▁بالعیون	-9840
▁بانتظار	-9841
▁باندازه	-9842
▁بایستمش	-9843
▁ببازویت	-9844
▁بتختگاه	-9845
▁بخرامند	-9846
▁بخشایشی	-9847
▁بخشیدمت	-9848
▁بخوابگه	-9849
▁بخورشید	-9850
▁بدخوییم	-9851
▁بدرویشی	-9852
▁بدلجویی	-9853
▁بدنبالت	-9854
▁بدوستان	-9855
▁بدگمانم	-9856
▁برآشفتم	-9857
▁برایشان	-9858
▁برخاستم	-9859
▁برخاستی	-9860
▁بردارند	-9861
▁برداشتم	-9862
▁برقیبان	-9863
▁برنایدم	-9864
▁برنتابد	-9865
▁برندارد	-9866
▁برهنگان	-9867
▁برهگذار	-9868
▁برگردند	-9869
▁برگرفتم	-9870
▁برگرفته	-9871
▁بزرگانه	-9872
▁بستگانش	-9873
▁بسرچشمه	-9874
▁بشاگردی	-9875
▁بشتافتی	-9876
▁بشماریم	-9877
▁بشکافند	-9878
▁بعدازین	-9879
▁بغریبان	-9880
▁بغلامان	-9881
▁بفتراکم	-9882
▁بلقیسان	-9883
▁بمحرومی	-9884
▁بمسکینی	-9885
▁بمشاطگی	-9886
▁بمقیمان	-9887
▁بمنزلگه	-9888
▁بنامیزد	-9889
▁بناگوشش	-9890
▁بناگوشی	-9891
▁بنشانیم	-9892
▁بهزاران	-9893
▁بهمرهان	-9894
▁بوالعجب	-9895
▁بوتیمار	-9896
▁بودژاله	-9897
▁بوزجمهر	-9898
▁بولایات	-9899
▁بویرانی	-9900
▁بپاخاست	-9901
▁بپاسبان	-9902
▁بپرداخت	-9903
▁بپرهیزی	-9904
▁بپرورده	-9905
▁بپرورمت	-9906
▁بچراگاه	-9907
▁بکاشانه	-9908
▁بگذاریم	-9909
▁بگذراند	-9910
▁بگرداند	-9911
▁بگریبان	-9912
▁بگشایند	-9913
▁بگلرخان	-9914
▁بگمانند	-9915
▁بیابانش	-9916
▁بیاراست	-9917
▁بیخبران	-9918
▁بیدآباد	-9919
▁بیدارها	-9920
▁بیقرارش	-9921
▁بیهوشیم	-9922
▁بیچارگی	-9923
▁بیکلاهی	-9924
▁بیگناهم	-9925
▁بیگنهان	-9926
▁ترازخون	-9927
▁تراشیده	-9928
▁تماشاگه	-9929
▁تماشایت	-9930
▁توانایی	-9931
▁جانفزای	-9932
▁جوالهای	-9933
▁جوانبخش	-9934
▁حاتمشان	-9935
▁حاسدانت	-9936
▁حقگزاری	-9937
▁خامششان	-9938
▁خاموشند	-9939
▁خاکسترش	-9940
▁خداوندم	-9941
▁خداوندی	-9942
▁خرامنده	-9943
▁خرامیده	-9944
▁خستگانش	-9945
▁خوابشان	-9946
▁خواستند	-9947
▁خودبینی	-9948
▁خودنقاب	-9949
▁خوشخرام	-9950
▁خونبهای	-9951
▁خیابانی	-9952
▁داستانی	-9953
▁دامانان	-9954
▁دانشورش	-9955
▁دانشوری	-9956
▁درختانش	-9957
▁دردآشام	-9958
▁دردمندی	-9959
▁دردکشان	-9960
▁دریاخیز	-9961
▁دستگیری	-9962
▁دلداریت	-9963
▁دلربایی	-9964
▁دلشکسته	-9965
▁دلشکنان	-9966
▁دلفروزم	-9967
▁دماوندم	-9968
▁دوسترین	-9969
▁دگرانند	-9970
▁ذوالمنن	-9971
▁رازهاست	-9972
▁راهگذار	-9973
▁رستخیزش	-9974
▁رستمشان	-9975
▁رستگاری	-9976
▁رنجاندت	-9977
▁رنجانمت	-9978
▁روزبروز	-9979
▁روزنامه	-9980
▁روزگارش	-9981
▁روزگارم	-9982
▁روزگاری	-9983
▁روستایی	-9984
▁زآتشکده	-9985
▁زاهدانش	-9986
▁زراعیان	-9987
▁زرافشان	-9988
▁زرفشانم	-9989
▁زنخدانت	-9990
▁زپیمانه	-9991
▁سازگاری	-9992
▁ستمگران	-9993
▁سحرورند	-9994
▁سراپرده	-9995
▁سرخوشان	-9996
▁سرفرازت	-9997
▁سرگشاده	-9998
▁سطرلابش	-9999
▁سلیمانی	-10000
▁سمرقندم	-10001
▁سنجیدند	-10002
▁سوختگان	-10003
▁سپارندم	-10004
▁شاخسارش	-10005
▁شاهنشهی	-10006
▁شاهوارش	-10007
▁شایستگی	-10008
▁شنیدندی	-10009
▁شهرستان	-10010
▁شهریاری	-10011
▁شهیدانت	-10012
▁شهیدانش	-10013
▁شکرخندی	-10014
▁شکرستان	-10015
▁شکرفشان	-10016
▁شیرینیش	-10017
▁شیفتگان	-10018
▁صاحبدلی	-10019
▁صدرنشین	-10020
▁صیادمهر	-10021
▁عاشقانت	-10022
▁غلامانت	-10023
▁غمگساری	-10024
▁فادخلوا	-10025
▁فراموشی	-10026
▁فرخندگی	-10027
▁فرستادت	-10028
▁فرستادی	-10029
▁فسونهاش	-10030
▁فشاندند	-10031
▁قاصددلم	-10032
▁قایمقام	-10033
▁قنادیلش	-10034
▁لباسشان	-10035
▁للتقلیل	-10036
▁لوحیهای	-10037
▁محتشمان	-10038
▁مرغزارش	-10039
▁مسکینان	-10040
▁مشاییان	-10041
▁مشکبارش	-10042
▁معزولیش	-10043
▁معشوقان	-10044
▁معلومات	-10045
▁مقدمشان	-10046
▁ممنونند	-10047
▁مهربانم	-10048
▁مهرورزی	-10049
▁مهرپرور	-10050
▁مهمانان	-10051
▁مهمانیم	-10052
▁مومیایی	-10053
▁مژگانان	-10054
▁میتوانم	-10055
▁میخواست	-10056
▁میخواهد	-10057
▁میخواهم	-10058
▁میخوردم	-10059
▁میدویدم	-10060
▁میرسیدم	-10061
▁میریزدش	-10062
▁میزبانی	-10063
▁میشمردم	-10064
▁میطلبند	-10065
▁میفشانی	-10066
▁مینالید	-10067
▁مینمودت	-10068
▁میگفتمش	-10069
▁ناتمامت	-10070
▁ناشکیبی	-10071
▁نافرجام	-10072
▁ناقوسها	-10073
▁نامحرمی	-10074
▁نامرادی	-10075
▁ناکاسته	-10076
▁ناگزیرم	-10077
▁نبخشیدی	-10078
▁نتوانست	-10079
▁نجنبیدی	-10080
▁نخوانده	-10081
▁نخواهند	-10082
▁ندادندم	-10083
▁نداشتند	-10084
▁ندانسته	-10085
▁نشاندند	-10086
▁نشاندیش	-10087
▁نشماریش	-10088
▁نشناختم	-10089
▁نشناختی	-10090
▁نشکستند	-10091
▁نفاقشان	-10092
▁نفروشند	-10093
▁نفزایند	-10094
▁نلرزیدت	-10095
▁نمکدانت	-10096
▁نمیتوان	-10097
▁نمیخردم	-10098
▁نمیدادم	-10099
▁نمیدادی	-10100
▁نمینالم	-10101
▁نمیپرسد	-10102
▁نوشخندت	-10103
▁نونتیجه	-10104
▁نپسندمت	-10105
▁نگاهبان	-10106
▁نگذاشتم	-10107
▁نگرانند	-10108
▁نگشایند	-10109
▁نیارستی	-10110
▁نیاکانت	-10111
▁نیستولی	-10112
▁نیفروزد	-10113
▁نیوشنده	-10114
▁نیکونام	-10115
▁هشیاریت	-10116
▁همدمانش	-10117
▁همزبانش	-10118
▁همزبانم	-10119
▁همسایگی	-10120
▁همصحبتی	-10121
▁همیکردش	-10122
▁وافؤادی	-10123
▁وامانده	-10124
▁واگذارم	-10125
▁پادشاهی	-10126
▁پادشهان	-10127
▁پادشهند	-10128
▁پاکشیده	-10129
▁پاکوبان	-10130
▁پایمالم	-10131
▁پراکندی	-10132
▁پراگندم	-10133
▁پرفتوحش	-10134
▁پرفشانی	-10135
▁پرنیانی	-10136
▁پروبالی	-10137
▁پسندیده	-10138
▁پشیمانی	-10139
▁پنداشتش	-10140
▁پنداشتی	-10141
▁پولادین	-10142
▁پیراسته	-10143
▁پیراستی	-10144
▁پیراهنت	-10145
▁پیرمغان	-10146
▁پیشانیم	-10147
▁پیشیمان	-10148
▁پیمانان	-10149
▁چاپلوسی	-10150
▁چاکرانت	-10151
▁چندانکه	-10152
▁کآسمانی	-10153
▁کارفرما	-10154
▁کارکنان	-10155
▁کافتاده	-10156
▁کافروخت	-10157
▁کشتزارش	-10158
▁کشتگانم	-10159
▁گاهگاهی	-10160
▁گذرگاهی	-10161
▁گرانبها	-10162
▁گردیدنش	-10163
▁گرفتارم	-10164
▁گرفتندش	-10165
▁گریبانت	-10166
▁گریبانم	-10167
▁گستاخیم	-10168
▁گلستانم	-10169
▁گمشدگان	-10170
▁یادگارش	-10171
▁یاراییم	-10172
▁یافتندی	-10173
▁یکدوسال	-10174
▁آرزومندم	-10175
▁آموزگارش	-10176
▁آوازهاست	-10177
▁ابوالنصر	-10178
▁اخترشناس	-10179
▁ارجمندان	-10180
▁استخوانت	-10181
▁استخوانی	-10182
▁اسلامیان	-10183
▁اشراقیان	-10184
▁افتادشان	-10185
▁افتادگان	-10186
▁افراختمش	-10187
▁افسونگری	-10188
▁افلاسشان	-10189
▁افلاکیان	-10190
▁افگندشان	-10191
▁الحمدلله	-10192
▁امیدگاها	-10193
▁اندامشان	-10194
▁اندیشناک	-10195
▁اوستادان	-10196
▁ایستادگی	-10197
▁ایمانیان	-10198
▁بازخواست	-10199
▁باغبانان	-10200
▁بامدادان	-10201
▁بدلبریها	-10202
▁برانگیزم	-10203
▁برخوردار	-10204
▁برزیگران	-10205
▁برمکیانش	-10206
▁برگمارند	-10207
▁برینجهان	-10208
▁بندگانند	-10209
▁بهمسایگی	-10210
▁بوالعجبی	-10211
▁بودناخلف	-10212
▁بپاخاسته	-10213
▁بیوفایان	-10214
▁بیوفاییت	-10215
▁بیگناهان	-10216
▁تحقیقشان	-10217
▁توانستند	-10218
▁توفیقشان	-10219
▁جهانداری	-10220
▁جوانمردی	-10221
▁خوبرویان	-10222
▁خوردستند	-10223
▁خونبهایی	-10224
▁خونخواره	-10225
▁داستانها	-10226
▁دانشوران	-10227
▁دردمندان	-10228
▁دوستدارا	-10229
▁دوستدارش	-10230
▁دیدارشان	-10231
▁راخواهیم	-10232
▁رامشگران	-10233
▁زابلیانش	-10234
▁زبردستند	-10235
▁زندگانیت	-10236
▁سرگردانم	-10237
▁سیاووشان	-10238
▁شهانراست	-10239
▁شهریارند	-10240
▁شهید۱۱۹۲	-10241
▁شورانگیز	-10242
▁شکستگانت	-10243
▁صندوقهای	-10244
▁عنبرفشان	-10245
▁فرستادمت	-10246
▁فرفوریوس	-10247
▁فیروزبخت	-10248
▁قدرداریش	-10249
▁قندیلهای	-10250
▁ماهرویان	-10251
▁مهربانیت	-10252
▁میخواستم	-10253
▁میساختند	-10254
▁میشمارمت	-10255
▁میهمانان	-10256
▁میهمانیم	-10257
▁نازنینان	-10258
▁ناقوسشان	-10259
▁نشناختند	-10260
▁نفرستاده	-10261
▁نفرستادی	-10262
▁نمیتوانم	-10263
▁نمیگذارد	-10264
▁نوشخندان	-10265
▁نپیمایدم	-10266
▁نگارستان	-10267
▁نگذاشتند	-10268
▁نیازاریش	-10269
▁نیافریده	-10270
▁نیاموزند	-10271
▁نیاوردیش	-10272
▁نیکبختان	-10273
▁هاروتشان	-10274
▁وانداخته	-10275
▁پاسبانان	-10276
▁پافشارند	-10277
▁پاکدامنی	-10278
▁پاکیزگان	-10279
▁پرافشانم	-10280
▁پراکندگی	-10281
▁پریشانیم	-10282
▁پوشیدستم	-10283
▁چوخورشید	-10284
▁کانباشته	-10285
▁کاینچنین	-10286
▁گلرخساری	-10287
▁گلستانند	-10288
▁گمگشتگان	-10289
▁گوسفندان	-10290
▁گوشواریش	-10291
▁یونانیان	-10292
▁انوشیروان	-10293
▁بدشنامشان	-10294
▁بدوشیزگان	-10295
▁برافراختم	-10296
▁برافراختی	-10297
▁برافراشته	-10298
▁براندازیم	-10299
▁بفرهمایون	-10300
▁تماشاییان	-10301
▁تیرافگنان	-10302
▁حریراندام	-10303
▁خدمتگزاری	-10304
▁خودپسندان	-10305
▁خونخوارند	-10306
▁درانداختی	-10307
▁دلباختگان	-10308
▁دوستداران	-10309
▁دوستداریت	-10310
▁ریسمانهای	-10311
▁سرافراخته	-10312
▁سرافگندگی	-10313
▁سراندازیم	-10314
▁شتابندگان	-10315
▁صیدافگنان	-10316
▁فرستادشان	-10317
▁میفرستادم	-10318
▁ناجوانمرد	-10319
▁نامهربانی	-10320
▁ندانداگرم	-10321
▁نوسفرانند	-10322
▁نپیندارند	-10323
▁همراهانند	-10324
▁همصحبتانش	-10325
▁هواخواهان	-10326
▁واماندگان	-10327
▁پسندیدگان	-10328
▁باغبانزاده	-10329
▁سرافگندگان	-10330
▁نارپستانان	-10331
▁کالانعامند	-10332
▁افتاددیوارش	-10333
▁امیدواریهای	-10334
▁بگوهرشناسان	-10335
▁محشور۱۱۷۱هق	-10336
۶ه	-10337
▁۵۹	-10338
▁۶۰	-10339
▁۶۱	-10340
▁۶۲	-10341
▁۶۳	-10342
▁۶۴	-10343
▁۶۵	-10344
▁۶۶	-10345
▁۶۷	-10346
▁۶۸	-10347
▁۶۹	-10348
▁۷۰	-10349
▁۷۱	-10350
▁۷۲	-10351
▁۷۳	-10352
▁۷۴	-10353
▁۷۵	-10354
▁۷۶	-10355
▁۷۷	-10356
▁۷۸	-10357
▁۷۹	-10358
▁۸۰	-10359
▁۸۱	-10360
▁۸۲	-10361
▁۸۳	-10362
▁۸۴	-10363
▁۸۵	-10364
▁۸۶	-10365
▁۸۷	-10366
▁۸۸	-10367
▁۸۹	-10368
▁۹۰	-10369
▁۹۱	-10370
▁۹۲	-10371
▁۹۳	-10372
▁۹۴	-10373
▁۹۵	-10374
▁۹۶	-10375
▁۹۷	-10376
▁۹۸	-10377
▁۹۹	-10378
۱۱۸۹	-10379
▁فوت	-10380
▁هین	-10381
▁۱۰۰	-10382
▁۱۰۱	-10383
▁۱۰۲	-10384
▁۱۰۳	-10385
▁۱۰۴	-10386
▁۱۰۵	-10387
▁۱۰۶	-10388
▁۱۰۷	-10389
▁۱۰۸	-10390
▁۱۰۹	-10391
▁۱۱۰	-10392
▁۱۱۱	-10393
▁۱۱۲	-10394
▁۱۱۳	-10395
▁۱۱۴	-10396
▁۱۱۵	-10397
▁۱۱۶	-10398
▁۱۱۷	-10399
▁۱۱۸	-10400
▁۱۲۰	-10401
▁۱۲۱	-10402
▁۱۲۲	-10403
▁۱۲۳	-10404
▁۱۲۴	-10405
▁۱۲۵	-10406
▁۱۲۶	-10407
▁۱۲۷	-10408
▁۱۲۸	-10409
▁۱۲۹	-10410
▁۱۳۰	-10411
▁۱۳۱	-10412
▁۱۳۲	-10413
▁۱۳۳	-10414
▁۱۳۴	-10415
▁۱۳۵	-10416
▁۱۳۶	-10417
▁۱۳۷	-10418
▁۱۳۸	-10419
▁۱۳۹	-10420
▁۱۴۰	-10421
▁۱۴۱	-10422
▁۱۴۲	-10423
▁۱۴۳	-10424
▁۱۴۴	-10425
▁۱۴۵	-10426
▁۱۴۶	-10427
▁۱۴۷	-10428
▁۱۴۸	-10429
▁۱۴۹	-10430
▁۱۵۰	-10431
▁۱۵۱	-10432
▁۱۵۲	-10433
▁۱۵۳	-10434
▁۱۵۴	-10435
▁۱۵۵	-10436
▁۱۵۶	-10437
▁۱۵۷	-10438
▁۱۵۸	-10439
▁۱۵۹	-10440
▁۱۶۰	-10441
▁۱۶۱	-10442
▁۱۶۲	-10443
▁۱۶۳	-10444
▁۱۶۴	-10445
▁۱۶۵	-10446
▁۱۶۶	-10447
▁۱۶۷	-10448
▁۱۶۸	-10449
▁۱۶۹	-10450
▁۱۷۰	-10451
▁۱۷۱	-10452
▁۱۷۲	-10453
▁۱۷۳	-10454
▁۱۷۴	-10455
▁۱۷۵	-10456
▁۱۷۶	-10457
▁۱۷۷	-10458
▁۱۷۸	-10459
▁۱۷۹	-10460
▁۱۸۰	-10461
▁۱۸۱	-10462
▁۱۸۲	-10463
▁۱۸۳	-10464
▁۱۸۴	-10465
▁۱۸۵	-10466
▁کلیات	-10467
أتم	-10468
ادث	-10469
افظ	-10470
جزه	-10471
حیی	-10472
سین	-10473
فاس	-10474
لکل	-10475
وبت	-10476
کهف	-10477
▁پو	-10478
انون	-10479
سامی	-10480
شاعر	-10481
ظامی	-10482
عرکه	-10483
کامی	-10484
گامی	-10485
▁بحث	-10486
▁فوق	-10487
▁قوس	-10488
انامی	-10489
کلامی	-10490
▁الکل	-10491
▁بطبع	-10492
▁بکهف	-10493
▁حافظ	-10494
▁رامی	-10495
▁ریاض	-10496
▁سعدی	-10497
▁سهام	-10498
▁شامی	-10499
▁صریر	-10500
▁طامی	-10501
▁طبعت	-10502
▁عقلم	-10503
▁عیبی	-10504
▁عیشت	-10505
▁فامی	-10506
▁فلکم	-10507
▁قادر	-10508
▁نطاق	-10509
▁نظمش	-10510
▁وزیر	-10511
▁کمیت	-10512
▁یحیی	-10513
▁ازوست	-10514
▁المفر	-10515
▁امامی	-10516
▁انفاس	-10517
▁بادکه	-10518
▁بازگو	-10519
▁بنوبت	-10520
▁بیاری	-10521
▁تحسین	-10522
▁جرأتم	-10523
▁حمامه	-10524
▁حوادث	-10525
▁خوانم	-10526
▁دادار	-10527
▁زمانت	-10528
▁طوطیم	-10529
▁عارفم	-10530
▁فصاحت	-10531
▁قانون	-10532
▁مختار	-10533
▁معجزه	-10534
▁منتظم	-10535
▁منحوس	-10536
▁پاسخش	-10537
▁پسران	-10538
▁گوهرش	-10539
▁بمعرکه	-10540
▁جنتشان	-10541
▁داناست	-10542
▁سخنوری	-10543
▁شاعران	-10544
▁شکستگی	-10545
▁صبحگاه	-10546
▁صبوحیم	-10547
▁هوشدار	-10548
▁پوسیده	-10549
▁الاسامی	-10550
▁الانامی	-10551
▁العظامی	-10552
▁الکلامی	-10553
▁انتظامی	-10554
▁بسرفشان	-10555
▁تیزگامی	-10556
▁روانشان	-10557
▁شادکامی	-10558
▁ناتمامی	-10559
▁نیکنامی	-10560
▁همهشاعر	-10561
▁همکلامی	-10562
▁خوشخرامی	-10563
.»	-10564
ئد	-10565
طع	-10566
۹ه	-10567
بهٔ	-10568
حرا	-10569
فاف	-10570
شبند	-10571
طعات	-10572
۱۱۷۵	-10573
۱۱۷۶	-10574
۱۱۸۳	-10575
۱۱۸۵	-10576
۱۱۸۶	-10577
۱۱۸۸	-10578
۱۱۹۳	-10579
۱۱۹۴	-10580
▁ابن	-10581
▁۱۸۶	-10582
▁۱۸۷	-10583
▁۱۸۸	-10584
▁۱۸۹	-10585
▁۱۹۰	-10586
▁۱۹۱	-10587
▁۱۹۲	-10588
▁۱۹۳	-10589
▁۱۹۴	-10590
▁۱۹۵	-10591
▁۱۹۶	-10592
▁۱۹۷	-10593
▁۱۹۸	-10594
▁۱۹۹	-10595
▁۲۰۰	-10596
▁۲۰۱	-10597
▁۲۰۲	-10598
▁۲۰۳	-10599
▁۲۰۴	-10600
▁۲۰۵	-10601
▁۲۰۶	-10602
▁۲۰۷	-10603
البهٔ	-10604
۱۱۷۶ه	-10605
۱۱۷۹ه	-10606
۱۱۸۶ه	-10607
▁ایضا	-10608
▁خورش	-10609
▁زفاف	-10610
▁هجری	-10611
▁۱۱۹۰	-10612
▁بصحرا	-10613
▁تعریف	-10614
▁رباعی	-10615
▁عقربم	-10616
▁قطعهٔ	-10617
▁لشکری	-10618
▁نامدی	-10619
▁وفائی	-10620
▁یافتی	-10621
▁بیگدلی	-10622
▁نقشبند	-10623
▁اضطرابش	-10624
▁بیوفائی	-10625
▁مطالبهٔ	-10626
▁المقطعات	-10627
▁بدانگونه	-10628
أن	-10629
ئر	-10630
دو	-10631
ضد	-10632
غش	-10633
لَ	-10634
هْ	-10635
َر	-10636
ِت	-10637
ِق	-10638
ْع	-10639
▁:	-10640
▁،	-10641
▁؛	-10642
ائد	-10643
باد	-10644
ثار	-10645
حکم	-10646
رار	-10647
رفس	-10648
رمن	-10649
طوف	-10650
قته	-10651
لمی	-10652
لَی	-10653
ورت	-10654
ونت	-10655
ونه	-10656
ِهْ	-10657
گهت	-10658
یعم	-10659
▁عَ	-10660
اریت	-10661
اشِق	-10662
امیر	-10663
ایهٔ	-10664
بازی	-10665
جایی	-10666
ختند	-10667
ساوس	-10668
غرور	-10669
مردم	-10670
هایش	-10671
پدید	-10672
یرفی	-10673
▁بئر	-10674
▁بزد	-10675
▁حشم	-10676
▁حَر	-10677
▁درِ	-10678
▁زمی	-10679
▁زنف	-10680
▁سره	-10681
▁سوق	-10682
▁سیخ	-10683
▁شأن	-10684
▁طبل	-10685
▁عضد	-10686
▁غرق	-10687
▁نرخ	-10688
▁کِت	-10689
افگنی	-10690
خلقته	-10691
ستاره	-10692
طوفان	-10693
مرحمت	-10694
نداری	-10695
نگونت	-10696
وانند	-10697
وایان	-10698
پاکان	-10699
▁آثار	-10700
▁آرمش	-10701
▁آزرم	-10702
▁اخگر	-10703
▁ازمن	-10704
▁الْع	-10705
▁امرد	-10706
▁بمهر	-10707
▁بنقش	-10708
▁بیغش	-10709
▁تازد	-10710
▁جواز	-10711
▁حشرش	-10712
▁خمیر	-10713
▁دشتی	-10714
▁زائد	-10715
▁زحکم	-10716
▁سپید	-10717
▁شبهه	-10718
▁شفاف	-10719
▁شهاب	-10720
▁قائد	-10721
▁لوای	-10722
▁مخفی	-10723
▁مردش	-10724
▁مسند	-10725
▁معجر	-10726
▁منقش	-10727
▁نقاش	-10728
▁نگهد	-10729
▁نیرو	-10730
▁هوست	-10731
▁پائی	-10732
▁کبکم	-10733
▁کرفس	-10734
▁آسیای	-10735
▁اشاره	-10736
▁بارگی	-10737
▁بخرده	-10738
▁بخرمن	-10739
▁بخویش	-10740
▁برآیم	-10741
▁برونت	-10742
▁برویش	-10743
▁بصورت	-10744
▁بیموی	-10745
▁بینان	-10746
▁ترازو	-10747
▁جملهٔ	-10748
▁خداست	-10749
▁خمیده	-10750
▁خندهٔ	-10751
▁دیلمی	-10752
▁رخنهٔ	-10753
▁روزشن	-10754
▁رکابش	-10755
▁زدانه	-10756
▁ساختی	-10757
▁ستیزد	-10758
▁سربسر	-10759
▁شدخاص	-10760
▁شکوهٔ	-10761
▁صاحبش	-10762
▁صیرفی	-10763
▁ضحکهٔ	-10764
▁طپیده	-10765
▁عَلَی	-10766
▁عیارش	-10767
▁غبغبی	-10768
▁فرسنگ	-10769
▁قامتم	-10770
▁قرارم	-10771
▁لوحان	-10772
▁مایهٔ	-10773
▁محرمی	-10774
▁مطیعم	-10775
▁منزوی	-10776
▁مپذیر	-10777
▁میزنی	-10778
▁نامدت	-10779
▁نباشم	-10780
▁نبودت	-10781
▁نقشها	-10782
▁والای	-10783
▁وزیری	-10784
▁وساوس	-10785
▁پروای	-10786
▁پستهٔ	-10787
▁چشمهٔ	-10788
▁چهرهٔ	-10789
▁کالای	-10790
▁کایزد	-10791
▁کعبهٔ	-10792
▁کودکت	-10793
▁گردنش	-10794
▁گفتهٔ	-10795
▁یکسان	-10796
▁آوردمی	-10797
▁الامیر	-10798
▁القرار	-10799
▁انسانی	-10800
▁بایوان	-10801
▁بحقیقت	-10802
▁بلرزید	-10803
▁تاختند	-10804
▁تختگاه	-10805
▁تذروان	-10806
▁خواندش	-10807
▁دامگاه	-10808
▁دردِهْ	-10809
▁رهاییت	-10810
▁زینسان	-10811
▁سروران	-10812
▁سواران	-10813
▁سوزندش	-10814
▁شبیخون	-10815
▁طریقهٔ	-10816
▁غوغائی	-10817
▁مویشان	-10818
▁ناپدید	-10819
▁نماندی	-10820
▁نکوهشت	-10821
▁نیکوست	-10822
▁هٰذانِ	-10823
▁وارونه	-10824
▁پرغرور	-10825
▁پیچیده	-10826
▁کاشانه	-10827
▁کوهسار	-10828
▁یزدانی	-10829
▁ازمرحمت	-10830
▁اضطرابت	-10831
▁اعتبارش	-10832
▁باستاره	-10833
▁بیوفاتر	-10834
▁حَرامان	-10835
▁خواندند	-10836
▁خوانشان	-10837
▁رامشگری	-10838
▁سرنگونت	-10839
▁شاهانست	-10840
▁شهوتستی	-10841
▁عشقبازی	-10842
▁لشکرگهت	-10843
▁نازارمت	-10844
▁ناپاکان	-10845
▁نخوانند	-10846
▁نقشبندش	-10847
▁نقشهایش	-10848
▁نپسندند	-10849
▁نپنداری	-10850
▁نیفتاده	-10851
▁کابروان	-10852
▁گوشواره	-10853
▁یکبارگی	-10854
▁الْعاشِق	-10855
▁ایوانشان	-10856
▁بوالهوسی	-10857
▁بینوایان	-10858
▁شهریاران	-10859
▁صیدافگنی	-10860
▁نگهداریت	-10861
▁هوسناکان	-10862
▁پرداختند	-10863
أث	-10864
اء	-10865
اظ	-10866
تخ	-10867
تس	-10868
ثا	-10869
ثی	-10870
جل	-10871
حض	-10872
خج	-10873
خد	-10874
دح	-10875
دِ	-10876
رط	-10877
سف	-10878
غا	-10879
فز	-10880
قل	-10881
لج	-10882
مف	-10883
نپ	-10884
هب	-10885
هج	-10886
هه	-10887
هٰ	-10888
پی	-10889
ژر	-10890
گت	-10891
یء	-10892
یق	-10893
یگ	-10894
۰۰	-10895
۱۹	-10896
۲۲	-10897
۳۶	-10898
۴۰	-10899
آه	-10900
رر	-10901
صع	-10902
قط	-10903
مخ	-10904
مق	-10905
چش	-10906
چل	-10907
۵۰	-10908
۶۰	-10909
۷۴	-10910
۹۰	-10911
۹۴	-10912
▁.	-10913
أسی	-10914
ابج	-10915
ابق	-10916
اجز	-10917
ارس	-10918
ازت	-10919
ازش	-10920
ازم	-10921
ازگ	-10922
اسر	-10923
اشک	-10924
اشی	-10925
افس	-10926
افه	-10927
افی	-10928
انف	-10929
اوش	-10930
اکا	-10931
اکر	-10932
اکش	-10933
اکپ	-10934
ایز	-10935
بتی	-10936
برآ	-10937
برا	-10938
برو	-10939
برگ	-10940
بول	-10941
تاز	-10942
تخت	-10943
تشک	-10944
تشی	-10945
توح	-10946
تیم	-10947
ثقب	-10948
ثیر	-10949
جاز	-10950
جره	-10951
جری	-10952
جفا	-10953
جنگ	-10954
جگی	-10955
جیک	-10956
حدی	-10957
حری	-10958
حست	-10959
حظه	-10960
حیل	-10961
حیم	-10962
خرم	-10963
خست	-10964
خشی	-10965
خلا	-10966
خلخ	-10967
خلی	-10968
خمی	-10969
خنه	-10970
خود	-10971
خوش	-10972
درا	-10973
درد	-10974
دری	-10975
دهش	-10976
دهم	-10977
دوش	-10978
دیه	-10979
ذرا	-10980
ذرت	-10981
ذرد	-10982
راق	-10983
راه	-10984
راو	-10985
ربش	-10986
ربم	-10987
رشک	-10988
رمغ	-10989
رمم	-10990
رمی	-10991
رنج	-10992
رون	-10993
ریش	-10994
ریض	-10995
ریل	-10996
ریه	-10997
ریی	-10998
زنی	-10999
رز	-11000
قو	-11001
مگ	-11002
آشی	-11003
ؤال	-11004
اجه	-11005
الا	-11006
الف	-11007
الک	-11008
تند	-11009
حات	-11010
حور	-11011
خال	-11012
خیم	-11013
دبی	-11014
دیح	-11015
ذور	-11016
رفت	-11017
رور	-11018
روم	-11019
زال	-11020
زلز	-11021
ساب	-11022
ساج	-11023
ساف	-11024
سبی	-11025
ستت	-11026
سرا	-11027
سفت	-11028
سیب	-11029
شاط	-11030
شبی	-11031
شدت	-11032
شری	-11033
ششد	-11034
شنه	-11035
شوی	-11036
شکا	-11037
شکب	-11038
شکس	-11039
شکش	-11040
شکم	-11041
شکن	-11042
شیش	-11043
صاد	-11044
صبح	-11045
صبر	-11046
صلی	-11047
صور	-11048
صیب	-11049
صیم	-11050
ضبش	-11051
ضری	-11052
طار	-11053
طبی	-11054
طرا	-11055
طرش	-11056
طلی	-11057
طوق	-11058
طون	-11059
ظری	-11060
ظلی	-11061
ظهر	-11062
عات	-11063
عاش	-11064
عتد	-11065
عذر	-11066
عرب	-11067
علی	-11068
عمی	-11069
عنی	-11070
فائ	-11071
فات	-11072
فاو	-11073
فاپ	-11074
فرا	-11075
فست	-11076
فلا	-11077
فلش	-11078
فور	-11079
فکر	-11080
قال	-11081
قتو	-11082
قدس	-11083
قرا	-11084
قصر	-11085
قضا	-11086
قلا	-11087
قلی	-11088
لات	-11089
لاد	-11090
لار	-11091
لاص	-11092
لاع	-11093
لاغ	-11094
لبر	-11095
لبی	-11096
لشن	-11097
لوس	-11098
لوع	-11099
آث	-11100
حَ	-11101
صب	-11102
صخ	-11103
۶۹	-11104
الح	-11105
الد	-11106
الق	-11107
تگر	-11108
جشن	-11109
جگر	-11110
حال	-11111
ختش	-11112
ختص	-11113
ختل	-11114
ختگ	-11115
خشم	-11116
دشت	-11117
ذرو	-11118
راش	-11119
ریک	-11120
زشت	-11121
شاب	-11122
شام	-11123
شتگ	-11124
صال	-11125
ظال	-11126
عال	-11127
عفم	-11128
قند	-11129
لول	-11130
لکم	-11131
لیح	-11132
لیچ	-11133
لیک	-11134
لیی	-11135
ماد	-11136
مال	-11137
مای	-11138
مدل	-11139
مدن	-11140
مری	-11141
مسی	-11142
مشد	-11143
مشک	-11144
منش	-11145
منم	-11146
منی	-11147
موز	-11148
موش	-11149
مگر	-11150
میت	-11151
میخ	-11152
میز	-11153
میم	-11154
میک	-11155
میگ	-11156
میی	-11157
ناز	-11158
ندت	-11159
ندر	-11160
نشت	-11161
نها	-11162
نهی	-11163
نکه	-11164
نگد	-11165
هاب	-11166
هبر	-11167
هدا	-11168
هرت	-11169
هرم	-11170
همد	-11171
همن	-11172
همی	-11173
هور	-11174
هوش	-11175
وبی	-11176
ودن	-11177
ورآ	-11178
ورز	-11179
ورو	-11180
وزج	-11181
وزی	-11182
وسه	-11183
وشد	-11184
وطی	-11185
وعد	-11186
ولا	-11187
وهر	-11188
وهٔ	-11189
ویخ	-11190
َلَ	-11191
پهر	-11192
پوش	-11193
پین	-11194
کاب	-11195
کاد	-11196
کاف	-11197
کبی	-11198
کرم	-11199
دخ	-11200
رن	-11201
گب	-11202
ادد	-11203
اهب	-11204
اهت	-11205
اهد	-11206
اهش	-11207
اهگ	-11208
اپی	-11209
برف	-11210
تاه	-11211
تگه	-11212
خری	-11213
ردک	-11214
سما	-11215
سمم	-11216
سیت	-11217
شاه	-11218
شتغ	-11219
ششم	-11220
شمش	-11221
شمم	-11222
شمی	-11223
ظام	-11224
عاه	-11225
فید	-11226
قبو	-11227
قدی	-11228
لبه	-11229
لیه	-11230
معر	-11231
ناد	-11232
نتخ	-11233
نجش	-11234
نهم	-11235
پهل	-11236
چشم	-11237
چنگ	-11238
کشت	-11239
کشد	-11240
کلی	-11241
کنج	-11242
کهت	-11243
کوع	-11244
کیه	-11245
گال	-11246
گرن	-11247
گرو	-11248
گرچ	-11249
گنج	-11250
گوی	-11251
یاب	-11252
یبد	-11253
یبم	-11254
یخت	-11255
یدخ	-11256
یدر	-11257
یدل	-11258
یرج	-11259
یرگ	-11260
یغی	-11261
یلا	-11262
یمم	-11263
یمگ	-11264
یوس	-11265
یوش	-11266
یگر	-11267
۱هق	-11268
▁آف	-11269
▁تخ	-11270
▁تذ	-11271
▁جش	-11272
▁حذ	-11273
▁حش	-11274
▁دگ	-11275
▁ذب	-11276
▁رن	-11277
▁زف	-11278
▁زق	-11279
▁زپ	-11280
▁صا	-11281
▁صخ	-11282
▁طا	-11283
▁طف	-11284
▁ظف	-11285
▁عز	-11286
▁غا	-11287
▁غص	-11288
▁غو	-11289
▁فح	-11290
▁فد	-11291
▁فز	-11292
▁فش	-11293
▁فط	-11294
▁فع	-11295
▁فو	-11296
▁قع	-11297
▁لؤ	-11298
▁لج	-11299
اض	-11300
شس	-11301
مع	-11302
نِ	-11303
۵۲	-11304
۷۳	-11305
تیر	-11306
حاد	-11307
خای	-11308
دگر	-11309
دیر	-11310
زاد	-11311
ستب	-11312
شدگ	-11313
طری	-11314
طیر	-11315
علت	-11316
فاج	-11317
لاه	-11318
لحی	-11319
لست	-11320
مدو	-11321
مشت	-11322
منع	-11323
نفا	-11324
واد	-11325
ژاد	-11326
گیم	-11327
یرا	-11328
یرب	-11329
یرز	-11330
یرس	-11331
یرش	-11332
یرن	-11333
▁اث	-11334
▁خت	-11335
▁دن	-11336
▁عش	-11337
▁عض	-11338
▁قل	-11339
▁لخ	-11340
▁لش	-11341
▁لن	-11342
▁هف	-11343
▁هل	-11344
▁وم	-11345
▁پخ	-11346
▁چن	-11347
▁کؤ	-11348
▁کع	-11349
▁گن	-11350
▁یو	-11351
...ـ	-11352
آلیش	-11353
آمدم	-11354
آنکه	-11355
أمون	-11356
ؤادی	-11357
ابست	-11358
ابگه	-11359
ادمت	-11360
ارسی	-11361
اروب	-11362
اروش	-11363
ارگر	-11364
ازان	-11365
ازوی	-11366
ازین	-11367
استن	-11368
اشان	-11369
اعده	-11370
افتم	-11371
افدل	-11372
افرا	-11373
افرو	-11374
افور	-11375
البد	-11376
التش	-11377
العج	-11378
المن	-11379
الیس	-11380
امری	-11381
امشب	-11382
امهر	-11383
اندا	-11384
اندم	-11385
اندی	-11386
انرا	-11387
انیت	-11388
اهدم	-11389
اهرت	-11390
اهند	-11391
اهین	-11392
اکست	-11393
اکشی	-11394
ایدش	-11395
ایمق	-11396
اییت	-11397
باخت	-11398
باری	-11399
آخ	-11400
أل	-11401
اآ	-11402
جذ	-11403
حث	-11404
حج	-11405
طگ	-11406
عک	-11407
هق	-11408
َل	-11409
ِه	-11410
پا	-11411
ژا	-11412
کِ	-11413
یض	-11414
یع	-11415
۰۱	-11416
۰۴	-11417
۰۵	-11418
۲۴	-11419
۲۸	-11420
۲۹	-11421
۳۱	-11422
۴۴	-11423
۵۱	-11424
۵۴	-11425
۵۶	-11426
۵۸	-11427
۶۸	-11428
۷۵	-11429
۷۶	-11430
افش	-11431
اکد	-11432
ترم	-11433
تلا	-11434
ردو	-11435
زند	-11436
سری	-11437
سمی	-11438
شدم	-11439
شفت	-11440
صفت	-11441
صمت	-11442
ظان	-11443
ظاه	-11444
غار	-11445
قسا	-11446
لور	-11447
ماش	-11448
ملا	-11449
نند	-11450
نود	-11451
هام	-11452
هنم	-11453
ودخ	-11454
چست	-11455
▁اظ	-11456
▁اه	-11457
▁اگ	-11458
▁شأ	-11459
▁وق	-11460
انیه	-11461
بانش	-11462
بانم	-11463
بایی	-11464
بدمش	-11465
براه	-11466
بسته	-11467
بشان	-11468
بیدی	-11469
بیرم	-11470
بینش	-11471
تازد	-11472
تشان	-11473
تفات	-11474
توبی	-11475
ثمین	-11476
جسته	-11477
جشان	-11478
جوبه	-11479
جگان	-11480
ختار	-11481
ختان	-11482
ختلف	-11483
ختمی	-11484
خدان	-11485
خرده	-11486
خشان	-11487
خشود	-11488
خلقت	-11489
خلوا	-11490
خندت	-11491
خیزش	-11492
دارا	-11493
دازد	-11494
دالت	-11495
دامی	-11496
دانی	-11497
داین	-11498
درنش	-11499
آل	-11500
أس	-11501
ؤا	-11502
ؤذ	-11503
ؤو	-11504
بض	-11505
بگ	-11506
تز	-11507
ثق	-11508
ثن	-11509
ذل	-11510
رث	-11511
رپ	-11512
ر۱	-11513
شص	-11514
طش	-11515
لآ	-11516
لذ	-11517
لغ	-11518
لن	-11519
مث	-11520
مظ	-11521
نث	-11522
نع	-11523
کؤ	-11524
گج	-11525
گو	-11526
۱۲	-11527
۳۲	-11528
۳۸	-11529
۴۲	-11530
۴۵	-11531
۵۳	-11532
۶۲	-11533
۶۴	-11534
۷۱	-11535
۷۲	-11536
۸۲	-11537
۸۳	-11538
۹۲	-11539
الل	-11540
امگ	-11541
اهو	-11542
بام	-11543
بند	-11544
خوی	-11545
دهق	-11546
سمت	-11547
طای	-11548
طید	-11549
طین	-11550
عرو	-11551
قاش	-11552
لکی	-11553
هفت	-11554
وبر	-11555
وزش	-11556
ووس	-11557
یال	-11558
یدا	-11559
▁آخ	-11560
▁بئ	-11561
▁زک	-11562
▁شح	-11563
اسان	-11564
اکان	-11565
دریس	-11566
دسته	-11567
دنگی	-11568
دوزت	-11569
ذارد	-11570
ذران	-11571
رابش	-11572
راری	-11573
رازخ	-11574
رازو	-11575
راسی	-11576
راشت	-11577
راشد	-11578
رامی	-11579
رایی	-11580
رخام	-11581
رداد	-11582
ردای	-11583
ردشت	-11584
ردمی	-11585
ردون	-11586
ردید	-11587
رمید	-11588
رمین	-11589
رنده	-11590
رهان	-11591
ریاد	-11592
ریار	-11593
ریان	-11594
ریای	-11595
ریده	-11596
ریمت	-11597
زانه	-11598
زشان	-11599
أت	-11600
بم	-11601
تج	-11602
تض	-11603
تگ	-11604
حز	-11605
زع	-11606
سق	-11607
شح	-11608
ضح	-11609
طح	-11610
ظا	-11611
عظ	-11612
عق	-11613
غف	-11614
لؤ	-11615
مص	-11616
نژ	-11617
وظ	-11618
پل	-11619
چا	-11620
چگ	-11621
کح	-11622
کپ	-11623
گا	-11624
یپ	-11625
۱۵	-11626
۲۱	-11627
۳۹	-11628
۸۰	-11629
۸۴	-11630
أله	-11631
ادخ	-11632
ارض	-11633
انر	-11634
اود	-11635
برت	-11636
بست	-11637
تست	-11638
جمل	-11639
خفت	-11640
دیش	-11641
زهت	-11642
سور	-11643
شاک	-11644
شنت	-11645
صتم	-11646
صود	-11647
ضور	-11648
ظیر	-11649
عید	-11650
غوش	-11651
قیم	-11652
لعت	-11653
هیم	-11654
وشخ	-11655
ونم	-11656
پست	-11657
کری	-11658
گلا	-11659
گنه	-11660
گنی	-11661
یدگ	-11662
▁حز	-11663
ادوی	-11664
انگر	-11665
برین	-11666
ردگی	-11667
زهتش	-11668
زودت	-11669
زودش	-11670
زونی	-11671
زیدت	-11672
زیگر	-11673
سازش	-11674
سازم	-11675
ساند	-11676
سانی	-11677
ساید	-11678
سایل	-11679
سبیح	-11680
سبیل	-11681
ستای	-11682
سترم	-11683
ستهٔ	-11684
سدیس	-11685
سران	-11686
سرده	-11687
سسته	-11688
سشان	-11689
سیار	-11690
سیای	-11691
سیرم	-11692
شاره	-11693
شانش	-11694
شانی	-11695
شتاب	-11696
شتاد	-11697
شتند	-11698
شستم	-11699
آد	-11700
بف	-11701
تأ	-11702
تب	-11703
تغ	-11704
حذ	-11705
حف	-11706
خض	-11707
ذک	-11708
زح	-11709
زغ	-11710
زک	-11711
سح	-11712
سز	-11713
صا	-11714
عس	-11715
فق	-11716
فن	-11717
قض	-11718
لح	-11719
لز	-11720
مج	-11721
مح	-11722
مژ	-11723
نص	-11724
هف	-11725
هژ	-11726
وذ	-11727
پن	-11728
ژه	-11729
۱۴	-11730
۲۰	-11731
۹۳	-11732
اهه	-11733
بور	-11734
خار	-11735
دور	-11736
راد	-11737
رمش	-11738
ستش	-11739
سیا	-11740
شتش	-11741
شمن	-11742
شکف	-11743
طلس	-11744
عدل	-11745
غای	-11746
قتی	-11747
قله	-11748
مید	-11749
نمی	-11750
نگب	-11751
ودا	-11752
وشت	-11753
پاد	-11754
پرد	-11755
گام	-11756
▁بض	-11757
▁حَ	-11758
▁دخ	-11759
▁شغ	-11760
▁عا	-11761
▁غش	-11762
▁کح	-11763
▁یؤ	-11764
ارگی	-11765
اکیز	-11766
ایتم	-11767
جاوه	-11768
حسرت	-11769
خنده	-11770
سازد	-11771
سرتم	-11772
سوده	-11773
شسته	-11774
شمال	-11775
شمان	-11776
شمند	-11777
شمنی	-11778
شمین	-11779
شهان	-11780
شوار	-11781
شکار	-11782
شکها	-11783
شکوی	-11784
شکین	-11785
شگری	-11786
شیار	-11787
صرعی	-11788
صواب	-11789
صومه	-11790
ضرتت	-11791
ضریم	-11792
ضطرا	-11793
ضوان	-11794
طانی	-11795
طایی	-11796
طشان	-11797
ظارم	-11798
ظاره	-11799
اث	-11800
بس	-11801
جن	-11802
حد	-11803
حص	-11804
حو	-11805
ذش	-11806
ذق	-11807
ذو	-11808
زق	-11809
صغ	-11810
صن	-11811
طل	-11812
ظت	-11813
عط	-11814
عو	-11815
نس	-11816
نک	-11817
هگ	-11818
وآ	-11819
وث	-11820
پخ	-11821
کآ	-11822
کع	-11823
یک	-11824
۱۳	-11825
۳۴	-11826
۳۷	-11827
ؤاد	-11828
ابگ	-11829
ادا	-11830
ادن	-11831
اهل	-11832
اکس	-11833
ترا	-11834
جیر	-11835
دند	-11836
ذات	-11837
رری	-11838
زیر	-11839
سحت	-11840
صار	-11841
صفی	-11842
ندش	-11843
وام	-11844
ینق	-11845
ینگ	-11846
یین	-11847
▁خش	-11848
▁عت	-11849
▁یغ	-11850
ادگر	-11851
ادید	-11852
الهو	-11853
اییش	-11854
براد	-11855
حترا	-11856
خورش	-11857
ذاری	-11858
راخت	-11859
رمنش	-11860
ریوز	-11861
سیلم	-11862
عاری	-11863
عایی	-11864
عبان	-11865
عتاب	-11866
عربی	-11867
عرصه	-11868
عروس	-11869
عریف	-11870
غامی	-11871
غبان	-11872
فاتش	-11873
فایم	-11874
فتمی	-11875
فتند	-11876
فتوت	-11877
فتگی	-11878
فتیم	-11879
فراز	-11880
فرهم	-11881
فلان	-11882
فلیس	-11883
فهان	-11884
فیان	-11885
قانی	-11886
قبول	-11887
قرار	-11888
قمان	-11889
قوبم	-11890
لاسی	-11891
لافت	-11892
لاقش	-11893
لانت	-11894
لانی	-11895
لایی	-11896
لزار	-11897
لوسی	-11898
لیان	-11899
آذ	-11900
اچ	-11901
بآ	-11902
بص	-11903
بل	-11904
جع	-11905
خص	-11906
خی	-11907
دآ	-11908
د۱	-11909
ذب	-11910
زس	-11911
فط	-11912
قس	-11913
لد	-11914
لو	-11915
نح	-11916
نخ	-11917
نل	-11918
هٔ	-11919
ژگ	-11920
کج	-11921
کز	-11922
گل	-11923
یث	-11924
۰۷	-11925
۱۷	-11926
۹۸	-11927
...	-11928
آذر	-11929
آست	-11930
ارگ	-11931
اصی	-11932
اگر	-11933
بال	-11934
تنگ	-11935
جود	-11936
حاک	-11937
داز	-11938
ردت	-11939
ستق	-11940
سلی	-11941
شکر	-11942
فاع	-11943
فتا	-11944
لبد	-11945
لکت	-11946
لگه	-11947
نوی	-11948
وبم	-11949
ودژ	-11950
یشم	-11951
یطی	-11952
▁زح	-11953
▁عظ	-11954
ارای	-11955
اشقی	-11956
افلی	-11957
انکه	-11958
بران	-11959
ثانی	-11960
حالی	-11961
ذارش	-11962
زمان	-11963
ستمی	-11964
شادی	-11965
شاند	-11966
غوان	-11967
قیرم	-11968
مارت	-11969
مارم	-11970
ماری	-11971
ماشا	-11972
ماقی	-11973
مایی	-11974
مدار	-11975
مدحش	-11976
مدست	-11977
مدیم	-11978
مراد	-11979
مغان	-11980
منای	-11981
مودت	-11982
مودش	-11983
مونش	-11984
میای	-11985
میلش	-11986
مینم	-11987
نابی	-11988
ناری	-11989
ناهم	-11990
نایی	-11991
نتها	-11992
نجان	-11993
نجبی	-11994
نجرت	-11995
نجشم	-11996
نجها	-11997
نجور	-11998
نداز	-11999
آت	-12000
آش	-12001
بئ	-12002
تح	-12003
خف	-12004
دک	-12005
رج	-12006
زر	-12007
زش	-12008
ضم	-12009
طغ	-12010
طق	-12011
عَ	-12012
غز	-12013
غک	-12014
لل	-12015
نن	-12016
َی	-12017
چت	-12018
چس	-12019
ژب	-12020
کف	-12021
کژ	-12022
یژ	-12023
۰۶	-12024
ازا	-12025
اشد	-12026
اغی	-12027
انا	-12028
اهن	-12029
اکت	-12030
بلت	-12031
بیر	-12032
دشم	-12033
زرم	-12034
زنگ	-12035
شمت	-12036
ضاب	-12037
ظرف	-12038
عتب	-12039
فاش	-12040
فتی	-12041
قای	-12042
لسی	-12043
لمن	-12044
مده	-12045
میش	-12046
هقه	-12047
ودب	-12048
ودم	-12049
وزب	-12050
وشب	-12051
یلق	-12052
▁اض	-12053
▁جع	-12054
▁دک	-12055
▁کِ	-12056
ادند	-12057
اشته	-12058
الای	-12059
امند	-12060
ایعت	-12061
جایت	-12062
ربان	-12063
زدید	-12064
ستمد	-12065
سوان	-12066
شمار	-12067
شکبی	-12068
شکری	-12069
غایی	-12070
فاست	-12071
لالم	-12072
مایه	-12073
مدند	-12074
ندتر	-12075
ندرم	-12076
نعان	-12077
نمان	-12078
نهند	-12079
نوان	-12080
نگال	-12081
نگام	-12082
نگاه	-12083
نگرد	-12084
نگشت	-12085
نگور	-12086
نگون	-12087
نیدم	-12088
هانم	-12089
هانگ	-12090
هایی	-12091
هبان	-12092
هرست	-12093
هسار	-12094
هسته	-12095
هیدم	-12096
وادت	-12097
واره	-12098
واری	-12099
بک	-12100
تث	-12101
خب	-12102
خگ	-12103
دب	-12104
دپ	-12105
رض	-12106
سخ	-12107
شط	-12108
ظو	-12109
عج	-12110
لش	-12111
نا	-12112
نچ	-12113
هس	-12114
وص	-12115
وض	-12116
پذ	-12117
یس	-12118
۴۸	-12119
آلی	-12120
اکی	-12121
جای	-12122
جند	-12123
دفت	-12124
دکه	-12125
رام	-12126
رنه	-12127
رود	-12128
زاح	-12129
سله	-12130
شکل	-12131
شیخ	-12132
صید	-12133
عنه	-12134
غمت	-12135
فاد	-12136
فان	-12137
قشی	-12138
لوت	-12139
لیر	-12140
مست	-12141
منا	-12142
مهر	-12143
هار	-12144
هیل	-12145
وشش	-12146
وشو	-12147
پار	-12148
یسی	-12149
یفت	-12150
▁تگ	-12151
▁ثو	-12152
▁حا	-12153
▁صع	-12154
▁عس	-12155
▁قن	-12156
ابجا	-12157
اعظت	-12158
انای	-12159
انیم	-12160
ریبی	-12161
زاست	-12162
شکند	-12163
فایش	-12164
میرد	-12165
ندیل	-12166
نشان	-12167
نهای	-12168
نوای	-12169
والن	-12170
وانب	-12171
وانت	-12172
واند	-12173
وانگ	-12174
واهد	-12175
وحست	-12176
ودای	-12177
ودگی	-12178
ودیش	-12179
ورین	-12180
وزان	-12181
وزجم	-12182
وسته	-12183
وسند	-12184
وشاب	-12185
وشنگ	-12186
وشنی	-12187
وشیز	-12188
وشیم	-12189
وطیم	-12190
وعده	-12191
وفائ	-12192
وقان	-12193
ولاد	-12194
وناب	-12195
ونان	-12196
ونری	-12197
ونگر	-12198
ویخت	-12199
آف	-12200
اژ	-12201
بز	-12202
تت	-12203
تص	-12204
جغ	-12205
حک	-12206
خط	-12207
ذه	-12208
رآ	-12209
رأ	-12210
زآ	-12211
زب	-12212
زف	-12213
شغ	-12214
غه	-12215
لث	-12216
لپ	-12217
لگ	-12218
نر	-12219
هغ	-12220
پش	-12221
چن	-12222
ژد	-12223
یج	-12224
۸۵	-12225
۹۶	-12226
آری	-12227
ازک	-12228
بدی	-12229
خگر	-12230
ردس	-12231
رقه	-12232
زگی	-12233
صرا	-12234
غها	-12235
قاد	-12236
قیر	-12237
ماه	-12238
مدع	-12239
منت	-12240
هست	-12241
هود	-12242
گرت	-12243
ینی	-12244
▁خب	-12245
▁دق	-12246
▁رگ	-12247
اران	-12248
ازیر	-12249
دمان	-12250
رمان	-12251
ستاد	-12252
شیشی	-12253
لاهی	-12254
مایت	-12255
هرور	-12256
واوی	-12257
ویزه	-12258
ویشت	-12259
ویشی	-12260
َلَی	-12261
ْعاش	-12262
پارد	-12263
پاری	-12264
پرده	-12265
پسین	-12266
پیده	-12267
کدان	-12268
کردش	-12269
کردم	-12270
کرده	-12271
کشته	-12272
کنام	-12273
کهتی	-12274
کیده	-12275
گارم	-12276
گانه	-12277
گاهم	-12278
گرفت	-12279
گرنه	-12280
گرید	-12281
گریز	-12282
گریم	-12283
گفتت	-12284
گوشی	-12285
گیخت	-12286
یاری	-12287
یاقت	-12288
یالی	-12289
یانه	-12290
یدات	-12291
یدار	-12292
یداف	-12293
یدید	-12294
یراز	-12295
یراف	-12296
یراه	-12297
یرند	-12298
یروز	-12299
آس	-12300
آص	-12301
آگ	-12302
جف	-12303
رش	-12304
زگ	-12305
سگ	-12306
شأ	-12307
شِ	-12308
صد	-12309
صل	-12310
طف	-12311
طپ	-12312
عن	-12313
غب	-12314
غت	-12315
غن	-12316
فغ	-12317
فک	-12318
لر	-12319
مؤ	-12320
مز	-12321
هز	-12322
پو	-12323
چغ	-12324
گم	-12325
یآ	-12326
یؤ	-12327
یخ	-12328
۰۲	-12329
۳۵	-12330
۴۶	-12331
۸۹	-12332
امر	-12333
این	-12334
برم	-12335
جرم	-12336
رفم	-12337
روش	-12338
ستج	-12339
سست	-12340
سیح	-12341
هلی	-12342
هند	-12343
ونی	-12344
ویب	-12345
کدر	-12346
گیز	-12347
یدو	-12348
▁شف	-12349
▁شگ	-12350
▁هش	-12351
▁چت	-12352
▁چم	-12353
▁کژ	-12354
▁گف	-12355
الار	-12356
اهشن	-12357
دشان	-12358
ردود	-12359
سنین	-12360
ظارش	-12361
فایی	-12362
فغان	-12363
هوده	-12364
وستی	-12365
وییش	-12366
یروم	-12367
یروی	-12368
یرگی	-12369
یرید	-12370
یریز	-12371
یزدم	-12372
یستی	-12373
یمای	-12374
یمین	-12375
یناز	-12376
یناف	-12377
ینال	-12378
ینام	-12379
ینای	-12380
ینتش	-12381
ینور	-12382
ینکی	-12383
ینگر	-12384
ینید	-12385
ینیم	-12386
یگری	-12387
۱۱۷۱	-12388
۱۱۷۹	-12389
▁آسو	-12390
▁آشت	-12391
▁آمو	-12392
▁آنه	-12393
▁ابک	-12394
▁ارت	-12395
▁ارد	-12396
▁ارو	-12397
▁ازن	-12398
▁اسر	-12399
آو	-12400
بش	-12401
تل	-12402
ته	-12403
ثم	-12404
دز	-12405
دژ	-12406
رع	-12407
زج	-12408
زخ	-12409
سج	-12410
سک	-12411
شع	-12412
شف	-12413
ضو	-12414
طم	-12415
عز	-12416
فگ	-12417
لع	-12418
مض	-12419
مط	-12420
مو	-12421
مپ	-12422
چی	-12423
گد	-12424
یو	-12425
۱۶	-12426
۶۵	-12427
۷۷	-12428
ارب	-12429
اغت	-12430
امو	-12431
ایگ	-12432
بوت	-12433
حیا	-12434
حین	-12435
ختن	-12436
خنی	-12437
ردا	-12438
ریر	-12439
ستو	-12440
شند	-12441
شنگ	-12442
صند	-12443
طله	-12444
عرک	-12445
قده	-12446
قفس	-12447
ماج	-12448
ملت	-12449
هده	-12450
هوس	-12451
گذر	-12452
یاه	-12453
یرک	-12454
یوز	-12455
یون	-12456
▁زس	-12457
اغان	-12458
بانت	-12459
جمند	-12460
حرمی	-12461
ختری	-12462
خلوق	-12463
زدان	-12464
شکلی	-12465
ناست	-12466
وگان	-12467
کاری	-12468
گردد	-12469
یدوی	-12470
یطان	-12471
▁اشت	-12472
▁اظه	-12473
▁افر	-12474
▁افش	-12475
▁افک	-12476
▁اقب	-12477
▁الج	-12478
▁الد	-12479
▁الو	-12480
▁الک	-12481
▁امس	-12482
▁امک	-12483
▁انف	-12484
▁اهر	-12485
▁ایج	-12486
▁ایر	-12487
▁ایض	-12488
▁ایم	-12489
▁ایو	-12490
▁ببا	-12491
▁بتق	-12492
▁بجل	-12493
▁بجن	-12494
▁بحس	-12495
▁بخا	-12496
▁بدا	-12497
▁بدب	-12498
▁بدز	-12499
ضل	-12500
غم	-12501
فو	-12502
لچ	-12503
وچ	-12504
په	-12505
گف	-12506
یص	-12507
انب	-12508
انج	-12509
انع	-12510
انن	-12511
انِ	-12512
ایر	-12513
ایو	-12514
بلا	-12515
ثان	-12516
جست	-12517
حتم	-12518
راگ	-12519
رست	-12520
رشت	-12521
رکی	-12522
زرد	-12523
ستح	-12524
ستخ	-12525
ستد	-12526
ستغ	-12527
ستف	-12528
ستن	-12529
ستک	-12530
ستگ	-12531
سون	-12532
شنا	-12533
صان	-12534
صحر	-12535
صیر	-12536
طبر	-12537
عیم	-12538
غدی	-12539
فتو	-12540
فگن	-12541
فین	-12542
لیف	-12543
مدش	-12544
هید	-12545
وبه	-12546
ولت	-12547
کست	-12548
کوی	-12549
▁جگ	-12550
▁شج	-12551
▁شص	-12552
▁لذ	-12553
▁نح	-12554
▁نچ	-12555
▁ین	-12556
ابند	-12557
ارست	-12558
اشای	-12559
الاک	-12560
الیم	-12561
ایتت	-12562
ایند	-12563
بانه	-12564
بکان	-12565
سبان	-12566
شمرد	-12567
ندید	-12568
نهار	-12569
ودکی	-12570
پایه	-12571
▁ازی	-12572
▁ایز	-12573
▁باق	-12574
▁بسز	-12575
▁بسع	-12576
▁بسق	-12577
▁بسن	-12578
▁بسو	-12579
▁بسک	-12580
▁بطف	-12581
▁بلع	-12582
▁بلق	-12583
▁بمث	-12584
▁بمژ	-12585
▁بنم	-12586
▁بهز	-12587
▁بهش	-12588
▁بهل	-12589
▁بهه	-12590
▁بوز	-12591
▁بوظ	-12592
▁بپذ	-12593
▁بکا	-12594
▁بکه	-12595
▁بگد	-12596
▁بگس	-12597
▁بگن	-12598
▁بیج	-12599
آز	-12600
آق	-12601
ؤم	-12602
بج	-12603
تق	-12604
ظی	-12605
۰۳	-12606
۱۸	-12607
۲۳	-12608
۲۶	-12609
ارآ	-12610
ارج	-12611
ارط	-12612
الن	-12613
انز	-12614
انک	-12615
اوه	-12616
تای	-12617
جان	-12618
ذاب	-12619
رها	-12620
رهٔ	-12621
ضیغ	-12622
عرص	-12623
عین	-12624
فار	-12625
فتت	-12626
قهر	-12627
لام	-12628
لید	-12629
مله	-12630
مور	-12631
ندن	-12632
نفت	-12633
هال	-12634
ودپ	-12635
ونب	-12636
وند	-12637
ونق	-12638
پای	-12639
یرف	-12640
یمر	-12641
▁آذ	-12642
▁آگ	-12643
▁رد	-12644
▁رق	-12645
▁رچ	-12646
احبا	-12647
ارده	-12648
اعیل	-12649
البه	-12650
الفت	-12651
امتم	-12652
امده	-12653
بیری	-12654
حیله	-12655
شتاق	-12656
شکست	-12657
فتاد	-12658
فتان	-12659
لوان	-12660
مننم	-12661
ودند	-12662
وریت	-12663
وسفر	-12664
وسها	-12665
ونند	-12666
ویید	-12667
یماب	-12668
▁آین	-12669
▁بطل	-12670
▁بیز	-12671
▁بیس	-12672
▁بیق	-12673
▁بیل	-12674
▁بیو	-12675
▁بیچ	-12676
▁تأم	-12677
▁تاش	-12678
▁تحس	-12679
▁تحف	-12680
▁تحک	-12681
▁ترح	-12682
▁تعط	-12683
▁تعم	-12684
▁تقص	-12685
▁تلا	-12686
▁تود	-12687
▁توز	-12688
▁توف	-12689
▁توه	-12690
▁توی	-12691
▁تکب	-12692
▁جرأ	-12693
▁جزی	-12694
▁جلی	-12695
▁جمی	-12696
▁جیح	-12697
▁حاذ	-12698
▁حاف	-12699
آی	-12700
بچ	-12701
خز	-12702
سأ	-12703
عض	-12704
فض	-12705
هش	-12706
هو	-12707
۴۳	-12708
آنج	-12709
ادز	-12710
اکو	-12711
جین	-12712
حبا	-12713
حقی	-12714
خزن	-12715
سیج	-12716
صلم	-12717
طام	-12718
عند	-12719
فیر	-12720
قشک	-12721
لاو	-12722
لیخ	-12723
لین	-12724
مدح	-12725
ملک	-12726
میپ	-12727
ناب	-12728
نبه	-12729
هرپ	-12730
واک	-12731
وزن	-12732
وسد	-12733
وفت	-12734
ونش	-12735
وین	-12736
پرس	-12737
چرا	-12738
کرش	-12739
گرد	-12740
یای	-12741
یمش	-12742
ینج	-12743
ینن	-12744
ینو	-12745
ینچ	-12746
ینک	-12747
▁آث	-12748
▁زآ	-12749
▁زچ	-12750
▁شت	-12751
▁قو	-12752
▁وآ	-12753
▁چس	-12754
▁گا	-12755
▁گب	-12756
ادرم	-12757
ادیم	-12758
ارین	-12759
اقبت	-12760
امید	-12761
راشی	-12762
ردار	-12763
شانم	-12764
عادت	-12765
لیچه	-12766
نجام	-12767
ندهٔ	-12768
هرری	-12769
وردی	-12770
یرین	-12771
ینان	-12772
▁ازق	-12773
▁اقط	-12774
▁تکا	-12775
▁جنی	-12776
▁حام	-12777
▁حاک	-12778
▁حبذ	-12779
▁حجا	-12780
▁حرک	-12781
▁حری	-12782
▁حوض	-12783
▁خای	-12784
▁خدم	-12785
▁خرگ	-12786
▁خطب	-12787
▁خفی	-12788
▁خلی	-12789
▁خنج	-12790
▁خیا	-12791
▁داع	-12792
▁داو	-12793
▁درب	-12794
▁دره	-12795
▁دلخ	-12796
▁دلد	-12797
▁دلس	-12798
▁دلن	-12799
آم	-12800
بط	-12801
بغ	-12802
جت	-12803
جس	-12804
رک	-12805
لط	-12806
۱۰	-12807
۶۳	-12808
۷۰	-12809
ادک	-12810
ادگ	-12811
ارف	-12812
اهم	-12813
باش	-12814
تار	-12815
جده	-12816
حاس	-12817
حام	-12818
حوش	-12819
دهی	-12820
دوی	-12821
رید	-12822
رین	-12823
زنم	-12824
شرا	-12825
شگر	-12826
عتک	-12827
عری	-12828
عضا	-12829
قاب	-12830
لنگ	-12831
منز	-12832
ندا	-12833
ندس	-12834
ندو	-12835
ندگ	-12836
نهد	-12837
هوی	-12838
وشا	-12839
ویا	-12840
پیم	-12841
ژند	-12842
کده	-12843
گوش	-12844
یرد	-12845
یزه	-12846
یغش	-12847
▁تی	-12848
▁خز	-12849
▁خف	-12850
▁سن	-12851
▁هد	-12852
▁هز	-12853
▁وب	-12854
▁چش	-12855
▁چغ	-12856
امال	-12857
اموش	-12858
اوان	-12859
خترم	-12860
ستور	-12861
سروش	-12862
شقان	-12863
لامی	-12864
نالم	-12865
ندار	-12866
وادی	-12867
وسید	-12868
▁آنج	-12869
▁آنچ	-12870
▁بشی	-12871
▁درا	-12872
▁درف	-12873
▁درن	-12874
▁دله	-12875
▁دلپ	-12876
▁دلگ	-12877
▁دمس	-12878
▁دوب	-12879
▁دوت	-12880
▁دوز	-12881
▁دوس	-12882
▁دول	-12883
▁دوی	-12884
▁دیل	-12885
▁ذرا	-12886
▁راح	-12887
▁راد	-12888
▁راع	-12889
▁رسی	-12890
▁رشت	-12891
▁رهب	-12892
▁رهر	-12893
▁زائ	-12894
▁زاب	-12895
▁زفا	-12896
▁زلی	-12897
▁زمز	-12898
▁ساح	-12899
بن	-12900
تذ	-12901
سع	-12902
شو	-12903
مأ	-12904
مچ	-12905
۳۳	-12906
۴۱	-12907
۸۶	-12908
اام	-12909
امح	-12910
امق	-12911
امم	-12912
امن	-12913
انص	-12914
ایا	-12915
ایب	-12916
جال	-12917
جام	-12918
ذبه	-12919
زری	-12920
سام	-12921
صاب	-12922
صای	-12923
عدا	-12924
غام	-12925
قری	-12926
وذر	-12927
وسن	-12928
ونا	-12929
ووش	-12930
پاه	-12931
پنج	-12932
کای	-12933
گشت	-12934
یام	-12935
ینت	-12936
یوم	-12937
▁جه	-12938
▁رل	-12939
▁طو	-12940
▁پش	-12941
ادرت	-12942
ادیس	-12943
الام	-12944
انست	-12945
اورد	-12946
ایای	-12947
ایست	-12948
باهی	-12949
ثارش	-12950
ردیم	-12951
ردین	-12952
ساحل	-12953
شیان	-12954
لبان	-12955
ندام	-12956
ندگی	-12957
یرای	-12958
یوان	-12959
▁باض	-12960
▁بخی	-12961
▁بفت	-12962
▁تحص	-12963
▁تیش	-12964
▁دای	-12965
▁دمب	-12966
▁ساغ	-12967
▁ساف	-12968
▁ساو	-12969
▁ساک	-12970
▁سبح	-12971
▁سبی	-12972
▁ستر	-12973
▁سخر	-12974
▁سدر	-12975
▁سرآ	-12976
▁سرز	-12977
▁سرط	-12978
▁سرن	-12979
▁سرچ	-12980
▁سوگ	-12981
▁سین	-12982
▁شای	-12983
▁شبن	-12984
▁شبگ	-12985
▁شدخ	-12986
▁شدد	-12987
▁شرک	-12988
▁شعا	-12989
▁شعب	-12990
▁شنا	-12991
▁شنع	-12992
▁شنی	-12993
▁شهب	-12994
▁شهو	-12995
▁شکا	-12996
▁شکف	-12997
▁شکو	-12998
▁شگر	-12999
ائ	-13000
ثو	-13001
خک	-13002
دن	-13003
شگ	-13004
طو	-13005
فؤ	-13006
مک	-13007
۸۱	-13008
آرم	-13009
اعر	-13010
حوی	-13011
رمگ	-13012
رهم	-13013
روی	-13014
زوی	-13015
طفت	-13016
عشم	-13017
عفت	-13018
عوی	-13019
فتش	-13020
فتگ	-13021
فسی	-13022
فند	-13023
لیا	-13024
لیت	-13025
نبی	-13026
هنه	-13027
ودش	-13028
ونر	-13029
ویر	-13030
ژده	-13031
یرح	-13032
یلم	-13033
▁آق	-13034
▁جس	-13035
▁حن	-13036
▁زت	-13037
▁شق	-13038
▁عک	-13039
▁غی	-13040
▁فا	-13041
▁یز	-13042
ادیل	-13043
انوی	-13044
ایات	-13045
بانگ	-13046
برید	-13047
ثیری	-13048
رابی	-13049
شایی	-13050
شکال	-13051
قصیم	-13052
نجمن	-13053
هاست	-13054
وارم	-13055
وسبی	-13056
ویست	-13057
وییم	-13058
یدست	-13059
یدیش	-13060
▁امر	-13061
▁اوی	-13062
▁بسگ	-13063
▁تجم	-13064
▁تغی	-13065
▁تمث	-13066
▁توا	-13067
▁توس	-13068
▁توش	-13069
▁توک	-13070
▁حقی	-13071
▁درآ	-13072
▁دفت	-13073
▁دلر	-13074
▁راخ	-13075
▁راض	-13076
▁زرف	-13077
▁صال	-13078
▁صوا	-13079
▁صیر	-13080
▁طار	-13081
▁طاو	-13082
▁طرا	-13083
▁طغر	-13084
▁طمق	-13085
▁طوا	-13086
▁ظاه	-13087
▁عاد	-13088
▁عال	-13089
▁عای	-13090
▁عرو	-13091
▁عشر	-13092
▁عقا	-13093
▁عمد	-13094
▁غار	-13095
▁غال	-13096
▁غشا	-13097
▁غلت	-13098
▁غمخ	-13099
حظ	-13100
دج	-13101
دد	-13102
زچ	-13103
سش	-13104
عش	-13105
نغ	-13106
وخ	-13107
ارپ	-13108
بود	-13109
بید	-13110
تری	-13111
تفی	-13112
جید	-13113
حید	-13114
خان	-13115
خبر	-13116
خنم	-13117
دهن	-13118
دون	-13119
راع	-13120
راک	-13121
زاز	-13122
سنگ	-13123
شیر	-13124
عرا	-13125
عرف	-13126
عوت	-13127
غاز	-13128
لتش	-13129
نبل	-13130
نید	-13131
ودگ	-13132
وسم	-13133
وشه	-13134
پید	-13135
چاک	-13136
چید	-13137
گست	-13138
گنم	-13139
یدآ	-13140
یدت	-13141
یدک	-13142
یرو	-13143
▁رر	-13144
▁قه	-13145
▁مم	-13146
▁یح	-13147
▁یل	-13148
اندر	-13149
اندگ	-13150
حیان	-13151
خیار	-13152
دهدم	-13153
ذاشت	-13154
شتری	-13155
عایت	-13156
عران	-13157
فتور	-13158
فتید	-13159
منون	-13160
ندود	-13161
هوان	-13162
وتست	-13163
وحیم	-13164
یرده	-13165
یرنج	-13166
یزند	-13167
▁آنق	-13168
▁ایش	-13169
▁بخد	-13170
▁بهی	-13171
▁بوت	-13172
▁حضر	-13173
▁حلا	-13174
▁ربو	-13175
▁ساب	-13176
▁سفل	-13177
▁سلا	-13178
▁غمز	-13179
▁غمن	-13180
▁غمه	-13181
▁غمو	-13182
▁غمگ	-13183
▁غور	-13184
▁غوط	-13185
▁فاد	-13186
▁فار	-13187
▁فاط	-13188
▁فان	-13189
▁فای	-13190
▁فرم	-13191
▁فره	-13192
▁فصا	-13193
▁قاد	-13194
▁قال	-13195
▁قام	-13196
▁قان	-13197
▁قای	-13198
▁قبی	-13199
آر	-13200
ذن	-13201
شج	-13202
شخ	-13203
غو	-13204
فخ	-13205
وء	-13206
۴۹	-13207
آرد	-13208
ارو	-13209
افد	-13210
الش	-13211
اوس	-13212
حشی	-13213
خدا	-13214
خرد	-13215
دات	-13216
داح	-13217
داش	-13218
دوس	-13219
ردش	-13220
ردگ	-13221
رمر	-13222
سدت	-13223
سیر	-13224
شقی	-13225
صدا	-13226
طگی	-13227
عرش	-13228
عون	-13229
فرد	-13230
فوس	-13231
قیق	-13232
لسر	-13233
لون	-13234
هیز	-13235
واج	-13236
ونخ	-13237
پند	-13238
چیز	-13239
کفر	-13240
کون	-13241
یزش	-13242
یصر	-13243
▁قا	-13244
▁یس	-13245
ارون	-13246
امیز	-13247
تیجه	-13248
داخت	-13249
زنند	-13250
سایه	-13251
ستیز	-13252
سندی	-13253
شنده	-13254
فتری	-13255
فتمن	-13256
فسان	-13257
فسند	-13258
مردی	-13259
نجید	-13260
یرمش	-13261
یرود	-13262
یرون	-13263
▁انک	-13264
▁بدش	-13265
▁بلک	-13266
▁بهت	-13267
▁جوا	-13268
▁شجا	-13269
▁عنق	-13270
▁غزن	-13271
▁فرب	-13272
▁قسی	-13273
▁قیم	-13274
▁لؤل	-13275
▁لاج	-13276
▁لاغ	-13277
▁لای	-13278
▁لحد	-13279
▁لخل	-13280
▁لرز	-13281
▁مأم	-13282
▁مات	-13283
▁ماخ	-13284
▁ماد	-13285
▁مای	-13286
▁متح	-13287
▁متو	-13288
▁مجر	-13289
▁مجم	-13290
▁محا	-13291
▁محج	-13292
▁محز	-13293
▁محف	-13294
▁مذه	-13295
▁مرق	-13296
▁مرن	-13297
▁مره	-13298
▁مرک	-13299
نق	-13300
چم	-13301
۲۷	-13302
آیم	-13303
اسخ	-13304
اصه	-13305
بله	-13306
جاب	-13307
جات	-13308
جاو	-13309
جله	-13310
حله	-13311
حکه	-13312
ذله	-13313
راغ	-13314
رجا	-13315
رمس	-13316
روس	-13317
سرو	-13318
شاخ	-13319
شقب	-13320
شقت	-13321
شقم	-13322
صله	-13323
طشت	-13324
عله	-13325
غمه	-13326
قصه	-13327
لهٔ	-13328
هره	-13329
یله	-13330
▁قس	-13331
ابله	-13332
اصرا	-13333
افله	-13334
الله	-13335
المش	-13336
خلاق	-13337
دانش	-13338
ذلیل	-13339
رفته	-13340
زرده	-13341
ساوه	-13342
ضلیل	-13343
ظلیل	-13344
مدعا	-13345
مرده	-13346
نجین	-13347
هلیل	-13348
ور۱۱	-13349
ویله	-13350
چارم	-13351
ینجا	-13352
▁آهه	-13353
▁الب	-13354
▁اله	-13355
▁بآه	-13356
▁بسف	-13357
▁بمک	-13358
▁تحم	-13359
▁دهق	-13360
▁رخس	-13361
▁رهن	-13362
▁زجا	-13363
▁طام	-13364
▁لبا	-13365
▁لجا	-13366
▁مری	-13367
▁مزر	-13368
▁مسک	-13369
▁مشغ	-13370
▁مصل	-13371
▁مصی	-13372
▁مضم	-13373
▁مطی	-13374
▁معت	-13375
▁معص	-13376
▁مغر	-13377
▁مقد	-13378
▁ملا	-13379
▁مله	-13380
▁منا	-13381
▁منب	-13382
▁منج	-13383
▁منح	-13384
▁منص	-13385
▁منق	-13386
▁منو	-13387
▁موا	-13388
▁موب	-13389
▁موز	-13390
▁موض	-13391
▁مون	-13392
▁موک	-13393
▁میآ	-13394
▁میب	-13395
▁میج	-13396
▁میس	-13397
▁میو	-13398
▁نات	-13399
تظ	-13400
رچ	-13401
هک	-13402
۵۹	-13403
۶۶	-13404
۸۷	-13405
امل	-13406
جنی	-13407
حسر	-13408
درت	-13409
دیم	-13410
سرش	-13411
سنی	-13412
سوف	-13413
شتز	-13414
طنی	-13415
ظلم	-13416
عمت	-13417
عیش	-13418
غنی	-13419
فیش	-13420
ماز	-13421
ماس	-13422
ندک	-13423
نور	-13424
نیا	-13425
نیب	-13426
نیف	-13427
کنی	-13428
گرب	-13429
یشب	-13430
یشخ	-13431
یشن	-13432
یمی	-13433
ادیش	-13434
ازیش	-13435
امیش	-13436
اهیش	-13437
تانی	-13438
ثاری	-13439
خستم	-13440
ردیش	-13441
زالی	-13442
سروی	-13443
سرین	-13444
شاهی	-13445
شتیش	-13446
شنود	-13447
شکفت	-13448
فتنی	-13449
فگند	-13450
لیکن	-13451
ناره	-13452
ندیش	-13453
نیاز	-13454
پیند	-13455
کوست	-13456
گشته	-13457
گندش	-13458
یدلم	-13459
ینیش	-13460
▁اکن	-13461
▁بتخ	-13462
▁بخز	-13463
▁بنی	-13464
▁حسر	-13465
▁حنی	-13466
▁حکی	-13467
▁شیش	-13468
▁طیر	-13469
▁طیل	-13470
▁مخص	-13471
▁ناج	-13472
▁ناش	-13473
▁ناق	-13474
▁ناه	-13475
▁ناپ	-13476
▁ناگ	-13477
▁نبو	-13478
▁ندز	-13479
▁ندی	-13480
▁نرس	-13481
▁نرگ	-13482
▁نست	-13483
▁نسخ	-13484
▁نسو	-13485
▁نشأ	-13486
▁نشا	-13487
▁نشو	-13488
▁نشی	-13489
▁نصر	-13490
▁نصی	-13491
▁نفا	-13492
▁نفت	-13493
▁نفز	-13494
▁نلر	-13495
▁نها	-13496
▁نهن	-13497
▁نون	-13498
▁نکن	-13499
تک	-13500
صط	-13501
۸۸	-13502
ارک	-13503
حدم	-13504
خاک	-13505
درن	-13506
دمش	-13507
دیث	-13508
رفش	-13509
رفه	-13510
رفی	-13511
رلا	-13512
طلب	-13513
ظار	-13514
عمر	-13515
قیس	-13516
مدم	-13517
نگج	-13518
ور۱	-13519
ویج	-13520
پدم	-13521
ژرف	-13522
کهٔ	-13523
▁زج	-13524
ارمش	-13525
الها	-13526
انبه	-13527
ایتی	-13528
بامی	-13529
برتی	-13530
تارش	-13531
جامی	-13532
جران	-13533
جویم	-13534
رشان	-13535
روزت	-13536
رینه	-13537
زاید	-13538
شامی	-13539
شایت	-13540
شاید	-13541
عامی	-13542
عراج	-13543
قامی	-13544
لاصه	-13545
لایت	-13546
ماید	-13547
ناله	-13548
نایت	-13549
ناید	-13550
نجرف	-13551
واله	-13552
وامی	-13553
وایت	-13554
پایت	-13555
ژاله	-13556
کایت	-13557
گمان	-13558
یدلی	-13559
یینه	-13560
▁آبد	-13561
▁آبن	-13562
▁اسک	-13563
▁باص	-13564
▁ترب	-13565
▁ترن	-13566
▁دما	-13567
▁ران	-13568
▁صبو	-13569
▁مظل	-13570
▁مگذ	-13571
▁نگا	-13572
▁نگس	-13573
▁نگش	-13574
▁نگو	-13575
▁نگی	-13576
▁نیس	-13577
▁نیف	-13578
▁هاد	-13579
▁هال	-13580
▁هده	-13581
▁هرا	-13582
▁هرج	-13583
▁هرش	-13584
▁هرم	-13585
▁هرچ	-13586
▁هرک	-13587
▁هرگ	-13588
▁هلا	-13589
▁همص	-13590
▁همک	-13591
▁هول	-13592
▁هیر	-13593
▁هیه	-13594
▁واد	-13595
▁واپ	-13596
▁واگ	-13597
▁وحد	-13598
▁ودا	-13599
بپ	-13600
حگ	-13601
دگ	-13602
رق	-13603
ظف	-13604
آفر	-13605
ابم	-13606
بدا	-13607
تقی	-13608
ثقی	-13609
جوس	-13610
ریا	-13611
زدم	-13612
سدم	-13613
صدم	-13614
صرت	-13615
عدم	-13616
غدم	-13617
غفر	-13618
فرق	-13619
فرو	-13620
قدم	-13621
قمش	-13622
قیب	-13623
قیف	-13624
لای	-13625
لقی	-13626
مفر	-13627
مقی	-13628
وقی	-13629
ژال	-13630
کوم	-13631
کیس	-13632
یوه	-13633
▁طغ	-13634
ادقی	-13635
امدم	-13636
اهیت	-13637
دینه	-13638
راقی	-13639
ستمم	-13640
ستمک	-13641
شترم	-13642
غانش	-13643
فتدم	-13644
فران	-13645
فروش	-13646
ماهی	-13647
مگاه	-13648
هشان	-13649
واهی	-13650
وزدم	-13651
پارم	-13652
پیدن	-13653
ژدها	-13654
گیرم	-13655
یداد	-13656
▁ازپ	-13657
▁اهت	-13658
▁ببح	-13659
▁ببخ	-13660
▁ببز	-13661
▁ببه	-13662
▁ماج	-13663
▁مقی	-13664
▁نقی	-13665
▁هیز	-13666
▁وسا	-13667
▁وسی	-13668
▁پائ	-13669
▁پاد	-13670
▁پاط	-13671
▁پال	-13672
▁پرت	-13673
▁پرغ	-13674
▁پرف	-13675
▁پلا	-13676
▁پوی	-13677
▁پیا	-13678
▁پیل	-13679
▁چاب	-13680
▁چاش	-13681
▁چام	-13682
▁چاپ	-13683
▁چشی	-13684
▁چوخ	-13685
▁چوپ	-13686
▁چوگ	-13687
▁چکا	-13688
▁چکن	-13689
▁کآت	-13690
▁کآد	-13691
▁کآه	-13692
▁کآو	-13693
▁کآی	-13694
▁کاب	-13695
▁کاک	-13696
▁کرب	-13697
▁کرف	-13698
▁کسو	-13699
ثغ	-13700
سؤ	-13701
لص	-13702
۹۱	-13703
تلم	-13704
جلم	-13705
خیر	-13706
ددی	-13707
دیا	-13708
رگر	-13709
زلم	-13710
سدی	-13711
سهل	-13712
شهر	-13713
صدی	-13714
عدی	-13715
فسش	-13716
فسم	-13717
فلم	-13718
قلم	-13719
لما	-13720
لمت	-13721
لمث	-13722
لمش	-13723
لمق	-13724
لمه	-13725
نفس	-13726
هدی	-13727
هلو	-13728
هکن	-13729
وزگ	-13730
وسش	-13731
پان	-13732
کلم	-13733
یات	-13734
▁ضع	-13735
▁هٰ	-13736
▁پد	-13737
افلم	-13738
امدی	-13739
اهدی	-13740
خویی	-13741
روزی	-13742
زیدم	-13743
سیدم	-13744
شنوی	-13745
شیدم	-13746
صیان	-13747
ظالم	-13748
غانم	-13749
لمفر	-13750
ندلی	-13751
هلای	-13752
هلوی	-13753
وبان	-13754
ولان	-13755
ویسی	-13756
چیدم	-13757
▁بفس	-13758
▁بنس	-13759
▁بنظ	-13760
▁بنف	-13761
▁بنو	-13762
▁دشن	-13763
▁عدی	-13764
▁فتا	-13765
▁مشع	-13766
▁کشا	-13767
▁کنا	-13768
▁کنع	-13769
▁کهغ	-13770
▁کهک	-13771
▁کوث	-13772
▁کوز	-13773
▁کوف	-13774
▁کوچ	-13775
▁کوک	-13776
▁کیخ	-13777
▁گرب	-13778
▁گرس	-13779
▁گرن	-13780
▁گرچ	-13781
▁گسی	-13782
▁گلا	-13783
▁گلر	-13784
▁گلز	-13785
▁گلن	-13786
▁گلچ	-13787
▁گلک	-13788
▁گلگ	-13789
▁گند	-13790
▁گوس	-13791
▁گوه	-13792
▁گیل	-13793
▁یاز	-13794
▁یاس	-13795
▁یاق	-13796
▁یکب	-13797
▁یکر	-13798
▁یکس	-13799
عب	-13800
فح	-13801
وپ	-13802
۶۷	-13803
۷۹	-13804
آشن	-13805
اجی	-13806
برش	-13807
بزه	-13808
بسم	-13809
بلک	-13810
تاد	-13811
جسم	-13812
حرم	-13813
رشن	-13814
شنم	-13815
صتش	-13816
طاب	-13817
طور	-13818
عجر	-13819
عوه	-13820
غرت	-13821
فلک	-13822
لسم	-13823
لود	-13824
موی	-13825
نال	-13826
هنی	-13827
وهش	-13828
وهی	-13829
کوه	-13830
یره	-13831
▁وگ	-13832
ایدت	-13833
ختنش	-13834
ختگی	-13835
خرام	-13836
رامت	-13837
ستوه	-13838
سفته	-13839
شفته	-13840
عمان	-13841
لاسم	-13842
ماده	-13843
منات	-13844
هرشن	-13845
وریم	-13846
وسان	-13847
وشیر	-13848
ونها	-13849
یرسم	-13850
▁الن	-13851
▁باع	-13852
▁بتث	-13853
▁بتغ	-13854
▁بزل	-13855
▁بکد	-13856
▁بکر	-13857
▁تمک	-13858
▁خلو	-13859
▁روب	-13860
▁شنق	-13861
▁ضای	-13862
▁مدع	-13863
▁مشن	-13864
▁میا	-13865
▁میش	-13866
▁نوب	-13867
▁نوج	-13868
▁هات	-13869
▁کاغ	-13870
▁یکن	-13871
ابشان	-13872
اجگان	-13873
اخاست	-13874
ادارا	-13875
ادشان	-13876
ادشاه	-13877
ادمهر	-13878
ادندم	-13879
ادویی	-13880
ادیده	-13881
ارتگر	-13882
ارسته	-13883
ارشان	-13884
ارنده	-13885
ارگاه	-13886
اریخش	-13887
ازاده	-13888
ازارم	-13889
ازاری	-13890
ازشان	-13891
ازنین	-13892
استان	-13893
اسدان	-13894
اشتند	-13895
اعظان	-13896
اغبان	-13897
افشان	-13898
افگند	-13899
آغ	-13900
طن	-13901
وگ	-13902
۳۰	-13903
أمن	-13904
اجت	-13905
ادق	-13906
باج	-13907
بچه	-13908
بیخ	-13909
تاج	-13910
تقم	-13911
جوش	-13912
حزن	-13913
حشم	-13914
خنگ	-13915
دسی	-13916
زاج	-13917
ستع	-13918
طنم	-13919
مشر	-13920
ناخ	-13921
وزت	-13922
چون	-13923
کفت	-13924
گشا	-13925
یشت	-13926
یغا	-13927
یچم	-13928
اجگی	-13929
اطگی	-13930
انان	-13931
خنان	-13932
دانه	-13933
دمند	-13934
ذارم	-13935
رگان	-13936
زارت	-13937
زارم	-13938
زنان	-13939
ستار	-13940
سترد	-13941
طیان	-13942
نانت	-13943
گانگ	-13944
یدمد	-13945
یماج	-13946
▁احب	-13947
▁بجب	-13948
▁بجی	-13949
▁رخص	-13950
▁رسو	-13951
▁زلز	-13952
▁ساع	-13953
▁شهن	-13954
▁عقی	-13955
▁فاج	-13956
▁واج	-13957
▁واف	-13958
▁پاگ	-13959
▁کون	-13960
اجشان	-13961
ادگان	-13962
ارگان	-13963
استند	-13964
افراز	-13965
اقانی	-13966
الانع	-13967
الشان	-13968
العجب	-13969
المند	-13970
الهای	-13971
الهوس	-13972
الیدم	-13973
الیده	-13974
امانت	-13975
اماند	-13976
امروز	-13977
امعان	-13978
امنده	-13979
امیاب	-13980
امیده	-13981
انایی	-13982
انداز	-13983
اندان	-13984
اندند	-13985
اندیم	-13986
انستم	-13987
انسته	-13988
انشور	-13989
اهبان	-13990
اهیان	-13991
اپلوس	-13992
اکامی	-13993
اکرده	-13994
اکشان	-13995
ایبان	-13996
ایران	-13997
ایشان	-13998
ایمان	-13999
جش	-14000
دث	-14001
ظل	-14002
قگ	-14003
نط	-14004
۲۵	-14005
۷۸	-14006
اصد	-14007
اغر	-14008
ثیه	-14009
حیه	-14010
شبم	-14011
شور	-14012
شوق	-14013
صری	-14014
صنم	-14015
فوت	-14016
▁	-14017
ا	-14018
ر	-14019
ی	-14020
ن	-14021
د	-14022
م	-14023
و	-14024
ه	-14025
ب	-14026
ت	-14027
ش	-14028
س	-14029
ز	-14030
ک	-14031
ل	-14032
گ	-14033
خ	-14034
ف	-14035
آ	-14036
ع	-14037
چ	-14038
ج	-14039
ح	-14040
ق	-14041
پ	-14042
غ	-14043
ص	-14044
ط	-14045
ذ	-14046
ض	-14047
.	-14048
؟	-14049
ٔ	-14050
»	-14051
«	-14052
۱	-14053
ظ	-14054
ژ	-14055
/	-14056
،	-14057
ث	-14058
!	-14059
۲	-14060
-	-14061
۳	-14062
۵	-14063
۴	-14064
۷	-14065
۶	-14066
۸	-14067
۹	-14068
۰	-14069
أ	-14070
؛	-14071
ؤ	-14072
(	-14073
)	-14074
:	-14075
ء	-14076
ئ	-14077
ـ	-14078
ٰ	-14079
ة	-14080
ِ	-14081
َ	-14082
ْ	-14083
